{"<|endoftext|>":0,"!":1,"\"":2,"#":3,"$":4,"%":5,"&":6,"'":7,"(":8,")":9,"*":10,"+":11,",":12,"-":13,".":14,"/":15,"0":16,"1":17,"2":18,"3":19,"4":20,"5":21,"6":22,"7":23,"8":24,"9":25,":":26,";":27,"<":28,"=":29,">":30,"?":31,"@":32,"A":33,"B":34,"C":35,"D":36,"E":37,"F":38,"G":39,"H":40,"I":41,"J":42,"K":43,"L":44,"M":45,"N":46,"O":47,"P":48,"Q":49,"R":50,"S":51,"T":52,"U":53,"V":54,"W":55,"X":56,"Y":57,"Z":58,"[":59,"\\":60,"]":61,"^":62,"_":63,"`":64,"a":65,"b":66,"c":67,"d":68,"e":69,"f":70,"g":71,"h":72,"i":73,"j":74,"k":75,"l":76,"m":77,"n":78,"o":79,"p":80,"q":81,"r":82,"s":83,"t":84,"u":85,"v":86,"w":87,"x":88,"y":89,"z":90,"{":91,"|":92,"}":93,"~":94,"¡":95,"¢":96,"£":97,"¤":98,"¥":99,"¦":100,"§":101,"¨":102,"©":103,"ª":104,"«":105,"¬":106,"®":107,"¯":108,"°":109,"±":110,"²":111,"³":112,"´":113,"µ":114,"¶":115,"·":116,"¸":117,"¹":118,"º":119,"»":120,"¼":121,"½":122,"¾":123,"¿":124,"À":125,"Á":126,"Â":127,"Ã":128,"Ä":129,"Å":130,"Æ":131,"Ç":132,"È":133,"É":134,"Ê":135,"Ë":136,"Ì":137,"Í":138,"Î":139,"Ï":140,"Ð":141,"Ñ":142,"Ò":143,"Ó":144,"Ô":145,"Õ":146,"Ö":147,"×":148,"Ø":149,"Ù":150,"Ú":151,"Û":152,"Ü":153,"Ý":154,"Þ":155,"ß":156,"à":157,"á":158,"â":159,"ã":160,"ä":161,"å":162,"æ":163,"ç":164,"è":165,"é":166,"ê":167,"ë":168,"ì":169,"í":170,"î":171,"ï":172,"ð":173,"ñ":174,"ò":175,"ó":176,"ô":177,"õ":178,"ö":179,"÷":180,"ø":181,"ù":182,"ú":183,"û":184,"ü":185,"ý":186,"þ":187,"ÿ":188,"Ā":189,"ā":190,"Ă":191,"ă":192,"Ą":193,"ą":194,"Ć":195,"ć":196,"Ĉ":197,"ĉ":198,"Ċ":199,"ċ":200,"Č":201,"č":202,"Ď":203,"ď":204,"Đ":205,"đ":206,"Ē":207,"ē":208,"Ĕ":209,"ĕ":210,"Ė":211,"ė":212,"Ę":213,"ę":214,"Ě":215,"ě":216,"Ĝ":217,"ĝ":218,"Ğ":219,"ğ":220,"Ġ":221,"ġ":222,"Ģ":223,"ģ":224,"Ĥ":225,"ĥ":226,"Ħ":227,"ħ":228,"Ĩ":229,"ĩ":230,"Ī":231,"ī":232,"Ĭ":233,"ĭ":234,"Į":235,"į":236,"İ":237,"ı":238,"Ĳ":239,"ĳ":240,"Ĵ":241,"ĵ":242,"Ķ":243,"ķ":244,"ĸ":245,"Ĺ":246,"ĺ":247,"Ļ":248,"ļ":249,"Ľ":250,"ľ":251,"Ŀ":252,"ŀ":253,"Ł":254,"ł":255,"Ń":256,"Ġd":257,"Ġl":258,"qu":259,"es":260,"en":261,"Ã©":262,"ai":263,"Ġp":264,"ou":265,"Ġs":266,"on":267,"Ġc":268,"re":269,"an":270,"Ġde":271,"rs":272,"Ġm":273,"Ġa":274,"ĠĊ":275,"er":276,"Ġqu":277,"et":278,"ent":279,"rsqu":280,"âĢ":281,"le":282,"oi":283,"ne":284,"Ġt":285,"Ġv":286,"ait":287,"ar":288,"eu":289,"Ġf":290,"rsquo":291,"it":292,"il":293,"as":294,"Ġla":295,"âĢĻ":296,"Ãł":297,"Ġet":298,"is":299,"Ġle":300,"el":301,"in":302,"te":303,"ĠÃł":304,"Ġj":305,"Ġn":306,"ous":307,"om":308,"ais":309,"Ġr":310,"Ġu":311,"ant":312,"Ġb":313,"or":314,"our":315,"Ã¨":316,"Ġen":317,"us":318,"me":319,"Ġque":320,"ur":321,"Ġles":322,"Ã©t":323,"au":324,"Ġav":325,"ans":326,"at":327,"ch":328,"ment":329,"est":330,"Ġpr":331,"ce":332,"Ġun":333,"Ãª":334,"tre":335,"Ġpar":336,"Ġpas":337,"Ġg":338,"ion":339,"Ġch":340,"al":341,"Ġau":342,"Ġre":343,"Ġqui":344,"ui":345,"elle":346,"Ġse":347,"Ġil":348,"ri":349,"se":350,"Ġdes":351,"Ġne":352,"ĠM":353,"Ġ!":354,"Ġje":355,"Ġcom":356,"Ġ;":357,"ien":358,"das":359,"dash":360,"ie":361,"ont":362,"Ġpl":363,"Ġdans":364,"end":365,"Ġpour":366,"Ġvous":367,"av":368,"Ġh":369,"ag":370,"Ġdu":371,"eur":372,"ir":373,"Ġtr":374,"Ġune":375,"ĠÃ©t":376,"out":377,"de":378,"ndash":379,"ouv":380,"Ġlrsquo":381,"Ã©s":382,"ĠC":383,"Ã©e":384,"ons":385,"res":386,"Ġce":387,"os":388,"Ġson":389,"mp":390,"ain":391,"ĠL":392,"and":393,"ab":394,"Ã¨re":395,"Ġ?":396,"pr":397,"Ġsur":398,"aient":399,"ol":400,"ec":401,"Ġlui":402,"am":403,"ĠJ":404,"ois":405,"que":406,"eux":407,"Ġplus":408,"Ã©c":409,"ě[":410,"ort":411,"les":412,"Ã©p":413,"Ġsa":414,"onn":415,"ap":416,"Ġin":417,"oir":418,"ff":419,"oin":420,"ĠP":421,"Ġsi":422,"uis":423,"ut":424,"Ġe":425,"ĠE":426,"Ġtout":427,"Ġme":428,"Ġdit":429,"Il":430,"ĠS":431,"ette":432,"ez":433,"Ġavec":434,"li":435,"Ġo":436,"ĠA":437,"ac":438,"Ġ:":439,"Ã©r":440,"si":441,"ĠÂ":442,"Ġdrsquo":443,"Ġmais":444,"aire":445,"ard":446,"Ġest":447,"âĢ¦":448,"Ġnous":449,"Ġmon":450,"oil":451,"Ã¨s":452,"ers":453,"Ġavait":454,"ier":455,"Ġgr":456,"Ġě[":457,"ille":458,"ĠD":459,"Ġcomme":460,"Ġbien":461,"ond":462,"Ġelle":463,"Ġses":464,"âĢĵ":465,"ĠÃ©tait":466,"un":467,"ot":468,"ic":469,"ig":470,"ĠIl":471,"oy":472,"ue":473,"Ġma":474,"Ã¢":475,"Ã§":476,"ĠJe":477,"ĠdÃ©":478,"ation":479,"Ġnrsquo":480,"ux":481,"mes":482,"iv":483,"rsquoil":484,"ge":485,"ĠV":486,"Ġy":487,"lle":488,"Ġcette":489,"Ġsrsquo":490,"rsquou":491,"ure":492,"ire":493,"age":494,"Ġcon":495,"ĠB":496,"Ã´":497,"che":498,"Ãªme":499,"Ġcr":500,"Ġent":501,"Ã®":502,"ill":503,"ieu":504,"Ġpeu":505,"em":506,"ĠT":507,"Ġpro":508,"oup":509,"ĠÃ©":510,"Ġser":511,"ĠÂ»":512,"ĠN":513,"able":514,"tes":515,"ens":516,"uit":517,"omme":518,"ine":519,"Ãªtre":520,"Ġou":521,"aut":522,"Ġdis":523,"Ġfr":524,"itÃ©":525,"Ġqursquoil":526,"otre":527,"Ã»":528,"id":529,"Ġar":530,"oit":531,"ours":532,"Ġquel":533,"Ġfait":534,"mb":535,"Ã¹":536,"Ġbr":537,"ll":538,"onne":539,"oute":540,"eau":541,"Ġex":542,"ĠrÃ©p":543,"ĠO":544,"Ġsans":545,"Ġdev":546,"ess":547,"pp":548,"Ġte":549,"Ã©tait":550,"ance":551,"ord":552,"Ġdem":553,"ore":554,"ang":555,"Ġdrsquou":556,"Ġdeux":557,"tÃ©":558,"Ġqursquo":559,"eurs":560,"ter":561,"ad":562,"tr":563,"ĠR":564,"ĠoÃ¹":565,"une":566,"endre":567,"Ġcel":568,"Ġmoi":569,"ci":570,"Ġces":571,"aiss":572,"ence":573,"Ã©es":574,"iss":575,"âĢĶ":576,"ions":577,"anc":578,"onc":579,"ert":580,"Ġmar":581,"Ġmain":582,"Ġsu":583,"Ġfaire":584,"rsquoest":585,"ĠmÃªme":586,"iÃ¨re":587,"ul":588,"Ġleur":589,"ass":590,"ĠQ":591,"ĠG":592,"Åĵ":593,"Ã©n":594,"app":595,"Ġaux":596,"ante":597,"ĠF":598,"mps":599,"ay":600,"omb":601,"ques":602,"ĠrÃ©":603,"Ġon":604,"oul":605,"orte":606,"Ġam":607,"etit":608,"Ġas":609,"cc":610,"im":611,"Ġpart":612,"Ġcar":613,"ble":614,"Ġreg":615,"rent":616,"prÃ¨s":617,"ve":618,"Ġenc":619,"Ġtu":620,"Ġai":621,"op":622,"Ãªte":623,"Â«":624,"ors":625,"Ġpetit":626,"eure":627,"ieux":628,"ĠMais":629,"Ġjrsquo":630,"Ġmal":631,"Ġencore":632,"um":633,"Ġpass":634,"ra":635,"Ġtrouv":636,"Ġcomp":637,"gn":638,"tres":639,"Ġven":640,"Ġtous":641,"ĠÂ«":642,"Ġaus":643,"Ġfem":644,"vous":645,"ement":646,"Ġseu":647,"endant":648,"ct":649,"ĠLe":650,"Ġat":651,"Ġjeu":652,"cher":653,"Ã»t":654,"Ġgrand":655,"Ġpuis":656,"esp":657,"Ġall":658,"Ã´t":659,"ose":660,"Ġcont":661,"ieur":662,"ĠEt":663,"Ġvie":664,"tant":665,"aux":666,"ique":667,"Ã¨rent":668,"auv":669,"Ġcomm":670,"oint":671,"onsieur":672,"ale":673,"Ġmes":674,"Ġhomme":675,"Ġjus":676,"agn":677,"aine":678,"rÃ©":679,"Ġregard":680,"Ġdonn":681,"ĠH":682,"Ġvotre":683,"Ġmrsquo":684,"Ġper":685,"Ġcons":686,"ils":687,"omp":688,"ĠÃ©tÃ©":689,"ĠrÃ©pond":690,"Ġsont":691,"ĠÃ©c":692,"avait":693,"Ġdire":694,"ob":695,"elles":696,"Ġdont":697,"oins":698,"Ġche":699,"ĠÃ":700,"Ġca":701,"Ġils":702,"if":703,"ong":704,"Ġsuis":705,"Ġenf":706,"imp":707,"Ġaussi":708,"Ġdi":709,"erre":710,"ĠLa":711,"Ġrien":712,"Ġfut":713,"Ġpouv":714,"Ġtemps":715,"Ġfor":716,"Ġtou":717,"ande":718,"aÃ®":719,"ourn":720,"art":721,"ĠQu":722,"ace":723,"Ġcela":724,"Ġapp":725,"Ã©d":726,"ise":727,"Ġatt":728,"Ġdrsquoun":729,"ler":730,"iÃ¨":731,"riv":732,"Ġjam":733,"Ġdonc":734,"Ġcour":735,"ame":736,"ĠVous":737,"ĠdÃ©s":738,"Ã©g":739,"Ã©ri":740,"Ġvoi":741,"Ã©l":742,"Ġcoup":743,"ist":744,"Ġdemand":745,"Ġpre":746,"urs":747,"Ġyeux":748,"oire":749,"ants":750,"Ġfemme":751,"Ġquand":752,"Ġentre":753,"ex":754,"iers":755,"ĠlÃł":756,"..":757,"prit":758,"int":759,"Ġpeut":760,"oule":761,"bre":762,"Ãªt":763,"Ġpoint":764,"ommes":765,"Ġfit":766,"Ġret":767,"Ġtoute":768,"ĠCh":769,"Ġfois":770,"lors":771,"ĠÃªtre":772,"enant":773,"Ġpers":774,"Ġquelque":775,"Ġins":776,"ĠdÃ©c":777,"Ġeu":778,"Åĵur":779,"Ġsous":780,"rait":781,"Ġjamais":782,"Le":783,"Ġleurs":784,"Ġmonsieur":785,"Ġprem":786,"rai":787,"Ġjeune":788,"jours":789,"ient":790,"use":791,"sez":792,"Ġcrsquoest":793,"Ġlong":794,"Ġfer":795,"Ġimp":796,"Ġvoy":797,"Ġchev":798,"ins":799,"mbl":800,"ĠaprÃ¨s":801,"Ġvers":802,"Ġfais":803,"Ġconn":804,"oment":805,"Ġrec":806,"ĠtÃªte":807,"Ġman":808,"Ġpos":809,"ĠElle":810,"lement":811,"Ġbon":812,"ces":813,"Ġvis":814,"are":815,"enir":816,"itu":817,"Ġtoujours":818,"Ġdrsquoune":819,"Ġrem":820,"Ġmoment":821,"Ġsec":822,"ing":823,"Ã©m":824,"Ġport":825,"Ġder":826,"Ġvoir":827,"Ġjour":828,"Ġporte":829,"ign":830,"ettre":831,"Ġrev":832,"ici":833,"ĠÃ©p":834,"att":835,"Ġbeau":836,"ress":837,"Ġpens":838,"Ġndash":839,"ole":840,"Ġsou":841,"Ã§a":842,"ite":843,"Ġcher":844,"Ġob":845,"all":846,"Ġchez":847,"ĠU":848,"ĠEn":849,"oc":850,"Ġavoir":851,"Ġlaiss":852,"iens":853,"uiv":854,"ect":855,"Ġvoul":856,"Ġsav":857,"Ġsent":858,"Ġni":859,"ments":860,"ĠtrÃ¨s":861,"autre":862,"Ġtrois":863,"Ġnouv":864,"pos":865,"Ġren":866,"ches":867,"up":868,"ĠprÃ©s":869,"og":870,"ĠÃ©taient":871,"Ġab":872,"Ġtoutes":873,"dre":874,"Ġap":875,"Ġmont":876,"Ġsort":877,"Ġjusqu":878,"Ġmoins":879,"Ġacc":880,"Ġchose":881,"od":882,"ĠrÃ©pondit":883,"Ġfort":884,"ĠLes":885,"aur":886,"mÃªme":887,"igne":888,"Ġtrav":889,"iez":890,"arr":891,"ĠdÃ©p":892,"Ġautre":893,"nes":894,"Ãªtes":895,"Ġnon":896,"Ġarriv":897,"asse":898,"ice":899,"ente":900,"je":901,"Ġan":902,"Ġmot":903,"Ġquelques":904,"Ġsais":905,"Ġeff":906,"Ġnotre":907,"air":908,"puis":909,"Ġaff":910,"Ġaur":911,"Ġcri":912,"Ġrest":913,"Ġmort":914,"Ġnom":915,"arg":916,"Ġqursquoelle":917,"Ġvoix":918,"Ġserv":919,"Ġlrsqu":920,"ĠCe":921,"Ġdr":922,"Ã¢t":923,"Ġdevant":924,"aille":925,"ide":926,"ĠPar":927,"ĠDieu":928,"aint":929,"Ġmonde":930,"Ġfaut":931,"ĠcÅĵur":932,"tement":933,"ĠdÃ©j":934,"ĠpÃ¨re":935,"lÃ©":936,"Ġcet":937,"Ġroi":938,"Ġdou":939,"emp":940,"ations":941,"Ġcontre":942,"illes":943,"Ġfille":944,"ents":945,"Ġad":946,"ainsi":947,"enait":948,"Ġcor":949,"Ġtrop":950,"Ġviv":951,"Ġmaison":952,"ib":953,"Ġfin":954,"la":955,"Ġpu":956,"Ġpe":957,"ret":958,"ouver":959,"rit":960,"Ġainsi":961,"endu":962,"uite":963,"Ġcol":964,"Ġavant":965,"erv":966,"Ġsour":967,"Ġconv":968,"ĠI":969,"Ã©cri":970,"aud":971,"ĠrÃ©s":972,"ies":973,"Ġlrsquoh":974,"Ġass":975,"Ġpay":976,"este":977,"Ġcelui":978,"Ã©v":979,"Ġcond":980,"Ġenv":981,"orsqu":982,"Ġalors":983,"Ġcap":984,"quel":985,"Ġter":986,"Ġmat":987,"ĠcÃ´":988,"Ġpris":989,"ets":990,"ange":991,"Ġgar":992,"Ġtant":993,"Ġconf":994,"ĠOui":995,"Ġsuiv":996,"Et":997,"mer":998,"Ġheure":999,"ature":1000,"Ġsol":1001,"ied":1002,"ĠgÃ©n":1003,"Ġple":1004,"ages":1005,"aill":1006,"ĠÃĢ":1007,"ade":1008,"bli":1009,"tu":1010,"Ġsal":1011,"Ġprof":1012,"uss":1013,"ile":1014,"rsquoun":1015,"st":1016,"iÃ©":1017,"ition":1018,"Ġbl":1019,"ĠmaÃ®":1020,"irent":1021,"Ġhommes":1022,"Ġes":1023,"fin":1024,"Ġexp":1025,"Ġont":1026,"Ġmis":1027,"ĠdÃ©jÃł":1028,"ĠOn":1029,"aires":1030,"act":1031,"Ġjrsquoai":1032,"inu":1033,"Ġavaient":1034,"Ġprin":1035,"Ġtomb":1036,"ombre":1037,"Ġgu":1038,"Ġavez":1039,"ambre":1040,"Ġnuit":1041,"Ġdepuis":1042,"Ġbou":1043,"Ġautres":1044,"Ġdern":1045,"Ġseul":1046,"ĠCrsquoest":1047,"rez":1048,"och":1049,"Ġpersonne":1050,"avais":1051,"Ġcl":1052,"oilÃł":1053,"Ġpauv":1054,"ĠSi":1055,"Ġcompr":1056,"ues":1057,"Ġhab":1058,"lÃł":1059,"ĠprÃ¨s":1060,"Ġgrande":1061,"Ġ1":1062,"ĠdÃ©t":1063,"euse":1064,"ov":1065,"Ġemp":1066,"oign":1067,"ail":1068,"lig":1069,"Ġton":1070,"Ġind":1071,"Ġterre":1072,"Ġpied":1073,"Ġsembl":1074,"ĠmÃ¨re":1075,"moi":1076,"La":1077,"riÃ¨re":1078,"Ġquoi":1079,"Ġsouv":1080,"Ġassez":1081,"Ġcha":1082,"Ġmad":1083,"Ġpetite":1084,"Ġfl":1085,"Ġici":1086,"eures":1087,"ĠcÃ´tÃ©":1088,"ouss":1089,"quoi":1090,"Ġmadame":1091,"lev":1092,"Ġpendant":1093,"iste":1094,"ĠAh":1095,"coup":1096,"chÃ©":1097,"ĠdÃ©f":1098,"Ġchambre":1099,"ĠFr":1100,"Ġnrsquoest":1101,"Ã©cria":1102,"Ġjet":1103,"par":1104,"orm":1105,"ĠâĢĵ":1106,"Ġvrai":1107,"Ġim":1108,"anger":1109,"Ġsoir":1110,"omm":1111,"Ġdemanda":1112,"Ã¯":1113,"Ġgens":1114,"sible":1115,"Ġjours":1116,"quer":1117,"Ġnos":1118,"heure":1119,"ner":1120,"rsquoÃ©tait":1121,"rer":1122,"Ã§on":1123,"Ġqursquoon":1124,"pt":1125,"Ġpouvait":1126,"cl":1127,"Ġmieux":1128,"Ġvu":1129,"...":1130,"Ġcou":1131,"Ġbras":1132,"ĠNous":1133,"Ġceux":1134,"Ġrapp":1135,"Ġvol":1136,"ĠprÃ©c":1137,"Ġlev":1138,"Ġmains":1139,"ud":1140,"Ġlieu":1141,"ĠEh":1142,"ug":1143,"Ġrepr":1144,"aÃ®tre":1145,"ĠJrsquo":1146,"Ġmil":1147,"Ġchar":1148,"ables":1149,"Ġcheval":1150,"Ġcert":1151,"Ġrais":1152,"ĠÃªtes":1153,"Ġsoit":1154,"Ġdonner":1155,"mble":1156,"Ġjou":1157,"Ġ!âĢ¦":1158,"Ġlorsqu":1159,"Ġ(":1160,"ures":1161,"Ġheures":1162,"Ġint":1163,"ĠMa":1164,"ĠW":1165,"Ã¨res":1166,"Ġliv":1167,"tenant":1168,"Ġbar":1169,"Ġmari":1170,"ĠMar":1171,"ourd":1172,"Ġesp":1173,"oie":1174,"Ġauc":1175,"ĠgÃ©nÃ©r":1176,"Ġserait":1177,"esse":1178,"ĠOh":1179,"Ġpauvre":1180,"Ġfeu":1181,"Ġbeaucoup":1182,"oses":1183,"Ġami":1184,"ĠPour":1185,"Ġag":1186,"Ġaut":1187,"ia":1188,"ĠNon":1189,"Ġreconn":1190,"Ġprom":1191,"ĠUn":1192,"Ġfils":1193,"ĠeÃ»t":1194,"Ġpeine":1195,"dr":1196,"Ġappr":1197,"Ġprendre":1198,"Ġpays":1199,"ix":1200,"avoir":1201,"Ġchem":1202,"Ġparler":1203,"Ġcelle":1204,"Ġcrois":1205,"Je":1206,"Ġbonne":1207,"Ġprop":1208,"acc":1209,"jet":1210,"aise":1211,"Ġinc":1212,"Ġans":1213,"Ġplace":1214,"appr":1215,"Ġvos":1216,"eut":1217,"Ġouv":1218,"onde":1219,"ath":1220,"Ġmin":1221,"Ġtour":1222,"anÃ§":1223,"ĠTu":1224,"enu":1225,"ense":1226,"agne":1227,"Ġdoute":1228,"Ġreprit":1229,"ĠprÃ©sent":1230,"temps":1231,"ats":1232,"Ã©ch":1233,"Ġbout":1234,"Ġfaisait":1235,"Ġrou":1236,"ĠMon":1237,"pendant":1238,"Ġcontinu":1239,"Ġgl":1240,"Ġfam":1241,"Ġvieux":1242,"gne":1243,"Les":1244,"Ġtoi":1245,"atre":1246,"Ġpremier":1247,"esque":1248,"Ġva":1249,"Ġord":1250,"Ġmille":1251,"Ġmur":1252,"Ġquit":1253,"Ãī":1254,"Ġrend":1255,"iques":1256,"ĠÃī":1257,"Ġoff":1258,"itude":1259,"Ġnature":1260,"homme":1261,"ĠDe":1262,"Ġeux":1263,"Ã©tais":1264,"Ġvois":1265,"fait":1266,"lic":1267,"Ar":1268,"ances":1269,"uy":1270,"urent":1271,"Ġsc":1272,"qui":1273,"Ġjusqursquo":1274,"era":1275,"ienne":1276,"Ġsupp":1277,"ĠÃ¢":1278,"Ġph":1279,"iment":1280,"fois":1281,"Ġmaintenant":1282,"con":1283,"Ġmatin":1284,"Ġsera":1285,"Ġsil":1286,"Ġseulement":1287,"iÃ¨res":1288,"Ġtravers":1289,"Ġplais":1290,"Ġri":1291,"Ġdiff":1292,"ell":1293,"gr":1294,"ph":1295,"uv":1296,"Ġcin":1297,"antes":1298,"Ġmer":1299,"Ġfond":1300,"iel":1301,"Ġperd":1302,"Ġcommen":1303,"cha":1304,"ĠÃ§a":1305,"heur":1306,"ieuse":1307,"En":1308,"Ġsouff":1309,"ses":1310,"Ġchoses":1311,"ĠmaÃ®tre":1312,"mi":1313,"cev":1314,"ention":1315,"Ġsang":1316,"ĠAn":1317,"min":1318,"Ġeut":1319,"enf":1320,"ps":1321,"Ã¨ne":1322,"ĠÃ©v":1323,"ĠvÃ©r":1324,"ĠpremiÃ¨re":1325,"uc":1326,"Ġhaut":1327,"Ġvit":1328,"ction":1329,"Ġref":1330,"Ġinter":1331,"Ġsoup":1332,"ccup":1333,"dess":1334,"Ġveux":1335,"Ġtable":1336,"Ġtourn":1337,"Ġco":1338,"Ġnouveau":1339,"ĠÃ©tr":1340,"Ġor":1341,"ains":1342,"Ġvenait":1343,"isse":1344,"Ġvisage":1345,"Ġdesc":1346,"Ġcal":1347,"avez":1348,"Ġcapit":1349,"Ġpresque":1350,"Ġcontr":1351,"ĠIls":1352,"Ġlaqu":1353,"ĠvoilÃł":1354,"Ġloin":1355,"oles":1356,"Ġrep":1357,"Ġaurait":1358,"enez":1359,"mÃ©":1360,"oid":1361,"igneur":1362,"ira":1363,"Ġinstant":1364,"Ġbas":1365,"Ġlit":1366,"Ġquatre":1367,"erie":1368,"Ġchemin":1369,"Ġbes":1370,"ze":1371,"Ġmilieu":1372,"ĠQue":1373,"Ġvoit":1374,"anche":1375,"Ġann":1376,"Ġgros":1377,"Ġpat":1378,"ends":1379,"Ġcomb":1380,"ĠÃ©cl":1381,"Ġreste":1382,"Ġenfant":1383,"ĠParis":1384,"Ġcent":1385,"Ġcomment":1386,"Ġlar":1387,"Ġbelle":1388,"cteur":1389,"ah":1390,"rir":1391,"ĠÃ©g":1392,"Ġparce":1393,"Ã©ment":1394,"ĠlÃ©g":1395,"Ġgard":1396,"endait":1397,"uli":1398,"aff":1399,"ĠsÃ»":1400,"ave":1401,"Ġsp":1402,"Ġid":1403,"Ġresp":1404,"Ġenfin":1405,"ett":1406,"ingt":1407,"Ġtrouver":1408,"Ġfemmes":1409,"Ġville":1410,"Ġlaquelle":1411,"Ġelles":1412,"quet":1413,"Ġver":1414,"Elle":1415,"Ġfig":1416,"ĠrÃ©c":1417,"Ġmit":1418,"ĠfÃ»t":1419,"Ġcorps":1420,"iter":1421,"des":1422,"ann":1423,"ardin":1424,"Mais":1425,"Ġqursquoils":1426,"Ġnrsquoy":1427,"Ġsrsquoil":1428,"issait":1429,"ĠPr":1430,"ult":1431,"Ġseule":1432,"Ġchaque":1433,"Ġcroy":1434,"ĠAu":1435,"Ġconnaiss":1436,"Ġvais":1437,"off":1438,"Ġinf":1439,"Ã¨v":1440,"chant":1441,"mÃ©e":1442,"Ġta":1443,"Ġlongtemps":1444,"Ġdix":1445,"Ġraison":1446,"irer":1447,"Ġarr":1448,"inc":1449,"endit":1450,"ĠdÃ©b":1451,"Ġperm":1452,"ict":1453,"Ġair":1454,"Ġcas":1455,"Ġlrsquoautre":1456,"Ġquest":1457,"Ġlettre":1458,"Ġdist":1459,"Ġrue":1460,"erc":1461,"Ġdisait":1462,"Ġdroit":1463,"Ġfa":1464,"aÃ®t":1465,"ive":1466,"bl":1467,"ĠmÃ©":1468,"ĠgÃ©nÃ©ral":1469,"be":1470,"teau":1471,"Ġpasser":1472,"ip":1473,"reux":1474,"oche":1475,"abord":1476,"anch":1477,"resse":1478,"exp":1479,"ines":1480,"Ġprit":1481,"jout":1482,"Ġimm":1483,"ĠNe":1484,"dessus":1485,"ĠprÃ©":1486,"tÃ©ri":1487,"ĠK":1488,"Ġforce":1489,"ĠSaint":1490,"nel":1491,"Ġautour":1492,"ĠÃ©ch":1493,"Ã©taient":1494,"Ġbruit":1495,"ancs":1496,"iller":1497,"Ġmettre":1498,"liqu":1499,"Ġjeunes":1500,"ĠMme":1501,"Ã©tÃ©":1502,"Ġparl":1503,"Ġcompagn":1504,"Ġsavoir":1505,"Ġretr":1506,"ĠUne":1507,"Ġroute":1508,"Ġpourquoi":1509,"Ġsauv":1510,"ĠfrÃ¨re":1511,"he":1512,"arde":1513,"Ġavons":1514,"ience":1515,"Ġallait":1516,"amb":1517,"ĠÃ©l":1518,"ible":1519,"Ġpol":1520,"Ġst":1521,"Ġhum":1522,"ĠMonsieur":1523,"avant":1524,"Ġfrapp":1525,"ach":1526,"Ã©par":1527,"erÃ§":1528,"Ġvue":1529,"Ġdrsqu":1530,"itÃ©s":1531,"ĠCom":1532,"Ġeffet":1533,"itÃ´t":1534,"tout":1535,"rant":1536,"Ġenfants":1537,"ellement":1538,"ĠderriÃ¨re":1539,"Qu":1540,"Ġsoi":1541,"Ġdevait":1542,"rÃ©e":1543,"andis":1544,"ule":1545,"Ġtrait":1546,"Ġac":1547,"ast":1548,"Ġpouss":1549,"rib":1550,"autres":1551,"ĠcrsquoÃ©tait":1552,"oux":1553,"Ġmois":1554,"An":1555,"Ġaller":1556,"ĠdÃ©v":1557,"ĠTout":1558,"Ġsilence":1559,"Ġfen":1560,"ĠGr":1561,"Ġbesoin":1562,"gl":1563,"ĠsrsquoÃ©cria":1564,"ela":1565,"Ġpare":1566,"oci":1567,"hui":1568,"Ġcapitaine":1569,"oiselle":1570,"Ġtard":1571,"uer":1572,"anqu":1573,"Ġbat":1574,"Ġpieds":1575,"Ġmour":1576,"Ġsimp":1577,"Ġvenir":1578,"aines":1579,"II":1580,"onneur":1581,"grÃ©":1582,"Ġcur":1583,"Ġvi":1584,"Ġrent":1585,"mC":1586,"ution":1587,"Ġamis":1588,"Ġsens":1589,"Ġmauv":1590,"iqu":1591,"ĠsrsquoÃ©tait":1592,"Ġlrsquoin":1593,"Ġnrsquoavait":1594,"Åĵil":1595,"ĠreÃ§":1596,"Ġsommes":1597,"Ġbois":1598,"Ġinv":1599,"rsquoune":1600,"alitÃ©":1601,"alement":1602,"Ġmots":1603,"ientÃ´t":1604,"Ġvingt":1605,"ailleurs":1606,"ĠrÃ©f":1607,"Ġsorte":1608,"Ġess":1609,"Ġfall":1610,"oulez":1611,"ĠnrsquoÃ©tait":1612,"Ġsign":1613,"ura":1614,"Ġfle":1615,"ma":1616,"oyen":1617,"Ġajout":1618,"Art":1619,"Ġrac":1620,"ich":1621,"Ġrendre":1622,"ras":1623,"Ġcause":1624,"Ġabs":1625,"lus":1626,"Ġparoles":1627,"erait":1628,"ÃĢ":1629,"ieurs":1630,"ĠQuand":1631,"Ġmouv":1632,"ys":1633,"Ġretourn":1634,"Ġappar":1635,"jourd":1636,"Ġcinq":1637,"irait":1638,"Ġjourn":1639,"dem":1640,"nÃ©":1641,"Ġvou":1642,"ĠAlors":1643,"Ġsac":1644,"Ġju":1645,"Ġpropos":1646,"lrsquo":1647,"ime":1648,"Ġciel":1649,"ierre":1650,"Ġsrsquoen":1651,"onnes":1652,"Â»":1653,"Ġdiv":1654,"Ġchef":1655,"argent":1656,"ĠdonnÃ©":1657,"Ġsurpr":1658,"ression":1659,"Ġbal":1660,"amour":1661,"ĠAr":1662,"aute":1663,"Ce":1664,"Ġpap":1665,"Ġlorsque":1666,"Ġdoit":1667,"erai":1668,"Ġremar":1669,"Ġobs":1670,"Ġoui":1671,"Ġgarde":1672,"Ġlib":1673,"Ġnrsquoen":1674,"Ġnombre":1675,"Ġgen":1676,"Ġay":1677,"rible":1678,"th":1679,"agnan":1680,"Ġcouv":1681,"Ġcomte":1682,"Ġlrsquoon":1683,"Ġmen":1684,"eff":1685,"Ġpartie":1686,"Ã¢ce":1687,"Ġprince":1688,"ĠBr":1689,"Ġfai":1690,"aÃ¯":1691,"Ġdom":1692,"Ġdemande":1693,"ĠpiÃ¨":1694,"Ġsemblait":1695,"Ġmouvement":1696,"Ã©tr":1697,"Ġremp":1698,"Ġmor":1699,"ern":1700,"Ġcru":1701,"uire":1702,"Ġtre":1703,"ĠjusqursquoÃł":1704,"Ġfigure":1705,"Artagnan":1706,"ĠpÃ¢":1707,"ĠpassÃ©":1708,"nous":1709,"ĠTr":1710,"Ġfamille":1711,"esprit":1712,"Ġemb":1713,"ĠComment":1714,"Ġmurm":1715,"Ã¨te":1716,"Ġentendu":1717,"Ġlum":1718,"rig":1719,"Ġquestion":1720,"Un":1721,"Ġpeup":1722,"Ġface":1723,"ablement":1724,"Ġprod":1725,"Ġaucun":1726,"aisse":1727,"ĠrÃ©g":1728,"ouleur":1729,"rais":1730,"usement":1731,"Ġgrands":1732,"iÃ¨me":1733,"org":1734,"ainte":1735,"Ġdernier":1736,"Ġsouvent":1737,"Ġsuite":1738,"acun":1739,"Ġlaisser":1740,"opp":1741,"Ġtromp":1742,"Ġnu":1743,"ĠCette":1744,"Ġvieille":1745,"ĠrÃ©v":1746,"Ġgent":1747,"Ġfus":1748,"hÃ©":1749,"ĠSa":1750,"Ġchap":1751,"ĠmaniÃ¨re":1752,"Ġplaisir":1753,"Ġdo":1754,"Ġhabit":1755,"ĠrÃª":1756,"tesse":1757,"Ġfou":1758,"Ġcependant":1759,"Ġcaus":1760,"Ġqursquoun":1761,"Ġpen":1762,"Ġplusieurs":1763,"Ġsub":1764,"na":1765,"Ġfac":1766,"Ġdisc":1767,"erne":1768,"br":1769,"veill":1770,"Ġappel":1771,"ĠDans":1772,"inaire":1773,"issant":1774,"ĠbientÃ´t":1775,"Ġlrsquoai":1776,"chait":1777,"ilitÃ©":1778,"oleil":1779,"Ġjoie":1780,"Ġnrsquoai":1781,"ume":1782,"Ġmalheure":1783,"urer":1784,"Ġduc":1785,"Ġvoulait":1786,"ĠpÃ©n":1787,"Ġdoi":1788,"Ġchercher":1789,"Ġnouvelle":1790,"env":1791,"Ġense":1792,"ĠJrsquoai":1793,"ontÃ©":1794,"Ġ?âĢ¦":1795,"emain":1796,"Ġcamp":1797,"Ġprofond":1798,"Ġquelle":1799,"Ġbord":1800,"oindre":1801,"Ġvoulez":1802,"Ġtandis":1803,"Ġtrans":1804,"esc":1805,"bles":1806,"Ġdess":1807,"Ġpouvoir":1808,"Ġmiss":1809,"Ġdouce":1810,"Ġcroire":1811,"Ġexc":1812,"Ġsold":1813,"alier":1814,"illard":1815,"Ġaucune":1816,"Ġlequel":1817,"Ġfurent":1818,"Ġcompl":1819,"arrÃªt":1820,"nent":1821,"Ġbonheur":1822,"Ġpeur":1823,"istoire":1824,"ĠJean":1825,"ĠmÃª":1826,"ĠdÃ©m":1827,"Ġsourire":1828,"Ġfat":1829,"ĠvÃ©ritÃ©":1830,"Ġdonne":1831,"Ġparole":1832,"Ġcan":1833,"ident":1834,"Ġmrsquoa":1835,"ĠFrance":1836,"ettes":1837,"sitÃ´t":1838,"Ġdemi":1839,"Ġve":1840,"ĠaussitÃ´t":1841,"Ġparle":1842,"ĠPuis":1843,"Ġsoleil":1844,"ĠÃ©m":1845,"Ġdame":1846,"oyez":1847,"Ġpossible":1848,"cont":1849,"Ġfront":1850,"ĠChar":1851,"ate":1852,"Ġrap":1853,"enue":1854,"Ġtranqu":1855,"Ġvent":1856,"Ġsait":1857,"Ġdemander":1858,"ĠLrsquo":1859,"Ã©cess":1860,"ili":1861,"Ġimpos":1862,"ussi":1863,"Ġvenu":1864,"Ġextr":1865,"ĠEst":1866,"Ġprov":1867,"ateur":1868,"ĠVotre":1869,"Ġesprit":1870,"ots":1871,"mait":1872,"ĠCar":1873,"ĠQui":1874,"ĠÂ»,":1875,"vers":1876,"Ġcompte":1877,"Ġli":1878,"ĠlÃ¨v":1879,"Ġsavez":1880,"Ġdispar":1881,"Ġsurtout":1882,"ĠsÅĵur":1883,"cip":1884,"Ġveut":1885,"otte":1886,"RE":1887,"lar":1888,"Ġconsid":1889,"Ġautant":1890,"hab":1891,"Ã«":1892,"Ġmarqu":1893,"Ġpo":1894,"Ġproc":1895,"Ġrire":1896,"Ġplut":1897,"ane":1898,"Ġtrou":1899,"ĠJac":1900,"Ġtrouve":1901,"vent":1902,"iner":1903,"Ã§ait":1904,"ales":1905,"ss":1906,"ĠprÃ©v":1907,"adame":1908,"Ġreine":1909,"Ġayant":1910,"oyer":1911,"cin":1912,"Ġtrsquo":1913,"ust":1914,"oite":1915,"Ġpuiss":1916,"Ġsix":1917,"Ġvient":1918,"Ã©rÃªt":1919,"aissait":1920,"ott":1921,"enc":1922,"Ġaujourd":1923,"ude":1924,"cept":1925,"Ġfix":1926,"aul":1927,"Ġcir":1928,"els":1929,"etÃ©":1930,"ouis":1931,"endemain":1932,"ĠdÃ¨s":1933,"oupe":1934,"ĠnÃ©cess":1935,"Ã¨ve":1936,"Ġcontinua":1937,"itiÃ©":1938,"ĠqursquoÃł":1939,"cons":1940,"ĠfenÃªtre":1941,"Ġsup":1942,"Ġnrsquoa":1943,"iff":1944,"ĠplutÃ´t":1945,"Ġoubli":1946,"ĠfaÃ§on":1947,"az":1948,"Ġcab":1949,"ĠcrÃ©":1950,"atis":1951,"Ã©qu":1952,"itions":1953,"iend":1954,"contre":1955,"oque":1956,"Ġplac":1957,"ĠgrÃ¢ce":1958,"abl":1959,"Ġvert":1960,"Ġtrouvait":1961,"rie":1962,"Ġassis":1963,"ĠderniÃ¨re":1964,"Ġtenait":1965,"Ġoccup":1966,"Ġir":1967,"onnÃ©":1968,"Ġconse":1969,"mment":1970,"onner":1971,"ĠtÃ©m":1972,"Ġchacun":1973,"Ġjol":1974,"Ġval":1975,"Ġsomme":1976,"Ġafin":1977,"Ġsucc":1978,"ĠpensÃ©e":1979,"ĠSon":1980,"ĠsÃ»r":1981,"action":1982,"iles":1983,"bres":1984,"Ġconc":1985,"llez":1986,"cevoir":1987,"less":1988,"Ġrapport":1989,"ĠgarÃ§on":1990,"Ġheureux":1991,"aign":1992,"ick":1993,"Ġpetits":1994,"Ġlarmes":1995,"Ãªtres":1996,"Ġcheveux":1997,"Ġpress":1998,"Ġpourtant":1999,"ĠmaÃ®tres":2000,"uf":2001,"Ġsuff":2002,"Ġcours":2003,"ĠdrsquoÃªtre":2004,"Ġdocteur":2005,"asser":2006,"aurais":2007,"oimp":2008,"Ġsavait":2009,"Ġconnais":2010,"Ġfav":2011,"ĠrÃ©sol":2012,"Ġmod":2013,"iant":2014,"oqu":2015,"Ġvoyant":2016,"Ġvint":2017,"Ġvoulu":2018,"Ġlendemain":2019,"Ġsecret":2020,"Ġmontre":2021,"erm":2022,"ĠAv":2023,"lex":2024,"ager":2025,"Ġentendre":2026,"ades":2027,"Ġbouche":2028,"oirs":2029,"gent":2030,"ĠPourquoi":2031,"chev":2032,"ĠmalgrÃ©":2033,"Ġno":2034,"aprÃ¨s":2035,"Ġjuge":2036,"Ġbour":2037,"Ġajouta":2038,"Ġinterr":2039,"Ġaccomp":2040,"Ġviol":2041,"Ġadm":2042,"Ġparfait":2043,"ĠchÃ¨re":2044,"issement":2045,"ites":2046,"Ġred":2047,"liqua":2048,"Ġfrancs":2049,"rsquoin":2050,"avaient":2051,"ĠdÃ©couv":2052,"ĠlumiÃ¨re":2053,"Ġcommand":2054,"ĠQuel":2055,"Ġbless":2056,"ordre":2057,"ĠlÃ¨vres":2058,"Ġpubli":2059,"Ġlang":2060,"oÃ»t":2061,"ument":2062,"Ġram":2063,"ĠdÃ©cid":2064,"Ġanc":2065,"Ġfallait":2066,"Ġparmi":2067,"Ġregarda":2068,"oise":2069,"autÃ©":2070,"Ġgal":2071,"Ġsigne":2072,"Ġgagn":2073,"Ġtir":2074,"uve":2075,"uses":2076,"Ġdispos":2077,"Ġentra":2078,"ĠâĢĶ":2079,"ĠAll":2080,"Ġvite":2081,"Ã¨rement":2082,"approch":2083,"auche":2084,"Ġpours":2085,"Ġlrsquoair":2086,"Ġsortir":2087,"Ġleva":2088,"Ġaffaire":2089,"Ġfaites":2090,"lles":2091,"ige":2092,"enne":2093,"reur":2094,"ĠÃ¢me":2095,"llement":2096,"Ġguerre":2097,"Ġfortune":2098,"ĠComme":2099,"Ġsitu":2100,"Ġress":2101,"bÃ©":2102,"Ġpeuple":2103,"Ġvoiture":2104,"Ġmarch":2105,"Ġlongue":2106,"Ġcertaine":2107,"Ġcav":2108,"oss":2109,"Ġvin":2110,"Ġdites":2111,"mm":2112,"utes":2113,"Ġmoyen":2114,"ode":2115,"Ġfoi":2116,"Ġcommun":2117,"Ġsalle":2118,"ĠchÃ¢":2119,"ccas":2120,"Ġsemble":2121,"Ġmeille":2122,"Ġcaract":2123,"Ġposs":2124,"ĠespÃ¨":2125,"pect":2126,"Ġconvers":2127,"ĠdÃ®":2128,"ĠdÃ©sir":2129,"On":2130,"estÃ©":2131,"oici":2132,"ub":2133,"nement":2134,"Ġcharg":2135,"dans":2136,"Ġessay":2137,"Ġlrsquoun":2138,"Ġmauvais":2139,"ina":2140,"ĠVoilÃł":2141,"uits":2142,"demoiselle":2143,"irs":2144,"ĠAl":2145,"Ġvoyait":2146,"Ġsujet":2147,"Ġparti":2148,"ences":2149,"Ġmademoiselle":2150,"Ã´tel":2151,"rÃ©s":2152,"occup":2153,"Ġchant":2154,"Ġrel":2155,"onse":2156,"oge":2157,"Ġterrible":2158,"Ġriv":2159,"cep":2160,"inÃ©":2161,"Ġrencont":2162,"rier":2163,"Ġpourrait":2164,"ionn":2165,"ĠdÃ©g":2166,"Ġsy":2167,"Ġang":2168,"Ġamour":2169,"Ġvoici":2170,"enfant":2171,"Ġretour":2172,"rÃ©t":2173,"ises":2174,"asard":2175,"ĠdiffÃ©r":2176,"orter":2177,"aie":2178,"Ġ18":2179,"bes":2180,"Ġ2":2181,"Ġpartic":2182,"fr":2183,"amp":2184,"ger":2185,"Ã¢mes":2186,"Ġrespect":2187,"ĠdÃ©li":2188,"ĠSe":2189,"Ġperdu":2190,"Ġrencontre":2191,"Ġsoci":2192,"ouverte":2193,"Ġgouver":2194,"Ġjrsquoavais":2195,"Ġpard":2196,"suite":2197,"Ġjust":2198,"Ġpropre":2199,"amment":2200,"igu":2201,"ouill":2202,"entes":2203,"Ġrefus":2204,"iser":2205,"ĠthÃ©":2206,"Ġlivres":2207,"Ġfont":2208,"Ġensemble":2209,"Åĵuv":2210,"Ġpartir":2211,"Ġhasard":2212,"Ġplein":2213,"insi":2214,"ĠX":2215,"ber":2216,"Ġsatis":2217,"drsquo":2218,"eÃ»t":2219,"oh":2220,"Ġtes":2221,"ĠauprÃ¨s":2222,"Ġresse":2223,"Ġservice":2224,"Ġtranquille":2225,"Ġenne":2226,"ĠMadame":2227,"gt":2228,"Ġchevaux":2229,"ĠbÃ¢t":2230,"ĠtrouvÃ©":2231,"Ġvoyez":2232,"Ġnoir":2233,"oÃ¹":2234,"Ġrempl":2235,"Ġvas":2236,"ternel":2237,"ĠidÃ©e":2238,"Ġremarqu":2239,"Ġtrouva":2240,"Ã¨le":2241,"Ġdest":2242,"ĠrÃ©pÃ©t":2243,"rine":2244,"Ġlrsquoex":2245,"Ġobserv":2246,"elopp":2247,"elon":2248,"anÃ§ais":2249,"onte":2250,"Ġfaisant":2251,"Ġcourt":2252,"Ġjuste":2253,"Ġroug":2254,"Ġracont":2255,"Ġtri":2256,"son":2257,"Ġsout":2258,"Ġvill":2259,"ivement":2260,"Ã¢me":2261,"Ġcria":2262,"Ġlut":2263,"Ġvieillard":2264,"aller":2265,"Ġtravail":2266,"Ġcoups":2267,"Ġdoigt":2268,"ĠconsidÃ©r":2269,"iments":2270,"Ġquart":2271,"ĠdÃ©sesp":2272,"Au":2273,"arriv":2274,"Ġjardin":2275,"ĠDes":2276,"Ã¨me":2277,"Ġqursquoune":2278,"Ġmus":2279,"ĠsiÃ¨":2280,"Ã¢tre":2281,"ind":2282,"Ġatta":2283,"Ġrepos":2284,"Ġminutes":2285,"Ġart":2286,"Ġop":2287,"Ġpron":2288,"Ġpal":2289,"Ġattend":2290,"ĠsÃ©ri":2291,"ĠaperÃ§":2292,"ris":2293,"oix":2294,"ĠHen":2295,"Ã®t":2296,"dire":2297,"Ãªter":2298,"Ġbrill":2299,"itation":2300,"lier":2301,"raient":2302,"Ġrappel":2303,"ĠdÃ»":2304,"Ġble":2305,"Ġcontraire":2306,"ĠarrivÃ©":2307,"ĠAllons":2308,"Ġconst":2309,"ĠprÃªt":2310,"Ã´le":2311,"ĠÃ©cout":2312,"toi":2313,"ĠbrÃ»":2314,"ĠdÃ©r":2315,"ĠhÃ©r":2316,"Ġlrsquoavait":2317,"entre":2318,"Ġroy":2319,"Ã©rer":2320,"ĠPas":2321,"Ġdroite":2322,"ote":2323,"Ġdon":2324,"Ġdur":2325,"ĠBon":2326,"Ġsentiment":2327,"Ġtort":2328,"Ġmrsquoen":2329,"iz":2330,"Ġrouge":2331,"atri":2332,"ĠrÃ©pliqua":2333,"Ġdout":2334,"mis":2335,"Ġmet":2336,"reuse":2337,"ĠrÃ©pondre":2338,"emple":2339,"Ġsrsquoest":2340,"acle":2341,"Ġlrsquoav":2342,"Ġcoin":2343,"Eternel":2344,"oncle":2345,"Ġchange":2346,"Ġgauche":2347,"arer":2348,"Ġdrsquoh":2349,"Ġenvoy":2350,"iance":2351,"ĠEnfin":2352,"one":2353,"Ġtend":2354,"Ġdemain":2355,"Ġbe":2356,"Lrsquo":2357,"Ġprincip":2358,"Ġpuisque":2359,"Ġquelqu":2360,"sieurs":2361,"Ġparut":2362,"ĠÃ©pau":2363,"Ġput":2364,"Ġmurmura":2365,"enaient":2366,"Ġregardant":2367,"ĠÃ©crit":2368,"Ġform":2369,"Ã¨g":2370,"Ġmourir":2371,"Ġbut":2372,"Ġvoyage":2373,"ĠprÃ©sence":2374,"Ġnouvelles":2375,"Ġcommenc":2376,"illon":2377,"ccasion":2378,"ueil":2379,"Ġtelle":2380,"Ġsem":2381,"prouv":2382,"ĠAprÃ¨s":2383,"itch":2384,"Ġrester":2385,"tru":2386,"Ġchapeau":2387,"bout":2388,"Ġfroid":2389,"ession":2390,"aurait":2391,"Ġmariage":2392,"Ġmanqu":2393,"Ġcalme":2394,"anches":2395,"Ġrob":2396,"Ġtomber":2397,"Ġait":2398,"Ġregarder":2399,"ĠmÃ©t":2400,"ainc":2401,"Ġdemeur":2402,"jestÃ©":2403,"orth":2404,"Ġgrav":2405,"),":2406,"De":2407,"ĠÃ©clat":2408,"Ġpense":2409,"oncer":2410,"ĠPh":2411,"rim":2412,"Ġpouvez":2413,"Ġparticuli":2414,"ĠRe":2415,"ĠÃ©tat":2416,"Ġfol":2417,"ron":2418,"Ġoblig":2419,"ices":2420,"ĠMaur":2421,"ĠcolÃ¨re":2422,"ĠmÃ©de":2423,"Ġtenir":2424,"Ãªcher":2425,"Ġrapide":2426,"Ġmalheur":2427,"lÃ©ch":2428,"man":2429,"Ġfoule":2430,"quels":2431,"Ġperdre":2432,"ocher":2433,"ifs":2434,"Ġlibre":2435,"Ġimpossible":2436,"Ġdorm":2437,"entement":2438,"Ġimport":2439,"ĠchÃ¢teau":2440,"Ġrelev":2441,"iennent":2442,"oth":2443,"Ġhor":2444,"ĠrÃªv":2445,"Ġsecond":2446,"yp":2447,"anÃ§a":2448,"ĠIn":2449,"ardinal":2450,"der":2451,"Ġrecomm":2452,"ides":2453,"Ġverre":2454,"Ġal":2455,"Ġhuit":2456,"Ã©sent":2457,"ellig":2458,"Ġpasse":2459,"Ġlivre":2460,"ray":2461,"Ġveu":2462,"orme":2463,"Ġtent":2464,"seigneur":2465,"ĠTh":2466,"ouff":2467,"ĠpiÃ¨ce":2468,"LE":2469,"ĠÃ©lev":2470,"Ġcris":2471,"ĠrÃ©ponse":2472,"sp":2473,"const":2474,"Ġpassa":2475,"Ġmalheureux":2476,"amar":2477,"Ġtel":2478,"ĠdÃ©clar":2479,"Ġanim":2480,"ĠpÃ¢le":2481,"isme":2482,"ta":2483,"Ġtriste":2484,"lui":2485,"ĠprÃ©cip":2486,"Ġdisant":2487,"Ġrelig":2488,"Ġjeta":2489,"Ġcents":2490,"Ġseconde":2491,"Ġdiable":2492,"ĠMoi":2493,"Puis":2494,"arrÃªta":2495,"Ġgrandes":2496,"Ġpoursuiv":2497,"Ġdrsquoautres":2498,"aintenant":2499,"avantage":2500,"ĠCela":2501,"Ġsimple":2502,"ĠCes":2503,"rive":2504,"ari":2505,"Ġblanc":2506,"Ġjug":2507,"Ġvivre":2508,"Ġfaite":2509,"gÃ©":2510,"Ġquitter":2511,"Ġcomprendre":2512,"ames":2513,"Ġact":2514,"Ġregardait":2515,"pris":2516,"Ġhabitu":2517,"Ġmarche":2518,"Ġprend":2519,"rif":2520,"hors":2521,"eusement":2522,"Ġallez":2523,"Ã©rÃ©":2524,"onge":2525,"Ġalla":2526,"istes":2527,"ok":2528,"quement":2529,"Ġcourage":2530,"ton":2531,"urÃ©":2532,"Ġmoindre":2533,"Ġsoldats":2534,"erci":2535,"ĠvÃ©rit":2536,"ĠdÃ©ch":2537,"obs":2538,"Ġchevalier":2539,"ĠprÃ©t":2540,"Ġvoudr":2541,"ĠmÃ©r":2542,"Ġdos":2543,"Ġprinces":2544,"jets":2545,"Ġconversation":2546,"Ã§ons":2547,"Ġforme":2548,"veille":2549,"ourg":2550,"endue":2551,"onie":2552,"Ġentrer":2553,"Ġchass":2554,"Åĵurs":2555,"ow":2556,"ĠdrsquoA":2557,"Ġmalade":2558,"Ġdouleur":2559,"oitiÃ©":2560,"dev":2561,"idi":2562,"ĠCr":2563,"lu":2564,"Ġensuite":2565,"Ġdonna":2566,"Ġregret":2567,"Ġselon":2568,"Ġempl":2569,"rsquohui":2570,"quiÃ©t":2571,"lor":2572,"Ġcach":2573,"Ã«l":2574,"oires":2575,"ettait":2576,"Ġparv":2577,"af":2578,"ĠlaissÃ©":2579,"ĠrÃ©un":2580,"ertÃ©":2581,"ĠentiÃ¨re":2582,"ĠmaÃ®tresse":2583,"ĠespÃ¨ce":2584,"Ġhors":2585,"Ġprot":2586,"ĠMont":2587,"appel":2588,"Ġvict":2589,"ĠparlÃ©":2590,"ĠintÃ©rÃªt":2591,"Ġcertain":2592,"Ġdrsquoabord":2593,"Ġtemp":2594,"Ġore":2595,"Ch":2596,"Ġvag":2597,"Ġdois":2598,"ĠÃ©trange":2599,"Ġsonge":2600,"Ġpoin":2601,"Ġfilles":2602,"icile":2603,"Ġdrsquoavoir":2604,"ĠmoitiÃ©":2605,"Ġsaur":2606,"ination":2607,"Ġlaissa":2608,"Ġaffaires":2609,"tÃ©rieur":2610,"itre":2611,"Ġsuivre":2612,"Ġoffic":2613,"ĠlrsquoÃ©p":2614,"ĠcaractÃ¨re":2615,"bas":2616,"tin":2617,"onnement":2618,"ita":2619,"ĠsÃ»re":2620,"ĠdÃ®ner":2621,"aissez":2622,"ĠVal":2623,"istre":2624,"inte":2625,"cul":2626,"oureux":2627,"Ġpai":2628,"Ġpolit":2629,"Ils":2630,"ĠconnaÃ®tre":2631,"Ġsept":2632,"ĠsÃ©par":2633,"Ġnot":2634,"Ġsortit":2635,"Ġign":2636,"Ġmanger":2637,"Ġpoit":2638,"Ġcirconst":2639,"oÃ¯":2640,"Ġsombre":2641,"Ġprisonn":2642,"Ġtrembl":2643,"Ġpleine":2644,"ĠlrsquoÃ©t":2645,"aleur":2646,"dain":2647,"roit":2648,"ĠMal":2649,"Ġpromen":2650,"ĠÃ©chapp":2651,"ateurs":2652,"Ġbrus":2653,"Ġparaissait":2654,"irai":2655,"Ġfour":2656,"ĠprÃ©par":2657,"Ġpetites":2658,"Ġlrsquohomme":2659,"ettres":2660,"qursquo":2661,"ĠMajestÃ©":2662,"Ġabsol":2663,"uir":2664,"angÃ©":2665,"Ġcharm":2666,"Ġchois":2667,"Ġesc":2668,"Ġaband":2669,"Ġcombat":2670,"Ġsus":2671,"Ġjrsquoen":2672,"Ġcess":2673,"ince":2674,"Ġeng":2675,"ES":2676,"ailles":2677,"Ġcardinal":2678,"ars":2679,"Ġprob":2680,"ĠreÃ§u":2681,"Ã§ant":2682,"Ġdonnait":2683,"Ġportait":2684,"aph":2685,"Ġcombien":2686,"oyens":2687,"ĠjrsquoÃ©tais":2688,"Ġporter":2689,"ĠBl":2690,"Ġregarde":2691,"Ġterr":2692,"Ġviens":2693,"issent":2694,"Ġcontent":2695,"Ġpenser":2696,"Ġaura":2697,"ards":2698,"Ġsaint":2699,"ection":2700,"Ġeffort":2701,"Ġhaute":2702,"Ġallons":2703,"aume":2704,"Ġservir":2705,"qursquoil":2706,"entend":2707,"Ġvivement":2708,"Ġdebout":2709,"Ġfini":2710,"Ġfum":2711,"Ġsouvenir":2712,"ĠlibertÃ©":2713,"Ġfi":2714,"ĠprÃ©f":2715,"IT":2716,"Ġgeste":2717,"Ġcelles":2718,"ĠOÃ¹":2719,"Ġlarge":2720,"ositÃ©":2721,"Ġlu":2722,").":2723,"Ġdevoir":2724,"Ġpersonnes":2725,"Ġach":2726,"Ġsurprise":2727,"Ġsecou":2728,"Ġsalon":2729,"tÃ©ress":2730,"Ġattention":2731,"ather":2732,"Ġferme":2733,"Cette":2734,"ĠjournÃ©e":2735,"Ġcuis":2736,"pour":2737,"ordinaire":2738,"ĠCharles":2739,"antÃ©":2740,"oll":2741,"ĠdÃ©lic":2742,"ĠmÃ©d":2743,"Ġforte":2744,"Ã¢ch":2745,"bert":2746,"ouch":2747,"Ġlrsquoar":2748,"Ġriche":2749,"oulev":2750,"Tout":2751,"oph":2752,"Ġpapier":2753,"thos":2754,"gu":2755,"Ã©cut":2756,"anne":2757,"eus":2758,"ĠSans":2759,"ĠdÃ©part":2760,"Ġdehors":2761,"Ġfleurs":2762,"ĠannÃ©es":2763,"aissance":2764,"Ġroul":2765,"Ġrang":2766,"Ġsaut":2767,"Ġvisite":2768,"Ġconte":2769,"fs":2770,"illet":2771,"Ġlettres":2772,"ĠAinsi":2773,"Ġnour":2774,"riez":2775,"Ġrav":2776,"Ġcinqu":2777,"ĠreprÃ©sent":2778,"ĠHenri":2779,"droit":2780,"Ġpoitrine":2781,"atique":2782,"Ġmag":2783,"Ġsau":2784,"Ġsituation":2785,"ĠSal":2786,"Ã©rable":2787,"Une":2788,"ĠCl":2789,"aime":2790,"rons":2791,"reau":2792,"euses":2793,"Ġpou":2794,"ĠguÃ¨re":2795,"Nous":2796,"Ġforc":2797,"ĠGe":2798,"ĠLouis":2799,"Ġbaron":2800,"Ġprix":2801,"Ġnez":2802,"Ġdemeure":2803,"Ġcoll":2804,"Ġorg":2805,"ĠrÃ©flÃ©ch":2806,"Ġdomest":2807,"Ġspect":2808,"ache":2809,"olog":2810,"ovitch":2811,"Åĵuvre":2812,"Ġdavantage":2813,"Ġveille":2814,"Ġsoin":2815,"Ġenvir":2816,"arc":2817,"dit":2818,"Ġtirer":2819,"ĠCrsquoÃ©tait":2820,"ĠsrsquoÃ©l":2821,"Ġinut":2822,"Ġlrsquoheure":2823,"Ġpeux":2824,"amis":2825,"Ġprie":2826,"liquer":2827,"Ġatte":2828,"atherine":2829,"Ã©cl":2830,"ĠparaÃ®t":2831,"Ġparlait":2832,"ĠsupÃ©ri":2833,"Ġvraiment":2834,"Ġcompagnie":2835,"Ġquoique":2836,"Ġpassait":2837,"ON":2838,"jou":2839,"Ġoncle":2840,"ĠbÃ©n":2841,"esses":2842,"agr":2843,"Ġmesure":2844,"ĠÃ©paules":2845,"ĠMlle":2846,"Ġcit":2847,"Ġcamar":2848,"Ġconserv":2849,"Ġtravaill":2850,"Ġtap":2851,"ĠsÃ©":2852,"Ġcad":2853,"Ġfid":2854,"ouse":2855,"Ġconfiance":2856,"Ġmessieurs":2857,"ĠMarie":2858,"Ġlog":2859,"Ġdoucement":2860,"Ġfil":2861,"assÃ©":2862,"istence":2863,"ieusement":2864,"Ġvillage":2865,"Ġjustice":2866,"Ġretrouv":2867,"Ġpuisse":2868,"auc":2869,"aite":2870,"istr":2871,"agit":2872,"Ġarmes":2873,"ĠBar":2874,"Ġos":2875,"enn":2876,"Ġferm":2877,"Ġcommence":2878,"Ġray":2879,"lez":2880,"Ġressembl":2881,"Ġendroit":2882,"Ġment":2883,"Ġjoy":2884,"ry":2885,"Ġentend":2886,"Ġlrsquoa":2887,"otion":2888,"eaux":2889,"Ġsing":2890,"Ġgenoux":2891,"isÃ©":2892,"Ġbrave":2893,"Ġsatisf":2894,"ĠÃ©trang":2895,"quelles":2896,"ĠSt":2897,"Par":2898,"ĠbeautÃ©":2899,"ĠscÃ¨ne":2900,"usion":2901,"ĠconsÃ©qu":2902,"lam":2903,"ĠforÃªt":2904,"Ġlrsquoab":2905,"onna":2906,"Ġappart":2907,"ĠÂ».":2908,"ĠMaintenant":2909,"ives":2910,"attend":2911,"ousse":2912,"Ġresta":2913,"Ġjusqursquoau":2914,"Ġordre":2915,"Ġpassage":2916,"ichel":2917,"ric":2918,"ific":2919,"mÃª":2920,"Ġplan":2921,"Ġtrente":2922,"lais":2923,"cur":2924,"Ġbais":2925,"Ġlrsquoent":2926,"espÃ¨re":2927,"Ġcoul":2928,"OU":2929,"Ġrecevoir":2930,"ission":2931,"Ġarriva":2932,"Ġarriver":2933,"Ġimag":2934,"Ġsin":2935,"Ġris":2936,"Ġaime":2937,"avec":2938,"ĠdÃ©tail":2939,"iration":2940,"Ġhistoire":2941,"escalier":2942,"Ġsentiments":2943,"osse":2944,"Ã¨tement":2945,"Ġfaud":2946,"Ġcomtesse":2947,"ev":2948,"elui":2949,"Ġmai":2950,"tÃ©r":2951,"Ġserais":2952,"Ġconduis":2953,"ĠtraÃ®":2954,"lique":2955,"Ġexemple":2956,"Ġapport":2957,"Ġlaisse":2958,"Ġdanger":2959,"ĠagrÃ©":2960,"ĠMes":2961,"Ġfaisaient":2962,"Ġregards":2963,"ĠZ":2964,"Ġconsc":2965,"Ġrej":2966,"Ġconnaissance":2967,"Ġpersonn":2968,"Ġvoudrais":2969,"Ġdigne":2970,"pe":2971,"Ġbatt":2972,"ĠmÃ©l":2973,"lise":2974,"Ġcouvert":2975,"ĠnÃ©cessaire":2976,"di":2977,"isait":2978,"ĠÃ©tant":2979,"Ġcolon":2980,"ĠAussi":2981,"Ġus":2982,"Ġaim":2983,"Ġmalad":2984,"Ġsacrif":2985,"Ġtrain":2986,"ĠpitiÃ©":2987,"aque":2988,"Ġdoux":2989,"Ġcharge":2990,"Ġchien":2991,"adis":2992,"ĠgoÃ»t":2993,"inter":2994,"Ġcous":2995,"ĠidÃ©es":2996,"Ġfant":2997,"ĠsociÃ©tÃ©":2998,"inet":2999,"Ġparc":3000,"Ġseigneur":3001,"fort":3002,"iait":3003,"emb":3004,"Ġbons":3005,"ĠnÃ©g":3006,"Ġpaix":3007,"ĠdÃ©n":3008,"Ġmy":3009,"Ġquin":3010,"appar":3011,"Ã¨de":3012,"aces":3013,"ignes":3014,"Ġnav":3015,"ĠCor":3016,"Ġjambes":3017,"Ġrestait":3018,"issaient":3019,"agÃ©":3020,"mM":3021,"Ġdrsquoelle":3022,"Ġfur":3023,"tait":3024,"ĠAd":3025,"ĠSur":3026,"Ġvenue":3027,"ĠÃĩ":3028,"ĠDrsquo":3029,"port":3030,"oreille":3031,"Ġdifficile":3032,"Ġdrsquoin":3033,"Ġaccompagn":3034,"Ġpartout":3035,"ĠespÃ©r":3036,"Ġdisting":3037,"Ġfavor":3038,"ĠCatherine":3039,"assi":3040,"ER":3041,"Ġpont":3042,"Ġcondam":3043,"tt":3044,"Ã®mes":3045,"rist":3046,"Ġinterromp":3047,"Ġblanche":3048,"Ġdisp":3049,"Ġrobe":3050,"Ġparfaitement":3051,"aindre":3052,"Ġaujourdrsquohui":3053,"affaire":3054,"Ã©b":3055,"of":3056,"aperÃ§":3057,"ĠcommenÃ§a":3058,"uie":3059,"Ã©ric":3060,"Ġpoign":3061,"Ġloi":3062,"Ã¢che":3063,"Ġrevint":3064,"ĠNic":3065,"Ġpareille":3066,"ey":3067,"Ġmagn":3068,"mpe":3069,"Ġpoche":3070,"Ġtaille":3071,"Ġattendre":3072,"ĠtroisiÃ¨me":3073,"ettez":3074,"itaire":3075,"Ġlrsquoins":3076,"Ġrevenir":3077,"ohn":3078,"Ġpublic":3079,"du":3080,"Ġprincesse":3081,"Ġobt":3082,"noc":3083,"Ġlire":3084,"Ġcoucher":3085,"inÃ©e":3086,"Ġfaute":3087,"Ġvoulut":3088,"Ġappuy":3089,"ĠÃ©n":3090,"Ġcrainte":3091,"ĠÃ©prouv":3092,"usse":3093,"Ġqursquoen":3094,"rage":3095,"Ã©rence":3096,"Ġsrsquoy":3097,"Ġbasse":3098,"vre":3099,"arm":3100,"Ġsentait":3101,"Ġpareil":3102,"eulement":3103,"Ġcroyez":3104,"Ġavis":3105,"Ġpriv":3106,"oupes":3107,"ĠQuoi":3108,"adress":3109,"Ġmeur":3110,"accomp":3111,"Ġdim":3112,"ĠRob":3113,"erbe":3114,"cle":3115,"jour":3116,"Ġposition":3117,"Ġpierre":3118,"Alors":3119,"Quand":3120,"omie":3121,"Ġouvert":3122,"Ġserai":3123,"lant":3124,"Ġtal":3125,"rid":3126,"indre":3127,"ĠOr":3128,"oser":3129,"Ġdescend":3130,"ands":3131,"ĠrÃ©vol":3132,"ister":3133,"ĠdrsquoArtagnan":3134,"Ġmauvaise":3135,"ĠvolontÃ©":3136,"Ġordres":3137,"amme":3138,"ĠÃ©vÃ©":3139,"Ġachev":3140,"oue":3141,"Ġstup":3142,"Ġlentement":3143,"ĠPierre":3144,"Ġauquel":3145,"Ġfaible":3146,"Ġcampagne":3147,"eterre":3148,"ĠSes":3149,"trait":3150,"Ġforces":3151,"Ġpremiers":3152,"Ġservit":3153,"ĠSeigneur":3154,"ĠÃĩa":3155,"AprÃ¨s":3156,"Ġpeuvent":3157,"honneur":3158,"Ġpouvais":3159,"ĠmÃ©decin":3160,"Ġmonter":3161,"Ġtermin":3162,"Ġcontemp":3163,"Ġpassion":3164,"ĠBien":3165,"aves":3166,"ĠrÃ©cit":3167,"orthos":3168,"Ġgui":3169,"tez":3170,"iennes":3171,"Ġru":3172,"ĠreconnaÃ®tre":3173,"Dans":3174,"oÃ»":3175,"ĠCependant":3176,"Ġpauvres":3177,"ĠpÃ»t":3178,"gleterre":3179,"Ġmontrer":3180,"ĠAm":3181,"Ġrom":3182,"riers":3183,"Ġconduite":3184,"Ġdents":3185,"Ġbaiss":3186,"sive":3187,"ĠpensÃ©es":3188,"ĠdÃ©jeu":3189,"oritÃ©":3190,"ĠhÃ©s":3191,"aper":3192,"Ġmemb":3193,"Ġtante":3194,"Ġexam":3195,"Ġconsol":3196,"Ġmaisons":3197,"ĠJacques":3198,"Ġopp":3199,"Ġfaits":3200,"Pour":3201,"Ġcrime":3202,"uel":3203,"ĠQuant":3204,"Ġclair":3205,"Ã©an":3206,"ville":3207,"amais":3208,"Ġcinquante":3209,"ĠDu":3210,"Ġdrsquoen":3211,"Ġgenre":3212,"ome":3213,"ĠvÃ©ritable":3214,"Ġtrah":3215,"Ã©las":3216,"Ġcompris":3217,"ĠmÃ©m":3218,"ĠpÃ©nÃ©t":3219,"Ġchaise":3220,"Ġsouh":3221,"chesse":3222,"Ġnoble":3223,"lait":3224,"Ġmerveille":3225,"mS":3226,"Ġdress":3227,"Ġfirent":3228,"Ġhonn":3229,"Ġcomprends":3230,"oyons":3231,"ĠmÃ©n":3232,"Ġinconn":3233,"iditÃ©":3234,"Ġheureuse":3235,"Ġpropri":3236,"arguer":3237,"Ġut":3238,"Ġjeter":3239,"ĠPl":3240,"ĠmÃ©pris":3241,"Ġlrsquoeau":3242,"Ġpain":3243,"Ġchamp":3244,"mul":3245,"Ġsecours":3246,"ĠmÃªmes":3247,"Ġsinguli":3248,"Ã©lev":3249,".)":3250,"Ġadress":3251,"Ġprofonde":3252,"ÃªtÃ©":3253,"Ġmaj":3254,"Ġdistance":3255,"Ġconnu":3256,"hum":3257,"AN":3258,"Ġcouleur":3259,"Ġ3":3260,"ondres":3261,"ĠobÃ©":3262,"Ã©f":3263,"ouÃ©":3264,"ener":3265,"Ġpi":3266,"ceau":3267,"ieuses":3268,"Ġarrive":3269,"ctions":3270,"Ġmous":3271,"adm":3272,"Ġtuer":3273,"Ġdissi":3274,"oncÃ©":3275,"Ġmarquis":3276,"mais":3277,"ro":3278,"Ġsoul":3279,"Ġtriomp":3280,"mÃªmes":3281,"Ġvoyag":3282,"Ã©dia":3283,"Ġconseil":3284,"inion":3285,"Ġarbres":3286,"ĠfrÃ¨res":3287,"Ġgentil":3288,"ĠtÃ©moign":3289,"Ġparfois":3290,"Ġchagr":3291,"Ġrecher":3292,"ĠLuc":3293,"ĠÃ©tions":3294,"ogne":3295,"rige":3296,"ĠAthos":3297,"Ġquant":3298,"Ġsir":3299,"ĠcÃ©l":3300,"Ġjolie":3301,"ĠarrÃªt":3302,"Ġtendre":3303,"Ġmeu":3304,"avons":3305,"Ġjal":3306,"ĠQuelle":3307,"sur":3308,"endroit":3309,"ĠÃīc":3310,"enus":3311,"Ã¨che":3312,"ĠcÃ´t":3313,"Ġtraits":3314,"eries":3315,"Ġjeunesse":3316,"mV":3317,"ĠJohn":3318,"Ġbure":3319,"Ġfacile":3320,"Ġappris":3321,"uste":3322,"rice":3323,"Ġmir":3324,"Ġportes":3325,"Ġmill":3326,"asses":3327,"onct":3328,"arguerite":3329,"ĠLondres":3330,"ĠhÃ¢":3331,"ifique":3332,"onor":3333,"Ġbeaux":3334,"Ġard":3335,"ĠMarc":3336,"Ġprise":3337,"orsque":3338,"Ġlangue":3339,"ĠsrsquoÃ©t":3340,"ĠGu":3341,"ĠbÃªte":3342,"ĠPeut":3343,"ope":3344,"nements":3345,"ĠPaul":3346,"ubli":3347,"Ġdames":3348,"Ġennemis":3349,"Ġuns":3350,"Ġconscience":3351,"Ġenlev":3352,"Ġbelles":3353,"cieux":3354,"erg":3355,"lice":3356,"ertes":3357,"ĠrÃ©pand":3358,"00":3359,"ook":3360,"Ġneuf":3361,"ision":3362,"orge":3363,"ĠmÃ©ch":3364,"Ġcourant":3365,"ĠRien":3366,"ueill":3367,"Ġgai":3368,"Ġavais":3369,"Ġcerc":3370,"Ġfera":3371,"Ġcompos":3372,"ĠVoici":3373,"Ġeffray":3374,"Ġfranch":3375,"onÃ§a":3376,"Ġtellement":3377,"ĠlrsquoÃ©c":3378,"ĠTous":3379,"ilement":3380,"ront":3381,"Ġcolonel":3382,"Ġchau":3383,"line":3384,"Ġvaut":3385,"ĠHol":3386,"irÃ©":3387,"Ġbrusquement":3388,"Ġdoigts":3389,"ĠrÃ©d":3390,"arante":3391,"ĠY":3392,"ĠPorthos":3393,"Ġgrave":3394,"ayant":3395,"Ġcuri":3396,"Ġimmob":3397,"rire":3398,"Ġvolont":3399,"Ġsommeil":3400,"Ġprenant":3401,"Ġnoire":3402,"user":3403,"Ġrendu":3404,"llem":3405,"autant":3406,"Ġbataille":3407,"iendra":3408,"Ġend":3409,"ĠrÃ©pÃ©ta":3410,"ancer":3411,"rev":3412,"Ã®n":3413,"ĠRen":3414,"Ġvive":3415,"Ġtrib":3416,"ik":3417,"Ġhier":3418,"Ġsalu":3419,"iver":3420,"ĠÃ¢ge":3421,"Ġcli":3422,"itait":3423,"ĠarriÃ¨re":3424,"inute":3425,"obles":3426,"Ġgarder":3427,"ouer":3428,"Ġlrsquoemp":3429,"red":3430,"anim":3431,"Ġavent":3432,"Ġremont":3433,"aman":3434,"ĠÃ©clair":3435,"Ġpouvaient":3436,"ĠtÃ´t":3437,"Ġconnaissait":3438,"Ġnoirs":3439,"III":3440,"ilipp":3441,"quis":3442,"ĠdemandÃ©":3443,"Ġmoyens":3444,"ĠMart":3445,"Ġamie":3446,"ias":3447,"Ġgris":3448,"Ġsouriant":3449,"ĠSire":3450,"ĠcÃ´tÃ©s":3451,"Ġcommandant":3452,"ĠtantÃ´t":3453,"Ġferai":3454,"aule":3455,"Ġriant":3456,"Ġsavais":3457,"Ġtris":3458,"Ġw":3459,"arin":3460,"Ġquinze":3461,"ĠcurÃ©":3462,"Ġhonte":3463,"ĠrÃ©sult":3464,"euil":3465,"ator":3466,"mA":3467,"Ġmarcher":3468,"HA":3469,"Ġextra":3470,"Ġcertainement":3471,"Ġbonnes":3472,"Ġdrsquoor":3473,"Ġquelquefois":3474,"ĠarrivÃ©e":3475,"Ġgliss":3476,"ĠrÃ©flex":3477,"ĠMaurice":3478,"tress":3479,"Ġphras":3480,"Ġentr":3481,"Ã©glise":3482,"Ġjouer":3483,"Ġabsolument":3484,"Ġparents":3485,"ĠdÃ©sire":3486,"rimer":3487,"Ġdirige":3488,"Ġcroyait":3489,"Ġintellig":3490,"Ġexpression":3491,"Ġsuivant":3492,"Ġgroupe":3493,"Ġmonseigneur":3494,"Ġsrsquoav":3495,"Ġposte":3496,"ley":3497,"onnait":3498,"Ġsrsquoin":3499,"Ġcabinet":3500,"Ġfourn":3501,"exc":3502,"Ġconcl":3503,"Ġlois":3504,"Ġoreilles":3505,"Ġignor":3506,"Ġentendit":3507,"Ġcompagnons":3508,"Ġant":3509,"oide":3510,"Ġdiffic":3511,"Ġargent":3512,"per":3513,"Ġinst":3514,"ssent":3515,"ĠÃ©d":3516,"ussent":3517,"Ġfe":3518,"istance":3519,"Ġpolice":3520,"ares":3521,"iction":3522,"Ġcompagnon":3523,"Ġpassant":3524,"Ġrecul":3525,"Ġlrsquoatt":3526,"mar":3527,"Ã©rir":3528,"Ġdevenu":3529,"Ġsoldat":3530,"srsquo":3531,"Ġvertu":3532,"lige":3533,"Ġnation":3534,"Ġcaval":3535,"ystÃ©ri":3536,"Ġquelqursquoun":3537,"Ġligne":3538,"ĠLor":3539,"Ġdevint":3540,"Ã¨se":3541,"Ġsauver":3542,"Ġremerc":3543,"Ġbleu":3544,"Ġsuivi":3545,"ouleurs":3546,"Ġminute":3547,"Ġvenez":3548,"Ġarm":3549,"ĠpossÃ©d":3550,"ĠdÃ©sert":3551,"ĠdÃ©pl":3552,"by":3553,"inait":3554,"Ġretrouver":3555,"Pendant":3556,"let":3557,"Ġpla":3558,"ĠfenÃªtres":3559,"ĠcuriositÃ©":3560,"Ġvont":3561,"Ġtomba":3562,"ĠoubliÃ©":3563,"ges":3564,"imb":3565,"ĠDi":3566,"ĠLÃł":3567,"ivers":3568,"idence":3569,"Ġfau":3570,"arre":3571,"ĠdÃ©sespoir":3572,"Ġdivers":3573,"Ġfatig":3574,"urait":3575,"clam":3576,"outez":3577,"Ġmorts":3578,"ureur":3579,"Ġfier":3580,"ensible":3581,"Ġfroide":3582,"ĠtuÃ©":3583,"Ġprison":3584,"Ġfleur":3585,"ĠpiÃ¨ces":3586,"isc":3587,"In":3588,"Ġentour":3589,"Ġpalais":3590,"Ġvenaient":3591,"Ġlaissant":3592,"mont":3593,"van":3594,"ĠNicol":3595,"Ġprenait":3596,"Ġcord":3597,"uiss":3598,"Or":3599,"Ġchasse":3600,"Ġouverte":3601,"eter":3602,"imes":3603,"assin":3604,"onnÃ©e":3605,"ĠmÃ©moire":3606,"Ġembr":3607,"allÃ©e":3608,"Ġrass":3609,"Ġsoulev":3610,"iquement":3611,"Ġseront":3612,"ĠrÃªve":3613,"ules":3614,"orges":3615,"Ġretourna":3616,"mil":3617,"entendre":3618,"plus":3619,"Ġceci":3620,"Ġphil":3621,"Ġderniers":3622,"embr":3623,"moins":3624,"Ġsoudain":3625,"Ġsangl":3626,"ĠrÃ©uss":3627,"mndash":3628,"ute":3629,"XX":3630,"rsquoimp":3631,"orde":3632,"Ġprojet":3633,"paravant":3634,"Ġjusque":3635,"Ã©ra":3636,"Ã©on":3637,"ĠMarguerite":3638,"Ã®le":3639,"ĠÃ©tud":3640,"Ġpa":3641,"Ġmurs":3642,"Ġtira":3643,"arn":3644,"Ġjau":3645,"Ġgentle":3646,"pit":3647,"ĠfranÃ§ais":3648,"Ġvoisin":3649,"Ġromp":3650,"uns":3651,"Ã¨ge":3652,"Ġordinaire":3653,"Ġdrap":3654,"Ġouvrit":3655,"Ġpeau":3656,"ĠimmÃ©dia":3657,"Ġvouloir":3658,"ĠsantÃ©":3659,"oyÃ©":3660,"Ġbourge":3661,"Ġmyst":3662,"once":3663,"Ġcapable":3664,"Ġarra":3665,"Ġrevoir":3666,"Ã©li":3667,"Ġboire":3668,"ancÃ©":3669,"Ġfaveur":3670,"idÃ©e":3671,"Ġpoussa":3672,"oubli":3673,"Ġlever":3674,"Ġspectacle":3675,"Ġdevenir":3676,"Ġferait":3677,"Ġmeilleur":3678,"Ġpensait":3679,"Ġsalut":3680,"oger":3681,"Ġz":3682,"Ġquarante":3683,"Ġconvainc":3684,"ĠcommenÃ§ait":3685,"ception":3686,"18":3687,"ouche":3688,"Ġtourna":3689,"Ġpav":3690,"ĠÃ©criv":3691,"ates":3692,"ombres":3693,"eth":3694,"bourg":3695,"Ġfaibles":3696,"Ġ17":3697,"oiss":3698,"ĠvÃªte":3699,"anou":3700,"Ġnobles":3701,"ĠvÃªt":3702,"Ġcacher":3703,"Ġrapidement":3704,"Ġlrsquoam":3705,"ĠdÃ©jeuner":3706,"Ġsentit":3707,"mP":3708,"Ġtress":3709,"pas":3710,"ison":3711,"onnant":3712,"chÃ©e":3713,"Ã´te":3714,"ĠÃ©galement":3715,"hommes":3716,"Ġrare":3717,"Ġha":3718,"ĠprÃ©cÃ©d":3719,"ĠquittÃ©":3720,"Ã©ration":3721,"ĠcomplÃ¨tement":3722,"Ġsimplement":3723,"agnes":3724,"Al":3725,"ĠinquiÃ©t":3726,"Ġtombe":3727,"ivid":3728,"Ġjournal":3729,"Ġcos":3730,"Ġvoulais":3731,"ĠsuccÃ¨s":3732,"ĠmystÃ©ri":3733,"ovna":3734,"Ġbond":3735,"Ġgagner":3736,"Ġvain":3737,"occasion":3738,"Ġsoyez":3739,"ainement":3740,"Ġsurpris":3741,"Ġinutile":3742,"Is":3743,"Ġaper":3744,"Ġdescendre":3745,"ĠAramis":3746,"Ġvide":3747,"Ġquestions":3748,"aison":3749,"ĠTom":3750,"Ġhonneur":3751,"Ãªche":3752,"Ġconduire":3753,"ĠsÃ©v":3754,"ĠFou":3755,"Ġdouze":3756,"Ġmante":3757,"Ġdouble":3758,"tal":3759,"opul":3760,"Ġnaturel":3761,"Ġinsp":3762,"Ġrecommand":3763,"Ġlrsquoimp":3764,"uÃ©":3765,"ĠMade":3766,"Ġsouffr":3767,"Ġcourir":3768,"ĠÃ©poque":3769,"ĠdÃ©l":3770,"Ġlevant":3771,"Ġrecev":3772,"io":3773,"accord":3774,"Ġrues":3775,"Ġcraign":3776,"Ġfauteuil":3777,"Ġsymp":3778,"oud":3779,"atte":3780,"Jrsquo":3781,"ĠgÃª":3782,"Ġdirection":3783,"Ġdessus":3784,"ke":3785,"Ġenvelopp":3786,"Ġseuls":3787,"Ġexcell":3788,"ĠSu":3789,"Ġloge":3790,"Ġlesquels":3791,"cles":3792,"Ġcul":3793,"Ġah":3794,"Ġgloire":3795,"ĠchargÃ©":3796,"Ġhaine":3797,"Ġfrais":3798,"Ġbureau":3799,"Ġpromp":3800,"approcha":3801,"ĠobligÃ©":3802,"ĠdÃ©tourn":3803,"Ġgri":3804,"Ġattent":3805,"Ġchaud":3806,"ĠprÃªtre":3807,"abri":3808,"empÃªcher":3809,"Ġemport":3810,"oure":3811,"Ġretomb":3812,"Ġdiscours":3813,"Ġsoupir":3814,"Ġ!...":3815,"Ġlune":3816,"IN":3817,"aigne":3818,"Ġsouhait":3819,"mine":3820,"mD":3821,"icier":3822,"her":3823,"Ġattendant":3824,"Ġattendait":3825,"Ã¨nes":3826,"ĠmisÃ©rable":3827,"Ġlrsquoesprit":3828,"ĠDepuis":3829,"Comme":3830,"garde":3831,"Ġimpat":3832,"ĠGrand":3833,"mLe":3834,"Ã©rience":3835,"ĠpÃ©r":3836,"ĠintÃ©ress":3837,"Ġoccasion":3838,"Ġpist":3839,"Ġtab":3840,"Ġservi":3841,"agement":3842,"ĠsoirÃ©e":3843,"Ġdemandait":3844,"arrÃªter":3845,"ĠÃ©loign":3846,"Ġmanque":3847,"urant":3848,"Ġlrsquoint":3849,"Ã©chapp":3850,"orer":3851,"Ġvoud":3852,"trod":3853,"Ãīt":3854,"ĠPendant":3855,"inf":3856,"Ġmena":3857,"Ġjoues":3858,"lie":3859,"ĠspÃ©c":3860,"Ġpuissance":3861,"Ġcle":3862,"aurai":3863,"Ã©h":3864,"Ġqursquoelles":3865,"Ġterreur":3866,"Ġoise":3867,"ĠHolmes":3868,"ilippe":3869,"Ġrenvers":3870,"Ġraconter":3871,"ood":3872,"ĠAvec":3873,"roy":3874,"Ġvague":3875,"Ġpure":3876,"Ġban":3877,"ĠdÃ©tails":3878,"ogr":3879,"Ġpayer":3880,"AR":3881,"ouvrit":3882,"onnez":3883,"Ġaccord":3884,"Ġembarr":3885,"Ġfis":3886,"Ġgentilhomme":3887,"Ġenvie":3888,"Ġadmir":3889,"rec":3890,"ĠFranÃ§ais":3891,"ĠmÃ©c":3892,"ĠElles":3893,"Ġpur":3894,"ysion":3895,"Ġpreuve":3896,"Ġcirconstances":3897,"ĠjetÃ©":3898,"ĠlÃ©ger":3899,"iche":3900,"Esp":3901,"err":3902,"Ġserez":3903,"siÃ¨re":3904,"ĠimmÃ©diatement":3905,"Ġgrosse":3906,"assa":3907,"Ġprud":3908,"Ġconsent":3909,"Ã©parer":3910,"Ġcherch":3911,"Ġlongues":3912,"ara":3913,"ÃĪ":3914,"ĠrÃ´le":3915,"Ġretent":3916,"ysi":3917,"gÃ©n":3918,"romp":3919,"Ġboute":3920,"ĠRos":3921,"xte":3922,"Ġmontagne":3923,"Ġplaisant":3924,"rou":3925,"Ġlorsqursquoil":3926,"Ġtournant":3927,"Ġavions":3928,"Ġdrsquoeux":3929,"airement":3930,"Ġmanquer":3931,"Ã´tre":3932,"Ġremettre":3933,"car":3934,"Ġaveu":3935,"espÃ©r":3936,"Ġofficiers":3937,"hor":3938,"Ġtient":3939,"Ġband":3940,"onnet":3941,"Ġlis":3942,"yr":3943,"ĠcrÃ©ature":3944,"ires":3945,"gre":3946,"Ġretourner":3947,"ibles":3948,"ultÃ©":3949,"Ġpersu":3950,"erve":3951,"Ġministre":3952,"Ġrose":3953,"ĠÅĵil":3954,"Ġmorte":3955,"Ġduchesse":3956,"Ġsourc":3957,"oim":3958,"ĠagrÃ©able":3959,"ĠPlus":3960,"Ġrense":3961,"ĠNap":3962,"Ġmembres":3963,"iendr":3964,"usc":3965,"pl":3966,"Ġlrsquoamour":3967,"Ġpluie":3968,"oÃ®":3969,"luence":3970,"ru":3971,"vu":3972,"ative":3973,"ĠsrsquoarrÃªta":3974,"Ã©sus":3975,"Ġindiqu":3976,"ĠfÃªte":3977,"ĠdÃ©d":3978,"Ġcompter":3979,"Ġcout":3980,"Ġmu":3981,"ĠVoyons":3982,"ĠQursquoest":3983,"ĠparaÃ®tre":3984,"alitÃ©s":3985,"Ġphysion":3986,"mbler":3987,"ĠNicolas":3988,"Ġlaissait":3989,"Ġsinc":3990,"icot":3991,"ĠsoupÃ§":3992,"com":3993,"abbÃ©":3994,"Ġnaturellement":3995,"iÃ¨vre":3996,"Ġinnoc":3997,"lÃ©e":3998,"ĠfraÃ®":3999,"Ġchagrin":4000,"Ġtor":4001,"bon":4002,"ĠQursquo":4003,"Ġinj":4004,"Ġmistress":4005,"oches":4006,"Ġallum":4007,"Ġgarn":4008,"Ġamb":4009,"mL":4010,"Ġbag":4011,"Ġphilos":4012,"lication":4013,"Ġlect":4014,"Ġsemaine":4015,"Ġautrement":4016,"Ġdrsquoautre":4017,"Ġimmense":4018,"rup":4019,"ersonne":4020,"ost":4021,"ĠSalv":4022,"Ġescl":4023,"Ġk":4024,"Ġpensa":4025,"Ġextraordinaire":4026,"ĠDav":4027,"Ġtoit":4028,"comme":4029,"lin":4030,"ver":4031,"Ġcertains":4032,"Ġfusil":4033,"Ġraisons":4034,"Ġtiens":4035,"Ġsuivit":4036,"ĠarrÃªtÃ©":4037,"fer":4038,"veiller":4039,"fum":4040,"ĠprÃ©cis":4041,"Cependant":4042,"Ġsusp":4043,"Ġsab":4044,"ĠBeau":4045,"ĠplaÃ®t":4046,"ady":4047,"ĠEx":4048,"Ġaccep":4049,"Ġcoqu":4050,"Ġmarchand":4051,"Ġpun":4052,"uff":4053,"tra":4054,"Ġmach":4055,"eng":4056,"Ġride":4057,"seau":4058,"illÃ©":4059,"ĠmarchÃ©":4060,"ĠsrsquoÃ©taient":4061,"Ġpourrais":4062,"inture":4063,"orc":4064,"Ġchanger":4065,"ana":4066,"Ġblancs":4067,"Ġapproch":4068,"Ġbri":4069,"Ġsemblable":4070,"ĠprÃ©caut":4071,"ĠrestÃ©":4072,"Ġdroits":4073,"dy":4074,"Ġcrut":4075,"Ġamen":4076,"aret":4077,"ĠblessÃ©":4078,"Ġvoie":4079,"Ġsonn":4080,"Ġguer":4081,"anitÃ©":4082,"Ġhu":4083,"Si":4084,"ham":4085,"appelle":4086,"ĠextrÃªme":4087,"mdash":4088,"ĠÃīt":4089,"Ġparlant":4090,"Ġmusique":4091,"Ġciv":4092,"esseur":4093,"lent":4094,"ĠBal":4095,"ĠhonnÃªte":4096,"Ġauparavant":4097,"Ġmise":4098,"Ġpropres":4099,"ĠlÃ©gÃ¨re":4100,"yl":4101,"Ġchance":4102,"ĠFlor":4103,"leur":4104,"Ġfriss":4105,"Ġpolitique":4106,"ha":4107,"Ġpopul":4108,"itant":4109,"Ġdrsquoailleurs":4110,"glais":4111,"Ġoutre":4112,"habitude":4113,"cinq":4114,"oisse":4115,"erce":4116,"sier":4117,"ĠNotre":4118,"mT":4119,"Ġsourit":4120,"ĠlrsquoA":4121,"ĠDE":4122,"Ġmess":4123,"assembl":4124,"ĠconnaÃ®t":4125,"ĠdÃ©vou":4126,"ĠcÃ´te":4127,"ms":4128,"Ġvole":4129,"Ġprouv":4130,"Ġsoient":4131,"ks":4132,"ĠchrÃ©t":4133,"effet":4134,"Ġmontra":4135,"Ġtroupe":4136,"Ġfatigu":4137,"Ġlrsquoargent":4138,"ester":4139,"Ã©ant":4140,"Ġenvers":4141,"Ġdange":4142,"ernel":4143,"ĠCol":4144,"ĠpensÃ©":4145,"ial":4146,"conque":4147,"vier":4148,"Ã¨bres":4149,"Ġrentrer":4150,"Ġautrefois":4151,"Ġ19":4152,"Ġdomestique":4153,"Ġhumeur":4154,"Ġcaf":4155,"aid":4156,"ĠPard":4157,"ĠMr":4158,"Ġrappelle":4159,"ĠenvoyÃ©":4160,"Ġdevaient":4161,"Ã©chal":4162,"Ã©anmoins":4163,"ophe":4164,"Ġpromis":4165,"PIT":4166,"Ġcommis":4167,"Ġcostu":4168,"Ġjure":4169,"Ġmanif":4170,"ĠexÃ©cut":4171,"ĠriviÃ¨re":4172,"ifier":4173,"bien":4174,"Ġhauteur":4175,"empl":4176,"ĠdÃ©tr":4177,"Ġsatisfaction":4178,"ĠMichel":4179,"Ġproch":4180,"oseph":4181,"Ġtroupes":4182,"Ġconj":4183,"IV":4184,"onf":4185,"ĠbontÃ©":4186,"Ġprote":4187,"ĠdÃ©sign":4188,"Ã©ro":4189,"Ġaffect":4190,"Ġscience":4191,"assent":4192,"Ġgentleman":4193,"Ġmanteau":4194,"ĠPetit":4195,"Ġdrsquoaller":4196,"Ġvenge":4197,"Ġdouc":4198,"Ġmine":4199,"Ġrendit":4200,"Ġbor":4201,"nrsquo":4202,"pÃ¨re":4203,"men":4204,"Ġaug":4205,"Ġsuppose":4206,"ĠentiÃ¨rement":4207,"ĠCour":4208,"ĠpremiÃ¨res":4209,"ĠcÃ©d":4210,"roi":4211,"ĠgÃ©nie":4212,"Ġchefs":4213,"Ġaide":4214,"ulg":4215,"Ġsaisit":4216,"Ġlutte":4217,"Ġmett":4218,"ĠÃ©tabl":4219,"elier":4220,"oidÃ©e":4221,"aband":4222,"ĠÃ©pous":4223,"quit":4224,"Ġod":4225,"Ġretraite":4226,"Ġfaim":4227,"iÃ©e":4228,"ith":4229,"Ġcitoyen":4230,"vis":4231,"isation":4232,"Ġdure":4233,"raÃ«l":4234,"ĠJack":4235,"Ġsiff":4236,"Ġsois":4237,"aissant":4238,"Ġcesse":4239,"idemment":4240,"gle":4241,"Ã¢cher":4242,"ĠrÃ©vÃ©l":4243,"Ġvic":4244,"ĠÃ©pÃ©e":4245,"Ġprisonnier":4246,"armÃ©e":4247,"ĠCelui":4248,"Ġportrait":4249,"Ġcuisine":4250,"Ã©lic":4251,"Ġreprendre":4252,"land":4253,"ermin":4254,"drez":4255,"erf":4256,"Ġparfum":4257,"ref":4258,"Ã©te":4259,"ĠaperÃ§ut":4260,"Ġpes":4261,"Ġphysionomie":4262,"Ġbourgeois":4263,"ĠÃ´":4264,"Ġsoix":4265,"ĠrÃ©veill":4266,"Ġmas":4267,"asp":4268,"pent":4269,"alle":4270,"HAPIT":4271,"HAPITRE":4272,"ottes":4273,"Ġdisparu":4274,"ĠpropriÃ©t":4275,"Ġtim":4276,"Ġrepouss":4277,"Ġentret":4278,"Ġdirai":4279,"Ġmange":4280,"curitÃ©":4281,"Ġaimait":4282,"Ã©rÃ©m":4283,"Ġinstants":4284,"ĠaimÃ©":4285,"uil":4286,"Ġneige":4287,"ĠsiÃ¨cle":4288,"Ġgouvernement":4289,"Ġsoins":4290,"armes":4291,"Ġobst":4292,"Ġhumaine":4293,"Ġaffir":4294,"neur":4295,"ĠtÃ©n":4296,"uves":4297,"issements":4298,"Ãªch":4299,"ĠthÃ©Ã¢tre":4300,"ĠGeorges":4301,"ĠÃ©vÃ©nements":4302,"ancol":4303,"ugu":4304,"entions":4305,"Ġseuil":4306,"Ġmaladie":4307,"ĠMor":4308,"ĠJamais":4309,"loc":4310,"Ġremit":4311,"Ġcadav":4312,"met":4313,"Ġfaux":4314,"ĠCÃ©s":4315,"Ġconditions":4316,"Ġmagnifique":4317,"ĠLucien":4318,"ĠAs":4319,"Ġallaient":4320,"Angleterre":4321,"nÃ©e":4322,"Ġvig":4323,"Ġcauser":4324,"Ġrencontrer":4325,"Ġnrsquoavez":4326,"Que":4327,"Ġhur":4328,"Ġconnaissez":4329,"ĠdÃ©fendre":4330,"Ġhabitants":4331,"Ġdrsquoav":4332,"Ġsomm":4333,"Ġquartier":4334,"Ġoh":4335,"Ġconven":4336,"prise":4337,"Ġlors":4338,"Ġtrouvaient":4339,"ĠrÃ©solution":4340,"ĠCam":4341,"Ġsrsquoass":4342,"tinct":4343,"Ġcommande":4344,"Ġfonct":4345,"acitÃ©":4346,"Ġarrivait":4347,"Ġchaleur":4348,"Ã©cout":4349,"Ces":4350,"usÃ©":4351,"acÃ©":4352,"Ġreconnu":4353,"Åĵuf":4354,"Ġassi":4355,"Ġdescendit":4356,"ennemi":4357,"Ġtrad":4358,"Ġsuppos":4359,"Ã´me":4360,"agrÃ©":4361,"CrsquoÃ©tait":4362,"Ġvaleur":4363,"ĠsÃ©rieux":4364,"oids":4365,"ailli":4366,"Ã¢ge":4367,"Ġpartit":4368,"ĠnommÃ©":4369,"ĠIvan":4370,"mCHAPITRE":4371,"Ġimmobile":4372,"ĠDeux":4373,"Ġvieilles":4374,"Ġlrsquohonneur":4375,"Ġprobablement":4376,"ĠgÃ©m":4377,"Ġhard":4378,"ĠdÃ©pos":4379,"Ġefforts":4380,"erd":4381,"ĠgÃ©nÃ©":4382,"anÃ§ait":4383,"Ġlrsquoexp":4384,"Ã©ritÃ©":4385,"ĠhÃ¢te":4386,"ĠallÃ©":4387,"Ã©tat":4388,"Ġvainc":4389,"Ã¨tres":4390,"ĠJÃ©sus":4391,"Ġtransport":4392,"Ġredout":4393,"Ġhorrible":4394,"Ġphysi":4395,"Ġvalet":4396,"Ġtoil":4397,"Ġconduit":4398,"Ġnouveaux":4399,"Ġseraient":4400,"Ġpensez":4401,"Ġcompli":4402,"Ġmarquise":4403,"inant":4404,"ĠDites":4405,"Ġexac":4406,"ĠmisÃ¨re":4407,"Ġcourse":4408,"Ġreb":4409,"Ġdor":4410,"Ġcroyais":4411,"ĠÃ©pouv":4412,"Ġvivant":4413,"Ġindiff":4414,"Ġsauvage":4415,"Ġparlez":4416,"Ġcoute":4417,"Ġasse":4418,"Ġcurieux":4419,"ĠPhilippe":4420,"ooks":4421,"aide":4422,"oland":4423,"Ġgardes":4424,"Ġsouven":4425,"Ġbris":4426,"ĠcheminÃ©e":4427,"ript":4428,"ĠCet":4429,"acer":4430,"quÃ©":4431,"atif":4432,"Ġamoureux":4433,"Ġsoixante":4434,"estes":4435,"ĠmÃ©lancol":4436,"Ġgout":4437,"Ġaille":4438,"espoir":4439,"Ġmontrant":4440,"Ġpersuad":4441,"Ġaimer":4442,"Ġcercle":4443,"Ġgrac":4444,"Ġpan":4445,"Ġportant":4446,"Ġvif":4447,"Ġrendez":4448,"ĠdÃ©liv":4449,"Ġvieil":4450,"Ġmettait":4451,"ierge":4452,"Ġquitt":4453,"Ġpointe":4454,"ĠÃ©tiez":4455,"Ġcoupable":4456,"Ġcompar":4457,"Ġerre":4458,"Ġavert":4459,"Ġinfin":4460,"ĠSir":4461,"Ġrid":4462,"uls":4463,"ĠdÃ©cidÃ©":4464,"Ġsouffrir":4465,"Ġdisais":4466,"ĠmaniÃ¨res":4467,"Ġproduit":4468,"Ġpous":4469,"Ġreligion":4470,"Ġtitre":4471,"ĠrÃ©pondu":4472,"Ġrace":4473,"Ġlrsquoenfant":4474,"obÃ©":4475,"Ġsortie":4476,"iendrait":4477,"Ġrepas":4478,"Ġmerci":4479,"umes":4480,"Ġsecr":4481,"Ġexpos":4482,"Ã©tabl":4483,"ĠBret":4484,"Ġfaudrait":4485,"Ġlaissez":4486,"ĠmÃ©rite":4487,"Ġlrsquoune":4488,"Ġsignal":4489,"ox":4490,"ĠprÃ©occup":4491,"Ġennemi":4492,"entin":4493,"ĠannÃ©e":4494,"riture":4495,"Ã´ne":4496,"Ġpartis":4497,"pre":4498,"Ġcomprit":4499,"upart":4500,"Ġrude":4501,"ussitÃ´t":4502,"Ġparcour":4503,"iÃ©s":4504,"moiselle":4505,"Ġeussent":4506,"ĠIs":4507,"Ġparticulier":4508,"gel":4509,"ĠfrappÃ©":4510,"Ġtendresse":4511,"Ġcharmante":4512,"arry":4513,"Ġlourd":4514,"oiff":4515,"Ġreconnaissance":4516,"Ġcamarades":4517,"Ġentier":4518,"Ġoppos":4519,"ĠChrist":4520,"Ġcertaines":4521,"unes":4522,"Ġtourment":4523,"Ġtressaill":4524,"Ġmult":4525,"Ġcondition":4526,"Ġmoments":4527,"ĠtrÃ©s":4528,"Ġressent":4529,"ĠvÃªtements":4530,"ĠMil":4531,"Ġmaint":4532,"Ġjetant":4533,"Ġillus":4534,"Ã¨bre":4535,"Ġfasse":4536,"Ġpersonnage":4537,"Ġlignes":4538,"Ġpoids":4539,"ĠCÃ©sar":4540,"Ġine":4541,"Ġdonnant":4542,"ĠJoseph":4543,"Ġfussent":4544,"Ġlesquelles":4545,"ĠfidÃ¨le":4546,"Ġcerv":4547,"Ġproie":4548,"Ġlieutenant":4549,"ĠprofondÃ©ment":4550,"12":4551,"Ġlarg":4552,"Ġchiens":4553,"Ã¨tes":4554,"ĠdÃ©faut":4555,"ĠpÃ©nible":4556,"Ġsuffis":4557,"Ġlim":4558,"aimer":4559,"otes":4560,"icule":4561,"Ġeur":4562,"its":4563,"Ġbattre":4564,"Ġsympath":4565,"Ġdouceur":4566,"Ġnul":4567,"Av":4568,"Ġrendait":4569,"Ġpermis":4570,"ĠdrÃ´le":4571,"Ġplupart":4572,"Ġtroub":4573,"10":4574,"Ġtire":4575,"sif":4576,"Ġlrsquoescalier":4577,"Ġjustement":4578,"ĠCal":4579,"Ġreconnut":4580,"ouvre":4581,"Ġjoue":4582,"ĠAb":4583,"istait":4584,"books":4585,"Ġlrsquoordre":4586,"ĠSch":4587,"Ġdoivent":4588,"Ġjuger":4589,"huit":4590,"Ġqursquoau":4591,"ĠsÃ©d":4592,"ĠLou":4593,"Ġformes":4594,"ĠParce":4595,"vue":4596,"Ġmouch":4597,"gie":4598,"Ã§aient":4599,"Ġmrsquoavez":4600,"Ġfinit":4601,"hÃ´tel":4602,"Ġmidi":4603,"ĠrÃ©ellement":4604,"ĠlittÃ©r":4605,"Ġpoing":4606,"endez":4607,"Ġimpr":4608,"Ġnoms":4609,"vie":4610,"Ġexistence":4611,"ĠdÃ©couvrir":4612,"Ġroyaume":4613,"ĠÃ©crire":4614,"ĠprÃ©sident":4615,"EN":4616,"histoire":4617,"Ġanglais":4618,"Ġopinion":4619,"abilitÃ©":4620,"Ġmaud":4621,"Ġviennent":4622,"officier":4623,"Ġauraient":4624,"ultÃ©s":4625,"Ġindivid":4626,"Ġvaste":4627,"Ġlibres":4628,"uch":4629,"IS":4630,"dessous":4631,"Ġmeurt":4632,"Ġ?...":4633,"omn":4634,"Ġdormir":4635,"Ġappelle":4636,"ĠdÃ©couvert":4637,"Ġcostume":4638,"ĠLy":4639,"ĠFranÃ§":4640,"itÃ©e":4641,"Ġenviron":4642,"Ġemm":4643,"hous":4644,"allais":4645,"Ġsouffle":4646,"annÃ©e":4647,"ocr":4648,"Ġassur":4649,"ĠDavid":4650,"Ġsouvenirs":4651,"Ġais":4652,"Ġpier":4653,"Ġmons":4654,"Ġsein":4655,"ĠfrÃ©m":4656,"ĠHÃ©":4657,"Ġsemblaient":4658,"Ġgalop":4659,"ĠrÃ¨g":4660,"ĠrÃ©pondis":4661,"Ġriches":4662,"ĠTrÃ¨s":4663,"elez":4664,"ĠsiÃ¨ge":4665,"truction":4666,"ĠprÃ©senter":4667,"ĠMonseigneur":4668,"Ġdoul":4669,"ĠÃ©lÃ©g":4670,"Ġtranquillement":4671,"Ġjoli":4672,"gg":4673,"ĠÃ©touff":4674,"anges":4675,"ĠBelle":4676,"ĠdrsquooÃ¹":4677,"aintes":4678,"Ġcommiss":4679,"Ġancien":4680,"ker":4681,"ĠprÃ©te":4682,"ĠPal":4683,"Ãītat":4684,"oubl":4685,"Ġmontagnes":4686,"Ġrouges":4687,"Ġveuve":4688,"housias":4689,"Ġserr":4690,"Ġdirig":4691,"Ġmonta":4692,"Ġbiz":4693,"Ġfeuilles":4694,"Ġcourut":4695,"Ġsentir":4696,"Quel":4697,"Ġclef":4698,"Ġvari":4699,"Ġsire":4700,"tants":4701,"Ġjadis":4702,"Ġamant":4703,"anny":4704,"Ġofficier":4705,"Ã»mes":4706,"ĠAtt":4707,"Ġdesse":4708,"acre":4709,"dis":4710,"Ġtenant":4711,"ĠÃ©le":4712,"Ġrevenu":4713,"Ġcherchait":4714,"Ġnaturelle":4715,"Ġpleurer":4716,"Ġpistol":4717,"Ġcat":4718,"ĠcafÃ©":4719,"ĠdÃ©cl":4720,"ĠcoÃ»":4721,"ĠÃ©chapper":4722,"ĠchangÃ©":4723,"Ġpouvons":4724,"Ġpros":4725,"Ġchair":4726,"ĠToute":4727,"Ġdevez":4728,"uyer":4729,"Ġinstr":4730,"Ġsatisfait":4731,"Ġlord":4732,"ancho":4733,"Ġcraindre":4734,"ĠportÃ©e":4735,"ĠpoÃ¨te":4736,"ĠÃ©motion":4737,"Ġmens":4738,"bilitÃ©":4739,"Ġjrsquoy":4740,"chotte":4741,"Ġrejoindre":4742,"Ġvoile":4743,"ilier":4744,"ĠderniÃ¨res":4745,"ĠfumÃ©e":4746,"Ġaviez":4747,"ouvrir":4748,"Ġviolence":4749,"ourde":4750,"observ":4751,"prop":4752,"Ġsinon":4753,"ĠrÃ©sultat":4754,"ĠdÃ©barr":4755,"voy":4756,"Ã©loign":4757,"Ġmalheureuse":4758,"Ġcirconstance":4759,"Ġbillet":4760,"aoul":4761,"Ġattendu":4762,"Ġsignif":4763,"ĠdÃ©termin":4764,"ĠrÃ©comp":4765,"Ġtristesse":4766,"Ġsouper":4767,"Ġdurant":4768,"tÃ©rieure":4769,"ocat":4770,"âĢ¦,":4771,"Ġmaman":4772,"Ġlrsquoor":4773,"Ġbarb":4774,"14":4775,"ĠRoi":4776,"Ġorgan":4777,"Ġtourner":4778,"Ġlueur":4779,"Ġaurez":4780,"Ġpot":4781,"Ġrage":4782,"Ġtoilette":4783,"ormais":4784,"Ġplant":4785,"Ġmrsquoavait":4786,"ĠrÃ©serv":4787,"ribu":4788,"ĠAllez":4789,"Ġmorceau":4790,"ĠportÃ©":4791,"Ġphrase":4792,"Ġapprendre":4793,"Ġterrain":4794,"Ġdrsquoy":4795,"ĠWil":4796,"Ã©tranger":4797,"17":4798,"quip":4799,"agnol":4800,"Ã©cu":4801,"Ġjoyeux":4802,"zaine":4803,"Ġloint":4804,"ĠChicot":4805,"Ġcompt":4806,"iquer":4807,"elot":4808,"Ġlongs":4809,"Ġfinir":4810,"Ġfolle":4811,"entrer":4812,"ĠnaÃ¯":4813,"Ġchamps":4814,"Ġenn":4815,"Ġtoucher":4816,"ernelle":4817,"ĠHÃ©las":4818,"devant":4819,"ĠMerci":4820,"Ġperf":4821,"ĠInd":4822,"ocha":4823,"Ġnrsquoavais":4824,"13":4825,"Ã©ph":4826,"Ġmoine":4827,"Ġcult":4828,"Ġbrig":4829,"ĠQuichotte":4830,"wick":4831,"oureuse":4832,"veu":4833,"Ġfar":4834,"Ġduquel":4835,"Ġhal":4836,"ĠdrsquoÅĵil":4837,"Ġnrsquoavaient":4838,"Ġquels":4839,"iot":4840,"Ġaccent":4841,"Ġgrat":4842,"raÃ®":4843,"Ġouvrir":4844,"Ġpardon":4845,"Ġlou":4846,"ĠpriÃ¨re":4847,"obscuritÃ©":4848,"Ġfun":4849,"Ġassise":4850,"Ġsemaines":4851,"Ġnavire":4852,"Ġsorti":4853,"conn":4854,"ĠMe":4855,"ancÃ©e":4856,"Ġretirer":4857,"aude":4858,"Ġcherche":4859,"onÃ§ait":4860,"Ġhist":4861,"ĠrencontrÃ©":4862,"Ġlrsquohab":4863,"ĠbÃªtes":4864,"utation":4865,"Ġlac":4866,"Ġprofession":4867,"ĠcÃ©rÃ©m":4868,"asseoir":4869,"Ġcamarade":4870,"Ġcorde":4871,"ĠlrsquoidÃ©e":4872,"Ġmasse":4873,"Ġlampe":4874,"ĠchaÃ®":4875,"Ġcontinuer":4876,"ĠpÃ©ri":4877,"Ġcoiff":4878,"ĠGen":4879,"ĠarmÃ©e":4880,"Ġvengeance":4881,"enais":4882,"Ġetc":4883,"Ã©rique":4884,"Ġvendre":4885,"Ġpierres":4886,"Ġfrapper":4887,"Ġprier":4888,"mbre":4889,"Ġpant":4890,"ĠgÃ©nÃ©rale":4891,"15":4892,"ĠlÃ©gÃ¨rement":4893,"Ġtels":4894,"onds":4895,"ĠmarÃ©chal":4896,"Ġcroix":4897,"Ġimpression":4898,"ĠSeulement":4899,"Enfin":4900,"auvre":4901,"Ġrepris":4902,"Ġfrappa":4903,"Ġdisposition":4904,"Ġinterrompit":4905,"Ġvel":4906,"ĠVoyez":4907,"Ã©die":4908,"Ġmun":4909,"Ġpourra":4910,"arte":4911,"Ġdiam":4912,"Ġaccour":4913,"Ġrepart":4914,"ĠdÃ©but":4915,"Ġgorge":4916,"attendre":4917,"Ġcrier":4918,"Ġnerv":4919,"ries":4920,"berge":4921,"ka":4922,"issante":4923,"Ġbarbe":4924,"Ġmouvements":4925,"Ġlady":4926,"ĠAnglais":4927,"Ġinterv":4928,"ignation":4929,"mon":4930,"ĠdÃ©pens":4931,"Ġcouteau":4932,"atta":4933,"Ġchangement":4934,"ĠqualitÃ©":4935,"Ġstat":4936,"Ġprenez":4937,"lend":4938,"Ã¢chÃ©":4939,"ribles":4940,"ĠprÃªte":4941,"Ġdrsquoeau":4942,"ater":4943,"Ġcommerce":4944,"Ġfolie":4945,"pens":4946,"ĠÃ©tonnÃ©":4947,"Ġdrsquoargent":4948,"objet":4949,"Ġfatigue":4950,"ĠpoussiÃ¨re":4951,"Ġbel":4952,"Ġba":4953,"ĠTiens":4954,"ĠcommencÃ©":4955,"ĠDor":4956,"ĠtirÃ©":4957,"Ġmilitaire":4958,"Ġombre":4959,"Ġpiqu":4960,"entrÃ©e":4961,"Ġsuppli":4962,"ĠprÃ©sente":4963,"Ã©cution":4964,"ĠÃ©tonnement":4965,"ionnaire":4966,"Ġaventure":4967,"ĠÃ©tranger":4968,"ĠÃ©clai":4969,"Ġhau":4970,"omin":4971,"ĠlrsquoÅĵil":4972,"Ġnrsquoont":4973,"Ġqursquoest":4974,"Ġfacilement":4975,"ĠSc":4976,"Ã©rie":4977,"accompagn":4978,"ceaux":4979,"ĠEsp":4980,"adresse":4981,"19":4982,"rsquoins":4983,"ĠtÃªtes":4984,"Ġlrsquoombre":4985,"ĠSam":4986,"ĠMaz":4987,"Ġsage":4988,"Ġrappeler":4989,"nait":4990,"uelle":4991,"Ġenchant":4992,"Ġattach":4993,"ueux":4994,"deux":4995,"lot":4996,"Ġcroit":4997,"ĠmÃ©nage":4998,"Ġlieues":4999,"eusse":5000,"16":5001,"Ġpoursuivit":5002,"Ġbiens":5003,"Ġpois":5004,"uteur":5005,"Ġsembla":5006,"Ġcontin":5007,"Ġ*":5008,"Ġmarchait":5009,"ĠmÃ©tier":5010,"esta":5011,"anÃ§ant":5012,"Ġsainte":5013,"eue":5014,"Ġrefer":5015,"Ġanciens":5016,"Ġcalcul":5017,"ĠreÃ§ut":5018,"Ġcath":5019,"aup":5020,"Ġeh":5021,"Ġmousquet":5022,"Ġdissimul":5023,"ĠplacÃ©":5024,"ĠintÃ©rÃªts":5025,"Ġsoum":5026,"ivre":5027,"Ġobjets":5028,"Ġprends":5029,"Ġhonor":5030,"Ġinqui":5031,"ĠentrÃ©":5032,"imag":5033,"Ġsupr":5034,"ĠSim":5035,"illa":5036,"grat":5037,"ignitÃ©":5038,"ĠdÃ©velopp":5039,"ĠsrsquoÃ©loign":5040,"ĠcachÃ©":5041,"Ġth":5042,"ĠÃ©ner":5043,"Ġdestin":5044,"Ġbrou":5045,"Ġlangage":5046,"entends":5047,"Ġsilenc":5048,"inrent":5049,"alors":5050,"Ġcousin":5051,"Ãªle":5052,"Ġremarquer":5053,"tion":5054,"reaux":5055,"ereur":5056,"reg":5057,"estre":5058,"ĠMari":5059,"Ġvend":5060,"oquer":5061,"froid":5062,"Ġprovince":5063,"Ġglace":5064,"ilbert":5065,"Ġgend":5066,"Ġparfaite":5067,"midi":5068,"urg":5069,"cr":5070,"ograph":5071,"Ġ4":5072,"Ġdomestiques":5073,"rsquoimporte":5074,"Crsquoest":5075,"Ġchat":5076,"ĠRome":5077,"Ã©j":5078,"haut":5079,"Ġprol":5080,"andre":5081,"ĠÃªtres":5082,"Ġperte":5083,"sa":5084,"Ġaimable":5085,"sibilitÃ©":5086,"UR":5087,"alter":5088,"ĠÃ©te":5089,"Ġflamme":5090,"ĠÃ©gal":5091,"Ġfaudra":5092,"Ġrapproch":5093,"Ġvisit":5094,"Ġpein":5095,"ault":5096,"ĠnÃ©cessitÃ©":5097,"onique":5098,"Ã©lÃ¨ne":5099,"Ġpapiers":5100,"Ġsages":5101,"ĠfiÃ¨vre":5102,"Ġcrains":5103,"ĠappelÃ©":5104,"Ġdemeura":5105,"irez":5106,"Ġfaiblesse":5107,"abs":5108,"Ġsurv":5109,"Ġperp":5110,"ck":5111,"Ġneveu":5112,"eul":5113,"Ġtenu":5114,"Ġpensais":5115,"Ġrejet":5116,"Ġmarier":5117,"ĠrÃ©alitÃ©":5118,"Ġvoisine":5119,"idement":5120,"Ġgouverneur":5121,"ĠSalvator":5122,"Ġposa":5123,"Ġvictime":5124,"agissait":5125,"Ġsergent":5126,"Ġmirent":5127,"ĠFanny":5128,"ouvertes":5129,"Ġtrouble":5130,"ĠsecrÃ©t":5131,"cette":5132,"ĠDÃ¨s":5133,"Ġsaurait":5134,"ĠRobin":5135,"Ġlrsquoacc":5136,"aissaient":5137,"Ġinform":5138,"Am":5139,"Ġnaissance":5140,"ĠSancho":5141,"Ġremercie":5142,"ĠÃ©tinc":5143,"ĠremarquÃ©":5144,"Ġbuv":5145,"Ġnombreux":5146,"ĠchÃ¢t":5147,"rique":5148,"ĠrÃ©gn":5149,"Ġvisible":5150,"Ġtermes":5151,"ĠprÃ©d":5152,"Ġpip":5153,"ĠMrs":5154,"Ġretard":5155,"Paris":5156,"Ġobjet":5157,"ĠMaurin":5158,"Ġfureur":5159,"ĠrÃ©jou":5160,"ignit":5161,"ĠÃ§":5162,"Ġsoie":5163,"uise":5164,"Ġeaux":5165,"ĠtombÃ©":5166,"ĠprÃ©texte":5167,"arme":5168,"Ġjrsquoaurais":5169,"ĠboÃ®":5170,"ĠtÃ©moin":5171,"ĠoccupÃ©":5172,"Ġ5":5173,"artÃ©":5174,"Ġbande":5175,"Ġsolitude":5176,"mLa":5177,"Ġpatron":5178,"Ġvolontiers":5179,"Ġphilosoph":5180,"Sur":5181,"Ġsuivait":5182,"Ġcommencement":5183,"Ġvoyons":5184,"Ġtapis":5185,"ĠÃ©toi":5186,"Ġlrsquooreille":5187,"Ġpermet":5188,"Ġplaine":5189,"Ġrenseigne":5190,"Ġsuffit":5191,"erais":5192,"Ġtendit":5193,"Ġretira":5194,"Ġaise":5195,"inal":5196,"Ġbruy":5197,"Ġplume":5198,"ĠRaoul":5199,"rette":5200,"Ġmanquait":5201,"arrivÃ©e":5202,"Ġlrsquoendroit":5203,"ĠBern":5204,"ĠÃ©levÃ©":5205,"Ġserviteur":5206,"ĠconsÃ©quence":5207,"ĠAg":5208,"Ġsrsquoagit":5209,"ĠGal":5210,"ĠcouchÃ©":5211,"Ġprisonniers":5212,"lis":5213,"oujours":5214,"Ġcre":5215,"aites":5216,"ĠdÃ©fin":5217,"Ġspir":5218,"Ġchasseur":5219,"Ġcavalier":5220,"rirent":5221,"Ġsupporter":5222,"Ġtransf":5223,"Vous":5224,"Ġmienne":5225,"Ġlun":5226,"Ġpromenade":5227,"ĠvallÃ©e":5228,"urope":5229,"Ġremis":5230,"Ġtoutefois":5231,"ĠÃ¢mes":5232,"ĠmÃ©dec":5233,"ĠÃ©tais":5234,"Ġdevenue":5235,"ĠfÃ¢ch":5236,"resp":5237,"Ġsienne":5238,"ĠentrÃ©e":5239,"apprendre":5240,"Ġjaune":5241,"atoire":5242,"Ã©sie":5243,"Ġaigu":5244,"Ġvenus":5245,"ĠdÃ©clara":5246,"ĠÃ©norme":5247,"Ġfuir":5248,"Ġfleuve":5249,"Ġanimaux":5250,"Ġdirait":5251,"Ã©pÃ©e":5252,"ĠforcÃ©":5253,"Ġbranches":5254,"ĠprocÃ©d":5255,"ĠXV":5256,"ĠmystÃ¨re":5257,"ĠdÃ©sormais":5258,"mLes":5259,"Ġboule":5260,"Ã©cile":5261,"Ġvilles":5262,"Ġplong":5263,"ĠdÃ©fense":5264,"Ġsortes":5265,"Ġpatri":5266,"Ġinex":5267,"ĠMin":5268,"ords":5269,"Ġcaress":5270,"apt":5271,"ogue":5272,"hÃ©r":5273,"Ġmeilleure":5274,"ĠSrsquoil":5275,"Ġcommencer":5276,"ĠNrsquo":5277,"ĠaperÃ§u":5278,"Ġdrsquoex":5279,"Ġbouteille":5280,"Ã©mitÃ©":5281,"Ġadvers":5282,"Ġexpliquer":5283,"oimag":5284,"Ġbateau":5285,"ĠMac":5286,"Ġpatience":5287,"Car":5288,"Ġadieu":5289,"Ġhabits":5290,"inaires":5291,"lÃ©ment":5292,"Ġvraie":5293,"Ġmettant":5294,"Ġdimanche":5295,"ĠTenez":5296,"Ġappeler":5297,"ayer":5298,"Ġonze":5299,"ĠMademoiselle":5300,"Jean":5301,"ĠprÃ©cisÃ©ment":5302,"Ġjugement":5303,"champ":5304,"Ġsrsquoemp":5305,"Ġintention":5306,"eller":5307,"uisit":5308,"ĠJo":5309,"Ġrentra":5310,"onnÃ©s":5311,"ĠdÃ©licat":5312,"core":5313,"Ġplat":5314,"Ġlrsquoenv":5315,"Ġtyp":5316,"Ã©rÃ©e":5317,"Ġdeviner":5318,"Ġeurent":5319,"Ġvil":5320,"illage":5321,"Ġlab":5322,"Ġmontrait":5323,"Ãªque":5324,"Ġcorrid":5325,"izon":5326,"ĠFranÃ§ois":5327,"dou":5328,"old":5329,"Ġpermission":5330,"ublique":5331,"Ġvoyais":5332,"ĠOu":5333,"ĠprotÃ©g":5334,"IsraÃ«l":5335,"Ġdir":5336,"Ġintrod":5337,"imm":5338,"Ġbaiser":5339,"Ġgaz":5340,"Ġprofit":5341,"elligence":5342,"ĠrÃ©volution":5343,"Ġcouleurs":5344,"ĠProv":5345,"ickwick":5346,"ouvert":5347,"Ġcommune":5348,"ĠdÃ©sol":5349,"Ġloup":5350,"Ġendorm":5351,"mX":5352,"Ġrepar":5353,"ĠLÃ©":5354,"Ġdistr":5355,"Ġdevenait":5356,"attendait":5357,"Ġartic":5358,"Ġdouter":5359,"Ġis":5360,"Ġsemblables":5361,"appelait":5362,"Ġvoyageurs":5363,"run":5364,"Ġchamb":5365,"aston":5366,"Ġoublier":5367,"adressant":5368,"Ġblanches":5369,"Ġexactement":5370,"ĠdrsquoAn":5371,"Ġinstru":5372,"Ġparla":5373,"Ġsonger":5374,"ĠBel":5375,"Ġventre":5376,"Ġdisparut":5377,"erte":5378,"Ġdemandai":5379,"ĠRoland":5380,"Ġgarant":5381,"Ġpoints":5382,"amin":5383,"orÃ©":5384,"ĠMazarin":5385,"quÃªte":5386,"ourse":5387,"ĠempÃªcher":5388,"ĠPÃ©tr":5389,"ĠTant":5390,"face":5391,"Ġlorsqursquo":5392,"Ġesprits":5393,"ĠrÃ©solu":5394,"ĠdestinÃ©e":5395,"Ġcuir":5396,"Ġtravaux":5397,"Ġentendait":5398,"icip":5399,"iale":5400,"Ġservante":5401,"Ġcomprend":5402,"ĠÃ©videmment":5403,"Ġapercev":5404,"lit":5405,"Ġlrsquoass":5406,"Ã©ral":5407,"Ġmagistr":5408,"Ġlux":5409,"Ġtravailler":5410,"ĠcongÃ©":5411,"ĠQuelques":5412,"Ġlogis":5413,"Ġcig":5414,"ĠlrsquohÃ´tel":5415,"mÃ¨re":5416,"Ġquere":5417,"Ġenfer":5418,"Ġgren":5419,"Ġpermettre":5420,"Ġretenir":5421,"Ġressemblait":5422,"arriver":5423,"ĠCons":5424,"cre":5425,"ĠpÃ©":5426,"Ġailleurs":5427,"ĠLui":5428,"ĠrÃ©clam":5429,"Ġconsul":5430,"Ġpromesse":5431,"Ã©nom":5432,"ĠinquiÃ©tude":5433,"atures":5434,"ĠAlex":5435,"Ġsrsquoils":5436,"Ġsoutenir":5437,"ein":5438,"Ġlrsquoavoir":5439,"Ġcontinuait":5440,"Ġapparence":5441,"Ġmode":5442,"Ġtriomphe":5443,"Ġcomprenez":5444,"ĠsÃ»retÃ©":5445,"Ġjalous":5446,"accep":5447,"appartement":5448,"ogn":5449,"onv":5450,"Ġplai":5451,"Ġcertes":5452,"Ġtableau":5453,"ĠTrois":5454,"Ġreleva":5455,"Ġsourcils":5456,"expliquer":5457,"ĠtÃ©nÃ¨bres":5458,"ĠsecrÃ©taire":5459,"ĠPickwick":5460,"mB":5461,"ormes":5462,"ĠsuprÃªme":5463,"ĠdÃ©vouement":5464,"Ġdistingu":5465,"Ġchiff":5466,"Ġquitta":5467,"Ġprodig":5468,"but":5469,"ĠlrsquoÃī":5470,"Ġparties":5471,"Ġaccus":5472,"lir":5473,"ĠdignitÃ©":5474,"phÃ¨re":5475,"Ġcavaliers":5476,"nÃ©s":5477,"aim":5478,"Ġnrsquoaurait":5479,"ĠrÃ©pondait":5480,"ĠespÃ¨ces":5481,"Ġaugment":5482,"Ġunique":5483,"Ġinstinct":5484,"Ġsauf":5485,"za":5486,"itution":5487,"ĠhÃ¢t":5488,"Ġdisent":5489,"Ġcanon":5490,"Ġlrsquoinstant":5491,"Ġtouch":5492,"igueur":5493,"Ġoiseaux":5494,"Ġsable":5495,"ĠvÃ©cu":5496,"Ġfuite":5497,"ucation":5498,"Ã©tant":5499,"mal":5500,"ministr":5501,"uine":5502,"ĠdonnÃ©e":5503,"Ġlivrer":5504,"ĠII":5505,"ĠnÃ¨g":5506,"comp":5507,"Ġboutique":5508,"ves":5509,"Ġsurveill":5510,"illait":5511,"ĠÃ©gard":5512,"Ġmord":5513,"ĠPÃ¨re":5514,"Ġcomprom":5515,"Ġ16":5516,"Ġutile":5517,"Ġmrsquoest":5518,"Ġincap":5519,"eule":5520,"ider":5521,"ĠAdieu":5522,"Ġbi":5523,"Ġretir":5524,"Ġemploy":5525,"oÃ¯s":5526,"Ġlourde":5527,"erb":5528,"ĠdÃ©pit":5529,"grÃ¨s":5530,"ĠdÃ©mar":5531,"Ġbrav":5532,"Ġflot":5533,"qursquoelle":5534,"Ġcoutume":5535,"ĠPersonne":5536,"ĠvÃ´tre":5537,"drÃ©":5538,"ase":5539,"Ġjur":5540,"oigne":5541,"ĠentraÃ®":5542,"Ġlrsquoen":5543,"Ġatteint":5544,"Ġbonhomme":5545,"Ġcharmant":5546,"Ġlait":5547,"Ġaccr":5548,"ĠamitiÃ©":5549,"arras":5550,"Ġlieux":5551,"Ġvoisins":5552,"Ġprouver":5553,"ĠRoger":5554,"issez":5555,"Ġbizarre":5556,"Ġprat":5557,"Ġdemoiselle":5558,"ĠprÃ©senta":5559,"ĠBen":5560,"Ġbrut":5561,"ĠrÃ©giment":5562,"QU":5563,"Ġmoin":5564,"Ã©dition":5565,"Ġaid":5566,"ĠJrsquoen":5567,"aspect":5568,"Ġnuages":5569,"Ġmajor":5570,"Ġout":5571,"bran":5572,"iron":5573,"mCh":5574,"ension":5575,"ĠFlorence":5576,"Son":5577,"ĠhÃ´tel":5578,"ĠVers":5579,"ochers":5580,"jrsquo":5581,"Ġverrez":5582,"yn":5583,"Ġchauss":5584,"Ġsecrets":5585,"rich":5586,"Ġlrsquohistoire":5587,"Ġbanc":5588,"ĠrÃ©putation":5589,"glise":5590,"Ġnotaire":5591,"Ġtint":5592,"Ġservait":5593,"IL":5594,"mand":5595,"Ġmorale":5596,"ĠprocÃ¨s":5597,"Fr":5598,"Ġfameux":5599,"encieux":5600,"utions":5601,"Ġjournaux":5602,"Ġtaill":5603,"Espagne":5604,"inv":5605,"attr":5606,"Ġceinture":5607,"acune":5608,"ĠDomb":5609,"ini":5610,"Ġveulent":5611,"instant":5612,"ĠsÅĵurs":5613,"igh":5614,"Ġenvirons":5615,"Ġmi":5616,"ĠLorsque":5617,"Ġespoir":5618,"Ġmouchoir":5619,"Ġloy":5620,"Ġdevient":5621,"Ġpatrie":5622,"Ġsubit":5623,"ĠrÃ©flexion":5624,"aritÃ©":5625,"ification":5626,"Ġlrsquoaffaire":5627,"ĠfrÃ©qu":5628,"Ġsortait":5629,"Ġvac":5630,"Ġrevenait":5631,"ĠDis":5632,"Ġobserver":5633,"ĠÃ©pouvant":5634,"ĠpÃ©t":5635,"Ġmotif":5636,"ĠnrsquoeÃ»t":5637,"Ġtoile":5638,"iendrai":5639,"arch":5640,"ĠnrsquoÃ©taient":5641,"sign":5642,"ĠJÃ©r":5643,"importe":5644,"fais":5645,"Ġroses":5646,"ĠdrsquoÃ©t":5647,"atrice":5648,"Ġincl":5649,"ication":5650,"part":5651,"Ġpousser":5652,"ĠhÃ©rit":5653,"Ġpassions":5654,"Ġpleins":5655,"Ġmission":5656,"11":5657,"Ġpais":5658,"ĠJust":5659,"Ġhauss":5660,"ouc":5661,"Ġcourte":5662,"Ġexpri":5663,"Ġailes":5664,"Ġtrouvai":5665,"Ġquitte":5666,"housiasme":5667,"Ġinconnu":5668,"Ainsi":5669,"Ġlin":5670,"ĠcÅĵurs":5671,"Ġvest":5672,"Ġsuit":5673,"Ġparu":5674,"avenir":5675,"oly":5676,"ĠRÃ©p":5677,"yant":5678,"Ã©tique":5679,"Ġquelles":5680,"Ġsyst":5681,"Ġsecoua":5682,"Ġfurieux":5683,"Ġlrsquoau":5684,"Ġchoix":5685,"aye":5686,"oient":5687,"ĠpriÃ¨res":5688,"Ġclasse":5689,"Ġsouviens":5690,"Ġquelconque":5691,"laud":5692,"ĠrÃ©flexions":5693,"Ġdessein":5694,"Ġattr":5695,"Ġchemise":5696,"Ġlecture":5697,"Ġcrimine":5698,"ĠarrÃªter":5699,"ĠpoussÃ©":5700,"ĠconsÃ©quent":5701,"jus":5702,"Ã©prouv":5703,"Ġmou":5704,"Ġcarr":5705,"Ġarrivant":5706,"RA":5707,"Ġrois":5708,"Ġsrsquoenf":5709,"ĠDombey":5710,"Ġmob":5711,"ĠPrince":5712,"ĠdiffÃ©rentes":5713,"Ġobtenir":5714,"del":5715,"Ġperdue":5716,"Ġcadavre":5717,"ĠÃīcoutez":5718,"Ġmillions":5719,"Ã´tres":5720,"Ġserons":5721,"Ġbarque":5722,"ĠprÃ©venir":5723,"ĠLouise":5724,"itt":5725,"ĠgrÃ©":5726,"assait":5727,"ĠCamille":5728,"ĠnÃ©":5729,"ĠBer":5730,"Ġvictoire":5731,"Ġcocher":5732,"ĠÃ§Ãł":5733,"assÃ©e":5734,"Ġber":5735,"Ġlrsquoaut":5736,"sibles":5737,"hier":5738,"ussy":5739,"sivement":5740,"ĠdÃ©mon":5741,"auff":5742,"Ġsouver":5743,"Ġcapt":5744,"Ġlrsquointer":5745,"ĠAvez":5746,"ilde":5747,"ĠdrsquoaprÃ¨s":5748,"20":5749,"nant":5750,"Ġridicule":5751,"ĠtÃ©l":5752,"Ġauxquels":5753,"Ġservices":5754,"Ġacte":5755,"Ġtromper":5756,"enons":5757,"ĠÃ©tage":5758,"Louis":5759,"ĠmatiÃ¨re":5760,"Ġmien":5761,"ĠmÅĵurs":5762,"aperÃ§ut":5763,"Ġdedans":5764,"acte":5765,"Ġmarches":5766,"Ġferez":5767,"ĠprÃ©cieux":5768,"co":5769,"ĠÃ©cras":5770,"ĠpropriÃ©taire":5771,"outum":5772,"ĠlrsquoE":5773,"Ġnoblesse":5774,"Ġteint":5775,"ĠMartin":5776,"royable":5777,"ize":5778,"xi":5779,"ĠnÃ©anmoins":5780,"Ġhont":5781,"ĠarrivÃ©s":5782,"Ġsauvages":5783,"Ġrayons":5784,"ancien":5785,"Ġaction":5786,"Ġarbre":5787,"appe":5788,"ĠfiÃ¨re":5789,"approcher":5790,"aises":5791,"Ġalli":5792,"quatre":5793,"ĠJus":5794,"ĠVoulez":5795,"ombien":5796,"Ġpaysans":5797,"mN":5798,"Ġtente":5799,"Ġplaisirs":5800,"Ġbienv":5801,"ĠfÃ©lic":5802,"Ã¨ce":5803,"Ġdrsquoici":5804,"talie":5805,"ĠallÃ©e":5806,"Ġmontait":5807,"pie":5808,"Ġros":5809,"Ġfallu":5810,"Ġblanch":5811,"orgueil":5812,"Ġcriant":5813,"onÃ§ant":5814,"ĠBert":5815,"Ġexpl":5816,"ĠÅĵuvre":5817,"ouge":5818,"offre":5819,"aw":5820,"Ġange":5821,"Ġmut":5822,"Ġfine":5823,"ombr":5824,"ĠboÃ®te":5825,"ĠirrÃ©":5826,"vel":5827,"Ġtut":5828,"Ġgrosses":5829,"Ġsommet":5830,"Ġflamb":5831,"Ġtrace":5832,"Ġdemie":5833,"ĠlrsquoarmÃ©e":5834,"Tous":5835,"Ġprojets":5836,"ield":5837,"Ġsachant":5838,"quin":5839,"ano":5840,"acles":5841,"aucun":5842,"agon":5843,"Ġappartement":5844,"ĠparticuliÃ¨rement":5845,"ki":5846,"oun":5847,"ĠtÃ¢che":5848,"agÃ©e":5849,"ĠÃ©veill":5850,"ĠsÃ©jour":5851,"Ġtenez":5852,"Ġrepent":5853,"nelle":5854,"licitÃ©":5855,"heurs":5856,"Ġfoss":5857,"aste":5858,"Ġcler":5859,"erons":5860,"Ġcop":5861,"Ġlrsquoest":5862,"ignÃ©":5863,"attention":5864,"ĠbrÃ»l":5865,"respond":5866,"Ġimb":5867,"ĠÃ©trangers":5868,"ĠVa":5869,"ĠconÃ§":5870,"ĠRose":5871,"Ġador":5872,"Ġproph":5873,"Ġsoigne":5874,"Ġconvaincu":5875,"lum":5876,"Ġcentre":5877,"Sa":5878,"Ġliqu":5879,"ĠÃ©couter":5880,"ĠcessÃ©":5881,"ĠrÃ©al":5882,"ennent":5883,"Ã¨les":5884,"Ġcriait":5885,"Ġpoudre":5886,"Ġorig":5887,"ĠindiffÃ©r":5888,"ouille":5889,"Ġouvrage":5890,"Ġvagues":5891,"ĠrÃ©flÃ©chir":5892,"Mon":5893,"ĠmatÃ©ri":5894,"Ġplacer":5895,"Ġconfond":5896,"Ġsavent":5897,"Ġprotest":5898,"ĠFaites":5899,"Ġmuraille":5900,"Ġdil":5901,"Ġbraves":5902,"Ġsien":5903,"Ġminuit":5904,"espÃ©rance":5905,"abli":5906,"Ġretournant":5907,"quiÃ¨":5908,"ĠÃĶ":5909,"Ġoreille":5910,"ĠvÃªtu":5911,"prendre":5912,"Ġpromptement":5913,"isions":5914,"Ġrelations":5915,"Ġvap":5916,"Ġbesogne":5917,"ĠsÃ©vÃ¨re":5918,"ettant":5919,"ĠSainte":5920,"lt":5921,"mde":5922,"entret":5923,"Ġressemble":5924,"ĠPauvre":5925,"aissent":5926,"ressions":5927,"ĠhÃ©ros":5928,"Ġcivil":5929,"Lorsque":5930,"Ġpus":5931,"Ġtrompe":5932,"Ġpaquet":5933,"ĠâĢ¦":5934,"olont":5935,"ĠpassÃ©e":5936,"ĠmanquÃ©":5937,"Ġheur":5938,"Ġtraces":5939,"ĠÃ©tendu":5940,"Ġporta":5941,"Ġlarges":5942,"alt":5943,"ĠPe":5944,"ĠtrompÃ©":5945,"Ġvoyageur":5946,"Ġviendra":5947,"oyant":5948,"Ġfigures":5949,"uge":5950,"reuve":5951,"ĠGaston":5952,"Ġspiritu":5953,"illÃ©e":5954,"Ġprononcer":5955,"zanne":5956,"ĠrÃ©ussi":5957,"ĠMary":5958,"Ġsplend":5959,"ĠdÃ©rob":5960,"AS":5961,"ivitÃ©":5962,"illets":5963,"anÃ§aise":5964,"Ġoffrir":5965,"ĠdÃ©sirs":5966,"Ã©clat":5967,"Drsquo":5968,"uellement":5969,"Ã¨que":5970,"Ġmarin":5971,"ĠEncore":5972,"Ġterres":5973,"uter":5974,"ĠVenez":5975,"ĠNo":5976,"Ġexiste":5977,"ĠsrsquoÃ©c":5978,"intÃ©rÃªt":5979,"toine":5980,"ĠdÃ©couverte":5981,"Ġimportance":5982,"ĠÃ©poux":5983,"Ġsilencieux":5984,"Ġrocher":5985,"Ġadresse":5986,"Ġguide":5987,"orb":5988,"Ġraisonn":5989,"Ġglac":5990,"Ġexerc":5991,"Ġnuits":5992,"ueur":5993,"Ġplaindre":5994,"Ã©pare":5995,"Ġaffreux":5996,"Ġprobable":5997,"ormer":5998,"add":5999,"Ġfallut":6000,"Ġpressent":6001,"mrsquo":6002,"Ġprofesseur":6003,"Ġimpatience":6004,"ription":6005,"Ġpendu":6006,"ĠrÃ©pÃ¨te":6007,"Ġfermer":6008,"astique":6009,"Ġressour":6010,"Ġhabitudes":6011,"ĠlrsquoÃ¢me":6012,"arÃ©":6013,"ĠCert":6014,"Ġsalua":6015,"Ġmaire":6016,"ĠlrsquoÃ©tat":6017,"lens":6018,"Ġsortant":6019,"Ġcolline":6020,"ĠIndiens":6021,"Ġpis":6022,"aug":6023,"Ã¢ces":6024,"Ġserra":6025,"ĠcÃ©lÃ¨bre":6026,"mblement":6027,"Ġdangereux":6028,"Ġrares":6029,"ĠgagnÃ©":6030,"Ġfantais":6031,"ĠlevÃ©":6032,"ombe":6033,"iÃ¨ce":6034,"piegel":6035,"icien":6036,"ĠAvant":6037,"Ġfan":6038,"Ġjette":6039,"olique":6040,"Ġvenant":6041,"ĠMax":6042,"ellus":6043,"ensÃ©":6044,"Ġsource":6045,"Ġpeuples":6046,"ĠmystÃ©rieux":6047,"lenspiegel":6048,"ĠhÃ´":6049,"ĠLaissez":6050,"Ġreproche":6051,"Ġscand":6052,"Ġhumain":6053,"Ġfruits":6054,"angers":6055,"aura":6056,"Ġpipe":6057,"Ġtenaient":6058,"ĠVan":6059,"Ġdisaient":6060,"approche":6061,"Ġredress":6062,"Ġtas":6063,"Ġrisque":6064,"pital":6065,"Ġcorridor":6066,"Ġnord":6067,"//":6068,"Ġaccident":6069,"cour":6070,"Ġcrsquo":6071,"ĠJane":6072,"Ġcraint":6073,"Ġaurais":6074,"ĠgardÃ©":6075,"Ġsingulier":6076,"ME":6077,"iÃ¨ve":6078,"ommage":6079,"Ġdiscuss":6080,"eviÃ¨ve":6081,"ttp":6082,"ĠtouchÃ©":6083,"Ġposer":6084,"Ġcoff":6085,"ceptÃ©":6086,"Ġmenton":6087,"ĠGilbert":6088,"Ġpossession":6089,"Ġcarte":6090,"Ġabsence":6091,"Ġexcellent":6092,"Quant":6093,"Ã¢ne":6094,"arque":6095,"arth":6096,"Ġmrsquoin":6097,"ĠphÃ©nom":6098,"Ġpratique":6099,"anes":6100,"Ġchanc":6101,"ĠdÃ©sagrÃ©":6102,"Mal":6103,"ĠFont":6104,"ĠarrivÃ¨rent":6105,"ĠsystÃ¨me":6106,"IRE":6107,"Ãªtant":6108,"ĠbÃ¢ton":6109,"Ġhautes":6110,"aj":6111,"ĠMan":6112,"ĠAli":6113,"Ġsoud":6114,"ĠbÃ¢timent":6115,"mIl":6116,"ĠGl":6117,"Ġpartage":6118,"Ġabatt":6119,"Ġchanter":6120,"ĠsrsquoÃ©lev":6121,"ĠAnne":6122,"berg":6123,"Ġsentier":6124,"Ġcorrespond":6125,"Ġrecherche":6126,"euille":6127,"itaires":6128,"ĠchÃª":6129,"ĠprÃ©cipit":6130,"ĠVer":6131,"Ġpapa":6132,"Ġappelait":6133,"Ġ.":6134,"ĠRuss":6135,"Ġvaisseau":6136,"ĠsÃ©rieusement":6137,"mH":6138,"Ġchacune":6139,"Ġrevient":6140,"Ġtelles":6141,"Ġbu":6142,"Ġbanqu":6143,"ĠpÃ©nÃ©trer":6144,"atifs":6145,"ĠBah":6146,"ĠGui":6147,"Ġaffection":6148,"ĠsauvÃ©":6149,"Ġballe":6150,"Ġsert":6151,"Ġtroubl":6152,"ww":6153,"Ġrub":6154,"Ġgrille":6155,"Ġcouvent":6156,".,":6157,"riÃ¨res":6158,"ista":6159,"ouillÃ©":6160,"Ġrenseignements":6161,"TE":6162,"Ġallant":6163,"ĠmÃ©di":6164,"mc":6165,"Ġlrsquooccasion":6166,"Ġdrsquoautant":6167,"Ġvivait":6168,"ĠtraitÃ©":6169,"Ġnulle":6170,"ĠtrÃ©sor":6171,"ĠEntre":6172,"Ġanimal":6173,"Ġcharme":6174,"escl":6175,"ĠRom":6176,"ĠReine":6177,"istres":6178,"Ġmurmure":6179,"ĠÃ©change":6180,"Ġterribles":6181,"ĠÃ©viter":6182,"rsquoir":6183,"Ġparent":6184,"rame":6185,"Ġpersonnages":6186,"Ã±":6187,"ata":6188,"allait":6189,"vingt":6190,"Ġchemins":6191,"ĠRegarde":6192,"Ġboulev":6193,"Ġvoudrez":6194,"Ġessaya":6195,"Ġchans":6196,"Ġcouronne":6197,"ĠdÃ©pend":6198,"Ġautor":6199,"Ġmaigre":6200,"Ġvelours":6201,"obt":6202,"Ġapprit":6203,"Ġsourd":6204,"IE":6205,"ĠprÃ©parer":6206,"Ġsujets":6207,"espace":6208,"Ġfamilles":6209,"ĠrÃ©guli":6210,"Ġdonnez":6211,"voir":6212,"Ġchoisi":6213,"ĠBretagne":6214,"://":6215,"tements":6216,"Ġrempli":6217,"ĠÃ©vÃ©nement":6218,"ĠdifficultÃ©":6219,"Ġdirent":6220,"aparte":6221,"Ã¼":6222,"Ġronde":6223,"urier":6224,"Ġglor":6225,"ĠrÃªves":6226,"ecks":6227,"ĠSte":6228,"nez":6229,"Ġmonte":6230,"ĠJrsquoavais":6231,"ellent":6232,"Ġsoign":6233,"Ġaud":6234,"ĠlrsquoÃ®le":6235,"Ġnouvel":6236,"ĠdiffÃ©rence":6237,"ĠprÃ©tend":6238,"quets":6239,"Ġpaille":6240,"Ġdevons":6241,"Ġhabitude":6242,"Rose":6243,"Ġdessous":6244,"ĠqualitÃ©s":6245,"sec":6246,"erbes":6247,"ĠVend":6248,"Ã©min":6249,"Ġeffets":6250,"bleu":6251,"Ġremplir":6252,"ortance":6253,"Ġverd":6254,"ĠinfÃ©ri":6255,"Ġinvent":6256,"ĠExc":6257,"Ġchevaliers":6258,"Ġnuage":6259,"ĠlrsquoÃ©glise":6260,"Ġcouch":6261,"Ġmenace":6262,"Ġsouliers":6263,"Ġcomprenait":6264,"ĠcomplÃ¨te":6265,"Ġressort":6266,"ammes":6267,"Ġprincipe":6268,"ĠlrsquoÃ©paule":6269,"ock":6270,"Ġsaisir":6271,"udes":6272,"Ġtribun":6273,"arra":6274,"ĠdÃ©sordre":6275,"Ġproposition":6276,"ĠJeanne":6277,"Ġrefuser":6278,"Ġfranche":6279,"Ġdevoirs":6280,"Ġras":6281,"Ġentendant":6282,"ĠdÃ©goÃ»t":6283,"ran":6284,"Ġregagn":6285,"Ġconsac":6286,"Ġsouci":6287,"Ġlrsquohor":6288,"Ġdrsquoimp":6289,"Ã©jÃł":6290,"ĠDrsquoailleurs":6291,"ĠprÃ©caution":6292,"oration":6293,"Ġconseils":6294,"Ġcla":6295,"ĠÃ©puis":6296,"Ġtirant":6297,"Ġjalousie":6298,"Ġbib":6299,"Ġactes":6300,"Ġblessure":6301,"Ġmets":6302,"Ġchute":6303,"Pierre":6304,"seulement":6305,"ĠLA":6306,"Ġinterrog":6307,"arie":6308,"ĠdÃ©ta":6309,"effor":6310,"Ġroyal":6311,"phe":6312,"ĠparticuliÃ¨re":6313,"Qui":6314,"ĠvÅĵ":6315,"igner":6316,"Ġroyale":6317,"mat":6318,"ffe":6319,"ald":6320,"ĠfranÃ§aise":6321,"Ġdevais":6322,"mE":6323,"Ġcant":6324,"Ġqueue":6325,"intes":6326,"ĠdrsquoÃ©p":6327,"emm":6328,"ĠrÃ©serve":6329,"illant":6330,"anchet":6331,"organ":6332,"livier":6333,"Ġcrit":6334,"leine":6335,"Ġjoign":6336,"Ã©motion":6337,"Ġrenfer":6338,"Ġdent":6339,"Ġsurface":6340,"rel":6341,"astr":6342,"mh":6343,"ĠrestÃ©e":6344,"ĠtÃ©moins":6345,"Ġsombres":6346,"arrive":6347,"avent":6348,"Des":6349,"atter":6350,"Ġconstr":6351,"Ġpavillon":6352,"ank":6353,"Ġsache":6354,"Ġtombait":6355,"oÃ»te":6356,"apercev":6357,"Ġlrsquoavez":6358,"Ġpaysan":6359,"ĠGuill":6360,"lection":6361,"Ġsrsquoapprocha":6362,"ford":6363,"isÃ©e":6364,"Ġdiscip":6365,"illons":6366,"'s":6367,"Ġbonnet":6368,"Ġdieux":6369,"ĠrÃ©sister":6370,"Ġassass":6371,"Ã©rait":6372,"Ġferais":6373,"ĠdÃ©cider":6374,"Ġvicom":6375,"Ġroule":6376,"appart":6377,"ĠlrsquointÃ©rieur":6378,"Ġprirent":6379,"avance":6380,"Ġmeubles":6381,"Ġdirec":6382,"ĠmontrÃ©":6383,"ĠdÃ©guis":6384,"Ġchambres":6385,"Ġvrais":6386,"Ġdistin":6387,"ĠsupÃ©rieure":6388,"Ġdiverses":6389,"Ġincapable":6390,"ĠgÃ¢":6391,"Ġmart":6392,"Ġvisages":6393,"igneurs":6394,"Ġsacrifice":6395,"ĠlÃ¢che":6396,"ecte":6397,"Ã¨ches":6398,"Ġfausse":6399,"ĠToutes":6400,"ĠcondamnÃ©":6401,"ĠtrÃ´ne":6402,"Ġauriez":6403,"Ġaspect":6404,"ĠMars":6405,"Ġpuissant":6406,"Ġsensible":6407,"ologie":6408,"OR":6409,"ĠlÃ¨ve":6410,"olution":6411,"Ġserment":6412,"ĠHÃ©lÃ¨ne":6413,"ĠgaietÃ©":6414,"Ġconduisit":6415,"alem":6416,"Ġabord":6417,"ueuse":6418,"Ġancienne":6419,"ĠnÃ©glig":6420,"ĠmÃ¨tres":6421,"Ġexpliqu":6422,"ĠAngleterre":6423,"Ġtriomph":6424,"ĠÃītats":6425,"xe":6426,"Ġbourse":6427,"ĠLis":6428,"Ġattitude":6429,"ĠtournÃ©":6430,"ena":6431,"Ã©cur":6432,"rÃ©p":6433,"ĠfÃ©ro":6434,"ourir":6435,"Ġsonner":6436,"ublic":6437,"enses":6438,"opinion":6439,"Ġmrsquoy":6440,"Ġroman":6441,"ĠchaÃ®ne":6442,"Ġvaill":6443,"agu":6444,"Ġabond":6445,"ĠrÃ©sistance":6446,"alie":6447,"ĠBussy":6448,"Ġmalheurs":6449,"Åĵuvres":6450,"ĠÃ©paule":6451,"Ġgrandeur":6452,"Ġcherchant":6453,"Ġvinrent":6454,"TRE":6455,"rain":6456,"ĠVrai":6457,"embl":6458,"Ġcroir":6459,"ignait":6460,"ĠNapol":6461,"ĠfraÃ®che":6462,"rÃ©es":6463,"Ġpourvu":6464,"Ġbalbut":6465,"Ġayez":6466,"Tu":6467,"Ġpil":6468,"ĠfÃ¢chÃ©":6469,"ĠtrouvÃ¨rent":6470,"rÃ©tion":6471,"ĠpÃ¨res":6472,"enfer":6473,"Ġpublique":6474,"Ġinquiet":6475,"Ġpaisible":6476,"ĠimpÃ©ri":6477,"Ġfortement":6478,"assant":6479,"Ġfeuille":6480,"ĠlanÃ§a":6481,"ueille":6482,"ugit":6483,"expression":6484,"Ġfabri":6485,"Ġbav":6486,"Ġsollic":6487,"Ġrangs":6488,"Ġ6":6489,"Ġsubli":6490,"Ġtalent":6491,"Ġpareilles":6492,"ĠNaples":6493,"niff":6494,"arqu":6495,"Ġpension":6496,"Ġdirigea":6497,"Ġrenv":6498,"ĠnÃ©cessaires":6499,"endorm":6500,"Ġsueur":6501,"ĠquantitÃ©":6502,"Ġintelligence":6503,"ecksniff":6504,"ĠhÃ´te":6505,"Ġcoupe":6506,"Ġrideaux":6507,"Ġcourait":6508,"Ġremords":6509,"aussi":6510,"Ġchoisir":6511,"ĠRobert":6512,"Ġplonge":6513,"ĠfermÃ©e":6514,"quiÃ¨te":6515,"Ġproche":6516,"ĠÃ©tincel":6517,"Ġactions":6518,"ĠtempÃªte":6519,"faire":6520,"Ã©ge":6521,"Ã¨gne":6522,"sept":6523,"abeth":6524,"onnier":6525,"ival":6526,"ĠdevinÃ©":6527,"Ġsult":6528,"Ġrig":6529,"ĠAuc":6530,"aillard":6531,"ĠdegrÃ©":6532,"Ġentrant":6533,"Ġperc":6534,"ĠpossÃ¨de":6535,"Ġsouc":6536,"Ġclairement":6537,"Ġsignes":6538,"Ġmeilleurs":6539,"Ġdistinguer":6540,"ĠvÃ©n":6541,"Ġpoussant":6542,"ĠsupÃ©rieur":6543,"sans":6544,"ĠexpÃ©ri":6545,"Ġmince":6546,"Ġsouffert":6547,"comm":6548,"Ġfuy":6549,"Ġgestes":6550,"Ġfrappant":6551,"Ġhyp":6552,"Ġyou":6553,"Ġrenouv":6554,"upp":6555,"eline":6556,"Ġtroup":6557,"Ġrevenant":6558,"oz":6559,"Ġrond":6560,"usalem":6561,"Ġgravement":6562,"md":6563,"Ġtrouvant":6564,"Ġindis":6565,"ĠClaud":6566,"Ġcousine":6567,"ĠLyd":6568,"mma":6569,"reinte":6570,"anterie":6571,"blou":6572,"ĠRenaud":6573,"Ġsauta":6574,"ĠintÃ©rieure":6575,"uisse":6576,"Ã¨ves":6577,"ĠSuzanne":6578,"ipp":6579,"Ã©di":6580,"Ġaccept":6581,"Ġvulg":6582,"ĠComp":6583,"ulte":6584,"ĠMessieurs":6585,"ajout":6586,"Ġtue":6587,"osa":6588,"ĠJul":6589,"Ġconfir":6590,"ĠFouquet":6591,"ĠamenÃ©":6592,"Ġdam":6593,"Ġnum":6594,"Ġnullement":6595,"Ġimportant":6596,"Ġsympathie":6597,"quipage":6598,"Ġpend":6599,"point":6600,"ĠJon":6601,"Ġcertitude":6602,"Ġinvis":6603,"Ġlant":6604,"ato":6605,"Ġtrag":6606,"ĠexpÃ©rience":6607,"Ġ8":6608,"ĠregardÃ©":6609,"Ġpoignard":6610,"Ãİ":6611,"ĠdisparaÃ®tre":6612,"Ġmout":6613,"iev":6614,"prouver":6615,"ĠPecksniff":6616,"ĠrevÃªt":6617,"ĠsiÃ¨cles":6618,"Ġfroidement":6619,"mG":6620,"Ġfoyer":6621,"irant":6622,"ĠCont":6623,"ĠmontÃ©":6624,"ĠniÃ¨ce":6625,"ĠrÃ©ponds":6626,"ĠgarÃ§ons":6627,"Ġouvriers":6628,"occuper":6629,"Ġprincipes":6630,"gres":6631,"sent":6632,"Ġpage":6633,"Ġgentils":6634,"miÃ¨re":6635,"ĠÃ©par":6636,"Ġtranquill":6637,"ĠdiffÃ©rents":6638,"Ġenr":6639,"ami":6640,"obre":6641,"Ã©clair":6642,"ĠEug":6643,"ĠmÃ©chant":6644,"ĠÃ©dition":6645,"ĠPin":6646,"lieu":6647,"Ġtraverser":6648,"admiration":6649,"Ġvoudrait":6650,"ĠCombien":6651,"ugn":6652,"ĠWalter":6653,"ĠcÃ©rÃ©monie":6654,"gs":6655,"Ġconviction":6656,"Ġbords":6657,"ĠDel":6658,"agea":6659,"Ġcommandement":6660,"elet":6661,"Ġchand":6662,"Ġredev":6663,"avis":6664,"tern":6665,"Ġcim":6666,"Ġcouper":6667,"Ġsolide":6668,"Ġ15":6669,"Ġintentions":6670,"Ġsouffrance":6671,"quÃ©rir":6672,"enser":6673,"ĠdÃ©sirait":6674,"Ġconnue":6675,"ĠGrÃ¢ce":6676,"Ġpolitesse":6677,"Ġconserver":6678,"Ġmousta":6679,"Ġpaup":6680,"lioth":6681,"Ġpost":6682,"ĠthÃ©or":6683,"Ã®nt":6684,"Ġrochers":6685,"ĠQuelque":6686,"Ġenvoyer":6687,"ressement":6688,"ouci":6689,"ĠpossÃ©dait":6690,"acieux":6691,"Ġvenger":6692,"Ġrayon":6693,"atience":6694,"Ġrecueill":6695,"rÃ¨rent":6696,"ueusement":6697,"enues":6698,"Ġpleure":6699,"Ġraconte":6700,"ino":6701,"Ġcartes":6702,"Ġjambe":6703,"uif":6704,"ĠdrsquoH":6705,"Ġdirecteur":6706,"ernes":6707,"Ġtaire":6708,"ĠMort":6709,"Ġseras":6710,"ĠsoupÃ§ons":6711,"ĠsuccÃ©d":6712,"Ġattendit":6713,"Ġassure":6714,"Ġlance":6715,"ĠbÃ©":6716,"Ã©tÃ©s":6717,"ayez":6718,"ĠfixÃ©s":6719,"ĠabandonnÃ©":6720,"Ġdescendant":6721,"appeler":6722,"ĠdifficultÃ©s":6723,"abe":6724,"Ġscrup":6725,"Ġimagination":6726,"Ġluxe":6727,"Ġlinge":6728,"tent":6729,"Ġcomptait":6730,"Ġsoif":6731,"ĠconsidÃ©rable":6732,"Ġsentine":6733,"Ġnette":6734,"alon":6735,"ĠgrÃ¢ces":6736,"ichelieu":6737,"Ġrive":6738,"Ã©dit":6739,"Ġcouche":6740,"aqu":6741,"ĠsÃ©parer":6742,"Ġclaire":6743,"Ġdemeurait":6744,"Ġauxquelles":6745,"Ġobsc":6746,"entendis":6747,"22":6748,"Ġdrsquoesprit":6749,"Ġlrsquoinf":6750,"ĠattachÃ©":6751,"lÃ©s":6752,"rite":6753,"neau":6754,"ĠAllem":6755,"oyait":6756,"Ġviolent":6757,"Ġnourriture":6758,"mos":6759,"Ġdut":6760,"Ġdrsquoins":6761,"Ġmarbre":6762,"Ġsentais":6763,"Ġterme":6764,"ĠmariÃ©e":6765,"Ġrarement":6766,"Ġentrait":6767,"ĠÃ©cus":6768,"Ġprudence":6769,"Ġboul":6770,"Ġhar":6771,"ĠmatinÃ©e":6772,"Ġdouleurs":6773,"Ġselle":6774,"Ġprai":6775,"Ġprobl":6776,"Ġarch":6777,"appuy":6778,"Ġpareils":6779,"Ġserviteurs":6780,"ĠMarcellus":6781,"ĠperpÃ©t":6782,"ĠPort":6783,"Ġgrond":6784,"ĠRÃ©g":6785,"Ġcircul":6786,"Ġsecouant":6787,"ĠsinguliÃ¨re":6788,"Ġmoqu":6789,"Ġvus":6790,"omas":6791,"Ġprintemps":6792,"Ġrivage":6793,"Ġpel":6794,"Ġnov":6795,"chez":6796,"Ġbienveill":6797,"Ġsimples":6798,"Ġaccepter":6799,"Ġsuivante":6800,"Ġmorceaux":6801,"Ġsat":6802,"Ġbottes":6803,"drÃ©e":6804,"Ġhorreur":6805,"Ġit":6806,"Ġpensant":6807,"Ġenvoya":6808,"Ġesclaves":6809,"Ġapparut":6810,"Ġchasseurs":6811,"Ġcerveau":6812,"ĠrÃ©pÃ©ter":6813,"Ġbleus":6814,"ĠJÃ©rusalem":6815,"ril":6816,"Ġtord":6817,"Ġvoitures":6818,"Ġrapports":6819,"ĠrÃ©t":6820,"ĠrÃ©fug":6821,"Ġdivin":6822,"mF":6823,"Ġbride":6824,"Ġvoulaient":6825,"Ġinexp":6826,"riche":6827,"olemment":6828,"ĠgÃ©nÃ©reux":6829,"Ġpreuves":6830,"Ġcomplet":6831,"ĠrapiditÃ©":6832,"ĠextrÃªmement":6833,"ĠÃīmil":6834,"ni":6835,"ym":6836,"Ġpermettez":6837,"ĠÃ©qu":6838,"Es":6839,"Ġrespons":6840,"ĠÃ©mu":6841,"Ġsenti":6842,"atriÃ¨me":6843,"ls":6844,"Ġdoc":6845,"andes":6846,"Ġagir":6847,"othÃ©e":6848,"oÃ¯se":6849,"ĠWilli":6850,"ĠGri":6851,"ypte":6852,"Ġassembl":6853,"uction":6854,"Ġdet":6855,"Ã©rables":6856,"Ġgrimp":6857,"hÃ©s":6858,"Ġjaill":6859,"Ġferma":6860,"Ġmatel":6861,"Ġsupport":6862,"Ġsauter":6863,"Ġcrav":6864,"Ġdonnent":6865,"Ġsagesse":6866,"Ġ7":6867,"chose":6868,"ĠCeux":6869,"Ġappela":6870,"30":6871,"Ġloc":6872,"Ġpromener":6873,"Ġmagas":6874,"Ġsrsquoex":6875,"Ma":6876,"OL":6877,"Ġdira":6878,"mJe":6879,"rions":6880,"existence":6881,"ĠÃ©pouse":6882,"Ġpattes":6883,"aleine":6884,"Ġfaisais":6885,"Ġtraversa":6886,"ĠprononcÃ©":6887,"aucune":6888,"Ġlament":6889,"teaux":6890,"ĠCan":6891,"Ġfouet":6892,"ĠHenry":6893,"ĠespÃ©rances":6894,"Ġtressaillit":6895,"Ġcontinue":6896,"Ġconsp":6897,"Ġsaisi":6898,"ĠPrenez":6899,"alles":6900,"Ġinatt":6901,"Ġvisiter":6902,"Ġinfluence":6903,"Ġdemandez":6904,"Ġplaisanterie":6905,"Jac":6906,"Ã©rÃ©s":6907,"ĠdÃ©put":6908,"ĠJrsquoÃ©tais":6909,"ĠaccompagnÃ©":6910,"ĠPlanchet":6911,"uisait":6912,"Ġdrsquoamour":6913,"Ġtumul":6914,"ĠBlanche":6915,"Ġmass":6916,"vant":6917,"olphe":6918,"ĠexceptÃ©":6919,"Ġremu":6920,"lications":6921,"Ġerreur":6922,"rin":6923,"avoue":6924,"Ġessayer":6925,"Ġfeux":6926,"ĠdrsquoÃ©c":6927,"Ġboue":6928,"Ġprochain":6929,"Ġtamb":6930,"Ġplaf":6931,"ardins":6932,"ĠprÃ©cautions":6933,"Ġsrsquoassit":6934,"ĠhaÃ¯":6935,"Ġpassaient":6936,"ĠclartÃ©":6937,"ĠarmÃ©es":6938,"Ġpistolet":6939,"etiÃ¨re":6940,"Ġtau":6941,"ĠsrsquoÃ©cri":6942,"Ġnrsquoavons":6943,"minence":6944,"quiÃ©tude":6945,"Ġsouffrances":6946,"propre":6947,"lac":6948,"mÃĢ":6949,"Ġcavalerie":6950,"Ġprotection":6951,"Ġrad":6952,"Ġtrouvez":6953,"Ġorgueil":6954,"mpereur":6955,"ĠempÃª":6956,"Ġpeintre":6957,"Ġmend":6958,"Ġramp":6959,"osait":6960,"ĠpayÃ©":6961,"udence":6962,"ĠAltesse":6963,"Ġbrillant":6964,"Ġtristement":6965,"intÃ©rieur":6966,"Ġbaissa":6967,"Ġgoutte":6968,"Ġnoires":6969,"Ġnomme":6970,"Ġsourde":6971,"ĠIci":6972,"Ġjouait":6973,"Ġraconta":6974,"Ġcombattre":6975,"Ġcand":6976,"irg":6977,"Ġregardaient":6978,"bat":6979,"ouette":6980,"Ġsolitaire":6981,"Ġremarque":6982,"Ġpuisqu":6983,"Ġdonnaient":6984,"Ġdormait":6985,"Ġapercevoir":6986,"Ġsoigneusement":6987,"Ġthe":6988,"Ġharm":6989,"Ġjetait":6990,"Ġrassembl":6991,"animal":6992,"Ġchal":6993,"ĠRich":6994,"issance":6995,"Ġimage":6996,"ject":6997,"Ġvoil":6998,"ĠEd":6999,"rade":7000,"Ġvalait":7001,"Ġbrouillard":7002,"ĠMous":7003,"ĠSp":7004,"ĠFi":7005,"affection":7006,"ĠpÃ©chÃ©":7007,"Ġto":7008,"delÃł":7009,"Ġsaurais":7010,"Ġacheter":7011,"Ġusage":7012,"Ġtot":7013,"Ġtenue":7014,"Ġruine":7015,"liÃ¨re":7016,"Ġcache":7017,"ĠposÃ©":7018,"ĠespÃ©rer":7019,"ĠJackal":7020,"Ġdevrait":7021,"Ġmesse":7022,"Ġpeines":7023,"Ġheureusement":7024,"eront":7025,"Ã©lie":7026,"Ġtabac":7027,"Ġlrsquoapp":7028,"Ġmarchant":7029,"Ġcruelle":7030,"Ġvoleur":7031,"mR":7032,"ĠCap":7033,"ĠDon":7034,"Ġbrise":7035,"ativement":7036,"ĠBir":7037,"grÃ©s":7038,"Ġmourut":7039,"Ġremarqua":7040,"Ġsinistre":7041,"Ġaveugle":7042,"Ġallem":7043,"ĠDr":7044,"Ġmensonge":7045,"rÃ©d":7046,"ĠdÃ©fend":7047,"Ġplaces":7048,"ĠpropriÃ©tÃ©":7049,"Madame":7050,"Ġpoil":7051,"oli":7052,"ĠdÃ©vor":7053,"ĠracontÃ©":7054,"jourdrsquohui":7055,"ĠÃ©toiles":7056,"26":7057,"Ġraf":7058,"ĠMilady":7059,"Ad":7060,"ĠLÃ©on":7061,"ĠChamp":7062,"Ġjaloux":7063,"mle":7064,"enti":7065,"olÃ©":7066,"ĠFranc":7067,"ĠÃ©coutait":7068,"Ġboulevers":7069,"Ġgentilshommes":7070,"erfs":7071,"ĠJu":7072,"Ġdescendait":7073,"Ġrelever":7074,"Ġ9":7075,"âĢĭ":7076,"isÃ©s":7077,"Ġgars":7078,"ĠDix":7079,"Ġsupplie":7080,"Ġpencha":7081,"24":7082,"ouser":7083,"Ġpourraient":7084,"ĠChev":7085,"gypte":7086,"urne":7087,"ĠLu":7088,"ifiques":7089,"ĠtombÃ©e":7090,"ĠpoÃ©sie":7091,"entour":7092,"Ġexig":7093,"25":7094,"Ġchoc":7095,"ĠapprÃ©c":7096,"ĠDuc":7097,"ĠÃ©vident":7098,"Ġtremblante":7099,"Ġlrsquointention":7100,"Ġtype":7101,"oua":7102,"Ġfruit":7103,"ĠprÃ©sentait":7104,"Ġbourreau":7105,"Ġchaude":7106,"ĠGeneviÃ¨ve":7107,"IX":7108,"Ġench":7109,"Ġenfance":7110,"ĠfermÃ©":7111,"Ġcroyant":7112,"Ġboulevard":7113,"dÃ©s":7114,"Ġrefl":7115,"Ġreligieux":7116,"Tr":7117,"Ġjardins":7118,"Ġrab":7119,"Ġsongeait":7120,"ĠGuillaume":7121,"ĠNord":7122,"aies":7123,"ĠingÃ©n":7124,"Ã©lite":7125,"ĠÃ©pais":7126,"xtes":7127,"assÃ©s":7128,"Ġtrouvent":7129,"Ġbouge":7130,"ĠjouÃ©":7131,"arrÃªte":7132,"ĠPourtant":7133,"ernitÃ©":7134,"orne":7135,"ĠPol":7136,"Ġprivil":7137,"elÃ©":7138,"ĠassurÃ©":7139,"liothÃ¨que":7140,"ĠlrsquoO":7141,"Ġsurn":7142,"Ġcontente":7143,"ĠdisposÃ©":7144,"Ġconvenable":7145,"Sans":7146,"dres":7147,"voix":7148,"ĠMath":7149,"ĠRh":7150,"ĠAndrÃ©":7151,"Ġmener":7152,"Ġfrag":7153,"ĠÃĬ":7154,"ignon":7155,"Ġpoches":7156,"Ġrideau":7157,"ĠsÃ¨che":7158,"Ġlrsquoi":7159,"Ã©crire":7160,"Ġsuperbe":7161,"ĠessayÃ©":7162,"Ġachet":7163,"Ġlrsquoart":7164,"Ġannoncer":7165,"Ġcruel":7166,"ĠrÃ©unis":7167,"eler":7168,"osc":7169,"Ġexige":7170,"ĠmÃ»":7171,"Ġchasser":7172,"ĠportiÃ¨re":7173,"clina":7174,"ĠrefusÃ©":7175,"Ġtristes":7176,"ĠRichelieu":7177,"arcy":7178,"onnerre":7179,"angle":7180,"gnon":7181,"ommod":7182,"Ġtraiter":7183,"Ġmultip":7184,"ilet":7185,"ĠPeu":7186,"ĠTrÃ©":7187,"Ġsupposer":7188,"demment":7189,"Ã©paule":7190,"ĠprogrÃ¨s":7191,"ĠdeuxiÃ¨me":7192,"Ġglisser":7193,"tÃªte":7194,"Ġdeuil":7195,"Ġexplication":7196,"Ġremarquable":7197,"Åĵufs":7198,"ĠprÃªter":7199,"Ġmarm":7200,"Ġposit":7201,"Ġdispositions":7202,"rsquoimag":7203,"ĠGÃ©r":7204,"ĠÃ©levÃ©e":7205,"Ġphysique":7206,"oln":7207,"allum":7208,"Ġgalerie":7209,"ĠfatiguÃ©":7210,"Ġindividu":7211,"Ġcommissaire":7212,"oub":7213,"ĠgÃ©":7214,"ĠÃ©b":7215,"ĠjrsquoespÃ¨re":7216,"ĠWest":7217,"ĠCroyez":7218,"Ġsubitement":7219,"Ab":7220,"oudre":7221,"Ġseigneurs":7222,"iforme":7223,"Ġconvient":7224,"Ã¨vement":7225,"ĠpressÃ©":7226,"mLE":7227,"ĠTur":7228,"ed":7229,"ĠdegrÃ©s":7230,"Ġtours":7231,"itations":7232,"otions":7233,"Ġfavorable":7234,"ĠJos":7235,"heureux":7236,"ĠBonaparte":7237,"Ġdrsquohonneur":7238,"Ġvicomte":7239,"ingham":7240,"atson":7241,"Ġmauvaises":7242,"Ġcabaret":7243,"Ġphrases":7244,"Ġlrsquohabitude":7245,"rement":7246,"ĠhÃ©las":7247,"ĠpoignÃ©e":7248,"ĠquatriÃ¨me":7249,"Ġflatt":7250,"Ġsubst":7251,"Ġsabre":7252,"Quelques":7253,"Ġtorrent":7254,"Ġpouvant":7255,"Ġhabile":7256,"Ġer":7257,"Ġlion":7258,"ĠcitÃ©":7259,"assit":7260,"Ġconvenu":7261,"yle":7262,"istÃ©":7263,"Ġtransp":7264,"ĠrÃ¨gle":7265,"Ġunivers":7266,"Ġsaison":7267,"ĠrÃ©pugn":7268,"IER":7269,"Ġdate":7270,"Ġbrod":7271,"Ã©rant":7272,"Ġexact":7273,"Ġasp":7274,"Ġcrev":7275,"orn":7276,"Ġnommer":7277,"Ġnote":7278,"Ã¨tre":7279,"ĠlrsquoÃ©ch":7280,"Ġdrsquoam":7281,"oblig":7282,"Ġordonna":7283,"Ġnat":7284,"ĠpassÃ¨rent":7285,"Ġaccoutum":7286,"ĠÃ©vanou":7287,"Ġlrsquoind":7288,"Ġesclave":7289,"ctr":7290,"onom":7291,"Ġbillets":7292,"Ġsortis":7293,"Ġassoci":7294,"Ġpardonne":7295,"apercevoir":7296,"Ġprolong":7297,"itoy":7298,"itudes":7299,"kh":7300,"Ġombres":7301,"asc":7302,"ĠÃ©tabli":7303,"Ġriait":7304,"annÃ©es":7305,"23":7306,"Celui":7307,"abelle":7308,"odor":7309,"Ġobscur":7310,"Ġcraignait":7311,"Ġmanifest":7312,"Ġ&":7313,"trÃ©mitÃ©":7314,"ements":7315,"ple":7316,"ĠClar":7317,"intelligence":7318,"Ġrecherches":7319,"Ġsignifie":7320,"ĠMiss":7321,"Ġbouff":7322,"gate":7323,"erse":7324,"uites":7325,"cteurs":7326,"Ġpeint":7327,"ĠdÃ©marche":7328,"mosphÃ¨re":7329,"Ġpire":7330,"ĠAut":7331,"affaires":7332,"oce":7333,"ĠlÃ¢":7334,"orce":7335,"ĠPier":7336,"Ġsemblant":7337,"ĠValentin":7338,"Ġescalier":7339,"Ġterrasse":7340,"Ġdemeurer":7341,"Ġmol":7342,"Ġnombreuses":7343,"Ġprocurer":7344,"oureusement":7345,"iniÃ¨re":7346,"ĠDame":7347,"ĠVict":7348,"Ġrappelait":7349,"ĠMadeleine":7350,"ĠrÃ©compense":7351,"ĠComm":7352,"illy":7353,"Ġbaronne":7354,"Ġconstitu":7355,"Ġlrsquoavons":7356,"Ġguerriers":7357,"Ġcomble":7358,"Ġtrsquoen":7359,"Ġhistoires":7360,"CH":7361,"tit":7362,"ĠdelÃł":7363,"Ġtrott":7364,"sire":7365,"ĠachevÃ©":7366,"ĠlrsquoÃ©v":7367,"Ġjusqursquoaux":7368,"ĠlumiÃ¨res":7369,"Ġlibrement":7370,"Ġrepartit":7371,"orig":7372,"Ġgare":7373,"ĠMic":7374,"ĠMÃ©d":7375,"ĠnrsquoÃªtes":7376,"ĠBÃ©":7377,"Ġgardait":7378,"ĠsecrÃ¨te":7379,"Ġcors":7380,"Ġmoul":7381,"ĠÃīv":7382,"Ġajouter":7383,"Ġveuille":7384,"ĠSous":7385,"27":7386,"Ġcreux":7387,"ores":7388,"Ġbruits":7389,"Ġsanglot":7390,"ĠNapolÃ©on":7391,"iante":7392,"ĠChaque":7393,"Ġintime":7394,"ĠNew":7395,"DÃ¨s":7396,"Ġrum":7397,"Ġremerci":7398,"Ġpleines":7399,"Ġendroits":7400,"pte":7401,"ĠdÃ©sirer":7402,"Ġcomplais":7403,"Ġconduisait":7404,"Ġtravaille":7405,"Ġgross":7406,"gles":7407,"enÃ©":7408,"urb":7409,"Ġgroupes":7410,"Ã¢tres":7411,"Ġlongueur":7412,"ĠWatson":7413,"mXX":7414,"Ġchang":7415,"Ġsong":7416,"istocr":7417,"intÃ©ress":7418,"ĠSoyez":7419,"Ġencour":7420,"ĠcoupÃ©":7421,"ĠPalais":7422,"ĠCertainement":7423,"ossible":7424,"ĠdrsquoÃī":7425,"trois":7426,"Ġsavant":7427,"Ġsouffre":7428,"Ġtournait":7429,"Ġrecommenc":7430,"Ġcarrosse":7431,"ĠcimetiÃ¨re":7432,"Ã¨mes":7433,"ĠMer":7434,"oiselles":7435,"Ġdessin":7436,"Ġcourtis":7437,"Ġoiseau":7438,"monde":7439,"Ġveiller":7440,"Ġinterroge":7441,"ĠNi":7442,"ĠbrisÃ©":7443,"Ġstatue":7444,"ĠJoe":7445,"Ġadop":7446,"Ġmoral":7447,"Ġadversaire":7448,"anvier":7449,"Ġtais":7450,"Ġplantes":7451,"ĠsrsquoÃªtre":7452,"Ġserrant":7453,"Ġgraves":7454,"ercice":7455,"Ġglissa":7456,"Rouge":7457,"Ġlisait":7458,"ĠpÃ¢t":7459,"Ġnrsquoeut":7460,"Ġfray":7461,"ĠÃ©coute":7462,"lements":7463,"Ġscul":7464,"ĠosÃ©":7465,"ĠVraiment":7466,"quise":7467,"ĠaccÃ¨s":7468,"estament":7469,"AL":7470,"Ġreconnaissant":7471,"ĠrÃ©solut":7472,"Ġdiscussion":7473,"Ġmalades":7474,"Ġapporter":7475,"Ġchercha":7476,"ĠprÃªts":7477,"Ġrompre":7478,"Ġreposer":7479,"Ġplafond":7480,"fem":7481,"Ġpartager":7482,"Ġbataill":7483,"Ġtremp":7484,"ĠlrsquoentrÃ©e":7485,"Ġvoisinage":7486,"ĠsincÃ¨re":7487,"ĠsÃ»rement":7488,"Ġaj":7489,"Ġaval":7490,"ĠAlice":7491,"trouv":7492,"Ġpleurait":7493,"ĠÃ®":7494,"usez":7495,"Ã´mes":7496,"Ġexclam":7497,"Ġtrouverez":7498,"Aussi":7499,"igny":7500,"Ġconsolation":7501,"Ġchauff":7502,"uivre":7503,"ĠmÃ©cont":7504,"assemblÃ©e":7505,"ĠmÃ©th":7506,"ĠÃ©prouvait":7507,"Ġhumble":7508,"ĠpaupiÃ¨res":7509,"NE":7510,"Ne":7511,"mJ":7512,"ageux":7513,"ĠUlenspiegel":7514,"Ġoffre":7515,"Ġtableaux":7516,"ĠThomas":7517,"ĠprÃ©parÃ©":7518,"OUS":7519,"Ġmiracle":7520,"Ġadmirable":7521,"Mme":7522,"Ġfugit":7523,"Ã¨ner":7524,"ardes":7525,"ĠexprÃ¨s":7526,"Ã©rid":7527,"ĠlÃ©git":7528,"Ġproduire":7529,"ĠdÃ©claration":7530,"Ġquerelle":7531,"mann":7532,"Ġrout":7533,"Ġestim":7534,"Ġbron":7535,"assion":7536,"enfants":7537,"hiver":7538,"Ġavenir":7539,"Ġseriez":7540,"Ġflots":7541,"Ġfaubourg":7542,"Est":7543,"bis":7544,"Ġcouverte":7545,"Ġenvah":7546,"Ġtourne":7547,"ĠpÃ©ch":7548,"Ġvirent":7549,"Ġfranc":7550,"Ġperdit":7551,"ĠHenriette":7552,"Ġdiminu":7553,"Ġgonf":7554,"Ġinsc":7555,"rog":7556,"Ġcolonne":7557,"ĠRoch":7558,"ĠconsidÃ©ration":7559,"Ġformid":7560,"LÃł":7561,"Ġcaisse":7562,"Ġpourrai":7563,"ouvoir":7564,"Ġconfus":7565,"Ġprofiter":7566,"ĠmÃ©f":7567,"ĠBernard":7568,"inalement":7569,"ĠCad":7570,"ĠSav":7571,"Ġchapelle":7572,"ĠfixÃ©":7573,"ĠdÃ©finit":7574,"Ġlrsquoavais":7575,"Ġchevel":7576,"Ġmanche":7577,"encore":7578,"Ġtenter":7579,"ĠapportÃ©":7580,"Ġimpatient":7581,"Ġquai":7582,"Ġemprun":7583,"envoyer":7584,"ĠbrÃ»ler":7585,"Ġmerveilleux":7586,"petit":7587,"Ã©fait":7588,"Ġdanse":7589,"ĠÃ©ternel":7590,"ĠJuli":7591,"ĠSouv":7592,"inq":7593,"ape":7594,"ĠVive":7595,"ĠsrsquoarrÃªt":7596,"Ã©diction":7597,"ĠFrank":7598,"Ã®me":7599,"Ġbrun":7600,"Ġrentre":7601,"Ġpoul":7602,"ĠvanitÃ©":7603,"ilÃ©":7604,"Ġnations":7605,"Ġprim":7606,"ĠaimÃ©e":7607,"ĠcaractÃ¨res":7608,"Ġdrame":7609,"Ġlent":7610,"Ġpomp":7611,"amus":7612,"Ġmarque":7613,"Ġinsol":7614,"ĠIV":7615,"Ġvolup":7616,"Ġsatisfaire":7617,"Ġportaient":7618,"ĠÃ©tendue":7619,"Ġallusion":7620,"desc":7621,"Ġpria":7622,"ĠCoc":7623,"ĠAussitÃ´t":7624,"auteur":7625,"Ġviolemment":7626,"Ġsen":7627,"Ġparis":7628,"Ġvoulant":7629,"Ã©tit":7630,"Ġdistinc":7631,"Ġsensation":7632,"ionnaires":7633,"Ġchir":7634,"Ġsud":7635,"Ġsecondes":7636,"Ġ179":7637,"abes":7638,"Ġprincipal":7639,"ĠRichard":7640,"Ã©gr":7641,"Ġdemandant":7642,"intention":7643,"Ġoffert":7644,"wood":7645,"assez":7646,"oquÃ©":7647,"Ġfonctions":7648,"ebooks":7649,"Ġpp":7650,"Ġpente":7651,"Ġnerfs":7652,"cide":7653,"ĠtÃ©moignage":7654,"Ġgib":7655,"Ġsavons":7656,"Ġmodeste":7657,"cal":7658,"ĠmangÃ©":7659,"Ġnue":7660,"ĠrÃ¨gne":7661,"ĠLorsqu":7662,"ifice":7663,"Ġregrette":7664,"Ġplancher":7665,"Ġairs":7666,"Ġtouche":7667,"Ġflammes":7668,"21":7669,"Â°":7670,"ĠPav":7671,"ĠDen":7672,"ĠDarcy":7673,"istÃ¨re":7674,"ĠchÃªne":7675,"arge":7676,"Ġfaill":7677,"Ġinconnue":7678,"pes":7679,"ouvrage":7680,"inez":7681,"ĠgÃ©nÃ©ralement":7682,"ID":7683,"ky":7684,"Ġtyr":7685,"Ġpresse":7686,"mier":7687,"ĠThÃ©":7688,"ĠIII":7689,"accr":7690,"Ġsultan":7691,"itable":7692,"abel":7693,"ĠPer":7694,"gner":7695,"ĠemportÃ©":7696,"Ġsut":7697,"Ġserpent":7698,"Ġrougit":7699,"Ġexces":7700,"uliers":7701,"Ġlaquais":7702,"Ġgouvern":7703,"ca":7704,"Ġanal":7705,"Ġpoursuivre":7706,"ĠsrsquoavanÃ§a":7707,"rages":7708,"Ġlrsquoad":7709,"Ġbranche":7710,"ĠcharitÃ©":7711,"ly":7712,"Ġinstall":7713,"jor":7714,"pied":7715,"Ġgre":7716,"tÃ©es":7717,"Ġabsur":7718,"Ġcanne":7719,"Ġprononc":7720,"Ġvant":7721,"Ġappartient":7722,"ĠterminÃ©":7723,"ĠtroublÃ©":7724,"Ġmagistrat":7725,"Ses":7726,"atives":7727,"Ġcauses":7728,"Ġodeur":7729,"Ġgrim":7730,"ĠcarriÃ¨re":7731,"Ġcroiss":7732,"Ġmurailles":7733,"ĠcausÃ©":7734,"Ġmarchands":7735,"ĠÃ©loignÃ©":7736,"Ġfantaisie":7737,"da":7738,"Ġaurons":7739,"Ġlevait":7740,"Ġtrembler":7741,"Ġrappela":7742,"Ġprochaine":7743,"cir":7744,"Ġcoins":7745,"ĠMad":7746,"mhttp":7747,"ĠÃ©tourd":7748,"Ã©litÃ©":7749,"Ġtombeau":7750,"Depuis":7751,"Ġtransform":7752,"Ġsublime":7753,"ĠÃ©blou":7754,"sam":7755,"Ġhein":7756,"ĠguÃ©r":7757,"aignez":7758,"ĠfÃ®t":7759,"ĠPatri":7760,"Ġcontenait":7761,"Ġfamil":7762,"ĠsoupÃ§on":7763,"Ġjuges":7764,"long":7765,"ĠEl":7766,"Ġ10":7767,"Ġiv":7768,"ink":7769,"Ġpourrez":7770,"Ġlrsquoennemi":7771,"ĠtrouvÃ©e":7772,"Ġmuet":7773,"Ġplaire":7774,"ĠAp":7775,"ĠChacun":7776,"ĠÃ©chappÃ©":7777,"ĠpÃ©ril":7778,"Ġraisonnable":7779,"ak":7780,"ĠFern":7781,"Ġconfier":7782,"nÃ©li":7783,"Ġric":7784,"Ġoffrait":7785,"ĠLouvre":7786,"Ġbourg":7787,"Ġbrillait":7788,"Ġdrsquohommes":7789,"agent":7790,"Ġamants":7791,"ĠdÃ©cour":7792,"Ġverres":7793,"Ġmeurtre":7794,"Ġlrsquoavaient":7795,"ĠSil":7796,"ĠrÃ©public":7797,"Ġvenais":7798,"ĠÃīminence":7799,"ĠdÃ©barrasser":7800,"Ġlecteur":7801,"Ġjup":7802,"ola":7803,"ĠPhil":7804,"ĠThÃ©r":7805,"AC":7806,"ennel":7807,"ĠSauv":7808,"ĠÃ©cart":7809,"Ġcapitale":7810,"ĠgravitÃ©":7811,"ĠnÃ©goci":7812,"ĠÃ´t":7813,"Ġlugu":7814,"ĠlrsquoÃ©l":7815,"Ġrenoncer":7816,"Ġsauve":7817,"QUES":7818,"ĠJud":7819,"terie":7820,"Ġconfusion":7821,"accepter":7822,"raine":7823,"inces":7824,"ĠnaÃ®tre":7825,"Ġpassionn":7826,"ora":7827,"attre":7828,"uler":7829,"Ġaient":7830,"ĠLong":7831,"Ġfiacre":7832,"attendais":7833,"ennes":7834,"Ã©veill":7835,"trai":7836,"ĠHeure":7837,"exam":7838,"Ġmonstre":7839,"oies":7840,"oine":7841,"Ġpourriez":7842,"ouvrait":7843,"ĠAss":7844,"ĠDun":7845,"ĠRem":7846,"Ġentreprise":7847,"ĠvivacitÃ©":7848,"Ġexprimer":7849,"Ġcanons":7850,"xiÃ©tÃ©":7851,"ĠbÃ¢":7852,"Ġintrig":7853,"ĠRÃ©publique":7854,"Ġlrsquoeffet":7855,"ĠRod":7856,"Ġmesures":7857,"ĠespÃ©rance":7858,"Ind":7859,"cs":7860,"Ã©tri":7861,"Ġlrsquoavenir":7862,"Ġjoyeuse":7863,"idents":7864,"ĠcrÃ©atures":7865,"ĠprÃ©cipita":7866,"leurs":7867,"eci":7868,"Ġconnaissais":7869,"Ġacquis":7870,"Ã©pan":7871,"Ġbriser":7872,"ĠconsidÃ©rer":7873,"Ġramener":7874,"ueilli":7875,"Ġbrusque":7876,"Ġfri":7877,"Ġfoul":7878,"ĠrÃ©tabl":7879,"Ġdivine":7880,"can":7881,"Ġtranch":7882,"Ġproport":7883,"chauss":7884,"Ġdilig":7885,"inent":7886,"mO":7887,"auph":7888,"Ġaider":7889,"Ġverrons":7890,"rimaud":7891,"Ġtemple":7892,"Ġardeur":7893,"ucteur":7894,"ĠdrsquoE":7895,"Ġcontact":7896,"aperÃ§us":7897,"Ġremercier":7898,"ÅĴ":7899,"ĠLeur":7900,"empereur":7901,"ĠmÃ©lancolie":7902,"Ġbienfait":7903,"ĠchargÃ©s":7904,"Ġembarras":7905,"Ġdrsquoentre":7906,"Ġamus":7907,"Ġblonde":7908,"Ġbouill":7909,"Ġpermettait":7910,"ĠXIV":7911,"ptembre":7912,"Ġdrsquoar":7913,"oyal":7914,"ĠBast":7915,"Ġquoiqu":7916,"Ġroubles":7917,"Ġbleue":7918,"Ġscandale":7919,"Ġmilles":7920,"ellect":7921,"ĠMir":7922,"onnaient":7923,"Ġtestament":7924,"sembl":7925,"Ġhumide":7926,"Ġtrsquoai":7927,"Ġattentivement":7928,"ĠFl":7929,"ĠdÃ©mons":7930,"Ġconstamment":7931,"enay":7932,"Ġball":7933,"Ġcrie":7934,"ĠannonÃ§a":7935,"inconn":7936,"Dieu":7937,"resque":7938,"ĠTon":7939,"Ġdise":7940,"cient":7941,"ĠJacob":7942,"Ġamp":7943,"attends":7944,"ocation":7945,"Ġparlons":7946,"29":7947,"Ġge":7948,"Ġaccueill":7949,"elson":7950,"osper":7951,"Ã©rif":7952,"Ġprises":7953,"Ġtrahison":7954,"Ġvainqu":7955,"ĠClaudine":7956,"agir":7957,"ĠEs":7958,"Ġpuisqursquoil":7959,"Ġlrsquohum":7960,"ĠprononÃ§a":7961,"Ġmachine":7962,"Ġgendarmes":7963,"Ġmalheureusement":7964,"quelle":7965,"ĠMaÃ®tre":7966,"deau":7967,"Ġarme":7968,"Ã©vanou":7969,"ĠÃ©troit":7970,"Ġverra":7971,"idÃ©":7972,"ĠblessÃ©s":7973,"chet":7974,"Ġcompagne":7975,"Ġvoiles":7976,"expÃ©rience":7977,"ĠdÃ©cida":7978,"ĠpÃªch":7979,"Ã©pend":7980,"Ã´pital":7981,"Ġdangers":7982,"anÃ©ment":7983,"Ã©gard":7984,"Ġsolennel":7985,"Ġmessager":7986,"Ġcompliments":7987,"Ġsite":7988,"ĠMay":7989,"ortun":7990,"ichambre":7991,"ĠstupÃ©fait":7992,"ĠPardon":7993,"Deux":7994,"Ġcave":7995,"Ġmdash":7996,"obe":7997,"ĠsrsquoÃ©lanÃ§a":7998,"ĠobÃ©ir":7999,"ani":8000,"ĠCertes":8001,"ĠplacÃ©e":8002,"Ġirrit":8003,"Ã©chapper":8004,"Ġtonnerre":8005,"Ġmuette":8006,"Ġsiens":8007,"Ġvivants":8008,"Ġprocureur":8009,"jug":8010,"Ġrefuse":8011,"apitre":8012,"ĠBe":8013,"Ġdiss":8014,"ĠsÃ©rieuse":8015,"mond":8016,"Ġmand":8017,"Ġconvives":8018,"ĠdÃ©clarÃ©":8019,"ĠentourÃ©":8020,"28":8021,"Ġtendu":8022,"Ġvertus":8023,"ĠWilliam":8024,"iants":8025,"Ġtendant":8026,"ĠcrÃ©p":8027,"Ġimportante":8028,"ĠÃ©crivit":8029,"ĠtranquillitÃ©":8030,"RO":8031,"inci":8032,"ĠViens":8033,"odes":8034,"Ġlien":8035,"ĠentrÃ¨rent":8036,"ask":8037,"Ġseules":8038,"gratuits":8039,"Ġpousse":8040,"Ġvins":8041,"ĠlrsquoobscuritÃ©":8042,"ĠCon":8043,"actions":8044,"Ġlanterne":8045,"Ġbec":8046,"ĠLE":8047,"oblige":8048,"Ġfonds":8049,"ĠrÃ©ussir":8050,"ĠMousquet":8051,"atie":8052,"ĠaisÃ©ment":8053,"Cl":8054,"Ġvues":8055,"ĠdrsquoAr":8056,"ĠNell":8057,"imitÃ©":8058,"acheter":8059,"jeu":8060,"Ġpages":8061,"Ġcachait":8062,"ĠsimplicitÃ©":8063,"oreau":8064,"ĠlrsquoabbÃ©":8065,"ĠÃ©nerg":8066,"ĠThÃ©rÃ¨se":8067,"ĠjurÃ©":8068,"ĠrÃ´":8069,"ĠchÃ©rie":8070,"iendrez":8071,"obst":8072,"Ġsentis":8073,"Ġconnaissances":8074,"Ġregardez":8075,"Ġlointain":8076,"Ġeau":8077,"rale":8078,"Ġmrsquoont":8079,"ĠemployÃ©":8080,"Ġdispers":8081,"ĠSan":8082,"ĠRoche":8083,"Ġlumine":8084,"Ġdissip":8085,"Ġgaiement":8086,"Ġfournir":8087,"Ġmessage":8088,"pin":8089,"Ġdot":8090,"ouches":8091,"ĠBour":8092,"espÃ¨ce":8093,"Ġsentant":8094,"Ġcrimes":8095,"Ġreconnais":8096,"Italie":8097,"ĠÃ®le":8098,"ĠprÃ©venu":8099,"ĠsituÃ©e":8100,"ĠdÃ©daigne":8101,"ĠbibliothÃ¨que":8102,"ifiÃ©":8103,"Ġinnocent":8104,"mla":8105,"Ġsale":8106,"ĠVÃ©n":8107,"assad":8108,"Ġcausait":8109,"Ġrecevait":8110,"nÃ©lius":8111,"Ã¢le":8112,"Ġamours":8113,"Ġjouir":8114,"Ġpardonner":8115,"Ġnus":8116,"ĠdÃ©cision":8117,"Ġmilliers":8118,"Ġvapeur":8119,"aron":8120,"Ġunes":8121,"ĠCast":8122,"Ġsavaient":8123,"ĠdÃ©licatesse":8124,"ĠGÃ©rard":8125,"uisant":8126,"ĠSavez":8127,"ĠcherchÃ©":8128,"oiseau":8129,"Ġappartenait":8130,"Ġplaign":8131,"ĠLion":8132,"Ġcommission":8133,"Ġvisites":8134,"ĠvÃ©ritablement":8135,"ouf":8136,"Ġpleurs":8137,"Ġchapitre":8138,"ĠappuyÃ©":8139,"Ġconsoler":8140,"ebooksgratuits":8141,"yez":8142,"ĠtÃ¢cher":8143,"Ġbann":8144,"Ġformer":8145,"Ġtremblait":8146,"raÃ®ch":8147,"Saint":8148,"Ġtrouvais":8149,"heureusement":8150,"Ġfranchement":8151,"Ġpose":8152,"ĠprÃªtres":8153,"Ġforts":8154,"Ġcoude":8155,"ĠÃīcoute":8156,"ĠenlevÃ©":8157,"samo":8158,"laient":8159,"Ġmouill":8160,"Ġgig":8161,"ĠOlivier":8162,"ĠoccupÃ©e":8163,"ĠdrsquoAl":8164,"ĠfiertÃ©":8165,"Ġfrot":8166,"ĠGor":8167,"ĠHar":8168,"ĠdÃ©cor":8169,"ĠcommenÃ§":8170,"own":8171,"Ġtribunal":8172,"Pr":8173,"Ã©les":8174,"ouÃ¯":8175,"Ã¨ler":8176,"Ġparaissaient":8177,"Ġrencontra":8178,"Ġcessa":8179,"ĠBois":8180,"Ġsugg":8181,"auraient":8182,"interromp":8183,"ouest":8184,"urÃ©e":8185,"alph":8186,"ĠImp":8187,"Ġinvolont":8188,"ĠAttendez":8189,"aum":8190,"ĠrÃ©veiller":8191,"ĠCher":8192,"Ġjuin":8193,"ĠplaÃ§a":8194,"ĠEugÃ¨ne":8195,"enouill":8196,"Ġrecond":8197,"Ġvoler":8198,"Ġpenchant":8199,"Ġclient":8200,"atiques":8201,"ĠHe":8202,"Ġsucces":8203,"Ġvestib":8204,"Ġdieu":8205,"Ġvigueur":8206,"ertume":8207,"Ġfixe":8208,"Ġobtenu":8209,"aun":8210,"ortable":8211,"ĠpassÃ©s":8212,"Ġassurer":8213,"Ġdonnerai":8214,"Ġouvrant":8215,"Ġrich":8216,"Ġdrsquoint":8217,"Ġkil":8218,"Ġmasque":8219,"ĠÃ®les":8220,"honn":8221,"Ġdura":8222,"Ġten":8223,"onnaie":8224,"ĠTour":8225,"ĠenchantÃ©":8226,"Ġinstructions":8227,"aider":8228,"Ġchuch":8229,"onneurs":8230,"ĠParlement":8231,"grand":8232,"Ġreligieuse":8233,"Ġruines":8234,"Ġtra":8235,"Ã©gor":8236,"Ġmotifs":8237,"Ġclai":8238,"Ġconcert":8239,"Ġdirectement":8240,"Ġchirurg":8241,"don":8242,"ĠCelle":8243,"Ġeffect":8244,"Ġassassin":8245,"Ġessuy":8246,"Ġaventures":8247,"Ġinvisible":8248,"odeur":8249,"Ġsupplice":8250,"Ġbanquier":8251,"ĠHa":8252,"Ġapprend":8253,"Ġlrsquoaide":8254,"Hen":8255,"Ġparlement":8256,"ague":8257,"abre":8258,"ĠTart":8259,"ĠJulie":8260,"Ġmarcha":8261,"ĠÃ©coul":8262,"Ġlouis":8263,"Ġcieux":8264,"Ġduel":8265,"Ġnrsquoavoir":8266,"Ġsrsquoadressant":8267,"Ġindigne":8268,"Ġcalomn":8269,"Ġviolente":8270,"Ġlunettes":8271,"Ġcritique":8272,"itent":8273,"ĠleÃ§on":8274,"iges":8275,"ortez":8276,"Ġsanglots":8277,"oÃ¯sme":8278,"drsquoun":8279,"drsquoune":8280,"Ġmassi":8281,"ĠbiÃ¨re":8282,"ĠBab":8283,"Ġcommuniqu":8284,"ĠmÃ©can":8285,"ĠcoÃ»te":8286,"elÃ©e":8287,"Ġdrsquoheure":8288,"ĠVinc":8289,"ageait":8290,"Ġreprises":8291,"Ġjuillet":8292,"Ġsubir":8293,"ĠdÃ©chir":8294,"ĠrÃ©duit":8295,"ĠAliocha":8296,"Ġuniquement":8297,"Ġqursquoavec":8298,"Ġentrevue":8299,"ĠÃ©paisse":8300,"Ġpuissante":8301,"Ġpopulation":8302,"Ġennuy":8303,"ĠDorothÃ©e":8304,"Ġpaire":8305,"ĠsÃ©n":8306,"ĠMÃªme":8307,"illÃ©s":8308,"essay":8309,"effray":8310,"Ġtremblant":8311,"Mac":8312,"rien":8313,"'t":8314,"Ġfortes":8315,"ĠbarriÃ¨re":8316,"Ġpoursuite":8317,"Ã©couter":8318,"Ġvaud":8319,"Ġbref":8320,"ĠgÃ©nÃ©raux":8321,"ius":8322,"Ġplomb":8323,"ĠdÃ©bris":8324,"mChapitre":8325,"Ġpars":8326,"ascon":8327,"Ġadmiration":8328,"Ġplaira":8329,"nu":8330,"Ġond":8331,"aviez":8332,"Ġcourb":8333,"Ġgarda":8334,"ĠÃ©clata":8335,"Ġnotes":8336,"Ġatteindre":8337,"ian":8338,"ĠfÃªtes":8339,"Ġstation":8340,"Ġconseiller":8341,"Ġretourne":8342,"Ġtourb":8343,"Ġperdus":8344,"ĠProsper":8345,"ĠnaÃ¯ve":8346,"ĠfÃ©min":8347,"Ġchim":8348,"Ġsrsquoab":8349,"ertir":8350,"Ġabout":8351,"Ġdomaine":8352,"Ġprompt":8353,"Ġdiamants":8354,"Ġbavard":8355,"nie":8356,"Se":8357,"aisons":8358,"Ġrespirer":8359,"oques":8360,"Ġnrsquoimporte":8361,"Ġdanser":8362,"ĠCas":8363,"Ġsurg":8364,"apÃ©":8365,"ĠSer":8366,"Ã©nerg":8367,"anÃ§aient":8368,"ĠÃ©troite":8369,"ĠsacrÃ©":8370,"ĠpÃ¢les":8371,"Ġvoudra":8372,"Ġpoisson":8373,"Ġmul":8374,"Ġprennent":8375,"Ġreproches":8376,"ĠtraversÃ©":8377,"Ġverte":8378,"Ġparvint":8379,"Ġindispens":8380,"acÃ©e":8381,"ĠChez":8382,"Ġinterloc":8383,"Ġpoussait":8384,"ĠrentrÃ©":8385,"Ġaccompli":8386,"ĠforÃªts":8387,"Ġvigoureux":8388,"Ġcompliment":8389,"Ġsott":8390,"Ġcot":8391,"omac":8392,"ĠhÃ©":8393,"Ġcarn":8394,"Ġcorre":8395,"Ġdescendu":8396,"SE":8397,"Ġvision":8398,"ĠPÃ©trus":8399,"ĠfrÃ©quent":8400,"AT":8401,"Ġcrise":8402,"Ġexh":8403,"ulÃ©":8404,"achev":8405,"iences":8406,"ader":8407,"ĠMalgrÃ©":8408,"Ġperfection":8409,"Ġvienne":8410,"Ġtronc":8411,"trav":8412,"Ġfranchise":8413,"Ġlogement":8414,"Ġentretien":8415,"gers":8416,"isant":8417,"Ġrit":8418,"Ġmontant":8419,"Ã©criai":8420,"ĠmisÃ©rables":8421,"qursquoÃł":8422,"Ġretentit":8423,"itres":8424,"ĠlaissÃ©e":8425,"Ġavantage":8426,"Ġrouler":8427,"Athos":8428,"Luc":8429,"zz":8430,"ĠVille":8431,"Ġtombant":8432,"Ġsonnette":8433,"ĠmÃ©decins":8434,"Ġballes":8435,"Ġvoleurs":8436,"ren":8437,"ĠSud":8438,"Ġpatient":8439,"Ġcouverts":8440,"ĠmystÃ©rieuse":8441,"Ġvenons":8442,"Ġmunicip":8443,"Ġvestibule":8444,"GE":8445,"ouiller":8446,"Ġrasse":8447,"Ġrente":8448,"Ġplumes":8449,"agÃ©s":8450,"iral":8451,"ĠintÃ©rieur":8452,"Ġexemp":8453,"AÃİ":8454,"Ġjrsquoaime":8455,"conv":8456,"Ġfrisson":8457,"ĠRegardez":8458,"sc":8459,"endie":8460,"Ġgrise":8461,"ĠÃ©lÃ©":8462,"ceptible":8463,"ĠPatrick":8464,"ĠmÃ¨ne":8465,"Ġnrsquoas":8466,"Ġfauss":8467,"Ġillum":8468,"Ġsurs":8469,"ĠcachÃ©e":8470,"entr":8471,"Ġlav":8472,"ĠqursquoaprÃ¨s":8473,"ictions":8474,"Ġpensif":8475,"ĠBarb":8476,"ĠBarn":8477,"Ġnerveux":8478,"den":8479,"ĠobligÃ©e":8480,"Ġmajest":8481,"ĠdÃ©clare":8482,"Ġcreus":8483,"Ã©curitÃ©":8484,"Ġdort":8485,"Ġbapt":8486,"ĠlrsquoÃ©tranger":8487,"Ġoubl":8488,"ĠmariÃ©":8489,"ctobre":8490,"Ġsouriait":8491,"Ġdonnera":8492,"ribuer":8493,"ĠprÃ©paratifs":8494,"ĠQuoique":8495,"Ġbalbutia":8496,"ĠtÃ¢":8497,"utriche":8498,"ĠcarrÃ©":8499,"gnÃ¨s":8500,"Ġinsensible":8501,"Ġflott":8502,"Ġirr":8503,"Ġvillages":8504,"Ġdrsquoavance":8505,"Ġchanson":8506,"kins":8507,"Ġcra":8508,"ĠretirÃ©":8509,"ĠdÃ©fendu":8510,"ĠdÃ©sespÃ©rÃ©":8511,"ĠÃ©tranges":8512,"Ġmultitude":8513,"Ġali":8514,"ende":8515,"Ġsilh":8516,"Ġsilencieuse":8517,"AÃİTRE":8518,"ardeur":8519,"ĠÃ©bran":8520,"ĠvolÃ©":8521,"Ġagi":8522,"ĠbÃ©nÃ©f":8523,"Ġbattu":8524,"Ġvaincu":8525,"Cet":8526,"Ġ[":8527,"ĠNos":8528,"Ġcontempler":8529,"Ġexaminer":8530,"oo":8531,"oline":8532,"ecter":8533,"Ġmars":8534,"Ġstupide":8535,"Ġprouve":8536,"Ġculture":8537,"Ġsrsquoapproch":8538,"ĠTar":8539,"ĠautoritÃ©":8540,"ĠirrÃ©s":8541,"Jacques":8542,"gar":8543,"Ġral":8544,"onnante":8545,"uisa":8546,"Ġrestaient":8547,"Ġsubs":8548,"ĠGuiche":8549,"ĠleÃ§ons":8550,"Ġbaign":8551,"ĠNick":8552,"Ġpaysage":8553,"effroi":8554,"ĠÃ©pouser":8555,"Ġpistolets":8556,"ĠexpÃ©riment":8557,"Ou":8558,"laise":8559,"naire":8560,"Ġoccas":8561,"Ġentrepr":8562,"Ġportef":8563,"ĠÃ©nergie":8564,"ĠproblÃ¨me":8565,"Ġbouquet":8566,"ward":8567,"orta":8568,"ĠAntoine":8569,"Ġproclam":8570,"ancienne":8571,"uck":8572,"Ġbrillants":8573,"Ġbre":8574,"ĠAux":8575,"oya":8576,"Ġexception":8577,"ĠHug":8578,"Ġattaque":8579,"ĠengagÃ©":8580,"ĠEspagnol":8581,"Ġchevelure":8582,"Ġsanc":8583,"ĠgoÃ»":8584,"Ġtouchant":8585,"Ã©lÃ©r":8586,"Ġfaisons":8587,"ĠretrouvÃ©":8588,"bal":8589,"Ġavance":8590,"ĠMoÃ¯se":8591,"ĠLanc":8592,"ĠformÃ©":8593,"ĠmodÃ¨le":8594,"Ġressemblance":8595,"Ġvisiteur":8596,"Ġrappelez":8597,"ĠcoÃ»t":8598,"envie":8599,"ĠtentÃ©":8600,"Ġescal":8601,"Ġsouleva":8602,"lem":8603,"ack":8604,"Ġbrune":8605,"ĠimprÃ©":8606,"Ġformaient":8607,"Ġhistor":8608,"Ġressources":8609,"anie":8610,"Ġtirait":8611,"ĠAnna":8612,"ĠobÃ©it":8613,"Ġsui":8614,"Ġsexe":8615,"Ġbattait":8616,"Ġpantalon":8617,"ĠÅĵuvres":8618,"Ġlaine":8619,"Ġfous":8620,"ĠÃ©coutez":8621,"Ġvivante":8622,"Ġvolume":8623,"Ġsoupira":8624,"Ġrempart":8625,"Ġentendez":8626,"Ġdiamant":8627,"Ġsouverain":8628,"Ġcoch":8629,"Ġsuivie":8630,"Ġfrappe":8631,"ĠmÃªlÃ©e":8632,"Ġps":8633,"ĠJim":8634,"ĠdÃ©gr":8635,"ĠHoll":8636,"Ġboud":8637,"Ġcloche":8638,"ĠchrÃ©tien":8639,"ĠcÃ©der":8640,"ĠfÃ©roce":8641,"omne":8642,"adj":8643,"ĠcÃ´tes":8644,"Ġtache":8645,"Anne":8646,"ĠÃ©lectr":8647,"Ġcoffre":8648,"Voici":8649,"crsquoest":8650,"ĠlÃ¢ch":8651,"ĠNav":8652,"Ġoblige":8653,"faitement":8654,"Ġpanier":8655,"rices":8656,"ĠDonc":8657,"Ġpassent":8658,"ĠWill":8659,"ouverture":8660,"ĠbÃªt":8661,"Ġplate":8662,"ĠsÃ©paration":8663,"qursquoon":8664,"ĠconservÃ©":8665,"ĠfraÃ®ch":8666,"peu":8667,"Ġsrsquoagissait":8668,"Ġsortirent":8669,"Ġindisc":8670,"Ġhonteux":8671,"teur":8672,"Ġboit":8673,"ĠDub":8674,"unique":8675,"Ġspectateurs":8676,"Ġmiroir":8677,"ĠimbÃ©cile":8678,"ĠÃĬtes":8679,"RI":8680,"Ġchaises":8681,"ouvante":8682,"ĠfidÃ¨les":8683,"ĠzÃ¨le":8684,"Ġhalet":8685,"Ġexploit":8686,"Ã±a":8687,"dÃ©c":8688,"Ġmessire":8689,"ermain":8690,"Ġouverts":8691,"Ġmoindres":8692,"ortait":8693,"ĠDemain":8694,"Ġnrsquoayant":8695,"ĠBientÃ´t":8696,"Ġadministr":8697,"Ġfixement":8698,"ĠsongÃ©":8699,"acier":8700,"Ġenvoie":8701,"Ġmister":8702,"ĠdÃ©tach":8703,"Ġcharger":8704,"Ġtimide":8705,"ull":8706,"Ã©poque":8707,"Ġparvenir":8708,"oug":8709,"Ġnrsquoaurais":8710,"ĠBath":8711,"ĠdÃ©sh":8712,"ĠÃ©troi":8713,"ĠÃ©clats":8714,"ĠarmÃ©s":8715,"ĠcomÃ©die":8716,"Ġmembre":8717,"Ġenlever":8718,"Ġbouteilles":8719,"Ġserrure":8720,"ĠSoit":8721,"unt":8722,"Ġremise":8723,"Ġincert":8724,"ĠjugÃ©":8725,"Ġivre":8726,"ĠachetÃ©":8727,"ĠStÃ©pan":8728,"ĠColl":8729,"ĠFils":8730,"ĠÃ©claire":8731,"aimait":8732,"entendait":8733,"Ġtiers":8734,"Ġgrec":8735,"ĠintÃ©":8736,"Ġsrsquoouvrit":8737,"osez":8738,"ife":8739,"ĠprÃ©sentÃ©":8740,"leby":8741,"Ġraill":8742,"Ġsemblent":8743,"ĠordonnÃ©":8744,"ĠdÃ©lire":8745,"Ġplainte":8746,"uisseau":8747,"Ġapprouv":8748,"ĠeffrayÃ©":8749,"Ġira":8750,"Ġgromm":8751,"quelque":8752,"ĠÃ©coutÃ©":8753,"ĠmÃ©lancolique":8754,"Ġutil":8755,"ĠdÃ©sagrÃ©able":8756,"aÃ«l":8757,"ĠblÃ©":8758,"ĠDan":8759,"Ġgenou":8760,"ĠpersuadÃ©":8761,"ĠdÃ©licate":8762,"Ġmaigres":8763,"Ġdrsquoentrer":8764,"ĠdÃ©dain":8765,"Ġvice":8766,"Ġrusse":8767,"cemment":8768,"ĠpÃ©nÃ©tr":8769,"pecteur":8770,"Ġartiste":8771,"Ġbrillante":8772,"ĠespÃ©rait":8773,"Du":8774,"eussent":8775,"Ġchances":8776,"ĠÃ©tal":8777,"ĠallÃ¨rent":8778,"Ġexcellente":8779,"ĠmÃ©decine":8780,"ustes":8781,"ĠserrÃ©":8782,"Ġconfess":8783,"Ġpolitiques":8784,"ĠCornÃ©lius":8785,"Ġmang":8786,"Ġseptembre":8787,"ĠNelson":8788,"Ġcomplice":8789,"group":8790,"ĠÃ©prouvÃ©":8791,"ĠÃ©ducation":8792,"Ġtroubler":8793,"ĠmÃ©dioc":8794,"ĠÃ©prouver":8795,"idente":8796,"Ġcouloir":8797,"ĠgÃªne":8798,"ĠsÃ©curitÃ©":8799,"Ġcage":8800,"Ġcompassion":8801,"ĠrÃ©union":8802,"Ġcitoyens":8803,"Ġtendrement":8804,"ĠspÃ©ci":8805,"iou":8806,"Ġdemoiselles":8807,"aisses":8808,"ĠmrsquoÃ©t":8809,"ifications":8810,"Ah":8811,"sol":8812,"Ġcend":8813,"inÃ©s":8814,"illette":8815,"Ġincons":8816,"Ġrisquer":8817,"ĠhÃ´tes":8818,"AU":8819,"oral":8820,"Ġdesquels":8821,"Ġlrsquoobjet":8822,"upt":8823,"baye":8824,"Ġhaie":8825,"adier":8826,"ĠrestÃ¨rent":8827,"Ġsolenne":8828,"Ġhauts":8829,"offin":8830,"Ġarrange":8831,"ousseau":8832,"Ġroutes":8833,"dent":8834,"Ġviendr":8835,"inions":8836,"ousage":8837,"ĠPart":8838,"oter":8839,"Ã¢teau":8840,"Ġjrsquoaie":8841,"ikov":8842,"lotte":8843,"Ġnet":8844,"Ġattaqu":8845,"Ġprudent":8846,"yre":8847,"Ġgagne":8848,"ĠSm":8849,"ĠSol":8850,"ancÃ¨rent":8851,"arrÃªtant":8852,"ĠÃ©mue":8853,"Ġvictimes":8854,"Char":8855,"mEn":8856,"Ġliens":8857,"Ġpiste":8858,"Ġlrsquoembr":8859,"ĠlrsquoarrivÃ©e":8860,"Ã©rance":8861,"autoritÃ©":8862,"Ġreprend":8863,"ĠChat":8864,"ĠdÃ©tache":8865,"ĠÃ©gale":8866,"ĠfaÃ§ons":8867,"pective":8868,"OM":8869,"Ġpromets":8870,"athan":8871,"Ġreferma":8872,"Ġcravate":8873,"herbe":8874,"Ġconnus":8875,"ĠEnsuite":8876,"**":8877,"Ã©bre":8878,"Ġvendu":8879,"Ġapplaud":8880,"ĠreÃ§us":8881,"Ġchangea":8882,"ĠÃ©clairÃ©e":8883,"ĠrafraÃ®ch":8884,"Ġmaux":8885,"rsquoign":8886,"ĠlrsquoÃªtre":8887,"Ġcourrier":8888,"Ġvitres":8889,"Ġrapporter":8890,"Ġremonter":8891,"ĠNickleby":8892,"Ġveste":8893,"asion":8894,"six":8895,"Ġjolies":8896,"ĠpÃ¢leur":8897,"fa":8898,"ĠinquiÃ¨te":8899,"embre":8900,"ada":8901,"ĠRog":8902,"ĠlevÃ©e":8903,"Ġdouloureux":8904,"Ġ-":8905,"ĠÃ©tend":8906,"ĠSand":8907,"Ġexag":8908,"impression":8909,"ĠRussie":8910,"rand":8911,"Ġavouer":8912,"ĠMich":8913,"ĠDum":8914,"ĠfÃ©e":8915,"Ã¨dre":8916,"ĠAug":8917,"Ġferons":8918,"Ġsuivis":8919,"Ġ14":8920,"ĠÃ©trangÃ¨re":8921,"ĠembarrassÃ©":8922,"Ġphilosophie":8923,"ĠProvidence":8924,"ĠFiodor":8925,"isson":8926,"allai":8927,"Ġlutter":8928,"Ġplateau":8929,"tÃ©s":8930,"auf":8931,"ĠannonÃ§ait":8932,"Ġattendaient":8933,"ĠPavl":8934,"cor":8935,"Ġgilet":8936,"Ġdouces":8937,"Ġpud":8938,"ĠdiscrÃ©tion":8939,"Ġdoutait":8940,"ignor":8941,"Ġbougie":8942,"ĠmÃ©tal":8943,"Ġretrouve":8944,"Ġculte":8945,"enance":8946,"isa":8947,"ĠSou":8948,"Ġdrsquoentendre":8949,"Ġmonot":8950,"Ġdisons":8951,"Ġjrsquoaurai":8952,"Ġpleur":8953,"ĠÃ©lÃ¨ve":8954,"Ġsouterr":8955,"Ġbanque":8956,"elant":8957,"Ġruse":8958,"Ġfrac":8959,"ĠamÃ©ric":8960,"Ġcommerci":8961,"Ġlonguement":8962,"ĠnÃ¨gres":8963,"Ġrichesses":8964,"pouv":8965,"ĠDÃ©m":8966,"Ġmilord":8967,"ĠlittÃ©raire":8968,"Ġtables":8969,"ĠrÃ©pÃ©tait":8970,"Ġconsulter":8971,"Ġtumulte":8972,"ĠremÃ¨de":8973,"Ġhumaines":8974,"ĠfiancÃ©e":8975,"Ġordinairement":8976,"Ġimporte":8977,"Ġposant":8978,"Ġrever":8979,"conf":8980,"Ġtonne":8981,"Ġmilitaires":8982,"Ġincess":8983,"Ġveines":8984,"uscule":8985,"Ġinfiniment":8986,"Ġportent":8987,"Ġappuya":8988,"Ġfranchir":8989,"averne":8990,"ĠNrsquoest":8991,"Ġfamili":8992,"Ġcoquet":8993,"Ã©nergie":8994,"ling":8995,"âĢ¦âĢ¦":8996,"Ġappare":8997,"ĠfidÃ©litÃ©":8998,"Ġformidable":8999,"Ã©leste":9000,"beau":9001,"col":9002,"ilitÃ©s":9003,"Ã©rations":9004,"Ġsaisissant":9005,"Ġrentrant":9006,"Ġseize":9007,"igel":9008,"ĠcrÃ¢ne":9009,"ellence":9010,"Quoi":9011,"ĠfermetÃ©":9012,"INE":9013,"Ġfarouche":9014,"Ġscrupule":9015,"Ġtambour":9016,"ĠmÃ¢t":9017,"Ġlrsquoofficier":9018,"Ġdrsquoass":9019,"Ġcrus":9020,"Ġperdait":9021,"ASS":9022,"ĠlrsquoÃ©":9023,"ĠCarm":9024,"abond":9025,"onnent":9026,"Ġintr":9027,"ĠVos":9028,"attach":9029,"ĠParlez":9030,"ibault":9031,"ĠsÃ©ance":9032,"Ġtiennent":9033,"ĠchÅĵur":9034,"Ġcompatri":9035,"aturellement":9036,"ĠrÃ©gion":9037,"Ġfatal":9038,"Ġrejoign":9039,"Ġgracieux":9040,"Åĵud":9041,"Ġobstacle":9042,"Ġindividus":9043,"ĠrÃ©gnait":9044,"cÃ©an":9045,"toujours":9046,"ĠMur":9047,"Ġcomique":9048,"Ġlrsquoaff":9049,"Ġlrsquoappartement":9050,"ĠSh":9051,"accompagner":9052,"Ġmagasin":9053,"Ġjuif":9054,"ĠCH":9055,"igue":9056,"ĠVirg":9057,"Ġrevol":9058,"ĠmisÃ©ric":9059,"Ġimages":9060,"Ġbase":9061,"ĠÃ©motions":9062,"ĠdÃ©licieux":9063,"Ġarracher":9064,"Ġgouttes":9065,"rsquoirai":9066,"Ġcass":9067,"Ġnorm":9068,"ĠJames":9069,"Ġinn":9070,"ĠÃ¢gÃ©":9071,"ĠmÃªler":9072,"ĠVictor":9073,"AussitÃ´t":9074,"euf":9075,"Ġlrsquoespoir":9076,"amitiÃ©":9077,"ĠÃ©mer":9078,"terre":9079,"Ãīglise":9080,"Ġcalmer":9081,"low":9082,"Ġpres":9083,"ĠLÃ©v":9084,"ĠrÃ©ch":9085,"ĠdÃ©tour":9086,"Ġcuivre":9087,"astre":9088,"Ġcraintes":9089,"Ġamic":9090,"ĠÃ©crite":9091,"Ġmourant":9092,"Ġcourtois":9093,"ĠSimon":9094,"aphe":9095,"ĠNantes":9096,"Ãīc":9097,"Ġstyle":9098,"Ġcouvrait":9099,"Ġdiriger":9100,"Vers":9101,"reuses":9102,"Ġfailli":9103,"Ġruisseau":9104,"Ġhid":9105,"ĠarmÃ©":9106,"Ġcombatt":9107,"Ġcabane":9108,"Ġ20":9109,"Ġsaints":9110,"Ġbourd":9111,"Ġavou":9112,"embarras":9113,"Ġrepentir":9114,"Ġfile":9115,"Ġplaint":9116,"ĠPerc":9117,"Ġtalons":9118,"Ġlugubre":9119,"Ġboss":9120,"ĠchÃ¨v":9121,"oret":9122,"ĠprÃ©vu":9123,"Ġmaudit":9124,"bar":9125,"mf":9126,"Ġcort":9127,"Ġlame":9128,"ĠFred":9129,"Ġcommode":9130,"rets":9131,"Ġcharrette":9132,"Ġagitation":9133,"ĠdiffÃ©rent":9134,"Ġcoquin":9135,"Ġmatelots":9136,"cembre":9137,"opÃ©":9138,"Ġnourrice":9139,"field":9140,"iol":9141,"mÃ©di":9142,"Ġtimb":9143,"Ġtrouvera":9144,"ĠÃ©conom":9145,"Ġauront":9146,"Ġpeinture":9147,"Ġchirurgien":9148,"Ġrestaur":9149,"Ġdissimuler":9150,"regard":9151,"Toute":9152,"Ã©criv":9153,"Ġamies":9154,"Ġjrsquoallais":9155,"effort":9156,"Ġobservations":9157,"ĠfantÃ´me":9158,"ĠpavÃ©":9159,"mit":9160,"iraient":9161,"athe":9162,"Ġdrsquoind":9163,"ĠMole":9164,"Ġsonna":9165,"Ġcommettre":9166,"Ġbesoins":9167,"ĠlibÃ©r":9168,"Ġtapiss":9169,"mqui":9170,"Ġquator":9171,"Ġvainement":9172,"ĠfÃ»mes":9173,"omon":9174,"Ġaig":9175,"Ġblond":9176,"Ġretomber":9177,"ĠdÃ©clarer":9178,"ĠÃ©lectronique":9179,"mbr":9180,"Ġmrsquoas":9181,"Ġfatale":9182,"Ġvase":9183,"ĠpÃ¨ler":9184,"ĠlrsquoÃ¢ge":9185,"Ġcouple":9186,"ettent":9187,"ĠconsÃ©quences":9188,"gen":9189,"Ġvib":9190,"iteur":9191,"ĠnÅĵud":9192,"Ġcrist":9193,"ĠregardÃ¨rent":9194,"Ġcouru":9195,"Ġpromenait":9196,"ĠMarcof":9197,"Ġcam":9198,"illerie":9199,"Ġamener":9200,"Ġconsult":9201,"ĠjournÃ©es":9202,"Ġessayait":9203,"Ġsouhaite":9204,"Ġrecula":9205,"ĠtÃ©lÃ©gr":9206,"ĠNelly":9207,"Ġberg":9208,"ĠÃ©car":9209,"Ġcolonnes":9210,"Ġquittant":9211,"Ġcomparaison":9212,"ĠPerm":9213,"ĠToi":9214,"isses":9215,"Ġnoct":9216,"Ġdiligence":9217,"ĠÃ©ternelle":9218,"ĠdrsquoOr":9219,"Ġexcl":9220,"ĠRam":9221,"Ġ184":9222,"ĠindiffÃ©rent":9223,"Ġpuits":9224,"Ġmettez":9225,"arou":9226,"estation":9227,"allez":9228,"ĠMM":9229,"ĠtraÃ®tre":9230,"ĠBourg":9231,"rivÃ©":9232,"Ġreprocher":9233,"ĠnumÃ©ro":9234,"ĠthÃ©orie":9235,"Ġsrsquoasseoir":9236,"ĠToujours":9237,"uitÃ©":9238,"Ġoffrit":9239,"Ġtrouverait":9240,"Ġlrsquoaime":9241,"neaux":9242,"ĠvÃ©rif":9243,"Ã©ducation":9244,"ĠdÃ©tresse":9245,"Ġprofondeur":9246,"cli":9247,"mEt":9248,"Ġjoindre":9249,"rient":9250,"ĠBrig":9251,"ulaire":9252,"Ã©nie":9253,"Ġcontenir":9254,"Ġsuivaient":9255,"Ġprofondes":9256,"Ġbaisa":9257,"abandonner":9258,"Ġcervelle":9259,"ĠhÃ¢ta":9260,"loge":9261,"ospit":9262,"Ġsaura":9263,"Ġdrag":9264,"Ġboug":9265,"ĠagitÃ©":9266,"ĠArth":9267,"frique":9268,"ĠMit":9269,"igr":9270,"Ġsrsquoag":9271,"Ġimpert":9272,"ĠchargÃ©e":9273,"ĠÃ©couta":9274,"Ġcordes":9275,"Ġgratuits":9276,"Ġfrayeur":9277,"chaussÃ©e":9278,"ĠdÃ©tourna":9279,"ĠfraÃ®cheur":9280,"GU":9281,"ĠnÃ´tre":9282,"Ġgaillard":9283,"chemin":9284,"ulation":9285,"imer":9286,"Ġrevue":9287,"ĠarrÃªtÃ©e":9288,"ĠJustin":9289,"ĠLancelot":9290,"umble":9291,"Ġalar":9292,"Ġafflig":9293,"Ġcapital":9294,"Ġviande":9295,"Ġobservation":9296,"Ġphilosophe":9297,"ĠnÃ¨gre":9298,"amant":9299,"Ġcomptes":9300,"ĠdonnÃ©s":9301,"Ġcoeur":9302,"ĠÃ©chang":9303,"ĠcommencÃ¨rent":9304,"ĠhabituÃ©":9305,"ĠlrsquoÃ©pÃ©e":9306,"Ġcatholique":9307,"oble":9308,"ĠnÃ´tres":9309,"Ġdrsquoarriver":9310,"rate":9311,"Ġpersonnel":9312,"dix":9313,"Ġpoiss":9314,"ĠEmma":9315,"Ġparlaient":9316,"Ġpape":9317,"Ġsuffisamment":9318,"Ġarb":9319,"Ġabsor":9320,"demand":9321,"ĠPuisque":9322,"ĠtrÃ©sors":9323,"Ġdouloureuse":9324,"iaient":9325,"atelier":9326,"ĠGib":9327,"ignant":9328,"offe":9329,"ĠentraÃ®n":9330,"ĠMarthe":9331,"ĠÃ©tudes":9332,"Ġmettent":9333,"Avec":9334,"ĠvÅĵux":9335,"ĠGrimaud":9336,"ĠmrsquoÃ©tais":9337,"ĠministÃ¨re":9338,"ĠKe":9339,"ĠÃ©lÃ¨ves":9340,"Ġanges":9341,"ĠrÃ©flÃ©chi":9342,"ĠLydgate":9343,"Lorsqu":9344,"Plus":9345,"joux":9346,"inot":9347,"Ġplis":9348,"Ġcommunication":9349,"Ġjustifier":9350,"Ġinutiles":9351,"icorne":9352,"ĠBarry":9353,"Ġperron":9354,"istible":9355,"Ġmagnifiques":9356,"Ġisol":9357,"Ġnettement":9358,"Maur":9359,"dont":9360,"rance":9361,"entendit":9362,"estin":9363,"ĠDÃ©jÃł":9364,"Ġavantages":9365,"Ġlecteurs":9366,"Ġtoits":9367,"Ġital":9368,"Ġdommage":9369,"Ġnid":9370,"Ġferiez":9371,"Ġrestes":9372,"Ġ13":9373,"ĠreÃ§oit":9374,"Ġrival":9375,"ĠDiane":9376,"Ġvulgaire":9377,"Ġnett":9378,"Ġestime":9379,"ĠRalph":9380,"Ġvoyaient":9381,"ight":9382,"ustr":9383,"ĠlrsquoeÃ»t":9384,"ĠsrsquoarrÃªter":9385,"inst":9386,"ĠexpÃ©d":9387,"ĠÃ©glise":9388,"Ġprovisions":9389,"Ġfixer":9390,"ennui":9391,"Ġlancer":9392,"neuf":9393,"ĠvoÃ»te":9394,"illement":9395,"ĠscÃ©lÃ©r":9396,"Ġassistants":9397,"Ġconseille":9398,"ĠbrÃ»le":9399,"Ġlrsquoexpression":9400,"CE":9401,"VoilÃł":9402,"ĠmÃ¨res":9403,"ageuse":9404,"ervÃ©":9405,"Ã©vrier":9406,"Ġrichesse":9407,"VE":9408,"Ġlas":9409,"ĠSar":9410,"ĠHum":9411,"frÃ¨re":9412,"ĠdÃ©truire":9413,"Ġsons":9414,"prÃ©sent":9415,"Ã©cole":9416,"ĠDick":9417,"ĠBonne":9418,"Ġdistrait":9419,"ĠreprÃ©s":9420,"Ġrecommen":9421,"Ġsourcil":9422,"seaux":9423,"ĠCeci":9424,"Ġrevanche":9425,"Ġvives":9426,"Ġfusils":9427,"ĠmÃ©lange":9428,"Ġendormi":9429,"peut":9430,"Ġvides":9431,"aurez":9432,"Ġregardai":9433,"ĠrÃ©soudre":9434,"Ġflancs":9435,"Ġagents":9436,"Ġreconnaiss":9437,"Ġsurprendre":9438,"IÃĪ":9439,"Ã©fin":9440,"ĠDou":9441,"oulait":9442,"ĠreÃ§ue":9443,"Ġmenaces":9444,"ĠdÃ©lib":9445,"Ġconstat":9446,"Ġsongeant":9447,"Ġadresser":9448,"ĠDonnez":9449,"Ġgrandrsquo":9450,"Ġdouzaine":9451,"Ġrespiration":9452,"ĠrÃ©ussit":9453,"Ġportefeuille":9454,"Ġcy":9455,"ĠHarry":9456,"lÃ©ans":9457,"Ġcesser":9458,"Ġdrapeau":9459,"usage":9460,"Ġparadis":9461,"Ġsrsquooccup":9462,"Ġenflam":9463,"adresser":9464,"Ġpans":9465,"antichambre":9466,"Ġpleurant":9467,"ĠBonjour":9468,"Ġcollines":9469,"ographie":9470,"DON":9471,"usions":9472,"Ġlrsquoy":9473,"issons":9474,"Ġparts":9475,"Ġabomin":9476,"Ġordonn":9477,"Ġanglaise":9478,"âĢľ":9479,"anth":9480,"Ġchante":9481,"veil":9482,"Ġcommuniquer":9483,"Ġabsolue":9484,"Ġtaureau":9485,"Re":9486,"reusement":9487,"Ġhaleine":9488,"ĠLouv":9489,"ĠdÃ©serte":9490,"Ġrenf":9491,"tous":9492,"ypt":9493,"autÃ©s":9494,"Ġsucre":9495,"ccident":9496,"Ġdipl":9497,"ĠAndrÃ©e":9498,"Ġtrsquoa":9499,"ĠrÃ©volte":9500,"ĠAmÃ©ric":9501,"Ġignorait":9502,"Ġdistinction":9503,"Cela":9504,"mv":9505,"ĠbÃ»":9506,"Ġrez":9507,"Ġplans":9508,"ĠpassÃ©es":9509,"ĠabandonnÃ©e":9510,"uguen":9511,"ĠFontaine":9512,"femme":9513,"ĠJrsquoy":9514,"Ġmoderne":9515,"ĠhonnÃªtes":9516,"ĠÃ©tendit":9517,"ĠlrsquoannÃ©e":9518,"Ġenthousiasme":9519,"existe":9520,"Ġmorne":9521,"Ġcourses":9522,"Ġguerrier":9523,"Ġmonstru":9524,"kov":9525,"ĠfÃ©c":9526,"Ġeus":9527,"Ġflanc":9528,"Ġsoirs":9529,"envelopp":9530,"Ġblessures":9531,"Ġfautes":9532,"Henri":9533,"bons":9534,"Ã©tude":9535,"Ġchers":9536,"avions":9537,"Ġhonneurs":9538,"ĠCab":9539,"ĠcrÃ©dit":9540,"Ġperles":9541,"Ġoffici":9542,"Ġtournure":9543,"Ġardent":9544,"Ġprenaient":9545,"Ġguet":9546,"Ġordinaires":9547,"ĠsÃ©rie":9548,"cond":9549,"Ġfact":9550,"ĠLeurs":9551,"urez":9552,"Ġdirez":9553,"Ġimaginer":9554,"Ġsacrific":9555,"Ġwh":9556,"ĠmenaÃ§ant":9557,"fe":9558,"Ġporc":9559,"Ġreli":9560,"Ġretenu":9561,"Ġconnaissent":9562,"ĠdÃ©sirez":9563,"ION":9564,"rut":9565,"amie":9566,"Ġmarins":9567,"Ġmousquetaires":9568,"Ġsilencieusement":9569,"ĠMord":9570,"railles":9571,"clÃ©s":9572,"ĠdÃ©vouÃ©":9573,"Ġgriff":9574,"Ġoccasions":9575,"vres":9576,"Ġserrer":9577,"ensÃ©e":9578,"Ġappliqu":9579,"yste":9580,"Ġrobes":9581,"Ġlorsqursquoelle":9582,"naient":9583,"Ġlaid":9584,"Ġtasse":9585,"Ġvente":9586,"ommÃ©":9587,"Ġessayant":9588,"Ġbaissant":9589,"Ġcatastr":9590,"Ġtroupeau":9591,"ĠmÃ¢ch":9592,"itaine":9593,"Ġauras":9594,"Ġindust":9595,"achel":9596,"habit":9597,"Ġconcierge":9598,"ologue":9599,"absence":9600,"ĠprÃ©cipitamment":9601,"pÃ©ra":9602,"Ġlrsquoont":9603,"ĠPrÃ©":9604,"Ġsoumis":9605,"Ġrenvoy":9606,"Ġcruellement":9607,"Ġtendres":9608,"Ġconclusion":9609,"connu":9610,"Ġpurent":9611,"ecture":9612,"ĠfacultÃ©s":9613,"Ġaffirm":9614,"ĠMarianne":9615,"Dame":9616,"Ã©br":9617,"Ġfas":9618,"Ġgants":9619,"ĠCo":9620,"ageant":9621,"ĠjetÃ©e":9622,"ĠprÃ©parait":9623,"oublier":9624,"Ġvaguement":9625,"Europe":9626,"queers":9627,"ĠVI":9628,"ĠBrun":9629,"ĠsituÃ©":9630,"Ġbaisers":9631,"000":9632,"Ġbataillon":9633,"iemment":9634,"ĠdÃ©fiance":9635,"ĠrÃ©flÃ©chit":9636,"ĠÃ©pouvantable":9637,"Ġcriminel":9638,"outh":9639,"ĠCond":9640,"Ġsurveiller":9641,"ciÃ¨re":9642,"issable":9643,"blement":9644,"accus":9645,"Ġchandelle":9646,"LA":9647,"Ġcasser":9648,"Ġenter":9649,"ays":9650,"Ġperspective":9651,"Ã©trange":9652,"iÃ©es":9653,"rimÃ©":9654,"angoisse":9655,"Ã©lanÃ§a":9656,"ĠAnton":9657,"Ġbrillaient":9658,"Ġpiano":9659,"ĠToutefois":9660,"ĠlÃ©gitime":9661,"jamais":9662,"Ã©ler":9663,"inÃ©es":9664,"ama":9665,"iger":9666,"Ġquittait":9667,"ĠcommenÃ§aient":9668,"Ġcontraint":9669,"ĠstupÃ©f":9670,"Ġbienvenu":9671,"mI":9672,"Ġouvertes":9673,"Ġjanvier":9674,"estion":9675,"Ġparquet":9676,"Ġparoisse":9677,"ĠNigel":9678,"agnie":9679,"ĠRenÃ©e":9680,"Ġintelligent":9681,"quo":9682,"otteau":9683,"assurer":9684,"Ġconfidence":9685,"Ġblas":9686,"Ġassister":9687,"ĠsupÃ©rioritÃ©":9688,"ĠchrÃ©tiens":9689,"ĠdÃ©livrer":9690,"Ġsculpt":9691,"Ġplanches":9692,"ĠRab":9693,"ĠFaut":9694,"Ġpassants":9695,"Ġvoient":9696,"lever":9697,"Ġreproch":9698,"Ġintellect":9699,"ensemble":9700,"Ġconstitution":9701,"ĠreprÃ©sentant":9702,"oublie":9703,"Ġhonorable":9704,"obtenir":9705,"Ġrevolver":9706,"Ġlocat":9707,"Ġdevine":9708,"Ġcell":9709,"Ġrecouv":9710,"Ġterrit":9711,"Ġanciennes":9712,"erriÃ¨re":9713,"autel":9714,"ĠrÃ©parer":9715,"ĠcaractÃ©r":9716,"Ġvilla":9717,"Ġopinions":9718,"ĠemployÃ©s":9719,"elin":9720,"ury":9721,"auberge":9722,"atan":9723,"prÃ©t":9724,"Ġvitesse":9725,"ĠAlain":9726,"Ġlrsquoimpression":9727,"ĠcrsquoÃ©taient":9728,"Ã©rÃ©n":9729,"Ġcontenu":9730,"aspard":9731,"Ġredoutable":9732,"Ġtexte":9733,"Ġsaluer":9734,"aphaÃ«l":9735,"Ġpersuader":9736,"offrey":9737,"Ġrat":9738,"Ġrattr":9739,"ĠValliÃ¨re":9740,"ĠLorin":9741,"clama":9742,"influence":9743,"los":9744,"lÃ©es":9745,"assible":9746,"Ġtrot":9747,"issais":9748,"Ġlaissaient":9749,"ĠrestÃ©s":9750,"ondez":9751,"Ġsongea":9752,"XV":9753,"non":9754,"Ġmonnaie":9755,"Ġjeux":9756,"avanÃ§a":9757,"sile":9758,"Ġbriller":9759,"ancier":9760,"Ġfutur":9761,"ĠÃ©preuve":9762,"Ġaffreuse":9763,"Ġplaisait":9764,"Ġapportait":9765,"Ġvaincre":9766,"Ġcultiv":9767,"ĠÃ©teint":9768,"ĠBastille":9769,"Ġfosse":9770,"ĠStr":9771,"Ġgrad":9772,"ĠDem":9773,"ĠBoffin":9774,"Ġaristocr":9775,"Ġchagrins":9776,"Ge":9777,"pins":9778,"ĠSyl":9779,"Ġcong":9780,"ĠmanÅĵuvre":9781,"ressa":9782,"Ġlrsquoexc":9783,"Ġrelevant":9784,"ĠDiable":9785,"onnette":9786,"ĠGuise":9787,"Ġcaresses":9788,"Ġjrsquoeus":9789,"ĠÃ¢ne":9790,"Ġsoupe":9791,"Ġremet":9792,"Ġexplications":9793,"ousses":9794,"Ġoccupait":9795,"Ph":9796,"Ġmasses":9797,"Ġjoint":9798,"ourt":9799,"ĠSqueers":9800,"ĠTe":9801,"Ġboucles":9802,"ommÃ©e":9803,"Ġlrsquoinv":9804,"Ġabandonner":9805,"ĠcÃ©rÃ©mon":9806,"ĠArthur":9807,"Ġcaill":9808,"Ġbuff":9809,"Ġparap":9810,"Ġdevrais":9811,"Ġrevenus":9812,"Ġexpliqua":9813,"Ġexplique":9814,"Ġpratiqu":9815,"Ġmoines":9816,"Ġkilom":9817,"ĠÃ©lÃ©ments":9818,"ĠNavarre":9819,"Ġvid":9820,"Ġempois":9821,"Ġprincipaux":9822,"Ġhabituelle":9823,"Ġlrsquohorizon":9824,"Ġsentinelle":9825,"Non":9826,"ĠRÃ©v":9827,"autrefois":9828,"Ġouvrait":9829,"ĠvÃªtement":9830,"nier":9831,"Ġhache":9832,"Ġserrait":9833,"Ġaurions":9834,"Ġsuivirent":9835,"Ġgalant":9836,"Christ":9837,"ĠmÃ©chante":9838,"Ġreculer":9839,"Ġlimites":9840,"Ġdettes":9841,"iÃ©r":9842,"ĠgÃ©nÃ©rositÃ©":9843,"ĠscÃ¨nes":9844,"enfance":9845,"Ġreding":9846,"Ġremplit":9847,"ĠdÃ©tourner":9848,"ĠSalvato":9849,"Germain":9850,"well":9851,"Ġfins":9852,"Ġmortel":9853,"ĠlrsquointÃ©rÃªt":9854,"Ġgarnison":9855,"Ġci":9856,"aval":9857,"ĠGuer":9858,"Ġformait":9859,"erdin":9860,"Ġniv":9861,"treet":9862,"Ġguise":9863,"ĠdrsquoO":9864,"ĠrÃ©pondirent":9865,"Ġinconv":9866,"Ġrends":9867,"Ġvalets":9868,"Ġnoces":9869,"Ġfontaine":9870,"Ġdoutes":9871,"Ġmaintenir":9872,"Ã©trius":9873,"Com":9874,"Ġenj":9875,"ĠLuisa":9876,"ĠRet":9877,"ĠGabri":9878,"Ġferas":9879,"ĠguÃ©ri":9880,"ĠfermÃ©s":9881,"Ġpopulaire":9882,"vol":9883,"rsquoici":9884,"Ġreviens":9885,"ĠdÃ©plais":9886,"exprimer":9887,"Ġsubt":9888,"Ġpouce":9889,"horizon":9890,"Ġasseoir":9891,"Ġserre":9892,"oula":9893,"aÃ®nÃ©":9894,"Ġempressement":9895,"ĠÃ©loqu":9896,"major":9897,"Ġapparition":9898,"Ġretrouva":9899,"Ġnationale":9900,"Ġsuspendu":9901,"ĠexÃ©cuter":9902,"ĠprotÃ©ger":9903,"intÃ©":9904,"Ġhost":9905,"onnÃ©es":9906,"ĠEr":9907,"ĠBi":9908,"ĠconfiÃ©":9909,"ĠArmand":9910,"ĠpÃ©nÃ©trÃ©":9911,"ĠJuda":9912,"ĠPermettez":9913,"34":9914,"Ã©ron":9915,"ĠNÃ©anmoins":9916,"Ġtextes":9917,"ĠperÃ§":9918,"Ġouvre":9919,"Ġroues":9920,"Ġsocial":9921,"inconnu":9922,"31":9923,"Ġpir":9924,"Ġmarine":9925,"Ġproduisit":9926,"Jrsquoai":9927,"gÃ©nÃ©ral":9928,"ĠBalsamo":9929,"isoire":9930,"Ã©vÃ©":9931,"Ġforcer":9932,"ĠvÃªtue":9933,"Ġcendres":9934,"fille":9935,"anti":9936,"Ġens":9937,"Ġdevenus":9938,"Ġlrsquoexistence":9939,"ĠhÃ©roÃ¯":9940,"Ġconvaincre":9941,"ĠpÃ©riode":9942,"ĠphÃ©nomÃ¨nes":9943,"ĠAucun":9944,"ĠRhin":9945,"anit":9946,"Ġjud":9947,"Ġplaintes":9948,"Ġimpuiss":9949,"ĠMaria":9950,"ĠrÃ©gent":9951,"Ġtribu":9952,"Ġhalte":9953,"Ġnovembre":9954,"Ġgouvernante":9955,"Ġsursaut":9956,"fils":9957,"Ġdauph":9958,"Ġstr":9959,"Ġviendrait":9960,"Ã©th":9961,"ĠGarde":9962,"Ġministres":9963,"Ġfameuse":9964,"Ġ185":9965,"ĠcomposÃ©":9966,"Ġbornes":9967,"Ġgarantie":9968,"Ġquoiqursquoil":9969,"ĠdÃ©cidÃ©ment":9970,"ĠterminÃ©e":9971,"askoln":9972,"vin":9973,"Ġiss":9974,"Ġpic":9975,"rime":9976,"iciens":9977,"ĠrÃ©elle":9978,"Ġrestera":9979,"ĠguÃ©rir":9980,"Ġfusse":9981,"Ġprotecteur":9982,"askolnikov":9983,"32":9984,"nouv":9985,"Ġpommes":9986,"ĠDES":9987,"Ġeuss":9988,"ĠÃ©lan":9989,"Ġcachet":9990,"ĠcollÃ¨g":9991,"ĠHeureusement":9992,"ĠcortÃ¨ge":9993,"Ġquatorze":9994,"uments":9995,"ĠlancÃ©":9996,"Ġtendait":9997,"Ġcentaines":9998,"Ġfoudre":9999,"Ġvieillards":10000,"afaud":10001,"Ġcontenta":10002,"Ã©ters":10003,"ĠfossÃ©":10004,"prÃ©s":10005,"ĠpersÃ©cut":10006,"Ġincomp":10007,"ĠnÃ©glige":10008,"Ġcadavres":10009,"awber":10010,"Ġsot":10011,"Ġcouss":10012,"ĠCinq":10013,"Ġregardais":10014,"Ġarrivaient":10015,"Ġpromit":10016,"Ġappartements":10017,"Ġsuperf":10018,"Ġchantait":10019,"Ġrougir":10020,"Ġcouverture":10021,"Ġmerveilleuse":10022,"Ġcoc":10023,"Ġmenait":10024,"ĠPen":10025,"acon":10026,"obation":10027,"Ġlabor":10028,"Mart":10029,"Ġjoies":10030,"Ãªchait":10031,"ĠJules":10032,"Ġexist":10033,"rÃ©g":10034,"Ġphot":10035,"ĠrÃ©vÃ©ler":10036,"Ġremplacer":10037,"Ġruiss":10038,"agers":10039,"ĠOs":10040,"ĠFer":10041,"ART":10042,"Ġdangereuse":10043,"ney":10044,"Ġparurent":10045,"agÃ¨re":10046,"importance":10047,"ĠmÃªlÃ©":10048,"ĠplacÃ©s":10049,"serv":10050,"ingen":10051,"ĠmisÃ¨res":10052,"Ġreprenait":10053,"ĠpÃ¢lit":10054,"Ġtranspar":10055,"Ġobserva":10056,"Ġbienvenue":10057,"ban":10058,"urÃ©ment":10059,"tera":10060,"Ġrendue":10061,"Ġfrappait":10062,"Ġhabitait":10063,"Ġcaverne":10064,"Ġpause":10065,"www":10066,"itoyable":10067,"hard":10068,"ĠHal":10069,"Ġtraverse":10070,"ĠindiffÃ©rence":10071,"olyte":10072,"cert":10073,"Ġatr":10074,"errer":10075,"ĠdÃ©couvrit":10076,"Ġmarais":10077,"ĠfacilitÃ©":10078,"Ġjaunes":10079,"chÃ©s":10080,"Ġuniforme":10081,"ĠFe":10082,"Ġrevenue":10083,"ĠdÃ©licieuse":10084,"Oh":10085,"mles":10086,"Ã©cart":10087,"assis":10088,"ignonne":10089,"quelques":10090,"Ġbandits":10091,"Ġapprochait":10092,"Don":10093,"Ġdol":10094,"ĠBaud":10095,"ĠposÃ©e":10096,"Ġvouliez":10097,"Ġfinesse":10098,"ambert":10099,"ĠpiÃ¨ge":10100,"Ġcanot":10101,"otty":10102,"Ġsoulagement":10103,"ggotty":10104,"Ġhaussa":10105,"Ġrendant":10106,"Ġcraignez":10107,"Ġcapables":10108,"Ġrendaient":10109,"andises":10110,"ĠlrsquoÃ©poque":10111,"Ġobscure":10112,"ĠvÃ©g":10113,"Ġvall":10114,"Ġtran":10115,"Ġvaisseaux":10116,"Ġaimez":10117,"ĠacceptÃ©":10118,"uckingham":10119,"mlrsquo":10120,"idences":10121,"Ġeue":10122,"Ġvivent":10123,"Ġclos":10124,"Ġrisqu":10125,"ĠsincÃ©ritÃ©":10126,"Ġinstrument":10127,"Ġprimit":10128,"ĠLionel":10129,"Mar":10130,"lÃ©g":10131,"ĠpÃ©rir":10132,"ĠexpÃ©dition":10133,"ĠGrande":10134,"ĠappelÃ©e":10135,"Ġcommander":10136,"ĠNoÃ«l":10137,"ĠirrÃ©sistible":10138,"mons":10139,"Ġcray":10140,"Ġserions":10141,"Ġfrat":10142,"ouler":10143,"ĠprÃ©sents":10144,"assadeur":10145,"Ġranc":10146,"ĠnrsquoÃ©tais":10147,"ĠGar":10148,"Ġtremblement":10149,"ĠCharlotte":10150,"ĠhÃ©siter":10151,"ĠMicawber":10152,"Ġfarde":10153,"ĠTandis":10154,"ĠRachel":10155,"Ġmalice":10156,"Ġapporte":10157,"ĠcouchÃ©e":10158,"ĠdestinÃ©":10159,"dquo":10160,"Ġcramp":10161,"Ġcomptoir":10162,"ĠtÃ¢t":10163,"ador":10164,"ustice":10165,"ĠbrÃ»lait":10166,"ĠJonas":10167,"Maintenant":10168,"lo":10169,"ĠgÃ©ant":10170,"otid":10171,"Ġsaviez":10172,"tueux":10173,"ĠJrsquoespÃ¨re":10174,"ĠlivrÃ©e":10175,"Ġpromesses":10176,"ĠannoncÃ©":10177,"Ġinfir":10178,"Ġconversion":10179,"ĠassurÃ©ment":10180,"Ġclerc":10181,"Ġsilhouette":10182,"vert":10183,"ĠlÃ¢cher":10184,"reurs":10185,"chon":10186,"ĠAgnÃ¨s":10187,"ĠWh":10188,"Ġreconnus":10189,"aventure":10190,"cad":10191,"Ġjoin":10192,"Ġhuguen":10193,"ĠinouÃ¯":10194,"ĠBuv":10195,"ullier":10196,"Ãªtez":10197,"Ġconcerne":10198,"Ġmettons":10199,"ĠplongÃ©":10200,"Tandis":10201,"itaient":10202,"ĠrÃ©gler":10203,"ĠIndes":10204,"ulsion":10205,"ĠÃ©lect":10206,"Ġcigaret":10207,"Ġherbes":10208,"uisent":10209,"Ġdite":10210,"puiss":10211,"Ġinfern":10212,"Ġsrsquoeng":10213,"ĠsÃ©parÃ©s":10214,"Ġloisir":10215,"esclave":10216,"Sal":10217,"cent":10218,"ĠsÃ©p":10219,"arÃ©e":10220,"ĠMille":10221,"ignan":10222,"Ġsuffisait":10223,"ĠappuyÃ©e":10224,"Ġgracieuse":10225,"ĠexposÃ©":10226,"Ġmoustache":10227,"Har":10228,"Ġdignes":10229,"quand":10230,"Ã©nient":10231,"ĠdÃ©test":10232,"Ġreprenant":10233,"Ġcurieuse":10234,"Ġattendez":10235,"Ġinnocente":10236,"Ã©loigner":10237,"Ġapercevant":10238,"gÃ©e":10239,"Ġpendre":10240,"ĠblÃ¢":10241,"ĠÃ©vent":10242,"Ġcouler":10243,"Ġnavires":10244,"Ġabsurde":10245,"ĠMons":10246,"ĠmajestÃ©":10247,"Ġpeindre":10248,"ĠenveloppÃ©":10249,"ati":10250,"umov":10251,"Ġbarre":10252,"ĠrÃ©col":10253,"Ġlrsquoattention":10254,"ĠColomb":10255,"Ġredingote":10256,"entraÃ®":10257,"chal":10258,"ĠpriÃ©":10259,"oisses":10260,"Ġentendue":10261,"ings":10262,"azumov":10263,"Ġdiplom":10264,"kes":10265,"ĠextÃ©rieur":10266,"Ġlrsquoign":10267,"Ġpersonnelle":10268,"Ġparvenu":10269,"ĠÃītienne":10270,"Ġcer":10271,"iletÃ©":10272,"Ġavancer":10273,"Ġferont":10274,"Ġflatter":10275,"Ġignore":10276,"ĠforcÃ©e":10277,"ĠÃ©tonnÃ©e":10278,"Ġretomba":10279,"Ġvisiblement":10280,"rop":10281,"Ã©rit":10282,"ĠallÃ©es":10283,"agnole":10284,"Ġrevers":10285,"Ġpenses":10286,"poser":10287,"Ġcontinuant":10288,"Ġverts":10289,"Ġmeilleures":10290,"Ġlogique":10291,"Ġstupeur":10292,"ĠchrÃ©tienne":10293,"ĠAssez":10294,"ĠÃ©clairÃ©":10295,"ĠenfermÃ©":10296,"Ġsoudaine":10297,"iation":10298,"lan":10299,"tÃ¨re":10300,"yeux":10301,"oucher":10302,"arbre":10303,"osses":10304,"uissier":10305,"Ġpuissent":10306,"ĠÃ©crivait":10307,"ievna":10308,"Ġgrotte":10309,"ĠGaspard":10310,"ĠrÃ©cemment":10311,"Ġaiment":10312,"Ġgardien":10313,"Ġrespectable":10314,"ĠIsraÃ«l":10315,"ĠrÃ´t":10316,"igre":10317,"Ġfroiss":10318,"trÃªme":10319,"ancÃ©s":10320,"Ġgagna":10321,"Ġsel":10322,"prÃ©c":10323,"ĠPont":10324,"Ġdrsquoarmes":10325,"und":10326,"ĠdÃ©cembre":10327,"Ġfrott":10328,"Ġinsouci":10329,"ĠdÃ©pense":10330,"offrir":10331,"Ġdivan":10332,"Ġrefusa":10333,"cap":10334,"mÃł":10335,"Ġmoquer":10336,"Ġcroch":10337,"Ġorient":10338,"habiller":10339,"lisabeth":10340,"itz":10341,"Ġrigueur":10342,"Ġpourpre":10343,"ĠDire":10344,"Ġremuer":10345,"audace":10346,"Ġhumili":10347,"Ġinutilement":10348,"Ġdresser":10349,"ĠJulia":10350,"ski":10351,"Ġroc":10352,"ĠprÃ©pare":10353,"ĠDÃ©s":10354,"image":10355,"Ġpermit":10356,"ĠdurÃ©e":10357,"accompl":10358,"Ġarticle":10359,"Ġbienveillance":10360,"ĠTartarin":10361,"erdinand":10362,"Ġimpressions":10363,"Ġattache":10364,"Ġtentative":10365,"leton":10366,"ĠÃīmilie":10367,"ĠFernande":10368,"enger":10369,"Ġbaie":10370,"Ġflor":10371,"ĠprÃ©jug":10372,"ernellement":10373,"Ġsuccomb":10374,"Ġangoisse":10375,"Ġintroduit":10376,"ĠdÃ©putÃ©s":10377,"irais":10378,"Ġtrompez":10379,"ĠEsther":10380,"Ġorgueille":10381,"ĠsrsquoÃ©loigna":10382,"Ġmention":10383,"lia":10384,"umÃ©":10385,"Ġimpassible":10386,"late":10387,"Ġincroyable":10388,"Ġproposa":10389,"ĠsinguliÃ¨rement":10390,"quette":10391,"orph":10392,"Ġcaprice":10393,"ĠPeggotty":10394,"ÃĶ":10395,"illot":10396,"Ġniais":10397,"Ġindig":10398,"Ġincont":10399,"Ġcontrad":10400,"ospitalitÃ©":10401,"illaient":10402,"Ġmarques":10403,"Ġchevet":10404,"ignÃ©e":10405,"Ġsociale":10406,"Ġrecommencer":10407,"Paul":10408,"mot":10409,"ĠpaÃ¯":10410,"onnas":10411,"Ġarc":10412,"Ġpartirent":10413,"erreur":10414,"ĠanÃ©ant":10415,"Ġrestent":10416,"ritz":10417,"ĠsrsquoÃ©tant":10418,"ĠpossÃ©der":10419,"ombrables":10420,"anon":10421,"ĠprÃ©m":10422,"Ġquiconque":10423,"ĠTa":10424,"ĠextrÃ©mitÃ©":10425,"Ġconcern":10426,"Ġardente":10427,"Avant":10428,"ĠAlexand":10429,"ĠphÃ©nomÃ¨ne":10430,"mLrsquo":10431,"quier":10432,"lect":10433,"ĠJob":10434,"ĠSoph":10435,"ĠVierge":10436,"ĠRoy":10437,"Ġdiscut":10438,"ĠcollÃ¨ge":10439,"ĠsupÃ©rieurs":10440,"ĠhÃ©sitation":10441,"ĠEspagnols":10442,"Ġlrsquooncle":10443,"Ġcharmes":10444,"Ġcalife":10445,"Ġaccomplir":10446,"ĠbrÃ»lÃ©":10447,"ĠExcellence":10448,"Ġpeste":10449,"elait":10450,"mpire":10451,"ĠrÃ©unir":10452,"humanitÃ©":10453,"Ġconclut":10454,"DrsquoArtagnan":10455,"ĠsÃ©pare":10456,"Ġlrsquoas":10457,"iciers":10458,"Ġtombaient":10459,"ĠinvitÃ©":10460,"ĠdÃ©ranger":10461,"Ġemployer":10462,"maÃ®tre":10463,"ĠmontÃ©e":10464,"Ġarrivent":10465,"azan":10466,"Ġtransporter":10467,"Oui":10468,"nation":10469,"onais":10470,"Ġbancs":10471,"Ã©tud":10472,"ĠRaphaÃ«l":10473,"ĠWinter":10474,"Ġapporta":10475,"Ã©z":10476,"ĠConse":10477,"Ġripos":10478,"Ġspec":10479,"ĠdÃ©mont":10480,"ĠobligÃ©s":10481,"nocence":10482,"ĠchÃ¢timent":10483,"Ġsqu":10484,"ĠVen":10485,"Ġcouraient":10486,"Ġexcuses":10487,"Ġtravaillait":10488,"lock":10489,"lation":10490,"Ġmoque":10491,"Ġvierge":10492,"Ġext":10493,"Ġdiables":10494,"Ġlaissent":10495,"Ġpaye":10496,"ĠsemblÃ©":10497,"Ġexcuse":10498,"ĠsecrÃ¨tement":10499,"tour":10500,"ĠavancÃ©":10501,"Ġgueule":10502,"Ġflotte":10503,"Ġreprod":10504,"Ã¨vent":10505,"iffÃ©rence":10506,"Ġoccuper":10507,"Ġfermier":10508,"ĠintÃ©ressant":10509,"ruption":10510,"Ġinstruments":10511,"ĠÃ©veillÃ©":10512,"ml":10513,"qursquoun":10514,"Ġcire":10515,"Ã©tiques":10516,"atmosphÃ¨re":10517,"ĠMod":10518,"ĠtrÃ©p":10519,"Ġtrac":10520,"aboration":10521,"ĠQursquoil":10522,"lerie":10523,"attache":10524,"Ġconfr":10525,"ĠflÃ¨che":10526,"Ġcoucha":10527,"Ġdivision":10528,"Ġpoings":10529,"Ġmousquetaire":10530,"Ġapercevait":10531,"Marc":10532,"dÃ©p":10533,"aujourd":10534,"irÃ©e":10535,"appoin":10536,"ĠprÃ©cieuse":10537,"Ġravi":10538,"Ġloups":10539,"Ġlamp":10540,"Ġgour":10541,"Ġaudit":10542,"Ã©coute":10543,"Ġdrsquoaccord":10544,"ĠBor":10545,"Ġaffai":10546,"Ġverrai":10547,"ĠSeine":10548,"ĠÃ©tablir":10549,"Ġcompromettre":10550,"Ġrican":10551,"Ġpup":10552,"Ġsh":10553,"anciers":10554,"ĠHur":10555,"Ġsouffrait":10556,"imagination":10557,"ĠVÃ©nus":10558,"Ġrug":10559,"Ġhiver":10560,"ĠTri":10561,"ĠdrÃ´":10562,"Ġjugea":10563,"Ġbandit":10564,"ĠrÃ©pugnance":10565,"Ġcellule":10566,"Ã©tersbourg":10567,"Ġpourrions":10568,"ĠlrsquoaprÃ¨s":10569,"ĠdÃ©ment":10570,"ĠforÃ§":10571,"oges":10572,"Ġapprenant":10573,"ettaient":10574,"Ġbalcon":10575,"ĠreprÃ©senter":10576,"Ġfurt":10577,"atteindre":10578,"Ġindispensable":10579,"toute":10580,"Ġdict":10581,"ĠavouÃ©":10582,"uifs":10583,"ĠLib":10584,"aisser":10585,"ĠrÃ©el":10586,"ĠanxiÃ©tÃ©":10587,"affir":10588,"ĠPruss":10589,"Ġnourrir":10590,"ĠprivÃ©":10591,"jection":10592,"ĠaoÃ»t":10593,"Ġtiss":10594,"ĠVol":10595,"ĠRapp":10596,"Ġeffroyable":10597,"Ġdonnerait":10598,"ĠsoupÃ§onner":10599,"Ġprosp":10600,"ĠdÃ©crire":10601,"Ġlrsquoabs":10602,"Ġambition":10603,"ĠCalyste":10604,"Ici":10605,"Ġquotid":10606,"ĠnÃ©e":10607,"ĠCÃ¨dre":10608,"Ã©cr":10609,"acquit":10610,"ications":10611,"Ġallong":10612,"Ġtouchait":10613,"Ġreconnaissait":10614,"mCe":10615,"ĠDrsquoabord":10616,"Ġbijoux":10617,"ajouter":10618,"Ġsurmont":10619,"ectÃ©":10620,"ĠNouv":10621,"ĠlivrÃ©":10622,"enseigne":10623,"Ġensevel":10624,"Ġmarchaient":10625,"Ġjustif":10626,"Ġinterrompu":10627,"AND":10628,"ĠlrsquoÃ©cout":10629,"Ġbondit":10630,"observation":10631,"Ġprairie":10632,"nold":10633,"Ġlus":10634,"Ġlrsquoentre":10635,"Ġcroient":10636,"Ġbouc":10637,"Ġannonc":10638,"Ġtaches":10639,"Ġtrahir":10640,"Ġclign":10641,"ĠrÃ©sultats":10642,"urance":10643,"oison":10644,"ĠOullier":10645,"Ġtoucha":10646,"ĠdÃ©plor":10647,"ĠinfÃ¢me":10648,"Ġjardinier":10649,"ĠabsorbÃ©":10650,"Ġnappe":10651,"urie":10652,"ĠBons":10653,"Ġlrsquoim":10654,"Ġsouris":10655,"revel":10656,"ĠmÃ©thode":10657,"cÅĵur":10658,"mest":10659,"Ġdaign":10660,"Ġliste":10661,"Ã©pouser":10662,"ĠAth":10663,"ameaux":10664,"Ġbattant":10665,"Ġerreurs":10666,"ĠsensibilitÃ©":10667,"Ġvainqueur":10668,"ĠreprÃ©sente":10669,"fou":10670,"Ġsaign":10671,"Ġdisiez":10672,"ulot":10673,"ĠdÃ©funt":10674,"ĠCaroline":10675,"llemagne":10676,"ĠsoupÃ§onne":10677,"Ġbrigands":10678,"Ġlrsquoimm":10679,"Empereur":10680,"anÃ©":10681,"armer":10682,"aure":10683,"ĠLord":10684,"ameau":10685,"Ġcouchant":10686,"Ġsignature":10687,"Ġenseigne":10688,"Ġcrisp":10689,"Ġtalents":10690,"Ġclefs":10691,"ĠdrsquoAnjou":10692,"matique":10693,"Ġbain":10694,"ĠMag":10695,"oliques":10696,"ĠSuisse":10697,"ĠApp":10698,"Ġdemandais":10699,"Ġservent":10700,"Ġdiscuter":10701,"Ġsupers":10702,"Ġracontait":10703,"Ġengage":10704,"ĠlittÃ©rature":10705,"ĠÃ©puisÃ©":10706,"Ġinterlocuteur":10707,"ĠkilomÃ¨tres":10708,"Ã©bran":10709,"urÃ©s":10710,"alis":10711,"Ġdrsquohabitude":10712,"artiste":10713,"apparence":10714,"Ġcercueil":10715,"ĠCra":10716,"ĠFel":10717,"aÃ¯l":10718,"tÃ©ritÃ©":10719,"ĠDiana":10720,"ĠmenaÃ§ait":10721,"ENT":10722,"ĠresponsabilitÃ©":10723,"Ġreins":10724,"proch":10725,"ĠPip":10726,"Ġgrogn":10727,"ĠBri":10728,"ĠBuckingham":10729,"Ġespagnol":10730,"Ġlarme":10731,"Ã«s":10732,"ĠprÃ©voir":10733,"obÃ©ir":10734,"ministration":10735,"arriÃ¨re":10736,"ĠCla":10737,"ĠdonnÃ©es":10738,"Ġpropose":10739,"Ġsciences":10740,"ĠarrÃªtÃ©s":10741,"Ass":10742,"prof":10743,"ĠVois":10744,"ĠFair":10745,"Ġrendus":10746,"ĠcrÃ©ation":10747,"Ġsoyons":10748,"arquer":10749,"inois":10750,"Ġquarts":10751,"Ġartistes":10752,"Ġprincipale":10753,"ĠdÃ©fauts":10754,"mor":10755,"ĠTais":10756,"acement":10757,"ĠreconnaÃ®t":10758,"Ġparlent":10759,"toutes":10760,"Ġabsent":10761,"ĠÃ©coutant":10762,"Ġregrets":10763,"ĠnÃ©cessairement":10764,"Ġdragons":10765,"Ġsame":10766,"ĠSche":10767,"ularitÃ©":10768,"Ġcolor":10769,"Ġtransm":10770,"ĠtÃ©moigner":10771,"Ġremonta":10772,"Ġabattu":10773,"Ġraff":10774,"olit":10775,"liz":10776,"ĠQuatre":10777,"Ġpoli":10778,"ĠinvitÃ©s":10779,"ilibre":10780,"quiÃ©ter":10781,"ĠrecommandÃ©":10782,"ĠmisÃ©ricorde":10783,"Ġlatin":10784,"Ġenl":10785,"ĠMis":10786,"ĠRO":10787,"Ġincident":10788,"Ġcouvrir":10789,"ĠtÃ©lÃ©ph":10790,"Ġgrimace":10791,"33":10792,"prÃ©h":10793,"Ġretint":10794,"ĠrÃ©conc":10795,"ĠbÃ¢timents":10796,"peine":10797,"ĠÃ©normes":10798,"Ġsouhaiter":10799,"ĠTrÃ©ville":10800,"Ġeffectivement":10801,"dia":10802,"eb":10803,"ranch":10804,"Ġlrsquoan":10805,"Ġnrsquoos":10806,"ĠÃ©quip":10807,"Ġretire":10808,"Ġinsupp":10809,"Ġimper":10810,"auriez":10811,"Ġconducteur":10812,"Ġcontraste":10813,"Unis":10814,"Ġchapeaux":10815,"Ġemploi":10816,"attacher":10817,"Ġlorsqursquoon":10818,"yne":10819,"Ġraille":10820,"Ġemporte":10821,"ĠindÃ©fin":10822,"ĠrentrÃ©e":10823,"ĠThibault":10824,"Ġcachot":10825,"Ġnourr":10826,"yth":10827,"Ġlat":10828,"Ġlamb":10829,"Ã©tonnement":10830,"estie":10831,"Ġlrsquoadresse":10832,"Ġgrain":10833,"issantes":10834,"Ġouvrages":10835,"ĠXIII":10836,"ongeait":10837,"Ġcachette":10838,"ĠadressÃ©":10839,"Ġdirais":10840,"Ġharmonie":10841,"ĠprÃ©l":10842,"ortant":10843,"Ġjrsquoeusse":10844,"Ġconvul":10845,"Ġclam":10846,"Ġrentrait":10847,"Ġquartiers":10848,"Ġabsolu":10849,"Ġinconnus":10850,"ĠarrÃªta":10851,"Ġluc":10852,"ĠbÅĵuf":10853,"ĠLam":10854,"Ġmanches":10855,"position":10856,"ĠbÃ©nÃ©diction":10857,"Ġpublication":10858,"ĠhÃ©sita":10859,"ĠlrsquoÃ©cole":10860,"ĠfatiguÃ©e":10861,"lizabeth":10862,"Ġciter":10863,"trer":10864,"oler":10865,"ĠVill":10866,"isseur":10867,"ĠFort":10868,"ĠattirÃ©":10869,"Ġvoies":10870,"Ġapais":10871,"ĠdÃ©lices":10872,"Ġlrsquoentendre":10873,"Ġgreff":10874,"onore":10875,"Ġmiens":10876,"Ġlrsquoal":10877,"ignac":10878,"Ġaccabl":10879,"Ġnommait":10880,"ĠindÃ©c":10881,"ĠobservÃ©":10882,"Ġaccroch":10883,"ĠvÃ©gÃ©t":10884,"do":10885,"Ġgroup":10886,"Ġrespectueusement":10887,"Ġfroideur":10888,"Ġantique":10889,"Ġbronze":10890,"ilov":10891,"Ġracc":10892,"ordinaires":10893,"Ġinsista":10894,"Ġsortaient":10895,"Ġtraversait":10896,"ĠdÃ©sirÃ©":10897,"Ġfavoris":10898,"ĠlrsquoAm":10899,"Ġrudement":10900,"Ġverdure":10901,"Ġinattendue":10902,"ĠBirotteau":10903,"Ġpresc":10904,"Ġgras":10905,"Ġespace":10906,"ucingen":10907,"Ġconnaissaient":10908,"Ġcivilisation":10909,"Ġpoissons":10910,"sous":10911,"aler":10912,"Ġconsentement":10913,"apprÃªt":10914,"Ġrapides":10915,"Ġcoulait":10916,"ĠrÃ¨gles":10917,"ĠbaÃ¯":10918,"dedans":10919,"ĠexÃ©cution":10920,"Ã©mie":10921,"Ġmortelle":10922,"Ġgueux":10923,"Ġsouvenez":10924,"heim":10925,"astiques":10926,"Ġprofondeurs":10927,"Ġreligieuses":10928,"ĠprÃ©fÃ¨re":10929,"ĠreprÃ©sentait":10930,"AM":10931,"moment":10932,"Ġdig":10933,"olet":10934,"Ġperru":10935,"iquitÃ©":10936,"amph":10937,"ĠopÃ©ration":10938,"ĠtraÃ®ner":10939,"assier":10940,"ĠfunÃ¨bre":10941,"Ġpoison":10942,"Ġadversaires":10943,"Ġniveau":10944,"mÃ©s":10945,"Ġpinc":10946,"ĠPi":10947,"Ġqursquoavait":10948,"Ġindiquer":10949,"Ġdomin":10950,"ĠSalomon":10951,"Ġappartenant":10952,"Ġadmirablement":10953,"Ġmarteau":10954,"insp":10955,"ĠdÃ©faill":10956,"ĠpoÃªle":10957,"Ġcommandait":10958,"ĠvÃ©ritables":10959,"Ġimmobiles":10960,"Ġinstit":10961,"Ġrau":10962,"Ġrires":10963,"Ġcart":10964,"Ġattirer":10965,"Ġconform":10966,"ĠpauvretÃ©":10967,"Ġrepose":10968,"Ġdivert":10969,"ĠsÃ©parait":10970,"Ġsrsquoinclina":10971,"Ġmachinalement":10972,"ĠIvanovna":10973,"ĠopposÃ©":10974,"Ġdiscipline":10975,"Ġpomme":10976,"enthousiasme":10977,"âĢĿ":10978,"Ġvigne":10979,"aliste":10980,"ĠLaisse":10981,"onniers":10982,"ĠappÃ©tit":10983,"ĠtombÃ¨rent":10984,"Ġdistrib":10985,"ĠdiffÃ©rente":10986,"ĠRosa":10987,"ĠBeaufort":10988,"Ġpunir":10989,"ĠrÃ©veillÃ©":10990,"Ġmassac":10991,"TÃī":10992,"roge":10993,"Ã©rez":10994,"Ã®tre":10995,"aÃ®tra":10996,"ĠÃītait":10997,"ĠÃ©goÃ¯s":10998,"Ġacquit":10999,"Ġattaquer":11000,"ĠColbert":11001,"Ġtragique":11002,"Indien":11003,"ĠDÃ©mÃ©trius":11004,"ĠGuerche":11005,"sont":11006,"incl":11007,"ĠCON":11008,"ĠLab":11009,"ĠdÃ©cis":11010,"Ġlrsquoherbe":11011,"Ġreflet":11012,"ĠmarquÃ©":11013,"ĠBonacieux":11014,"ĠCrois":11015,"ĠmÃ©lod":11016,"ĠÃ©pargn":11017,"Ġexclamation":11018,"Ġcoule":11019,"eton":11020,"ĠlivrÃ©s":11021,"Ġagent":11022,"ĠdÃ©bord":11023,"ĠconsidÃ©rait":11024,"Ġconstater":11025,"Ġsaurai":11026,"ĠÃ©pousÃ©":11027,"ĠÃ©toile":11028,"Ġand":11029,"ĠcÃ©leste":11030,"Ã¨dent":11031,"Ġforter":11032,"Ġvivres":11033,"Ġnombreuse":11034,"ĠrÃªverie":11035,"apparition":11036,"Ġmillion":11037,"ĠmÃ©chants":11038,"ĠattachÃ©e":11039,"bergiste":11040,"35":11041,"El":11042,"Ġmalle":11043,"Ġfardeau":11044,"go":11045,"remp":11046,"Ã©tend":11047,"Ġredesc":11048,"ota":11049,"encour":11050,"ĠcondamnÃ©s":11051,"ĠadressÃ©e":11052,"horreur":11053,"Ġtrottoir":11054,"form":11055,"ĠvÃ®nt":11056,"ĠRou":11057,"ĠtournÃ©e":11058,"Ġrougissant":11059,"'m":11060,"AIRE":11061,"Ġscient":11062,"rey":11063,"Ġinond":11064,"Ġconcevoir":11065,"illages":11066,"Ġcombin":11067,"Ġcouvre":11068,"ĠdÃ©cidÃ©e":11069,"Ġennem":11070,"Ġregretter":11071,"Ġbandes":11072,"ĠdÃ©daign":11073,"Ġtimidement":11074,"ĠpÃ©chÃ©s":11075,"Ġcatastrophe":11076,"ser":11077,"Ġtenais":11078,"Ġchants":11079,"ĠPan":11080,"ĠrÃ©publique":11081,"inthe":11082,"ĠdÃ©pÃ´t":11083,"Ġraisonnement":11084,"Ġtraite":11085,"ĠpÃ©nit":11086,"accomplir":11087,"ĠBenj":11088,"onci":11089,"Ġnar":11090,"cia":11091,"attente":11092,"ĠParfaitement":11093,"honnÃªte":11094,"forme":11095,"Ġur":11096,"antaine":11097,"ĠMagn":11098,"Ġpartait":11099,"Ġobject":11100,"ustave":11101,"ĠcinquiÃ¨me":11102,"ĠGeoffrey":11103,"Ġjoyeusement":11104,"ulgence":11105,"Ġnerveuse":11106,"ĠrÃ©clamer":11107,"ĠsrsquoÃ©te":11108,"Ġteinte":11109,"ĠmrsquoÃ©tait":11110,"aÃ®tr":11111,"Ġemporter":11112,"Ġtranquilles":11113,"Ġtradition":11114,"ĠattachÃ©s":11115,"ĠLisb":11116,"ĠDubois":11117,"Ġfracas":11118,"Ġluis":11119,"ori":11120,"ork":11121,"agan":11122,"ĠGode":11123,"ointel":11124,"ĠdÃ©coup":11125,"ĠIX":11126,"ĠhabillÃ©":11127,"Ġapprocher":11128,"ĠidÃ©":11129,"Ġinstruit":11130,"Ã©pendance":11131,"eille":11132,"fi":11133,"onomie":11134,"lesse":11135,"ĠPR":11136,"Ġcompliqu":11137,"Ġmanusc":11138,"Ġlrsquousage":11139,"empÃªche":11140,"huile":11141,"ĠpiÃ©t":11142,"ichele":11143,"ĠCoconnas":11144,"US":11145,"Ġsaill":11146,"Ġsaute":11147,"Ġasile":11148,"Ġtitres":11149,"Ġfab":11150,"utile":11151,"Ġcoupables":11152,"Ġauteur":11153,"Ġdestru":11154,"Ġconjug":11155,"rov":11156,"isons":11157,"olo":11158,"ĠDÃ©c":11159,"ĠsrsquoempÃªcher":11160,"Ġcollection":11161,"Ġdisposer":11162,"Ġconversations":11163,"ĠrelevÃ©":11164,"Ġaltern":11165,"douard":11166,"Ã®nÃ©":11167,"ĠHier":11168,"ituer":11169,"Ġrapporte":11170,"ĠArr":11171,"ĠbrisÃ©e":11172,"Ġsurveillance":11173,"Ġbossu":11174,"votre":11175,"Ġirait":11176,"Ã©mence":11177,"encre":11178,"Ġtailleur":11179,"Ġalliance":11180,"ĠMaxime":11181,"orable":11182,"ĠNik":11183,"Ġparticip":11184,"Ġ30":11185,"uriers":11186,"ĠCou":11187,"abine":11188,"icul":11189,"Ġvoyages":11190,"ambition":11191,"Ġabsorb":11192,"Ġmanqua":11193,"ĠAmÃ©rique":11194,"ĠdÃ©lai":11195,"Ġredressa":11196,"Ġgibier":11197,"Ġmo":11198,"aveu":11199,"Ġlrsquoag":11200,"ablÃ©":11201,"ĠNucingen":11202,"termin":11203,"onges":11204,"ĠChÃ¢teau":11205,"Ġvoulons":11206,"Ġminut":11207,"Ġbouton":11208,"entendais":11209,"Ġsacrifices":11210,"ĠmenaÃ§":11211,"Ġintervalles":11212,"Ġgamin":11213,"alais":11214,"ierges":11215,"Ġsrsquoapp":11216,"ĠTel":11217,"Ġcadeau":11218,"Ġindignation":11219,"Ġrefuge":11220,"Ġfavori":11221,"emblable":11222,"Ġrumeur":11223,"ĠrÃ©chauff":11224,"blÃ©":11225,"ĠRub":11226,"ĠGrec":11227,"Ġapparences":11228,"ĠBrown":11229,"ĠÃ©clater":11230,"Ġdistraire":11231,"journ":11232,"Ġpalier":11233,"Ġpige":11234,"ĠConv":11235,"ĠPat":11236,"Ġentends":11237,"Ġcontient":11238,"Ġconsiste":11239,"Ġinterdit":11240,"Ġcasque":11241,"Ġapparaissait":11242,"ĠpenchÃ©e":11243,"Ġaccompagner":11244,"ĠprocÃ©dÃ©":11245,"sour":11246,"ĠCrÃ©":11247,"ĠLud":11248,"asseur":11249,"licable":11250,"ociÃ©tÃ©":11251,"ĠcommandÃ©":11252,"Ġreposait":11253,"Ġrappelant":11254,"ĠfiÃ©v":11255,"ĠcuisiniÃ¨re":11256,"dith":11257,"ĠentourÃ©e":11258,"Ġcomplaisance":11259,"Ġsain":11260,"Ġbad":11261,"Ġvoisines":11262,"Ġsoutenu":11263,"ĠdÃ©sespÃ©rÃ©e":11264,"Ġmettr":11265,"Ġillustre":11266,"Ġfabrique":11267,"St":11268,"Ġgaie":11269,"ĠJrsquoaurais":11270,"Ġverras":11271,"ĠtrompÃ©e":11272,"ĠrÃ©solus":11273,"ĠeffrayÃ©e":11274,"ĠIvanovitch":11275,"ĠdÃ©posa":11276,"Ġajoute":11277,"Ġsiennes":11278,"Ġtienne":11279,"Ġparess":11280,"Ġinsign":11281,"ĠTemple":11282,"Ġencomb":11283,"ĠÃ©cuyer":11284,"Ġesqu":11285,"Ġclasses":11286,"ĠsignÃ©":11287,"Ġdomicile":11288,"ĠrÃ©gions":11289,"Ġnrsquoaime":11290,"ĠÃ©lever":11291,"Ġindiquait":11292,"ĠÃ©lÃ©gante":11293,"ĠgoÃ»ter":11294,"nette":11295,"arb":11296,"asie":11297,"Ġunion":11298,"prenez":11299,"Ġcorne":11300,"ĠrÃ©signation":11301,"Ġsuccession":11302,"ĠlrsquoextrÃ©mitÃ©":11303,"Ġrobuste":11304,"Ġachever":11305,"Ġrompu":11306,"Ġcraignant":11307,"Ġhardi":11308,"Ġvisiteurs":11309,"arracher":11310,"oivent":11311,"Ġpli":11312,"Ġdisgr":11313,"Ġcombats":11314,"Ġmodes":11315,"ĠMalheureusement":11316,"Ġressemblent":11317,"ĠBertha":11318,"hÃ©m":11319,"Ġpourrons":11320,"Ġverser":11321,"ĠlevÃ¨rent":11322,"Ġapproche":11323,"ĠKn":11324,"entendez":11325,"ĠprivÃ©e":11326,"ĠsincÃ¨rement":11327,"Ġruban":11328,"Ġauberge":11329,"Ġsrsquoeff":11330,"ĠNorm":11331,"ĠHam":11332,"erville":11333,"ĠdoÃ±a":11334,"Ġrejoint":11335,"Ġdirigeait":11336,"ĠfrÃ©g":11337,"Ġallure":11338,"allenger":11339,"ĠconfÃ©rence":11340,"Ġsalons":11341,"environ":11342,"Ġpressa":11343,"ĠÃ©clatant":11344,"ĠhabituÃ©s":11345,"ĠchassÃ©":11346,"Ġembrasser":11347,"Ġdraps":11348,"ĠBathilde":11349,"Ġcommerciale":11350,"Ġlande":11351,"eliers":11352,"mbles":11353,"Ġbrand":11354,"ogues":11355,"rits":11356,"ĠItal":11357,"ĠWe":11358,"enflot":11359,"Ġorph":11360,"Ġlits":11361,"ĠconsidÃ¨re":11362,"Ġdressa":11363,"ĠrÃ©veilla":11364,"Ġmeurtrier":11365,"Ġvilain":11366,"Ġcu":11367,"Ġcontrib":11368,"ingle":11369,"Ġporteur":11370,"ignore":11371,"alla":11372,"ĠdÃ©faite":11373,"ĠrÃªver":11374,"ĠtravaillÃ©":11375,"Ġlrsquoabri":11376,"Ġlrsquoami":11377,"Ġparfums":11378,"Ġhypoth":11379,"ĠCompagnie":11380,"Ġvaudrait":11381,"ortÃ©":11382,"assassin":11383,"ĠdÃ©fil":11384,"ĠcruautÃ©":11385,"ĠassistÃ©":11386,"ologique":11387,"Marie":11388,"ych":11389,"Ġerr":11390,"reint":11391,"Ġroche":11392,"quemment":11393,"ĠPomp":11394,"Ã©raire":11395,"Ġrestai":11396,"Ġcloches":11397,"ĠapprÃ©h":11398,"Ġannonce":11399,"Ġtarda":11400,"ĠapparaÃ®tre":11401,"ĠprÃ©tendu":11402,"ĠmystÃ¨res":11403,"ILLE":11404,"gri":11405,"Ġfal":11406,"ĠrÃ©pons":11407,"Ġfinie":11408,"Ġexprim":11409,"ĠdÃ©fens":11410,"ĠagitÃ©e":11411,"Ġrougeur":11412,"ĠÃ©levÃ©s":11413,"aimez":11414,"Ġignorance":11415,"accepte":11416,"ĠvÅĵu":11417,"iti":11418,"Ġnoy":11419,"ĠCL":11420,"Ġmaris":11421,"ĠdÃ©pÃªche":11422,"Ġlieue":11423,"Ġrefr":11424,"Ġinterrogea":11425,"ĠâĢľ":11426,"ĠtiÃ¨":11427,"arÃ©s":11428,"ĠFerdinand":11429,"obus":11430,"ĠCha":11431,"Ġempress":11432,"anneau":11433,"dern":11434,"ĠÃ©tonnant":11435,"ĠVeux":11436,"Ã©lÃ©g":11437,"ĠprÃ©fet":11438,"MalgrÃ©":11439,"mort":11440,"oots":11441,"Ġmouss":11442,"Ġnier":11443,"ĠEmm":11444,"Ġdrsquohomme":11445,"Ġmalin":11446,"arranger":11447,"Ġconfidences":11448,"Ġprofess":11449,"Ġsuccessivement":11450,"Ġlouer":11451,"asmin":11452,"Ġpensai":11453,"ĠpoussÃ©e":11454,"auld":11455,"Ġfurieuse":11456,"Ġrecommandation":11457,"Ġressource":11458,"Ġmoustaches":11459,"ĠaÃ®nÃ©":11460,"arres":11461,"Ġavocat":11462,"Ġlrsquoaurait":11463,"ĠCardinal":11464,"Ġallions":11465,"Ãªts":11466,"ustin":11467,"Ġsaurez":11468,"Ġlrsquoauberge":11469,"Val":11470,"pers":11471,"ĠcÃ¢":11472,"rection":11473,"ĠfÃ©vrier":11474,"trÃ¨s":11475,"ĠItalie":11476,"Ġbloc":11477,"Ġproposer":11478,"Ġfuneste":11479,"raire":11480,"Ġrange":11481,"ĠchÃ©ri":11482,"Ġplats":11483,"Ġsrsquoeffor":11484,"ĠNaturellement":11485,"terromp":11486,"Ġpartant":11487,"Ġfeuillage":11488,"Ġauteurs":11489,"ĠprÃ©sentant":11490,"ĠcontrÃ©e":11491,"ĠpenchÃ©":11492,"Ġadmettre":11493,"Ġcontenter":11494,"quisition":11495,"ĠdÃ©signant":11496,"ĠConstant":11497,"ĠentraÃ®nÃ©":11498,"Ġberceau":11499,"Ġcis":11500,"ĠCÃ©cile":11501,"osition":11502,"umer":11503,"Ġgrandi":11504,"Ġmontaient":11505,"embrasser":11506,"Ġpesant":11507,"ĠMitia":11508,"ĠBa":11509,"veilles":11510,"Ġvenues":11511,"lake":11512,"Ġsoupirs":11513,"ĠKit":11514,"ĠfrontiÃ¨re":11515,"Ġmentir":11516,"Ġgrommela":11517,"ĠPrussiens":11518,"Monsieur":11519,"enier":11520,"Ġbass":11521,"onnements":11522,"ĠRaskolnikov":11523,"ĠFritz":11524,"ĠgÃ©nÃ©ration":11525,"ĠDevant":11526,"Ġviz":11527,"Ġsubite":11528,"ĠoccupÃ©s":11529,"Ġremplie":11530,"ĠaccompagnÃ©e":11531,"Ġconclu":11532,"Ġsympt":11533,"Ġassurance":11534,"Ġsoumettre":11535,"kin":11536,"onÃ§aient":11537,"ella":11538,"Ġoctobre":11539,"Ġbouger":11540,"Ġintimes":11541,"achet":11542,"Ġlrsquoinc":11543,"Ġsymb":11544,"maison":11545,"ĠprophÃ¨te":11546,"pot":11547,"ts":11548,"Ġplante":11549,"Ġlrsquoancien":11550,"ĠCiel":11551,"ardi":11552,"Ġbrume":11553,"Ġexasp":11554,"ĠcroisÃ©es":11555,"Ġcoq":11556,"Ġinfailli":11557,"Ġsacrifier":11558,"ĠgoÃ»ts":11559,"ĠDixmer":11560,"celle":11561,"Ġlass":11562,"Ġmousse":11563,"ĠsrsquoÃ©chapp":11564,"Ġdeviennent":11565,"ĠHulot":11566,"istan":11567,"ĠFrances":11568,"Ġmarchandises":11569,"OUVE":11570,"Ġimprud":11571,"Ġpatriotes":11572,"Ġdistraction":11573,"ĠdÃ©monstr":11574,"ĠgeÃ´":11575,"ĠpÃªcheur":11576,"Ġpri":11577,"ĠMat":11578,"ĠSy":11579,"ovic":11580,"Ġconnaissons":11581,"ĠGeorge":11582,"Ġattentif":11583,"Ġsplendide":11584,"atacha":11585,"ĠGriff":11586,"EL":11587,"ĠlouÃ©":11588,"Ġjurer":11589,"utte":11590,"ĠNast":11591,"issances":11592,"ĠLaurent":11593,"Ġconvenait":11594,"ĠcroisÃ©e":11595,"ĠMontre":11596,"glout":11597,"Ġprovoqu":11598,"Ġtric":11599,"ĠaltÃ©r":11600,"Ã©lever":11601,"Ġreparut":11602,"Ġsamedi":11603,"ove":11604,"Ġbab":11605,"ĠClÃ©ment":11606,"oulet":11607,"Ġappelez":11608,"Ã©trang":11609,"Ġcausant":11610,"Ġramasser":11611,"Ġcordi":11612,"oÃ®tre":11613,"Ġbague":11614,"Ġmobilier":11615,"Ġtol":11616,"ĠMaison":11617,"Ġanx":11618,"Ġtablier":11619,"Ġcherchez":11620,"ĠPlusieurs":11621,"Ġmouton":11622,"ĠAllemands":11623,"ĠcrÃ©puscule":11624,"uelles":11625,"Ġpin":11626,"ĠvÃ©h":11627,"ĠNor":11628,"Ġcontrai":11629,"Ġcontenance":11630,"Ġmrsquoapp":11631,"ĠbrÃ»lant":11632,"Ġterminer":11633,"ĠBeaucoup":11634,"ĠrÃ©vÃ©lation":11635,"ĠImpossible":11636,"ĠpÃªche":11637,"ĠdrsquoAngleterre":11638,"emporte":11639,"ĠexcÃ¨s":11640,"Ġtendue":11641,"Ġlrsquoempereur":11642,"ĠÃ©tudier":11643,"ĠÃ©lÃ©gant":11644,"ĠchaÃ®nes":11645,"altation":11646,"ĠCraw":11647,"Ġtrous":11648,"ĠHein":11649,"ector":11650,"accent":11651,"Ġredoubl":11652,"Ġexamen":11653,"ĠÃ©loignÃ©e":11654,"OS":11655,"Ġparaissent":11656,"ĠrÃ©par":11657,"ĠChÃ¢t":11658,"ĠmÃ©prise":11659,"Ġgagnait":11660,"Ġmuscles":11661,"Ġacheva":11662,"ĠinquiÃ©tudes":11663,"ĠCourtin":11664,"ousteau":11665,"ĠdonnÃ¨rent":11666,"Ġmodestie":11667,"Ġtiroir":11668,"Ġfilet":11669,"Ġdescendirent":11670,"ĠrÃ©ponses":11671,".-":11672,"my":11673,"pents":11674,"sac":11675,"ourÃ©":11676,"Ġhall":11677,"ĠlrsquoAngleterre":11678,"amille":11679,"Ġarg":11680,"Ġcornes":11681,"adeo":11682,"Ġboutons":11683,"ĠlÃ©gers":11684,"Ġvieillesse":11685,"Ġgrenier":11686,"Ġsoucis":11687,"Th":11688,"tÃ©e":11689,"Ġpince":11690,"entiel":11691,"aubon":11692,"ĠMosc":11693,"apa":11694,"ĠFais":11695,"Ġportier":11696,"ĠdÃ©fi":11697,"Ġcontrainte":11698,"Ġcouvrit":11699,"Ġtremble":11700,"Ġpresser":11701,"ĠpuretÃ©":11702,"Ġfui":11703,"rsquoen":11704,"Ġfinalement":11705,"Ġtraitement":11706,"Ġpressant":11707,"Ġpardonnez":11708,"Ġpilote":11709,"ĠCopp":11710,"instruction":11711,"Ã§ade":11712,"Ġfamilier":11713,"Ġcanal":11714,"Ġroulait":11715,"ĠrenversÃ©":11716,"Ġblancheur":11717,"ĠexpliquÃ©":11718,"ippolyte":11719,"table":11720,"ĠsrsquoaperÃ§ut":11721,"ĠTadeo":11722,"gnes":11723,"Ġcasquette":11724,"olly":11725,"ĠClot":11726,"Ġsoulever":11727,"Ġplaisanteries":11728,"Ġprofessionnelle":11729,"Ġsongez":11730,"Ġentrailles":11731,"ĠGod":11732,"ĠdÃ©pouill":11733,"Ġadieux":11734,"Ġfinissait":11735,"ĠpleurÃ©":11736,"uleux":11737,"Ġtorture":11738,"ĠdÃ©charge":11739,"Ġjalouse":11740,"Ġconclure":11741,"Ġlargeur":11742,"Ġpomm":11743,"Ġcueill":11744,"ĠMaman":11745,"aissa":11746,"Ġcacha":11747,"Ġaffam":11748,"ĠcanapÃ©":11749,"ĠNicole":11750,"ĠrÃ©pandre":11751,"ĠtroublÃ©e":11752,"Ġprairies":11753,"ĠdÃ©tachement":11754,"Ġpudeur":11755,"Bien":11756,"ium":11757,"mental":11758,"Ġprenne":11759,"sifs":11760,"Ġmrsquoavoir":11761,"Ġident":11762,"Ġdiscr":11763,"ĠenvoyÃ©s":11764,"Ġpouces":11765,"Ġappuyant":11766,"Ġgentlemen":11767,"ĠarrachÃ©":11768,"traordinaire":11769,"Charles":11770,"Ġronf":11771,"Ġsonore":11772,"ĠBou":11773,"ĠBob":11774,"ĠdouÃ©":11775,"Ġpromettre":11776,"ĠpoÃ¨tes":11777,"Ġjolis":11778,"Ġsyn":11779,"ĠprÃ©fÃ©rÃ©":11780,"ĠmÃ©dic":11781,"Ġenveloppe":11782,"ĠrÃ©guliÃ¨rement":11783,"Ġinattendu":11784,"ĠRÃ©volution":11785,"ĠLady":11786,"ĠPil":11787,"illÃ©es":11788,"ĠRast":11789,"ĠGÃ©n":11790,"Ġongles":11791,"Ġcoupa":11792,"ĠflÃ¨ches":11793,"azar":11794,"ĠrapportÃ©":11795,"ĠÃ©criture":11796,"Ġroula":11797,"Pourquoi":11798,"Ġclients":11799,"espÃ©rais":11800,"Ġpressentiment":11801,"ven":11802,"Ã©quemment":11803,"Ġmans":11804,"Ã¨nent":11805,"andais":11806,"igle":11807,"Ġsrsquoappelle":11808,"ĠRazumov":11809,"Ġamoureuse":11810,"Ã©viter":11811,"ĠfaÃ§ade":11812,"Ġdrsquoi":11813,"ĠCarker":11814,"Ġlangues":11815,"Ġlueurs":11816,"Ġaccorder":11817,"ĠlÃ©gÃ¨retÃ©":11818,"Ġvicaire":11819,"yg":11820,"aix":11821,"Ġplaie":11822,"Ġnrsquoes":11823,"Ġaurai":11824,"Ġtraversant":11825,"Ġdisparition":11826,"Ġpressait":11827,"Ġchangements":11828,"Ġextraordinaires":11829,"ĠEspagne":11830,"Ġchiffre":11831,"fut":11832,"istant":11833,"aufr":11834,"ĠPons":11835,"ensions":11836,"heureuse":11837,"Ġcontrat":11838,"Ġfoudr":11839,"Ġvaloir":11840,"Ġvastes":11841,"ĠprÃ©fÃ©rence":11842,"Ã©levait":11843,"oureuses":11844,"ĠpÃ©niblement":11845,"ĠMinne":11846,"ĠempÃªchÃ©":11847,"enante":11848,"ĠavanÃ§ait":11849,"ouvant":11850,"Ġsrsquoaff":11851,"ĠBur":11852,"Ġexistait":11853,"appui":11854,"ĠdÃ©cr":11855,"ochant":11856,"ĠretournÃ©":11857,"ĠfiancÃ©":11858,"Ġlorsqursquoils":11859,"ĠPardonnez":11860,"ĠÅĵufs":11861,"ĠnrsquoÃªtre":11862,"ulter":11863,"ĠdÃ©sappoin":11864,"ĠcriÃ©":11865,"Ġdonnerais":11866,"ĠgrossiÃ¨re":11867,"office":11868,"Ġpuissants":11869,"ĠgÃ©nÃ©reuse":11870,"ĠrÃ©servÃ©":11871,"Ġallemand":11872,"Ġterritoire":11873,"personne":11874,"inie":11875,"Ġbuis":11876,"Ġdrsquoapprendre":11877,"chef":11878,"Ġlevai":11879,"ĠÃ©nig":11880,"ĠBonsoir":11881,"ĠClotilde":11882,"oÃ«l":11883,"Ġlente":11884,"aimÃ©":11885,"Ġlrsquoaspect":11886,"autr":11887,"automne":11888,"Ġexpres":11889,"Ġcouches":11890,"Ġvolets":11891,"ĠPrends":11892,"offen":11893,"ĠKazan":11894,"Ġredoub":11895,"ĠrÃªvÃ©":11896,"Ġsuspect":11897,"Ġmoulin":11898,"ÅĴUR":11899,"ĠCasaubon":11900,"ĠMonsoreau":11901,"BientÃ´t":11902,"Ġgendre":11903,"alogue":11904,"Ġlrsquoespace":11905,"Ġdrsquoal":11906,"Ġreviendra":11907,"attitude":11908,"Ġfixa":11909,"Ġexclus":11910,"mUn":11911,"noir":11912,"peur":11913,"Ã©re":11914,"Ġben":11915,"ĠGan":11916,"Ãīv":11917,"Ġcomplot":11918,"Ã©clai":11919,"ĠmÃ©chanc":11920,"ĠÃ´ter":11921,"ĠÃ©clairs":11922,"Ġcigare":11923,"HÃ´tel":11924,"hÃ´te":11925,"iches":11926,"Ġvents":11927,"ĠavancÃ©e":11928,"Ġneuve":11929,"Ġsach":11930,"Ġfrom":11931,"Ġdevinait":11932,"Ġhabite":11933,"Ġvertes":11934,"explique":11935,"Ġcampagnes":11936,"Ġdossier":11937,"Ã©lia":11938,"Ġbagages":11939,"Ġfonction":11940,"Ġfaillit":11941,"ĠirritÃ©":11942,"clÃ©si":11943,"Ġvizir":11944,"36":11945,"sel":11946,"ĠChÃ©ri":11947,"Ġcondui":11948,"Ġincom":11949,"Ġsaluant":11950,"Ġloyal":11951,"cÃ´":11952,"Ġcils":11953,"ĠMik":11954,"ĠentiÃ¨res":11955,"inec":11956,"Ġjustes":11957,"ilson":11958,"exemple":11959,"exÃ©cution":11960,"Ġconfession":11961,"Ġhabituel":11962,"Ġdisput":11963,"Ġcomposait":11964,"ĠinformÃ©":11965,"las":11966,"alys":11967,"ecclÃ©si":11968,"Ġbrac":11969,"Ġpouvions":11970,"Ġtouff":11971,"Ġpromenant":11972,"Ġrendent":11973,"Ġparlais":11974,"ĠfacultÃ©":11975,"Ġrencontrait":11976,"Ġtempes":11977,"ĠBertr":11978,"Ġtyrann":11979,"dic":11980,"Ġsor":11981,"Ġsch":11982,"ĠAyant":11983,"Ġcollier":11984,"Ġcharbon":11985,"ouffre":11986,"ĠmÃ©conn":11987,"Ġcorrespondance":11988,"DO":11989,"souv":11990,"Ġlor":11991,"ride":11992,"Ġattribu":11993,"Ġbarreaux":11994,"ĠTristan":11995,"cepteur":11996,"Ġvalent":11997,"Ġadmis":11998,"Ġmeuble":11999,"Ġfatigues":12000,"Ã©ridion":12001,"ros":12002,"Ġrecours":12003,"Ġdoubl":12004,"ĠproposÃ©":12005,"Ġchantant":12006,"ĠactivitÃ©":12007,"ĠRenÃ©":12008,"Ġarticles":12009,"venir":12010,"ĠquÃªte":12011,"Ġdurer":12012,"ĠCamb":12013,"icules":12014,"ĠToots":12015,"ulations":12016,"Ġmurmurait":12017,"ĠdistinguÃ©":12018,"ĠprÃ©cÃ©dente":12019,"ĠprÃ©occupÃ©":12020,"ĠassassinÃ©":12021,"Ġharmon":12022,"Ġutiliser":12023,"avage":12024,"Ġproduits":12025,"onorÃ©":12026,"AmÃ©rique":12027,"Ġregagner":12028,"ĠCrawford":12029,"DE":12030,"Ġvices":12031,"antesque":12032,"Ġbate":12033,"apais":12034,"ĠEll":12035,"ĠHer":12036,"Ġsavants":12037,"Ġconvert":12038,"Ġeffrayant":12039,"ĠVersailles":12040,"ĠliÃ©":12041,"Ġtac":12042,"ash":12043,"Ã¨des":12044,"Ãªmes":12045,"Ãªve":12046,"ĠfrÃ©n":12047,"Ġqursquoa":12048,"Ġcharret":12049,"Aramis":12050,"Ġlrsquoinconnu":12051,"Ġvingtaine":12052,"ĠmÃ©riter":12053,"Ġloger":12054,"ĠCorentin":12055,"Ġutiles":12056,"ĠfamiliÃ¨re":12057,"Ġrancune":12058,"39":12059,"ipr":12060,"Ġvale":12061,"ĠAur":12062,"ĠrenommÃ©e":12063,"Ġcontrar":12064,"Ġpaternel":12065,"Ġsigner":12066,"Ġprendra":12067,"Ġavertir":12068,"ĠVerloc":12069,"Ġgant":12070,"rira":12071,"Ġsolides":12072,"Ġmerveilles":12073,"ĠdÃ©couvre":12074,"ĠdÃ©range":12075,"ĠmÃ©ritÃ©":12076,"Ġguichet":12077,"hÃ©rit":12078,"ĠClara":12079,"Ġcourtoisie":12080,"roger":12081,"ommer":12082,"Ġdesquelles":12083,"ĠGascon":12084,"Ġjouant":12085,"Ġdoct":12086,"Ġcommanda":12087,"ĠcachÃ©s":12088,"ĠindiquÃ©":12089,"ĠdÃ©truit":12090,"ĠsrsquoÃ©loigner":12091,"ĠfÃ¢cheux":12092,"Ġrecueillir":12093,"elÃ©s":12094,"ĠLat":12095,"illent":12096,"Ġinsinu":12097,"Ġclin":12098,"Ġpromettait":12099,"ĠpÃ©nÃ©tra":12100,"ĠserrÃ©es":12101,"ĠaidÃ©":12102,"aunt":12103,"cade":12104,"ny":12105,"anuel":12106,"temp":12107,"ĠNatacha":12108,"ĠChambre":12109,"Ġbonjour":12110,"Ġcomprenant":12111,"Ġinjuste":12112,"Ġvigil":12113,"Ġtressaillir":12114,"Ġgazon":12115,"Ġsplendeur":12116,"ĠRomains":12117,"Ġsotte":12118,"inquiÃ©tude":12119,"Ġdevriez":12120,"ĠdÃ©sastre":12121,"Ġaffront":12122,"ĠIr":12123,"Ġsolution":12124,"liquait":12125,"ĠlÃ¨vre":12126,"Toutes":12127,"ĠmajoritÃ©":12128,"cis":12129,"entrai":12130,"orage":12131,"Ġgir":12132,"icol":12133,"ĠReste":12134,"ĠrÃ©veil":12135,"ĠdÃ©poser":12136,"ĠmariÃ©s":12137,"ĠÃīl":12138,"ĠajoutÃ©":12139,"Ġsacs":12140,"rienne":12141,"Ġgrains":12142,"ĠGustave":12143,"ĠQuels":12144,"Ġinvitation":12145,"Ġajoutait":12146,"ĠsÃ©vÃ¨rement":12147,"ĠdÃ©solÃ©":12148,"ĠÃīmily":12149,"ĠChevreuse":12150,"ĠSilence":12151,"rom":12152,"reuves":12153,"oncÃ©s":12154,"ĠjetÃ¨rent":12155,"Ġchargea":12156,"ividu":12157,"erfield":12158,"ĠcathÃ©d":12159,"ĠBenjamin":12160,"autrui":12161,"mt":12162,"Ġsrsquoins":12163,"Ġtur":12164,"Ġprest":12165,"ĠlrsquoÃ©tait":12166,"Ġlrsquoappel":12167,"ĠlrsquoÅĵuvre":12168,"amuser":12169,"ĠDU":12170,"Ġsrsquoappuy":12171,"issants":12172,"Ġcorrig":12173,"ourdin":12174,"apprÃ©c":12175,"Ġarrond":12176,"apercevant":12177,"Ġsottise":12178,"ĠintÃ©gr":12179,"Ġrapprocher":12180,"Ġbuiss":12181,"rict":12182,"ĠSw":12183,"Ã©rÃ©es":12184,"Ġcomptant":12185,"Ġrevinrent":12186,"Ġrestez":12187,"ĠdÃ©nou":12188,"Ġdifficiles":12189,"reconn":12190,"Ġhaussant":12191,"Maurice":12192,"uette":12193,"Ġpieux":12194,"ony":12195,"arp":12196,"ĠPey":12197,"Ġdrsquoelles":12198,"Ġdrsquoexc":12199,"Ġpassera":12200,"Ã©lÃ¨ve":12201,"ĠChallenger":12202,"Ġimplac":12203,"inges":12204,"dez":12205,"Ġlrsquoaction":12206,"ĠEurope":12207,"Ġlrsquoaband":12208,"ridge":12209,"Ġlrsquoattendait":12210,"Ġmettaient":12211,"Ġmultipli":12212,"Ġtar":12213,"ĠrÃ©tr":12214,"Ã¨lement":12215,"ĠLousteau":12216,"amm":12217,"ĠdrsquoannÃ©es":12218,"Ġmanie":12219,"Ġfondre":12220,"Ġnuque":12221,"Ġconcours":12222,"Ġdrsquohum":12223,"Ġdormi":12224,"Ġdesseins":12225,"Ġboudoir":12226,"ĠVenise":12227,"aques":12228,"Ġcale":12229,"ĠaÃ¯":12230,"inclina":12231,"ĠÃ©ternellement":12232,"attaque":12233,"positions":12234,"Ġgarni":12235,"Ġaccourut":12236,"Ġgendarme":12237,"Ġdistinctement":12238,"ĠModeste":12239,"40":12240,"Ġroches":12241,"orre":12242,"Ġmonument":12243,"extrÃ©mitÃ©":12244,"Ġchevau":12245,"instr":12246,"Anglais":12247,"Sir":12248,"Ġi":12249,"ĠvÃ´tres":12250,"Ã©tail":12251,"chen":12252,"ĠNathan":12253,"ĠprÃ©serv":12254,"Ġclassi":12255,"ĠprÃ©cÃ©dent":12256,"Ġambit":12257,"Ġobstacles":12258,"ĠdestinÃ©es":12259,"Ġbret":12260,"agel":12261,"Ġmonture":12262,"ĠcharmÃ©":12263,"Ġhumains":12264,"ĠchÃ¢le":12265,"ĠLorraine":12266,"ĠexÃ©cutÃ©":12267,"ĠdorÃ©":12268,"Ġorigine":12269,"aguÃ¨re":12270,"Notre":12271,"cit":12272,"Ġmeurs":12273,"ĠMol":12274,"ĠRig":12275,"ĠmarÃ©e":12276,"Ġferaient":12277,"Ġvoulus":12278,"queline":12279,"appris":12280,"Ġinflu":12281,"ĠBrav":12282,"Ġirons":12283,"Ġcontemplait":12284,"Ġpurement":12285,"Ġodieux":12286,"Ã©tablir":12287,"ĠinfÃ©rieure":12288,"Ġmonotone":12289,"Ġcompatriotes":12290,"Ġinsupportable":12291,"37":12292,"Elles":12293,"mParis":12294,"Ġsourn":12295,"isent":12296,"isaient":12297,"ĠinÃ©v":12298,"ĠSuis":12299,"Ġadj":12300,"Ġlrsquohiver":12301,"Ġboucher":12302,"ĠMark":12303,"Ġcollet":12304,"ĠtransportÃ©":12305,"ĠConst":12306,"ĠBerthe":12307,"ĠFontenay":12308,",âĢ¦":12309,"Den":12310,"ĠvÃ®mes":12311,"ĠfÃ©":12312,"ĠBlake":12313,"aisseur":12314,"antement":12315,"Ġblonds":12316,"Ġimmenses":12317,"Ġsignifiait":12318,"Ġspirituel":12319,"Ġpendule":12320,"itez":12321,"mpÃ¨re":12322,"asseyant":12323,"Ġlivide":12324,"ĠsauvÃ©e":12325,"ĠfrappÃ©e":12326,"ionnet":12327,"Ġ186":12328,"ĠanimÃ©":12329,"ĠimaginÃ©":12330,"ĠallumÃ©":12331,"ĠgÃ©missement":12332,"ĠPinch":12333,"Ġlrsquoinfluence":12334,"ĠscÃ©lÃ©rat":12335,"ĠfrÃ©gate":12336,"porte":12337,"ĠserrÃ©e":12338,"ensitÃ©":12339,"istique":12340,"ĠChut":12341,"ĠabbÃ©":12342,"Ġclou":12343,"Ġ100":12344,"ĠjetÃ©s":12345,"ĠvolÃ©e":12346,"Ġsouffler":12347,"ĠfantÃ´mes":12348,"Ġcordon":12349,"Ġinfinie":12350,"Ġrenvoyer":12351,"ĠBuvat":12352,"rot":12353,"estime":12354,"ĠplantÃ©":12355,"Ġregardent":12356,"ĠÃ©pars":12357,"Ġessenti":12358,"ĠancÃªtres":12359,"Ġfourr":12360,"ĠSchm":12361,"archie":12362,"Ġexemples":12363,"mn":12364,"pres":12365,"uin":12366,"ĠsÃ©rÃ©n":12367,"anÃ§on":12368,"Ġnaufr":12369,"Ġchan":12370,"mpieur":12371,"Ġdevina":12372,"ĠGra":12373,"ĠpossibilitÃ©":12374,"offmann":12375,"ercule":12376,"Antoine":12377,"ĠrÃ©pandu":12378,"Ġparcourir":12379,"ĠAgathe":12380,"signol":12381,"Bl":12382,"aimais":12383,"Ġfich":12384,"Ġparrain":12385,"avert":12386,"Ġcaprices":12387,"Ġfigurer":12388,"ĠconsidÃ©rÃ©":12389,"ĠgÃªner":12390,"Ġculotte":12391,"ĠRÃ©gina":12392,"ĠstupÃ©faction":12393,"Ġcrayon":12394,"Harmental":12395,"Gr":12396,"olement":12397,"ĠlanÃ§ant":12398,"ĠrÃ©pÃ©tÃ©":12399,"ĠRousseau":12400,"assaient":12401,"ĠGerm":12402,"Ġconfident":12403,"Ġsoufflait":12404,"ĠprÃ©cipitÃ©":12405,"Ġroulant":12406,"ĠClaude":12407,"bi":12408,"hes":12409,"mDe":12410,"Ġsurprit":12411,"ĠPeter":12412,"Ġboutiques":12413,"Ġpaternelle":12414,"Ġpoursuivait":12415,"Ġlrsquoentour":12416,"roitement":12417,"Ã©loigna":12418,"Ġsuicide":12419,"Ġforteresse":12420,"aus":12421,"naires":12422,"Ġnou":12423,"Ġsembler":12424,"avouer":12425,"Ġappui":12426,"Ã©mitÃ©s":12427,"Ġsolidement":12428,"Ġextrav":12429,"Ġembrassa":12430,"Ġpistoles":12431,"Ã©prouve":12432,"Ã©ter":12433,"Ġcaresse":12434,"ifie":12435,"Ġdemandes":12436,"Ġsoustr":12437,"Ġpossibles":12438,"Ġouvrier":12439,"Ġtarder":12440,"ĠLrsquohomme":12441,"Ġcabri":12442,"ĠforcÃ©s":12443,"Ġinnocence":12444,"Ġsoigner":12445,"lat":12446,"ĠdÃ»t":12447,"aujourdrsquohui":12448,"ĠMichele":12449,"ĠSatan":12450,"Ġmatelot":12451,"Ant":12452,"ĠsacrÃ©e":12453,"ĠrÃ©gime":12454,"ceptions":12455,"Ġlrsquoempl":12456,"Ġlumineux":12457,"Ġnocturne":12458,"Ġgreffier":12459,"Ġbateaux":12460,"ht":12461,"hÃ´pital":12462,"mag":12463,"Ġparles":12464,"onnais":12465,"ĠSher":12466,"Ġdrsquoattendre":12467,"Ã©nÃ©tr":12468,"Ġfermes":12469,"Ġpleuv":12470,"ĠpÃ¢l":12471,"ĠsrsquoavanÃ§ait":12472,"ĠCondÃ©":12473,"lame":12474,"Ġpitt":12475,"Ġfic":12476,"meaux":12477,"Ġsrsquoappelait":12478,"Ġdevinrent":12479,"Ġforment":12480,"Ġcomptez":12481,"aucus":12482,"ĠdressÃ©":12483,"ANT":12484,"Ġrebelles":12485,"ĠIsabelle":12486,"ĠAucune":12487,"Ġsentinelles":12488,"ĠGorenflot":12489,"ĠMoscou":12490,"Autriche":12491,"nis":12492,"uels":12493,"Ġranim":12494,"ĠPÃ¢":12495,"icieux":12496,"ĠdÃ©cide":12497,"Ġespion":12498,"demain":12499,"onction":12500,"Ġbuissons":12501,"mÃī":12502,"rsquoÃ©taient":12503,"Ġplanche":12504,"ĠLamme":12505,"ĠNanc":12506,"Ġvache":12507,"ĠÃ©chelle":12508,"Ġressusc":12509,"Ġ25":12510,"Ġendormie":12511,"Ġescaliers":12512,"Ãĳ":12513,"aigu":12514,"Ã©sil":12515,"Ġof":12516,"Ġbrouss":12517,"ignons":12518,"Ġflacon":12519,"ĠinspirÃ©":12520,"jeune":12521,"ASSI":12522,"dor":12523,"enÃ§on":12524,"ĠrÃ¢":12525,"ĠtuÃ©s":12526,"exÃ©cut":12527,"arranti":12528,"Ġclub":12529,"ourdi":12530,"ĠlÃ©gis":12531,"Ġtentation":12532,"Ġexamina":12533,"ĠsrsquoÃ©tend":12534,"ĠinstallÃ©":12535,"JAC":12536,"iat":12537,"Ġpoup":12538,"rsule":12539,"Ġraide":12540,"acÃ©s":12541,"sives":12542,"ĠGuy":12543,"ĠParfois":12544,"Ġrelativement":12545,"ĠrÃªveur":12546,"ordeaux":12547,"ĠAttends":12548,"ĠJusqu":12549,"ĠrÃ©aliser":12550,"Ġfugitifs":12551,"Ġbougies":12552,"Royal":12553,"quÃ©e":12554,"Ġquad":12555,"etier":12556,"Ġbeur":12557,"Ġprune":12558,"amer":12559,"ula":12560,"Ã©dÃ©":12561,"Ġcoudes":12562,"ĠcroisÃ©s":12563,"Ġdescription":12564,"ĠKar":12565,"ongea":12566,"ĠdÃ©tacher":12567,"ĠAmÃ©ricains":12568,"Ġfascin":12569,"38":12570,"VI":12571,"Ġrevu":12572,"Ġreviendr":12573,"Ġarrivera":12574,"ĠAutre":12575,"aÃ¯s":12576,"Ġrefusait":12577,"Ġrassurer":12578,"arnais":12579,"Ġmoutons":12580,"Aux":12581,"Ġpit":12582,"Ġpussent":12583,"Ġours":12584,"ĠGi":12585,"Ġattends":12586,"Ġrendirent":12587,"Ġgrossi":12588,"Ġterriblement":12589,"ĠBlond":12590,"Ġfranchi":12591,"ĠprouvÃ©":12592,"Ġillusion":12593,"Ġtimbre":12594,"ĠbÃ»cher":12595,"ĠsitÃ´t":12596,"Ġfaction":12597,"ĠprÃªtÃ©":12598,"Ġremb":12599,"Ġ!)":12600,"Ġgrade":12601,"angile":12602,"ĠdÃ©pour":12603,"Ġrives":12604,"arrivai":12605,"Ã©claire":12606,"Ġruelle":12607,"Ġhardies":12608,"ĠsecrÃ¨tes":12609,"aimerais":12610,"ĠGibassier":12611,"rac":12612,"Ġvir":12613,"alli":12614,"ĠMas":12615,"ĠDomin":12616,"illade":12617,"erton":12618,"Ġexpressions":12619,"Ġscint":12620,"Ġrespirait":12621,"qursquoils":12622,"ĠÃ©prouva":12623,"ĠspÃ©cial":12624,"ĠdÃ©veloppement":12625,"ĠRosemonde":12626,"ĠEntrez":12627,"ĠMousqueton":12628,"/âĢĭ":12629,"din":12630,"hire":12631,"voul":12632,"ĠPerse":12633,"sine":12634,"Ġgronde":12635,"igation":12636,"ĠTim":12637,"ĠÃ©pÃ©es":12638,"ĠlaissÃ¨rent":12639,"approuv":12640,"ĠlÃ©gÃ¨res":12641,"Ġvictor":12642,"ĠsÃ©parÃ©":12643,"ĠprisonniÃ¨re":12644,"ĠcoÃ»tÃ©":12645,"ribuÃ©s":12646,"ounder":12647,"ĠlÃ¢cha":12648,"ĠÃīvidemment":12649,"lises":12650,"urrection":12651,"osÃ©":12652,"univers":12653,"Ġpouviez":12654,"envoie":12655,"Ġmoyenne":12656,"Ġactuel":12657,"ĠagrÃ©ables":12658,"Ġlisant":12659,"Ġclairs":12660,"Rien":12661,"inage":12662,"Ġvoyager":12663,"ĠmontÃ¨rent":12664,"Ġsourires":12665,"Ġconvenir":12666,"Ġprofita":12667,"explication":12668,"Ġbalay":12669,"ĠtempÃ©ra":12670,"ĠhÃ©ritage":12671,"Ġexprimait":12672,"emmener":12673,"uÃ©e":12674,"Ġvignes":12675,"ĠbÃ©g":12676,"Ġlrsquoanimal":12677,"ĠLrsquoun":12678,"ĠNointel":12679,"ĠextÃ©rieure":12680,"Ġjrsquoentends":12681,"Ã©galitÃ©":12682,"Ġcorp":12683,"Ġcroyance":12684,"Ġprovisoire":12685,"Ġsuffi":12686,"ĠdemeurÃ©":12687,"ĠColomban":12688,"gypt":12689,"uctions":12690,"issi":12691,"Ġpriait":12692,"ĠÃ©tages":12693,"ĠmaÃ®tr":12694,"Ġpersonnellement":12695,"Ġvolt":12696,"Ġbarric":12697,"Ġretournait":12698,"iliation":12699,"ĠaccordÃ©":12700,"ĠdÃ©posÃ©":12701,"Ġrampe":12702,"ĠMagnus":12703,"conc":12704,"nÃ©es":12705,"ĠtÃ¢ch":12706,"Ġdrsquoart":12707,"Ġdiab":12708,"icilement":12709,"Ġrestant":12710,"Ġchoisit":12711,"ĠtraÃ®nant":12712,"adressait":12713,"Ġsrsquoincl":12714,"Ġlrsquoassassin":12715,"Ġlourdement":12716,"Ġsrsquoexclama":12717,"original":12718,"Ġtrajet":12719,"Ġabominable":12720,"ĠLudovic":12721,"Ġinsignif":12722,"Ġlimp":12723,"orient":12724,"ĠenquÃªte":12725,"trode":12726,"Ġconter":12727,"ĠmrsquoÃ©criai":12728,"Ġtrompait":12729,"Ġliaison":12730,"humeur":12731,"ĠrÃ©pandit":12732,"ĠCamus":12733,"ulstrode":12734,"ĠdÃ©penses":12735,"Ġsoumission":12736,"ĠJustement":12737,"gard":12738,"Ġpac":12739,"Ġrong":12740,"Ġamer":12741,"Ġessayons":12742,"ĠÃ©troitement":12743,"Ġrauque":12744,"ÃĳA":12745,"chestre":12746,"orse":12747,"Ġsubi":12748,"ĠextrÃ©mitÃ©s":12749,"ĠrappelÃ©":12750,"Ġconsentit":12751,"ĠlrsquoEmpereur":12752,"ĠconÃ§u":12753,"Ġremparts":12754,"Ġcoquetterie":12755,"Comment":12756,"Ġhuguenots":12757,"ĠRastignac":12758,"ba":12759,"Ġpendait":12760,"oudr":12761,"arche":12762,"arbres":12763,"Ġgisait":12764,"alisme":12765,"ĠBref":12766,"ordonn":12767,"issÃ©":12768,"arrange":12769,"Ġadouc":12770,"Ġ11":12771,"Ġfumer":12772,"Ġinspirait":12773,"Ġsuspendue":12774,"Ġvacances":12775,"ĠfiÃ¨rement":12776,"ĠFranklin":12777,"ĠNikol":12778,"ĠmÃ©chancetÃ©":12779,"Ġextravag":12780,"jol":12781,"wton":12782,"yse":12783,"Ġtact":12784,"aube":12785,"Ġpartez":12786,"ageusement":12787,"igine":12788,"ĠÃ©quipage":12789,"raille":12790,"inson":12791,"Ġreviendrai":12792,"ĠaccablÃ©":12793,"ibus":12794,"Ġproprement":12795,"Ġprendrai":12796,"Ġpoignet":12797,"Ġconsenti":12798,"Ġberger":12799,"ounderby":12800,"ET":12801,"ĠMc":12802,"osier":12803,"ositÃ©s":12804,"ĠServ":12805,"lieue":12806,"Ġnrsquoait":12807,"ĠHare":12808,"inton":12809,"empire":12810,"ĠAujourd":12811,"ĠoubliÃ©e":12812,"ĠprÃ©tendait":12813,"Ġfantastique":12814,"Ġbonsoir":12815,"Ġgracieusement":12816,"ĠprÃ©occupation":12817,"ĠSmith":12818,"ĠFiodorovitch":12819,"ĠMidi":12820,"Ġpassai":12821,"Ġ12":12822,"Ġracines":12823,"Ġaccepta":12824,"ĠdÃ©putÃ©":12825,"Ġgigantesque":12826,"averney":12827,"ĠCarmÃ©lite":12828,"ĠfÃ©cond":12829,"ĠtiÃ¨de":12830,"celui":12831,"dÃ©":12832,"iaire":12833,"elaine":12834,"inations":12835,"inÃ©ment":12836,"avre":12837,"ĠSÃ»":12838,"Ġsaisis":12839,"Ġsolenn":12840,"ĠempÃªche":12841,"Ġroue":12842,"Ġglobe":12843,"Ġpardonn":12844,"Ġprendrait":12845,"Ġhurla":12846,"Ġaverti":12847,"oubliez":12848,"Ġbuvait":12849,"ĠinconvÃ©nient":12850,"su":12851,"Ġlic":12852,"quÃ©s":12853,"antique":12854,"Ġgage":12855,"Ġdurs":12856,"ĠSarranti":12857,"essayer":12858,"ĠWilson":12859,"Ġcessait":12860,"Ġatteignit":12861,"Ġmaudite":12862,"ĠXVI":12863,"ĠrosÃ©e":12864,"Ġvaillant":12865,"ĠÃ´ta":12866,"Ġsolennelle":12867,"Ġsouterrain":12868,"ĠintrÃ©p":12869,"Ġdomp":12870,"Ġsrsquoimag":12871,"ĠCur":12872,"Ġbienfais":12873,"andez":12874,"ĠaccusÃ©":12875,"ington":12876,"ulture":12877,"Ġprodigu":12878,"ongeant":12879,"Ġlargement":12880,"fred":12881,"uen":12882,"ĠlrsquoespÃ©rance":12883,"adÃ©":12884,"assÃ©es":12885,"ĠGall":12886,"ĠrÃ©ception":12887,"Ġcriaient":12888,"ĠsoirÃ©es":12889,"Ġadmirer":12890,"mmdash":12891,"Ġlrsquoavent":12892,"Ġmanquent":12893,"Ġmangeait":12894,"ILL":12895,"Ġlrsquoabsence":12896,"feu":12897,"tte":12898,"Ġcouvertes":12899,"Ġqual":12900,"ilp":12901,"ĠLap":12902,"Ġsurp":12903,"ĠgrÃªle":12904,"Ġeffroi":12905,"ĠParbleu":12906,"ĠâĢĵ,":12907,"Ġoccupations":12908,"Ġparticuliers":12909,"ĠbÃ¢ti":12910,"Ġlrsquoarbre":12911,"ĠfermÃ©es":12912,"Ġmaladies":12913,"Ġmendiant":12914,"Ġsurnature":12915,"Ag":12916,"fond":12917,"lande":12918,"Ġfuss":12919,"ĠSais":12920,"ĠDerriÃ¨re":12921,"idÃ©ment":12922,"ĠÃ©pis":12923,"fini":12924,"Ġcentaine":12925,"Ġarchers":12926,"Ġsubstance":12927,"Ġrefroid":12928,"Ġdat":12929,"relle":12930,"Ġbasses":12931,"Ġavril":12932,"Ġaccueil":12933,"Ġmises":12934,"Ġbouts":12935,"ĠDev":12936,"ĠAngel":12937,"ĠrÃ©clame":12938,"Ġpression":12939,"OUR":12940,"Ġdressait":12941,"Ġglorieux":12942,"Ġincessamment":12943,"JACQUES":12944,"erme":12945,"ĠflÃ©ch":12946,"isÃ©es":12947,"Ġchou":12948,"Ġbran":12949,"ĠamÃ¨ne":12950,"Ġretenait":12951,"ĠrenoncÃ©":12952,"ello":12953,"Arth":12954,"Ġfixant":12955,"Ġremplis":12956,"attendaient":12957,"Ġromans":12958,"ĠChristophe":12959,"Ġpatriot":12960,"mEbooks":12961,"ĠassemblÃ©e":12962,"Ġdette":12963,"Ġchaloupe":12964,"ĠsÃ¨chement":12965,"mQu":12966,"icitÃ©":12967,"Ġsaisie":12968,"ibot":12969,"Ġverrait":12970,"Ġfolies":12971,"Ġouverture":12972,"ĠvariÃ©tÃ©s":12973,"rsquoignore":12974,"Moi":12975,"kine":12976,"tel":12977,"ĠvoÃ»":12978,"ĠBounderby":12979,"impatience":12980,"Ġfermait":12981,"ĠdÃ©par":12982,"Ġfines":12983,"ĠglacÃ©":12984,"rigue":12985,"azur":12986,"oisement":12987,"Ġartif":12988,"Ġsautant":12989,"Ġcadre":12990,"ĠdÃ©terminÃ©":12991,"Ġlrsquoauteur":12992,"Esprit":12993,"ĠHollande":12994,"Ġcristal":12995,"ĠGabriel":12996,"ĠsorciÃ¨re":12997,"DOÃĳA":12998,"Ġlot":12999,"ÃªchÃ©":13000,"ĠeÃ»mes":13001,"ĠÃ©lÃ©ment":13002,"Ġconstruction":13003,"Ġportez":13004,"Ġservaient":13005,"Ġtreize":13006,"Ġbrigand":13007,"ĠsrsquoÃ©levait":13008,"enÃ©e":13009,"urn":13010,"aumes":13011,"Ġplaid":13012,"Ã©rences":13013,"idd":13014,"opÃ©ration":13015,"ĠChine":13016,"Ġsortent":13017,"merais":13018,"ĠÃ©garÃ©":13019,"Ġinfid":13020,"Ġhumides":13021,"Ġdominait":13022,"ĠprÃ©tention":13023,"ĠdÃ©finitivement":13024,"Ġcigarette":13025,"Ġsorc":13026,"ĠentrÃ©s":13027,"Ġnonchal":13028,"argne":13029,"Ġcontinuellement":13030,"Ġprovinces":13031,"occupe":13032,"Ġpromenades":13033,"Ġvoudriez":13034,"Ġhorriblement":13035,"ĠPercival":13036,"crsquoÃ©tait":13037,"Ġois":13038,"Ġbassin":13039,"ala":13040,"ĠLoire":13041,"Ġprogr":13042,"ĠWink":13043,"tÃ©rieurs":13044,"ĠcrÃ©er":13045,"ĠdÃ®ne":13046,"ĠsÃ©lection":13047,"ĠpropriÃ©tÃ©s":13048,"Ġdiras":13049,"Ġpositivement":13050,"ĠLongue":13051,"Ġralent":13052,"lets":13053,"Ġmiel":13054,"Ġbous":13055,"apillon":13056,"uth":13057,"Ġgrog":13058,"Ġsrsquoacc":13059,"ĠrÃ©plique":13060,"ancre":13061,"Ġverr":13062,"Ġinfortun":13063,"aÃ¯de":13064,"Ġpench":13065,"Ġprocur":13066,"Ġrespectueux":13067,"ĠespÃ©rant":13068,"Ġsatisfaite":13069,"Ġlundi":13070,"ĠExcusez":13071,"Ġvibr":13072,"ĠKeinec":13073,"ĠConseil":13074,"Ġnage":13075,"alait":13076,"rimait":13077,"ĠLÃ©g":13078,"ĠPop":13079,"Ġencad":13080,"Ġremettant":13081,"ĠWick":13082,"ĠrÃ©cipr":13083,"Ġsignific":13084,"Ġramena":13085,"Ġressembler":13086,"Ġremplissait":13087,"ĠusÃ©":13088,"ĠmÃ©nager":13089,"Ġalluma":13090,"Ġbizarres":13091,"Ġennuis":13092,"ĠAlexandre":13093,"Ġsanctu":13094,"ĠCollin":13095,"ĠcathÃ©drale":13096,"lrsquoin":13097,"ĠMau":13098,"ĠConc":13099,"Ġinsec":13100,"accept":13101,"Ġamertume":13102,"ĠmrsquoempÃªcher":13103,"Ġlaissons":13104,"ĠornÃ©":13105,"Ġinvinci":13106,"Ġtrompette":13107,"ĠrÃ©solue":13108,"Ġ200":13109,"ĠattaquÃ©":13110,"ĠYv":13111,"Ġdestruction":13112,"ones":13113,"Ġbah":13114,"ĠrÃ©pondant":13115,"ĠLaur":13116,"Ġmanoir":13117,"ĠcollÃ©":13118,"gris":13119,"Ġcontract":13120,"atrix":13121,"Ġvoudras":13122,"ĠÃ©tablissement":13123,"Ġbrebis":13124,"ĠMun":13125,"Ġlrsquoavant":13126,"Ġlrsquoouvrage":13127,"ĠconquÃªte":13128,"ĠTit":13129,"appes":13130,"Ġsensations":13131,"Ġcausaient":13132,"ologiques":13133,"Ġrepousser":13134,"Ġjupe":13135,"ĠdrÃ´les":13136,"Aignan":13137,"Ġfers":13138,"Ġsacc":13139,"ĠdÃ©te":13140,"ĠBulstrode":13141,"auves":13142,"ĠcriÃ¨rent":13143,"ĠnommÃ©e":13144,"Ġcorromp":13145,"Ġdifficilement":13146,"Ġnoce":13147,"Ġressemblaient":13148,"ĠassurÃ©e":13149,"entretenir":13150,"lomb":13151,"aimÃ©e":13152,"rsquos":13153,"esti":13154,"ĠMAÃİTRE":13155,"ĠSociÃ©tÃ©":13156,"Ġsrsquoendorm":13157,"assan":13158,"Ġservant":13159,"Ġsouvient":13160,"Ġspont":13161,"ĠKol":13162,"Ġcabine":13163,"ĠPardieu":13164,"ĠtimiditÃ©":13165,"ĠdÃ©livrance":13166,"Ġdistinguait":13167,"rÃ©pond":13168,"Ġsollicitude":13169,"Ġcourtisans":13170,"Macaire":13171,"Miss":13172,"Ġrudes":13173,"ontine":13174,"oyeuse":13175,"Ġqursquoaucun":13176,"Ġferv":13177,"ĠParmi":13178,"Ġadv":13179,"auds":13180,"Ġcroyaient":13181,"Ġramassa":13182,"ĠconsidÃ©rables":13183,"other":13184,"Ġjournaliste":13185,"ĠrÃ©publicains":13186,"ĠStÃ©panovitch":13187,"Ġpresby":13188,"DI":13189,"mou":13190,"oj":13191,"Ġdue":13192,"ĠSara":13193,"ĠouÃ¯":13194,"appeur":13195,"ctrice":13196,"Ġreconnue":13197,"ĠGros":13198,"Ġsignification":13199,"Ġsacrist":13200,"Ġbalance":13201,"ĠcrÃ©Ã©":13202,"Ġbrillantes":13203,"ĠaisÃ©":13204,"ĠcatÃ©gor":13205,"ĠÃ©clairait":13206,"ĠrÃ©volutionnaire":13207,"augment":13208,"vingts":13209,"Ġsatin":13210,"ĠintÃ©gritÃ©":13211,"ĠWinkle":13212,"Ġvifs":13213,"ĠMaude":13214,"ĠPast":13215,"aissons":13216,"Ġ189":13217,"Ġbureaux":13218,"Ġmirac":13219,"ĠGlaucus":13220,"Ġcroirait":13221,"Ġconspiration":13222,"ĠmÃ©diocre":13223,"bury":13224,"diff":13225,"Ġlaide":13226,"ĠPic":13227,"Ġnrsquoex":13228,"Ġversa":13229,"ĠversÃ©":13230,"ĠEnt":13231,"Ġmaternel":13232,"Ã©libat":13233,"Ġhumblement":13234,"ĠGodefroid":13235,"main":13236,"ouin":13237,"ĠclÃ©":13238,"ĠaÃ®n":13239,"mpar":13240,"oliv":13241,"ĠSÃ©r":13242,"ĠDin":13243,"aissÃ©":13244,"issa":13245,"onctu":13246,"ĠGoul":13247,"ĠallÃ©g":13248,"ĠarrivÃ¢mes":13249,"activitÃ©":13250,"Ġfeutre":13251,"ĠÃ©glises":13252,"Ġprocession":13253,"Ġengagement":13254,"ologne":13255,"accorder":13256,"Ġsabots":13257,"origine":13258,"Ġlenteur":13259,"ĠRemy":13260,"notre":13261,"ĠNeu":13262,"Ġaigre":13263,"ĠQuelles":13264,"ĠpersÃ©v":13265,"ademoiselle":13266,"ĠmÃ©pr":13267,"Ġpromena":13268,"ĠÃ©loignÃ©s":13269,"Ġgarnie":13270,"Ġexacte":13271,"Ġimprov":13272,"Ġperplex":13273,"Ġremercia":13274,"ĠRoyale":13275,"HÃ©lÃ¨ne":13276,"auve":13277,"Ġpasteur":13278,"Ġhaies":13279,"uts":13280,"ersion":13281,"ĠrÃ©gl":13282,"Ġvieill":13283,"Ġrevins":13284,"chevÃªque":13285,"Ġcoquette":13286,"ĠSarah":13287,"ĠLisbeth":13288,"Ġplage":13289,"ĠdrsquoI":13290,"Ġdevin":13291,"Ġhauteurs":13292,"Ġmanquaient":13293,"Ġignorant":13294,"Ġmobile":13295,"oquet":13296,"Ġrides":13297,"ĠMarg":13298,"ĠcomptÃ©":13299,"Ġjusqursquoalors":13300,"Ġrentes":13301,"Ġpropositions":13302,"Ġgentille":13303,"excuser":13304,"Ġsrsquoassurer":13305,"olymine":13306,"rÃ©dÃ©ric":13307,"ĠecclÃ©si":13308,"Ġjrsquoirai":13309,"ardo":13310,"icle":13311,"essuy":13312,"Ġconserve":13313,"ĠimpÃ©t":13314,"ĠrÃ©sidence":13315,"ĠpoÃ¨me":13316,"Ġlrsquoexam":13317,"Ġinjures":13318,"Ġhardiment":13319,"Ġbrigadier":13320,"Ġpercer":13321,"ĠFelton":13322,"mTout":13323,"Ġsomp":13324,"eron":13325,"ĠCamp":13326,"mpour":13327,"ĠtombÃ©s":13328,"Ġcoud":13329,"Ġrendra":13330,"ĠsÃ©cher":13331,"ĠfÃ¢chÃ©e":13332,"ĠdÃ©robÃ©e":13333,"ĠVirginie":13334,"mque":13335,"Ġsoucieux":13336,"Ġlaissai":13337,"ĠÃīdouard":13338,"annonce":13339,"ĠBrouss":13340,"Ġcausa":13341,"ĠCharlot":13342,"Ġprocure":13343,"Ġlrsquoexemple":13344,"Ġtrahi":13345,"ĠcoÃ»ter":13346,"ĠJuan":13347,"Ġvanter":13348,"As":13349,"lys":13350,"mMais":13351,"Ġpaill":13352,"onz":13353,"onÃ§":13354,"itecte":13355,"Ġrapprocha":13356,"dex":13357,"ĠET":13358,"Ġmax":13359,"cif":13360,"ĠGauv":13361,"Ġconfuse":13362,"ĠXX":13363,"ĠreprÃ©sentation":13364,"quant":13365,"irons":13366,"ĠCir":13367,"ĠsrsquoÃ©p":13368,"ĠTaverney":13369,"ĠfrÃ©quemment":13370,"Ġcomparer":13371,"ĠSax":13372,"Ġrelation":13373,"ĠdÃ©gager":13374,"ĠlrsquoexÃ©cution":13375,"Ġfaiblement":13376,"ĠSeigneurie":13377,"ĠFoug":13378,"ĠSupp":13379,"Ġstatues":13380,"Ġrubans":13381,"Ġlampes":13382,"ĠCamusot":13383,"Seulement":13384,"cale":13385,"ĠMuire":13386,"Ġplu":13387,"oises":13388,"ĠPet":13389,"occh":13390,"ĠlrsquohÃ´te":13391,"Ġparlerai":13392,"ĠAlph":13393,"ĠrÃªvait":13394,"disant":13395,"jrsquoai":13396,"ĠlrsquohumanitÃ©":13397,"dite":13398,"ĠcassÃ©":13399,"rein":13400,"Ġaler":13401,"ĠnaguÃ¨re":13402,"Ġbomb":13403,"riques":13404,"errement":13405,"ĠtraversÃ©e":13406,"ĠsÃ©rieuses":13407,"Ġrappelons":13408,"ĠÃ©trangement":13409,"fortun":13410,"aperÃ§ois":13411,"ĠcomposÃ©e":13412,"Ġguerres":13413,"Ġproportion":13414,"suis":13415,"worth":13416,"Ġpourront":13417,"ĠPo":13418,"utt":13419,"Ġenthousias":13420,"ĠamÃ¨rement":13421,"ĠatmosphÃ¨re":13422,"Ġmontraient":13423,"Ġlrsquoimag":13424,"Ġconduits":13425,"Ġbattit":13426,"ĠlisiÃ¨re":13427,"Ġlimite":13428,"ĠclergÃ©":13429,"ĠConstantin":13430,"pic":13431,"entine":13432,"Ġrupt":13433,"ĠlrsquoÃ©gard":13434,"Ã´tesse":13435,"ĠFauv":13436,"rÃ©v":13437,"ĠdemandÃ¨rent":13438,"ÃªtetÃ©":13439,"ocitÃ©":13440,"Ġterrif":13441,"Ġacqu":13442,"arrÃªtait":13443,"Ġpalpit":13444,"ĠgÃ©missements":13445,"Ġlointaine":13446,"Ġcoton":13447,"mOn":13448,"Ġmouche":13449,"Ġbuste":13450,"Ġgages":13451,"Ġchen":13452,"ĠCibot":13453,"Ġdrsquoad":13454,"ĠHood":13455,"RES":13456,"ĠAlan":13457,"Ġangoisses":13458,"Ġtorts":13459,"ĠÃ©nergique":13460,"ĠHugh":13461,"cela":13462,"fl":13463,"gue":13464,"Ġlasse":13465,"Ġfestin":13466,"Ġgouffre":13467,"ĠFal":13468,"Ġdonnai":13469,"ĠQuilp":13470,"Ġarranger":13471,"ĠpoÃ©tique":13472,"ĠrencontrÃ¨rent":13473,"ĠvolontÃ©s":13474,"Br":13475,"Jamais":13476,"for":13477,"rogne":13478,"ĠfÃ¢cher":13479,"Ġrech":13480,"Ġgrin":13481,"lleyne":13482,"Ġexil":13483,"ĠFav":13484,"attait":13485,"Ġrenonce":13486,"Ġtombent":13487,"Ġjoueur":13488,"ĠWeller":13489,"ĠÃ©gards":13490,"Ġtalus":13491,"ĠprophÃ©t":13492,"Trois":13493,"Ġtourbillon":13494,"Ġpsych":13495,"ĠincomprÃ©h":13496,"lendemain":13497,"Ġsof":13498,"Ġfonde":13499,"Ġlaver":13500,"Ġrh":13501,"Ġparall":13502,"Ġsonne":13503,"prom":13504,"Ġfuture":13505,"Ã©vÃªque":13506,"apprend":13507,"gru":13508,"Ġgrossier":13509,"ĠarrangÃ©":13510,"ouillon":13511,"ĠexaminÃ©":13512,"ĠLoren":13513,"ĠrÃ©vÃ©lÃ©":13514,"Ġlourds":13515,"Ġmouches":13516,"Ġliquide":13517,"ĠglacÃ©e":13518,"ĠenterrÃ©":13519,"Ġperruque":13520,"bigh":13521,"quins":13522,"ĠmÃ¢le":13523,"elets":13524,"riel":13525,"Ġlrsquoesc":13526,"Ġingrat":13527,"Ġsentence":13528,"Ġempire":13529,"Ã¯n":13530,"grande":13531,"Ġrespecter":13532,"Ġserviette":13533,"Ġrenversa":13534,"Ġcoquins":13535,"ĠlrsquoÃīglise":13536,"ĠfÃ©roces":13537,"ĠMousquetaires":13538,"Ġcailloux":13539,"Salv":13540,"Ġscientifique":13541,"ĠCopperfield":13542,"ĠdÃ©partement":13543,"Ġfoin":13544,"Ġnoyer":13545,"ĠJup":13546,"autor":13547,"Ġmarquer":13548,"Ġnaturelles":13549,"Ġplaisante":13550,"ĠPhilipp":13551,"riptions":13552,"ĠdÃ©livrÃ©":13553,"ĠopposÃ©e":13554,"ĠirrÃ©g":13555,"ĠlÃ¢chetÃ©":13556,"Martin":13557,"ĠÃ©goÃ¯ste":13558,"Ġnarines":13559,"Ġdoctrine":13560,"ĠNikolaÃ¯":13561,"Ġsanctuaire":13562,"ken":13563,"mun":13564,"mII":13565,"Ġjac":13566,"Ġnain":13567,"Ãªcha":13568,"ĠLambert":13569,"angue":13570,"Ġmalaise":13571,"Ġconsistait":13572,"ĠÃ©cartÃ©":13573,"ĠLaquelle":13574,"Ġsecourir":13575,"Ġconfort":13576,"Ġcontrari":13577,"tÃ©rieures":13578,"ĠrÃ©vÃ©rence":13579,"Ġaccompl":13580,"Ġcommunes":13581,"Ġ28":13582,"ĠconsidÃ©ra":13583,"Ġarts":13584,"ĠmÃ©ritait":13585,"Ġcondamner":13586,"Ġconsentir":13587,"ĠassociÃ©":13588,"Ġatroce":13589,"Ġimperceptible":13590,"Catherine":13591,"har":13592,"Ġden":13593,"Ġpor":13594,"outre":13595,"inj":13596,"Ġplains":13597,"illo":13598,"apporter":13599,"ĠtrouvÃ©s":13600,"Ġflat":13601,"Ġtroubles":13602,"Ġmusic":13603,"Ġenvoyait":13604,"ĠparticuliÃ¨res":13605,"ĠrangÃ©es":13606,"Ġachevait":13607,"employer":13608,"Ġassiette":13609,"ĠaccoutumÃ©":13610,"Ġfausses":13611,"Denis":13612,"ja":13613,"uait":13614,"Ġrhum":13615,"ĠBoh":13616,"trouver":13617,"ĠRÃ©":13618,"ĠHor":13619,"ĠÃ©cri":13620,"ĠLampieur":13621,"Ġdirigeant":13622,"obÃ©issance":13623,"Ġhonteuse":13624,"joie":13625,"Ġhang":13626,"stone":13627,"annoncer":13628,"ĠbÃ©nisse":13629,"ĠpassionnÃ©":13630,"Ġcraignais":13631,"ĠprivilÃ¨ge":13632,"Ġfrottant":13633,"ĠMordaunt":13634,"Peut":13635,"Ġveau":13636,"inos":13637,"uries":13638,"ĠBan":13639,"ĠinsensÃ©":13640,"Ġrevenaient":13641,"ĠIer":13642,"occupait":13643,"Ġremarquai":13644,"Ġactuellement":13645,"Ġescorte":13646,"achemin":13647,"Ġpaquets":13648,"Ġpesait":13649,"Ġsuppliant":13650,"Ġinvolontairement":13651,"Ġmassif":13652,"Ġoubliez":13653,"Ġgriffes":13654,"agelonne":13655,"Ceux":13656,"UX":13657,"sÅĵur":13658,"ouy":13659,"ĠÃ©tonnÃ©s":13660,"ĠVingt":13661,"Ġforest":13662,"Ġattrib":13663,"ĠhabitÃ©":13664,"Ġjetai":13665,"Ġjetaient":13666,"ĠJacqueline":13667,"ĠrÃ©solument":13668,"Ġsoutenait":13669,"Ġfauve":13670,"Ġ190":13671,"IRES":13672,"ĠÃ©quiv":13673,"Ġlrsquoimage":13674,"Ġlions":13675,"ĠfÃ®mes":13676,"Ġavoue":13677,"ĠMans":13678,
[...]
