<unk>	0
<s>	0
</s>	0
<|n|>	0
,	-2.71859
.	-3.4068
▁de	-3.41731
▁la	-3.99005
’	-4.00235
▁et	-4.02875
▁le	-4.1538
▁à	-4.22327
-	-4.45645
▁que	-4.51161
▁les	-4.56658
▁en	-4.84752
▁un	-4.86841
▁qui	-4.93039
▁l	-5.03691
▁pas	-5.06506
▁ne	-5.06951
▁des	-5.08563
▁je	-5.09343
▁;	-5.10092
▁il	-5.10587
s	-5.12672
▁ndash	-5.14486
▁dans	-5.15114
▁vous	-5.16157
▁!	-5.16321
▁une	-5.20133
▁se	-5.23281
'	-5.24135
▁du	-5.26608
▁	-5.28389
▁d	-5.29442
▁pour	-5.29894
▁ce	-5.40857
▁son	-5.42485
▁lui	-5.4668
▁?	-5.48758
▁plus	-5.57555
▁sur	-5.58606
▁au	-5.60077
▁par	-5.68013
▁sa	-5.71178
il	-5.72312
▁avec	-5.7449
▁dit	-5.76964
▁qu	-5.77594
▁me	-5.77868
▁:	-5.78967
▁nous	-5.85335
▁est	-5.86416
▁Il	-5.87298
▁avait	-5.87826
▁comme	-5.9124
▁tout	-5.91276
▁elle	-5.93332
▁ses	-5.96003
▁était	-5.96146
▁–	-5.96617
...	-5.97083
▁bien	-5.97768
▁n	-5.98699
▁si	-6.00321
▁a	-6.00761
▁Je	-6.01224
▁s	-6.01335
▁mais	-6.03963
m	-6.0886
▁cette	-6.09713
▁«	-6.12332
▁»	-6.18836
0	-6.20793
▁mon	-6.21994
▁[	-6.29121
est	-6.38942
▁Le	-6.3955
▁sans	-6.40998
▁qursquoil	-6.45591
▁deux	-6.49031
▁où	-6.51505
▁moi	-6.54762
▁fait	-6.55929
▁Et	-6.57164
▁y	-6.57504
▁ou	-6.5773
▁—	-6.57742
▁ces	-6.58264
▁faire	-6.58861
▁même	-6.61117
▁leur	-6.61278
▁Mais	-6.61985
▁ma	-6.64941
elle	-6.67408
un	-6.68066
▁aux	-6.69938
▁M	-6.71101
▁La	-6.71271
▁on	-6.71938
t	-6.744
▁encore	-6.79481
a	-6.80463
▁tous	-6.83735
▁j	-6.87895
vous	-6.90318
▁m	-6.92099
ai	-6.92292
▁homme	-6.92662
▁votre	-6.94821
e	-6.95388
▁[3	-6.95533
▁été	-6.95743
▁tu	-6.95834
▁sont	-6.96655
▁Elle	-6.98197
▁dont	-6.98532
▁peu	-7.00543
▁aussi	-7.0064
une	-7.00869
▁rien	-7.01127
▁suis	-7.0164
▁temps	-7.02118
▁c	-7.0245
▁ils	-7.04103
▁drsquoun	-7.04595
▁cela	-7.04656
▁fut	-7.05999
▁Vous	-7.07287
on	-7.08093
▁donc	-7.08731
en	-7.0938
▁Les	-7.10182
▁femme	-7.11549
▁yeux	-7.11644
▁quand	-7.13223
▁dire	-7.1351
▁là	-7.15065
▁peut	-7.15767
▁fit	-7.18617
▁fois	-7.1879
▁être	-7.1897
▁car	-7.19761
▁jamais	-7.20409
▁monsieur	-7.21695
▁leurs	-7.21966
▁point	-7.22031
▁toute	-7.22525
y	-7.22814
▁crsquoest	-7.22862
▁sous	-7.22917
▁jeune	-7.23035
▁après	-7.25612
▁tête	-7.25997
▁quelque	-7.27159
▁mes	-7.28021
▁drsquoune	-7.28026
▁toujours	-7.28154
était	-7.28406
▁[1	-7.2968
▁main	-7.30561
▁grand	-7.30842
▁voir	-7.31037
▁C	-7.31038
▁jour	-7.3112
▁lrsquo	-7.33614
▁vers	-7.34768
ce	-7.34798
▁porte	-7.35216
▁chez	-7.3625
▁moment	-7.36955
être	-7.3743
▁À	-7.3752
▁avoir	-7.37581
▁très	-7.3933
▁puis	-7.39867
▁étaient	-7.40152
▁vie	-7.41041
▁Ce	-7.41178
▁toutes	-7.4174
▁chose	-7.4193
▁moins	-7.42088
▁En	-7.43438
▁répondit	-7.43553
▁ni	-7.44076
nt	-7.45714
même	-7.47634
▁quelques	-7.48186
▁qursquoelle	-7.48663
▁notre	-7.48906
▁non	-7.49434
▁On	-7.51048
▁voix	-7.52655
▁devant	-7.53057
▁monde	-7.53441
▁Dieu	-7.53649
▁trois	-7.53666
▁cœur	-7.54175
▁père	-7.55148
▁entre	-7.55163
▁te	-7.55745
▁cet	-7.57061
▁fille	-7.57919
▁roi	-7.58021
▁maison	-7.58372
▁petit	-7.58825
je	-7.59102
▁trop	-7.60506
▁ainsi	-7.60731
▁contre	-7.61572
▁coup	-7.62814
▁celui	-7.62998
▁autre	-7.6428
à	-7.64534
▁alors	-7.64973
▁Un	-7.6541
▁Oui	-7.66378
▁Crsquoest	-7.67281
▁Si	-7.67808
▁bon	-7.67977
▁faut	-7.68233
▁Nous	-7.70428
▁J	-7.70692
▁avant	-7.71135
▁avaient	-7.71145
▁hommes	-7.71554
▁déjà	-7.71726
▁ont	-7.71874
▁depuis	-7.72802
▁autres	-7.73063
▁avez	-7.73572
▁drsquo	-7.7546
▁près	-7.76151
▁mort	-7.76292
▁ton	-7.76306
▁grande	-7.76749
▁mère	-7.7767
▁L	-7.78249
là	-7.78875
▁assez	-7.79684
▁petite	-7.79755
▁nuit	-7.79788
▁Ah	-7.80893
▁!...	-7.81004
▁côté	-7.81361
▁ici	-7.81457
▁jrsquoai	-7.81715
▁tant	-7.82002
▁pendant	-7.82205
▁madame	-7.82366
▁chambre	-7.82792
▁nrsquoest	-7.8335
es	-7.84458
moi	-7.84469
▁personne	-7.84628
▁gens	-7.854
▁qursquoon	-7.85493
rsquoy	-7.85772
▁demanda	-7.85863
▁pouvait	-7.86669
▁jours	-7.86773
▁nos	-7.86898
▁nom	-7.8703
▁seul	-7.87408
▁vu	-7.87636
▁mieux	-7.87655
▁ceux	-7.88246
▁sais	-7.88307
▁bras	-7.88763
ait	-7.88908
▁Eh	-7.89378
▁fort	-7.89491
▁mains	-7.89846
▁soit	-7.90687
r	-7.90771
▁êtes	-7.91296
▁heures	-7.91816
▁eu	-7.92034
▁(	-7.92284
▁terre	-7.93334
▁Oh	-7.94032
▁serait	-7.94179
▁Non	-7.94697
avait	-7.94807
▁beaucoup	-7.94988
▁ami	-7.9576
▁peine	-7.96872
ils	-7.9698
tu	-7.97151
▁eût	-7.97766
▁fils	-7.98095
▁pauvre	-7.98599
▁celle	-7.98857
▁prendre	-7.99123
▁Ils	-8.00232
▁place	-8.00578
▁ans	-8.01001
▁Tu	-8.012
▁vos	-8.01686
▁bonne	-8.01767
▁pu	-8.02923
▁mal	-8.0294
▁Au	-8.0308
▁faisait	-8.03173
▁soir	-8.03357
▁reprit	-8.03869
▁doute	-8.04053
▁premier	-8.04319
ci	-8.04346
▁vieux	-8.04662
▁mille	-8.0493
▁parler	-8.06129
▁eux	-8.07084
▁maintenant	-8.07578
▁seulement	-8.0771
▁Une	-8.08163
▁dis	-8.08249
▁sera	-8.08344
▁va	-8.10502
▁De	-8.11208
▁donner	-8.11763
▁jusqu	-8.12386
▁Que	-8.12387
▁maître	-8.12928
▁ça	-8.13312
▁ai	-8.13855
▁choses	-8.14052
▁mot	-8.14076
▁première	-8.14865
▁eut	-8.15627
▁regard	-8.16123
▁quoi	-8.16195
▁pris	-8.16563
▁visage	-8.16655
▁venait	-8.1686
▁veux	-8.17551
▁toi	-8.17838
▁presque	-8.18169
▁lieu	-8.18882
▁aurait	-8.19442
▁loin	-8.1948
▁voilà	-8.1961
▁matin	-8.19964
)	-8.21097
▁quatre	-8.21123
▁Cette	-8.21615
▁milieu	-8.22429
▁Quand	-8.22983
autre	-8.23292
▁Alors	-8.23907
▁belle	-8.24281
▁Mon	-8.24295
▁Paris	-8.24808
▁vrai	-8.25128
▁enfin	-8.25784
▁parce	-8.2592
▁laquelle	-8.2605
▁Tout	-8.26348
▁ville	-8.26588
▁cher	-8.26744
▁part	-8.27429
▁corps	-8.28005
▁fût	-8.2819
▁femmes	-8.28306
▁chaque	-8.28424
▁seule	-8.28426
▁reste	-8.28778
▁raison	-8.28855
▁pays	-8.2895
▁Mme	-8.29041
▁crois	-8.29326
▁longtemps	-8.29636
▁comment	-8.29787
▁enfant	-8.29854
ment	-8.2986
▁lrsquoautre	-8.29903
▁qursquoils	-8.30089
▁lettre	-8.31236
▁rue	-8.31276
▁air	-8.31711
▁disait	-8.32465
▁mit	-8.32599
l	-8.33024
▁elles	-8.33038
▁Saint	-8.33111
▁feu	-8.33578
▁force	-8.33791
z	-8.33838
▁dix	-8.34111
▁Dans	-8.34177
▁nouveau	-8.34291
▁autour	-8.3503
▁prit	-8.35089
▁bout	-8.35215
▁général	-8.35493
▁beau	-8.35938
▁Monsieur	-8.35986
▁Puis	-8.36584
le	-8.36697
▁mettre	-8.36767
▁route	-8.36794
▁pourquoi	-8.37114
▁frère	-8.37273
▁savoir	-8.37307
▁allait	-8.37822
▁avons	-8.3807
▁table	-8.38096
▁derrière	-8.38925
dessus	-8.39264
▁tour	-8.39466
▁vue	-8.39641
▁effet	-8.39897
▁srsquo	-8.39904
▁enfants	-8.40409
▁crsquoétait	-8.40629
[3	-8.40698
▁bas	-8.40744
▁cheval	-8.40765
▁devait	-8.40787
▁passer	-8.40983
it	-8.41533
▁silence	-8.42003
▁instant	-8.42581
▁srsquoil	-8.4287
aient	-8.42898
▁besoin	-8.42993
▁aller	-8.43221
▁capitaine	-8.43441
▁long	-8.43528
▁chemin	-8.44465
▁Pour	-8.44467
▁srsquoécria	-8.44569
▁bruit	-8.44932
▁vit	-8.45003
▁nrsquoavait	-8.45162
▁pieds	-8.45426
▁heure	-8.45462
▁srsquoétait	-8.45468
▁venir	-8.45706
▁nrsquoétait	-8.4663
▁fond	-8.47227
▁sommes	-8.47267
▁cause	-8.47284
▁amis	-8.47421
▁pied	-8.48192
▁trouver	-8.48277
▁Ne	-8.48302
;	-8.48783
▁vais	-8.49006
▁mots	-8.49083
▁mis	-8.49619
▁sang	-8.49682
▁paroles	-8.49767
▁?...	-8.49888
▁sorte	-8.5
▁ta	-8.50057
▁cinq	-8.50411
▁mari	-8.50573
▁rendre	-8.50747
▁ciel	-8.51571
▁donné	-8.51662
▁1	-8.5188
▁haut	-8.52412
▁lorsque	-8.52682
▁lit	-8.52761
ez	-8.53034
avais	-8.53048
▁Sa	-8.53265
▁fin	-8.53358
▁doit	-8.53993
▁partie	-8.54323
▁vingt	-8.54375
▁lrsquoon	-8.5453
▁nrsquoen	-8.54797
:	-8.5485
ons	-8.54943
▁comte	-8.5536
▁oui	-8.55361
▁jusqursquoà	-8.55387
▁quel	-8.55448
▁mois	-8.55487
▁prince	-8.55511
▁semblait	-8.5599
▁Comment	-8.56152
er	-8.56221
▁bois	-8.56679
▁famille	-8.56938
▁Comme	-8.57401
▁passé	-8.57694
▁garde	-8.57699
▁droit	-8.5827
▁face	-8.59291
▁t	-8.59518
▁dernier	-8.59763
▁souvent	-8.59884
▁aucun	-8.60074
▁entendu	-8.60232
▁suite	-8.60262
▁manière	-8.60913
▁plaisir	-8.60966
▁vieille	-8.60973
é	-8.61228
▁cependant	-8.61537
▁qursquoun	-8.6168
▁grands	-8.62165
▁plusieurs	-8.62284
▁Après	-8.62662
▁Ma	-8.62702
▁cas	-8.63951
▁bientôt	-8.64091
▁D	-8.64209
▁nouvelle	-8.64507
▁figure	-8.64596
▁joie	-8.6462
i	-8.64808
au	-8.64958
▁voulait	-8.65044
ont	-8.65076
▁mrsquoa	-8.65274
homme	-8.65305
▁cent	-8.65663
▁pouvoir	-8.65729
▁tandis	-8.66277
▁laisser	-8.66373
▁bonheur	-8.66446
écria	-8.67004
▁voulez	-8.67041
▁chercher	-8.67287
▁lequel	-8.67336
▁furent	-8.67689
▁sourire	-8.67874
▁tard	-8.68039
▁quelle	-8.6805
▁France	-8.68114
▁peur	-8.6812
▁Jrsquoai	-8.68339
▁sens	-8.68513
▁vérité	-8.68563
▁parole	-8.68629
▁vois	-8.68659
▁croire	-8.68808
▁Son	-8.69207
▁Votre	-8.69266
▁possible	-8.6929
▁question	-8.69351
▁aussitôt	-8.69413
▁soleil	-8.69432
▁srsquoen	-8.69699
▁travers	-8.69939
▁demi	-8.70139
▁aucune	-8.70396
▁dame	-8.7042
▁demande	-8.7091
▁venu	-8.71765
▁surtout	-8.72335
ant	-8.72499
▁sait	-8.72796
▁sœur	-8.72806
▁duc	-8.73037
▁autant	-8.73154
▁cour	-8.73193
▁savez	-8.73436
▁demander	-8.73477
▁rire	-8.73597
▁veut	-8.73758
▁jeunes	-8.7431
▁reine	-8.75546
▁ayant	-8.75695
ient	-8.75697
▁nrsquoa	-8.76345
▁vient	-8.76937
▁façon	-8.77292
▁compte	-8.77323
▁qursquoà	-8.7767
▁fenêtre	-8.78059
▁dès	-8.78109
▁continua	-8.78253
▁nature	-8.78393
▁plutôt	-8.78675
▁Enfin	-8.78721
▁grâce	-8.78829
▁trouvait	-8.78967
▁nrsquoai	-8.79065
▁mouvement	-8.79261
▁Est	-8.79584
▁tenait	-8.79946
▁Jean	-8.80016
▁chef	-8.80073
avoir	-8.80134
▁chacun	-8.80245
▁drsquoêtre	-8.80415
▁pensée	-8.80435
▁Pourquoi	-8.80487
▁afin	-8.80794
▁voulu	-8.81077
▁mer	-8.81225
▁garçon	-8.81242
▁sûr	-8.81447
▁as	-8.81506
▁pourtant	-8.81593
▁cheveux	-8.81595
▁heureux	-8.81639
▁mrsquo	-8.81932
▁dernière	-8.81934
▁larmes	-8.82124
▁six	-8.82221
▁voyant	-8.82278
▁docteur	-8.82386
▁Madame	-8.82415
▁lendemain	-8.83194
de	-8.83208
▁bouche	-8.8323
étais	-8.83278
▁savait	-8.83296
▁Voilà	-8.83387
nous	-8.83478
▁petits	-8.83592
▁vint	-8.84118
▁lumière	-8.84208
▁malgré	-8.84471
▁ajouta	-8.84651
▁front	-8.84956
▁francs	-8.84999
▁entendre	-8.85159
▁Ces	-8.85309
▁présent	-8.85509
▁signe	-8.85748
▁Par	-8.85977
▁fallait	-8.85983
▁lèvres	-8.86256
▁parmi	-8.86266
▁Lrsquo	-8.86901
▁lrsquoair	-8.86903
▁regarda	-8.87123
▁chère	-8.87277
▁vite	-8.87368
▁peuple	-8.87578
▁affaire	-8.87649
ais	-8.87717
▁fortune	-8.87802
▁trouve	-8.88037
▁voiture	-8.88401
▁guerre	-8.88407
▁leva	-8.88963
▁âme	-8.89042
▁faites	-8.89425
ent	-8.8945
air	-8.90118
▁salle	-8.90217
or	-8.90541
▁donne	-8.90939
▁Qui	-8.91073
▁foi	-8.91149
▁dites	-8.91763
▁sortir	-8.91785
as	-8.91805
▁Crsquoétait	-8.92283
▁voyait	-8.92283
▁mademoiselle	-8.92687
▁parti	-8.927
▁semble	-8.92746
▁sujet	-8.93118
▁pourrait	-8.93258
▁amour	-8.93854
▁jrsquoavais	-8.9422
▁voici	-8.94475
▁perdu	-8.94809
▁gros	-8.9529
▁esprit	-8.95353
▁es	-8.95372
▁ensemble	-8.95683
is	-8.96125
▁plein	-8.96265
heure	-8.96274
▁livres	-8.96545
▁service	-8.96593
eau	-8.96612
▁trouvé	-8.96844
▁trouva	-8.97159
▁auprès	-8.97267
▁chevaux	-8.97629
▁voyez	-8.97966
▁moyen	-8.98177
▁vent	-8.98226
▁Des	-8.98456
▁miss	-8.9858
▁idée	-8.98697
▁travail	-8.99058
▁Qu	-8.99116
▁juste	-8.99263
▁nombre	-8.99275
▁faisant	-8.99316
▁tes	-8.99328
▁qursquoune	-8.99538
▁Cependant	-8.9989
▁cria	-9.00472
▁terrible	-9.00549
▁cri	-9.00567
▁A	-9.00636
èrent	-9.00711
▁contraire	-9.01339
▁coups	-9.0191
▁Allons	-9.01924
▁minutes	-9.01944
▁longue	-9.02184
▁lrsquoavait	-9.02296
▁arrivé	-9.02304
▁Cela	-9.03236
▁droite	-9.03263
la	-9.03392
▁répondre	-9.05437
avez	-9.05479
▁partir	-9.05614
▁coin	-9.05725
▁srsquoest	-9.05783
▁gauche	-9.05822
▁puisque	-9.05912
▁répliqua	-9.05929
▁Ainsi	-9.05941
▁dû	-9.05963
▁S	-9.06101
▁présence	-9.06188
▁regarder	-9.0626
▁Moi	-9.06321
▁demain	-9.06504
Eternel	-9.06538
▁mourir	-9.06666
▁telle	-9.06778
▁regardant	-9.06852
▁parut	-9.06863
▁mariage	-9.07017
▁parle	-9.07268
▁nouvelles	-9.07319
▁bord	-9.07328
▁propre	-9.07389
▁secret	-9.07745
▁murmura	-9.07803
▁tomber	-9.0803
▁voyage	-9.08903
▁foule	-9.09003
▁malheur	-9.09286
▁lrsquoun	-9.09424
▁impossible	-9.09463
▁Pendant	-9.09482
▁état	-9.09626
▁colère	-9.09795
▁noir	-9.09825
▁sentiment	-9.09954
▁retour	-9.10015
▁mauvais	-9.10031
▁pouvez	-9.10314
▁vis	-9.10508
▁tenir	-9.10548
▁calme	-9.10571
▁pense	-9.10702
amour	-9.10811
▁put	-9.10907
▁château	-9.10917
▁Sans	-9.10996
▁fais	-9.11187
▁vieillard	-9.11365
▁ait	-9.11415
▁rouge	-9.11564
▁propos	-9.12057
▁malheureux	-9.12208
▁drsquoautres	-9.12455
▁pièce	-9.12489
▁tel	-9.12566
▁réponse	-9.127
abord	-9.12926
▁triste	-9.13195
▁passa	-9.13224
▁seconde	-9.13258
▁simple	-9.13498
▁diable	-9.13507
▁hasard	-9.13698
▁livre	-9.13762
▁disant	-9.13839
▁font	-9.13911
▁vivre	-9.13953
▁blanc	-9.14079
ailleurs	-9.14465
▁jeta	-9.14552
elles	-9.14805
▁perdre	-9.14833
▁cents	-9.15119
▁mrsquoen	-9.15145
▁regardait	-9.15187
▁Pas	-9.15263
▁don	-9.15435
▁moindre	-9.15473
▁courage	-9.15486
▁alla	-9.15516
▁N	-9.15658
▁faite	-9.15668
▁conversation	-9.15705
▁forme	-9.15954
▁grandes	-9.16074
▁chevalier	-9.16104
▁allez	-9.16457
▁qursquo	-9.16472
▁soldats	-9.16686
[	-9.16801
▁donna	-9.16814
▁jardin	-9.16883
▁huit	-9.17137
▁douleur	-9.17202
▁marche	-9.17283
▁rester	-9.17411
▁vin	-9.17448
▁malade	-9.17463
▁Sur	-9.17496
▁nrsquo	-9.17565
▁ensuite	-9.17756
▁entrer	-9.17895
▁maîtresse	-9.18376
▁selon	-9.18745
▁comprendre	-9.1884
▁certain	-9.18975
▁laissé	-9.19008
▁espèce	-9.19026
hui	-9.19082
▁drsquoavoir	-9.19213
▁chapeau	-9.19265
▁moitié	-9.19474
▁caractère	-9.19845
▁parlé	-9.1998
▁hors	-9.20106
▁Aussi	-9.20115
▁laissa	-9.20533
▁Où	-9.20555
d	-9.20587
▁Charles	-9.20603
dire	-9.20784
▁drsquoabord	-9.20788
▁assis	-9.20914
▁Quant	-9.21248
▁dois	-9.21392
▁affaires	-9.21451
▁voit	-9.21513
▁suivre	-9.21606
▁dîner	-9.21826
▁connais	-9.22081
argent	-9.22434
▁désir	-9.22785
▁paraissait	-9.22835
▁Majesté	-9.23152
▁cou	-9.23161
▁filles	-9.23273
▁lrsquoa	-9.23311
▁lrsquohomme	-9.23408
▁but	-9.23839
▁jrsquoétais	-9.23855
▁sortit	-9.23859
▁jrsquoen	-9.23898
▁passe	-9.24045
▁connaître	-9.24126
étaient	-9.24218
esprit	-9.24255
▁reçu	-9.24482
▁sombre	-9.24631
▁quitter	-9.24746
▁donnait	-9.24792
▁cardinal	-9.24972
▁portait	-9.25176
▁souvenir	-9.25194
▁combien	-9.25242
▁fini	-9.25283
▁liberté	-9.25524
▁petites	-9.25802
▁haute	-9.25983
▁jusqursquoau	-9.26087
▁cris	-9.26133
▁viens	-9.26316
▁attention	-9.26412
▁aura	-9.26468
▁fer	-9.26519
▁surprise	-9.26657
▁vivement	-9.26715
▁2	-9.26716
▁debout	-9.26762
▁devoir	-9.26799
▁journée	-9.26917
▁allons	-9.26934
▁geste	-9.27026
▁lrsquoai	-9.27066
▁Maintenant	-9.27077
bas	-9.27141
▁salon	-9.27186
▁Tous	-9.27296
▁entra	-9.27437
▁penser	-9.27572
▁visite	-9.27734
▁papier	-9.27738
▁Ses	-9.27997
▁dos	-9.2825
▁personnes	-9.28297
▁celles	-9.28342
▁Marie	-9.28478
▁Mlle	-9.28585
▁servir	-9.28628
▁situation	-9.28754
▁fleurs	-9.28835
▁poitrine	-9.28892
▁dehors	-9.29007
▁porter	-9.29092
▁étrange	-9.29478
▁années	-9.29524
Artagnan	-9.29551
!	-9.29776
▁Du	-9.30145
▁départ	-9.3036
▁manger	-9.30857
▁lettres	-9.30893
▁pâle	-9.30909
▁guère	-9.31019
▁Louis	-9.31328
▁baron	-9.31733
▁prix	-9.31768
▁pleine	-9.31804
▁davantage	-9.31966
▁compagnie	-9.31994
▁soin	-9.32477
▁paraît	-9.32564
▁quoique	-9.32576
▁mesure	-9.32699
autres	-9.3277
▁libre	-9.32878
▁passait	-9.32904
▁tirer	-9.32994
▁prie	-9.33071
▁parlait	-9.33136
▁vraiment	-9.33198
▁confiance	-9.33478
ât	-9.33713
▁peux	-9.33735
▁oncle	-9.33846
▁épaules	-9.33975
[1	-9.34054
▁riche	-9.34307
▁doucement	-9.34367
▁justice	-9.3468
▁messieurs	-9.3472
▁nez	-9.34728
▁puisse	-9.34818
▁froid	-9.34971
▁armes	-9.35754
▁brave	-9.36109
▁lrsquoheure	-9.36165
▁Quelle	-9.36189
▁beauté	-9.36448
▁resta	-9.36528
▁Catherine	-9.36612
▁sept	-9.36713
▁large	-9.36806
▁genoux	-9.36827
▁passage	-9.37247
▁arriva	-9.37304
▁scène	-9.3741
▁sort	-9.37477
▁Bien	-9.37773
▁tranquille	-9.37802
▁connaissance	-9.37866
▁ferme	-9.37982
▁recevoir	-9.38049
▁trente	-9.38069
▁ordre	-9.38165
ur	-9.38299
▁sentiments	-9.38455
▁faisaient	-9.3855
o	-9.38615
▁histoire	-9.38863
ra	-9.39055
▁veille	-9.39152
▁comtesse	-9.39365
▁cru	-9.39382
▁exemple	-9.39398
▁danger	-9.39432
iez	-9.3989
toi	-9.40008
eux	-9.40272
▁écrit	-9.40689
▁douce	-9.40697
▁société	-9.40776
▁voudrais	-9.409
▁chien	-9.41034
▁village	-9.41066
▁étant	-9.41211
▁serais	-9.41232
▁train	-9.41271
▁P	-9.41307
▁pitié	-9.41365
▁Quel	-9.41506
▁drsquoelle	-9.4153
▁Là	-9.41632
▁regards	-9.42003
▁doux	-9.4221
▁Athos	-9.42293
▁paix	-9.42517
▁restait	-9.426
▁aujourdrsquohui	-9.42607
▁Pierre	-9.42642
▁difficile	-9.42658
▁jambes	-9.4267
▁idées	-9.4273
▁venue	-9.43015
▁parfaitement	-9.43391
▁blanche	-9.43432
c	-9.43483
▁partout	-9.43604
▁mur	-9.44005
▁laisse	-9.44043
▁second	-9.44129
▁robe	-9.44415
▁commença	-9.4443
▁poche	-9.4449
▁troisième	-9.44496
▁in	-9.44613
▁arriver	-9.44676
▁digne	-9.44713
▁coucher	-9.44742
▁Jacques	-9.44756
▁loi	-9.45016
▁cours	-9.45017
▁attendre	-9.45248
▁princesse	-9.45279
▁revint	-9.45411
▁revenir	-9.45522
▁crainte	-9.45524
▁somme	-9.45677
▁monter	-9.45755
▁aujourd	-9.4601
▁basse	-9.46049
▁Car	-9.46273
▁pareil	-9.46286
▁position	-9.46392
▁faute	-9.46433
▁voulut	-9.46593
ne	-9.46682
▁sentait	-9.46805
▁volonté	-9.46937
▁Or	-9.47004
▁campagne	-9.47049
▁Voici	-9.47085
▁verre	-9.47096
▁mauvaise	-9.47137
▁croyez	-9.47149
▁Rien	-9.47273
▁regarde	-9.47371
▁profond	-9.47376
▁conduite	-9.47455
▁serai	-9.47832
▁lentement	-9.47965
▁Peut	-9.48141
▁lire	-9.48198
▁montrer	-9.48201
▁auquel	-9.4825
▁peuvent	-9.4854
▁médecin	-9.48887
▁drsquoArtagnan	-9.48968
S	-9.48995
▁ordres	-9.49148
▁pouvais	-9.49215
▁prêt	-9.49568
▁qursquoen	-9.49927
▁seigneur	-9.50346
▁pût	-9.50369
▁forces	-9.504
ions	-9.5055
▁I	-9.50662
▁pareille	-9.50733
▁véritable	-9.50818
▁cinquante	-9.5095
▁premiers	-9.50959
▁compris	-9.51054
▁saint	-9.51147
▁pensées	-9.5121
▁dents	-9.51282
▁crime	-9.51443
▁genre	-9.51552
▁Maurice	-9.51778
▁Porthos	-9.51865
▁Depuis	-9.52023
▁chaise	-9.52211
▁fou	-9.523
▁reconnaître	-9.52385
▁Henri	-9.52419
▁tante	-9.52436
▁heureuse	-9.52514
▁distance	-9.52554
▁connu	-9.52641
▁pauvres	-9.52694
▁profonde	-9.52963
▁couleur	-9.53047
▁firent	-9.53074
▁lrsquoeau	-9.53113
▁lorsqu	-9.53156
▁avis	-9.53235
▁certaine	-9.53292
▁rencontre	-9.5344
▁pain	-9.53454
▁conseil	-9.53518
▁secours	-9.5354
▁jeter	-9.53909
▁juge	-9.53961
▁comprends	-9.54125
▁jrsquo	-9.5422
œil	-9.54597
▁fus	-9.54682
▁jeunesse	-9.54718
▁parfois	-9.54737
▁marquis	-9.55042
▁arrive	-9.55117
▁arbres	-9.55224
▁sommeil	-9.55656
▁étions	-9.55658
▁maisons	-9.55715
▁court	-9.55832
▁jolie	-9.55872
▁Paul	-9.55913
▁nécessaire	-9.56211
▁conscience	-9.56281
▁facile	-9.56494
▁traits	-9.56695
?	-9.56829
▁Londres	-9.56913
▁appris	-9.57019
▁courant	-9.57104
▁pierre	-9.57201
▁prise	-9.57368
▁jeu	-9.57393
▁beaux	-9.57412
▁langue	-9.57535
▁frères	-9.57678
▁pont	-9.57875
▁tellement	-9.57901
▁Avec	-9.57951
▁aime	-9.58104
après	-9.58126
▁ennemis	-9.58162
▁respect	-9.5845
▁grave	-9.58499
in	-9.58513
▁vive	-9.58608
▁sol	-9.58915
▁fera	-9.59042
▁brusquement	-9.59074
▁Seigneur	-9.59088
▁taille	-9.59115
▁noble	-9.59294
▁colonel	-9.5935
▁dames	-9.59449
▁passion	-9.59469
▁bataille	-9.59638
▁jouer	-9.59742
ée	-9.59818
▁noire	-9.60009
▁doigts	-9.60081
▁Marguerite	-9.6012
▁prenant	-9.60207
▁tuer	-9.60264
▁belles	-9.60266
▁John	-9.60318
▁mdash	-9.60386
▁3	-9.60477
▁su	-9.60691
▁arrière	-9.6076
▁faible	-9.60765
aux	-9.60844
▁avais	-9.609
▁forte	-9.60958
▁pouvaient	-9.61138
▁tort	-9.61158
▁bête	-9.61185
▁demandé	-9.61199
▁connaissait	-9.61294
▁bons	-9.61406
▁âge	-9.61414
▁goût	-9.61674
▁répéta	-9.61793
▁moyens	-9.61843
▁portes	-9.61876
▁récit	-9.61957
▁souriant	-9.61958
▁forêt	-9.622
▁Bon	-9.6237
▁groupe	-9.62457
▁hier	-9.62462
▁riant	-9.6257
▁commandant	-9.62596
▁honte	-9.62693
aurais	-9.6271
▁faits	-9.62856
▁quelquefois	-9.6286
▁certainement	-9.62868
▁Sire	-9.63069
▁tôt	-9.63134
▁tantôt	-9.63151
▁repos	-9.63186
▁rapport	-9.6325
▁amie	-9.63365
mêmes	-9.63377
▁absolument	-9.63391
▁ferai	-9.63442
▁curé	-9.63446
▁Celui	-9.6346
honneur	-9.6354
▁expression	-9.63542
▁noirs	-9.63573
▁quinze	-9.63682
▁suivant	-9.63693
A	-9.63714
et	-9.6387
▁arrivée	-9.63875
te	-9.63904
▁parents	-9.64016
▁poste	-9.64097
.)	-9.64099
).	-9.64109
▁savais	-9.64227
▁croyait	-9.64342
▁drsquoen	-9.64458
▁Aramis	-9.64467
▁cabinet	-9.64512
▁mêmes	-9.64551
▁clair	-9.64656
▁quelqursquoun	-9.64893
▁compagnons	-9.64921
▁passant	-9.64929
▁compagnon	-9.6494
▁rendu	-9.64958
▁oreilles	-9.65119
▁entendit	-9.65303
▁monseigneur	-9.65363
▁suivi	-9.65479
▁désespoir	-9.65496
▁Tom	-9.65569
▁endroit	-9.6563
▁tomba	-9.65642
▁Deux	-9.6574
▁curiosité	-9.65844
▁garder	-9.66027
▁minute	-9.66093
▁ligne	-9.66202
▁devenu	-9.66314
enfant	-9.66563
▁camp	-9.66567
▁vaut	-9.66648
▁côtés	-9.66702
▁devint	-9.66885
▁neuf	-9.66928
▁intérêt	-9.67056
▁oublié	-9.67086
n	-9.67097
▁bonnes	-9.6722
▁police	-9.67251
▁rêve	-9.67541
▁chasse	-9.67653
▁venez	-9.67747
▁soldat	-9.67763
▁vont	-9.67915
▁mémoire	-9.68241
▁fenêtres	-9.68319
▁venaient	-9.68399
▁prison	-9.68427
▁prenait	-9.68482
▁ouverte	-9.68557
▁tira	-9.68649
aime	-9.68749
▁jusque	-9.68777
▁tué	-9.68873
▁Cet	-9.68928
▁laissant	-9.68953
▁soudain	-9.69055
▁palais	-9.6907
▁marcher	-9.69162
▁pièces	-9.69484
▁sauver	-9.69595
▁combat	-9.69849
▁retourna	-9.6988
▁vouloir	-9.70052
▁seront	-9.70308
▁capable	-9.70556
▁spectacle	-9.7064
▁santé	-9.70733
▁meilleur	-9.71019
▁faveur	-9.71097
▁derniers	-9.71387
▁B	-9.71392
▁revoir	-9.71418
▁quarante	-9.71503
▁commençait	-9.71692
▁demeure	-9.71725
▁peau	-9.71741
▁déjeuner	-9.71747
▁murs	-9.71756
▁devenir	-9.71759
▁poussa	-9.71789
▁Holmes	-9.71823
▁ouvrit	-9.71928
mndash	-9.72054
▁sir	-9.72074
eût	-9.72084
▁pensait	-9.7212
▁boire	-9.72142
▁complètement	-9.72263
▁tourna	-9.72337
▁ferait	-9.72348
▁morts	-9.72539
▁rapidement	-9.72678
▁simplement	-9.72875
▁prend	-9.72984
▁ceci	-9.72986
▁lever	-9.72992
▁conduire	-9.73005
▁également	-9.7316
▁vide	-9.73496
▁descendre	-9.73578
▁succès	-9.73589
âme	-9.73787
▁gagner	-9.74096
avaient	-9.74106
▁charge	-9.74143
▁sentit	-9.74151
▁inutile	-9.74238
▁surpris	-9.74355
▁quitté	-9.74498
▁bleu	-9.74567
▁Notre	-9.74695
où	-9.7482
▁honneur	-9.74866
▁voulais	-9.74974
▁direction	-9.75057
▁courir	-9.75192
▁époque	-9.7522
▁Elles	-9.75277
▁lesquels	-9.75391
▁douze	-9.75408
▁fauteuil	-9.755
▁prêtre	-9.75632
▁soyez	-9.75667
▁questions	-9.75707
▁chargé	-9.76026
▁obligé	-9.76102
▁raconter	-9.76146
▁gloire	-9.76293
▁lrsquoesprit	-9.76456
▁Dès	-9.76819
▁levant	-9.76929
▁discours	-9.77014
▁bureau	-9.77194
▁misérable	-9.77225
▁tombe	-9.77285
▁attendait	-9.77418
▁puissance	-9.77455
les	-9.77543
▁Quoi	-9.77555
▁Lorsque	-9.77624
▁circonstances	-9.77642
▁cacher	-9.77713
▁Nicolas	-9.77728
▁demandait	-9.77746
▁attendant	-9.77804
▁envie	-9.78052
▁soirée	-9.78088
sse	-9.78099
re	-9.78304
▁occasion	-9.78393
▁dessus	-9.78393
▁tournant	-9.78407
rait	-9.78542
▁montre	-9.78653
▁rues	-9.78702
mLe	-9.78761
▁fis	-9.78895
▁LE	-9.79215
▁terreur	-9.79313
▁doigt	-9.79314
▁gentilhomme	-9.79347
▁Jamais	-9.79497
▁immédiatement	-9.795
▁chagrin	-9.79552
▁lorsqursquoil	-9.79868
▁léger	-9.79981
▁joues	-9.8
▁duchesse	-9.8006
▁détails	-9.80131
▁drsquoor	-9.80351
▁srsquoarrêta	-9.80409
▁preuve	-9.80507
▁p	-9.80607
▁lrsquoamour	-9.80678
▁Français	-9.80684
▁seuls	-9.80709
▁grosse	-9.80778
▁montagne	-9.80827
▁français	-9.80907
▁créature	-9.80918
▁Sir	-9.80965
▁drsquoeux	-9.81094
▁jeté	-9.81148
▁double	-9.81214
▁rôle	-9.8126
▁payer	-9.81268
▁retourner	-9.81491
▁agréable	-9.81605
1	-9.81621
▁ministre	-9.8166
▁frais	-9.81665
▁avions	-9.81714
▁serez	-9.81773
▁longues	-9.81905
▁manque	-9.81925
▁officiers	-9.81944
▁argent	-9.82054
▁Qursquoest	-9.82143
▁naturellement	-9.82288
▁Quelques	-9.82314
▁Mr	-9.82342
▁qursquoelles	-9.82388
▁tient	-9.82685
▁extraordinaire	-9.82728
ssent	-9.82842
▁pluie	-9.82842
▁tendre	-9.82918
▁fête	-9.83101
▁membres	-9.83219
▁fusil	-9.83354
▁morte	-9.83359
▁laissait	-9.83407
▁musique	-9.83424
▁paraître	-9.83679
▁remettre	-9.83691
▁an	-9.83694
▁Voyons	-9.83877
▁srsquoétaient	-9.83884
▁œil	-9.83928
▁Michel	-9.83978
▁plan	-9.84294
▁immense	-9.84312
▁semblable	-9.84372
▁compter	-9.84454
▁entière	-9.8458
▁autrement	-9.84588
▁semaine	-9.8466
▁politique	-9.84727
▁haine	-9.84739
▁mistress	-9.8499
▁pensa	-9.85075
▁rencontrer	-9.85337
x	-9.85585
▁drsquoailleurs	-9.85598
▁chance	-9.85599
▁public	-9.85635
▁Georges	-9.85808
aller	-9.85918
▁blessé	-9.8597
▁certains	-9.86062
▁marché	-9.86127
▁parlant	-9.86229
▁retrouver	-9.86294
▁satisfaction	-9.86373
▁suivit	-9.86419
▁plaît	-9.86473
▁tiens	-9.86541
▁outre	-9.86556
▁pourrais	-9.86591
▁rapide	-9.86596
▁auparavant	-9.86633
▁resté	-9.86792
▁connaît	-9.87054
▁voie	-9.87073
▁Plus	-9.87243
L	-9.87283
▁mise	-9.87302
▁humeur	-9.87341
▁lune	-9.87462
▁raisons	-9.87579
▁crut	-9.87702
▁quart	-9.87727
▁Lucien	-9.87737
▁blancs	-9.87823
▁4	-9.87842
▁côte	-9.87852
▁Philippe	-9.87911
▁quelqu	-9.87972
▁soi	-9.88151
▁domestique	-9.88412
▁rappelle	-9.8842
▁soient	-9.88534
▁montra	-9.88659
▁propres	-9.88718
aurait	-9.88722
▁troupe	-9.88833
▁droits	-9.88925
▁autrefois	-9.89001
▁hauteur	-9.89131
▁envers	-9.89196
▁lrsquoargent	-9.89357
▁rivière	-9.89412
▁devaient	-9.89447
▁rentrer	-9.89467
▁gris	-9.89582
▁pensé	-9.89625
▁sourit	-9.89632
▁vol	-9.89657
▁naturel	-9.89709
▁drsquoaller	-9.89731
▁ah	-9.89777
▁envoyé	-9.89856
▁entièrement	-9.90161
▁science	-9.90217
▁lutte	-9.90239
▁promis	-9.9035
▁trsquo	-9.90648
▁bonté	-9.90691
▁neige	-9.90697
▁génie	-9.90732
2	-9.90745
▁gentleman	-9.90793
▁troupes	-9.90907
▁cuisine	-9.91027
▁manteau	-9.9118
▁vertu	-9.91215
▁désert	-9.91248
▁disparu	-9.91291
▁rendit	-9.91577
▁retraite	-9.91621
▁arrêté	-9.91701
▁physionomie	-9.91717
▁gouvernement	-9.91932
(	-9.91947
▁prisonnier	-9.91993
▁cesse	-9.92217
▁reprendre	-9.92233
▁faim	-9.92558
▁18	-9.92664
▁saisit	-9.92737
an	-9.92987
▁théâtre	-9.93064
▁épée	-9.93139
▁humaine	-9.93139
▁siècle	-9.93294
▁seuil	-9.93381
▁salut	-9.93457
▁5	-9.93569
▁effort	-9.93623
▁premières	-9.93754
▁événements	-9.93892
▁aperçut	-9.93923
▁reconnu	-9.93943
▁changer	-9.93964
▁chefs	-9.93976
▁conditions	-9.9399
▁allaient	-9.94029
abbé	-9.94036
▁aimé	-9.9413
▁aimait	-9.94188
▁V	-9.94236
▁sois	-9.94244
▁maladie	-9.94248
cinq	-9.94283
▁habitants	-9.94349
▁dirai	-9.94472
▁chaleur	-9.94479
▁valeur	-9.94512
▁trouvaient	-9.94525
▁mépris	-9.94569
▁résolution	-9.94578
▁quartier	-9.94722
▁allé	-9.94823
▁aide	-9.94919
▁DE	-9.94987
▁Seulement	-9.95101
és	-9.95248
▁lrsquohonneur	-9.95251
▁faux	-9.95276
▁probablement	-9.95369
▁nrsquoavez	-9.95406
▁connaissez	-9.95459
▁défendre	-9.95475
▁remit	-9.95493
CHAPITRE	-9.956
▁portant	-9.95603
▁soins	-9.95621
▁nommé	-9.9566
▁hâte	-9.95746
▁lors	-9.95991
▁marquise	-9.96046
▁arrivait	-9.96077
▁seraient	-9.96225
▁sérieux	-9.96266
▁descendit	-9.96376
▁soupir	-9.96378
▁content	-9.96432
▁immobile	-9.96448
arrêta	-9.96484
▁Dites	-9.96486
Il	-9.96504
▁instants	-9.96511
▁reconnaissance	-9.96553
▁misère	-9.96597
▁nouveaux	-9.96615
▁drsquoautre	-9.96678
ici	-9.96694
ordre	-9.96698
idée	-9.96719
▁Jésus	-9.96722
▁cheminée	-9.96847
▁commis	-9.96907
▁efforts	-9.96964
▁partit	-9.97009
▁champ	-9.97012
▁soixante	-9.9707
▁oh	-9.97099
▁course	-9.97335
▁vivant	-9.97352
▁honnête	-9.9737
▁repas	-9.97561
▁sauvage	-9.97566
▁dé	-9.97682
▁particulier	-9.97971
▁Chicot	-9.98112
▁curieux	-9.98117
▁coupable	-9.98143
▁religion	-9.98205
▁lrsquoenfant	-9.98224
▁cercle	-9.98234
▁pensez	-9.98243
▁lois	-9.98251
▁décidé	-9.98287
▁amoureux	-9.98404
▁Joseph	-9.98441
▁mérite	-9.98448
▁croyais	-9.98562
▁rendez	-9.98581
▁mettait	-9.986
▁Mes	-9.98699
▁parlez	-9.98953
▁montrant	-9.99085
▁fasse	-9.99111
▁souffrir	-9.99154
▁valet	-9.99184
▁souffle	-9.992
▁tendresse	-9.99233
▁vif	-9.99333
▁titre	-9.9937
▁appelle	-9.99401
▁race	-9.99428
▁pointe	-9.99522
▁Très	-9.99544
▁servi	-9.99604
▁causer	-9.9965
▁permis	-9.99765
▁entier	-9.99805
ombre	-9.99875
▁Hélas	-9.99962
▁ennemi	-9.99993
▁découvrir	-10.0005
▁Hé	-10.0006
▁eussent	-10.0022
▁répondu	-10.0023
▁charmante	-10.0024
▁étiez	-10.0024
▁faudrait	-10.0025
▁disais	-10.0025
▁sortie	-10.0028
▁condition	-10.0031
▁personnage	-10.0036
▁ouvert	-10.0037
▁conduit	-10.0044
▁comprit	-10.005
▁merci	-10.005
▁laissez	-10.0054
▁année	-10.0054
▁président	-10.0056
▁lrsquoune	-10.0058
▁vêtements	-10.0064
▁pleurer	-10.0069
▁dormir	-10.007
▁gardes	-10.0073
▁frappé	-10.0074
▁certaines	-10.0082
▁sentir	-10.009
C	-10.0091
▁camarades	-10.0095
▁profondément	-10.01
▁lesquelles	-10.0115
▁manières	-10.0116
▁suppose	-10.0123
▁drôle	-10.0125
▁proie	-10.0127
▁T	-10.0148
▁fussent	-10.0164
lui	-10.0168
▁ordinaire	-10.0169
▁existence	-10.017
▁lieutenant	-10.0171
▁magnifique	-10.0193
▁projet	-10.0193
▁poids	-10.0197
▁donnant	-10.0199
▁fidèle	-10.0209
▁lrsquoescalier	-10.0213
▁commence	-10.0225
▁nul	-10.0239
▁battre	-10.0243
▁joue	-10.0251
▁lrsquoordre	-10.0254
▁rendait	-10.0254
▁vas	-10.0255
▁jetant	-10.0255
▁douceur	-10.0256
▁mine	-10.0257
▁plupart	-10.0259
▁doivent	-10.0263
père	-10.0268
▁justement	-10.027
▁environ	-10.0292
▁réellement	-10.0295
▁royaume	-10.0302
met	-10.031
▁écrire	-10.0316
▁marchand	-10.032
▁Parce	-10.0321
▁chiens	-10.0322
▁lignes	-10.0323
▁reconnut	-10.0327
▁juger	-10.0339
▁échapper	-10.0345
▁tranquillement	-10.035
▁pardon	-10.0352
▁opinion	-10.0354
▁semblaient	-10.0358
▁mrsquoavez	-10.0361
na	-10.0363
▁auraient	-10.0365
▁rose	-10.0376
▁costume	-10.0377
▁met	-10.0389
▁David	-10.0389
▁formes	-10.0399
▁vaste	-10.041
▁viennent	-10.0419
▁souper	-10.0433
▁finit	-10.044
▁drsquooù	-10.0454
▁midi	-10.0464
▁présenter	-10.0482
▁monta	-10.0498
▁produit	-10.0504
▁Monseigneur	-10.0504
▁siège	-10.0508
▁César	-10.0524
▁montagnes	-10.0527
▁retirer	-10.053
▁fier	-10.0538
▁répondis	-10.0547
▁joli	-10.0547
▁naturelle	-10.055
▁attendu	-10.0551
▁sûre	-10.0555
▁jure	-10.0559
▁amant	-10.0584
▁G	-10.0586
▁circonstance	-10.0586
▁sein	-10.0595
▁tenant	-10.0598
▁sac	-10.0602
▁veuve	-10.0611
▁riches	-10.0621
tte	-10.0629
▁souvenirs	-10.064
▁malheureuse	-10.0646
▁ancien	-10.0649
▁jadis	-10.065
ou	-10.065
▁feuilles	-10.0653
avec	-10.0654
▁libres	-10.0659
▁revenu	-10.0667
▁craindre	-10.067
▁officier	-10.068
▁clef	-10.0684
▁voile	-10.0684
▁portée	-10.0695
▁cherchait	-10.0696
▁pouvons	-10.0703
▁émotion	-10.0703
▁folle	-10.0703
▁résultat	-10.0714
▁courut	-10.0716
▁changé	-10.0717
▁fleur	-10.0718
▁chair	-10.0723
▁rouges	-10.0724
E	-10.0727
▁rage	-10.0729
▁Me	-10.0729
▁habit	-10.0738
▁poète	-10.0742
▁café	-10.0742
▁couvert	-10.0745
▁rejoindre	-10.0748
▁ouvrir	-10.0753
tes	-10.0758
▁violence	-10.0767
dessous	-10.0767
▁or	-10.0769
▁toilette	-10.0772
▁tourner	-10.0779
▁maman	-10.0797
▁sire	-10.0797
oreille	-10.0799
▁fatigue	-10.0818
▁mrsquoavait	-10.0818
▁tristesse	-10.0819
▁Allez	-10.0822
▁corde	-10.0824
▁lord	-10.0827
▁nrsquoavaient	-10.0827
▁10	-10.0828
▁moments	-10.0829
▁fumée	-10.0838
▁Salvator	-10.0857
▁crier	-10.0861
▁billet	-10.0871
▁devez	-10.0871
▁terrain	-10.0875
▁Roi	-10.0883
▁sinon	-10.0888
▁durant	-10.0895
▁drsquoœil	-10.0898
▁phrase	-10.0904
▁Merci	-10.0914
▁aviez	-10.0929
▁porté	-10.0935
▁morceau	-10.0942
▁lueur	-10.0942
▁dernières	-10.0943
▁quant	-10.0964
▁sorti	-10.0979
▁noms	-10.098
avons	-10.0982
▁nrsquoavais	-10.0989
▁8	-10.0998
▁rencontré	-10.1001
▁Avant	-10.1003
▁lu	-10.1003
▁aurez	-10.1004
▁Voyez	-10.1007
▁15	-10.1019
▁joyeux	-10.1022
▁Lui	-10.1025
▁navire	-10.1026
armée	-10.1029
▁masse	-10.1043
▁Quichotte	-10.1044
▁Mademoiselle	-10.1048
▁duquel	-10.1048
▁barbe	-10.105
▁prière	-10.1055
▁lrsquoidée	-10.1055
▁vengeance	-10.1066
▁Belle	-10.1069
▁commerce	-10.1069
▁champs	-10.1078
▁frapper	-10.1083
▁disposition	-10.109
▁Fanny	-10.1116
▁assise	-10.1117
▁semaines	-10.112
▁vague	-10.113
▁continuer	-10.1135
▁portrait	-10.1151
▁Raoul	-10.1159
▁citoyen	-10.1161
▁camarade	-10.1169
▁désire	-10.1171
▁repris	-10.1177
▁lampe	-10.1177
▁cherche	-10.1188
▁légère	-10.1195
▁générale	-10.1207
▁poussière	-10.1214
▁découvert	-10.1215
▁changement	-10.1217
▁Mrs	-10.1218
▁Va	-10.1223
▁légèrement	-10.1225
▁maréchal	-10.1232
urs	-10.1236
▁gorge	-10.1241
▁armée	-10.1244
▁Maurin	-10.1257
▁Roland	-10.1279
▁pierres	-10.1285
▁frappa	-10.1285
▁drsquoeau	-10.1285
▁croix	-10.1292
▁étonnement	-10.1296
▁journal	-10.1313
▁longs	-10.1314
▁qualité	-10.1319
▁pur	-10.132
▁commencé	-10.1321
▁apprendre	-10.1322
▁bêtes	-10.1333
▁mouvements	-10.1337
▁Robin	-10.134
▁vieil	-10.1344
▁Tiens	-10.1353
▁pourra	-10.1353
▁drsquoargent	-10.1356
▁vain	-10.1363
▁folie	-10.1368
▁commun	-10.1377
▁lrsquoœil	-10.1389
▁couteau	-10.1401
▁voisin	-10.1413
▁plume	-10.1423
▁lrsquoombre	-10.1433
▁étonné	-10.1437
▁tiré	-10.1439
▁étranger	-10.1443
▁tels	-10.1449
▁prenez	-10.1457
▁présente	-10.1462
▁quels	-10.1462
▁sembla	-10.1462
▁lady	-10.1466
▁interrompit	-10.147
▁nrsquoont	-10.1503
▁facilement	-10.152
▁vert	-10.1531
▁etc	-10.1545
né	-10.1555
▁rappeler	-10.1556
▁qursquoest	-10.1558
▁langage	-10.156
▁Sancho	-10.1561
▁remarqué	-10.1571
▁Mazarin	-10.1583
u	-10.1584
▁toucher	-10.1586
mLa	-10.1588
▁croit	-10.1606
histoire	-10.161
▁sage	-10.1613
▁marchait	-10.1629
▁anglais	-10.1646
▁placé	-10.1649
▁métier	-10.1649
▁rang	-10.1651
▁sainte	-10.1654
▁lieues	-10.1654
▁Trois	-10.1668
▁naissance	-10.1677
▁anciens	-10.1677
▁prête	-10.1688
g	-10.1691
▁poursuivit	-10.1693
▁entré	-10.1694
▁province	-10.1698
▁nécessité	-10.1703
ront	-10.1705
▁objets	-10.1733
▁intérêts	-10.1744
▁Personne	-10.1745
▁cousin	-10.1748
▁reçut	-10.1752
▁Anglais	-10.1753
▁caché	-10.1754
▁soie	-10.1758
▁militaire	-10.1759
▁remarquer	-10.1764
▁glace	-10.1777
▁Leur	-10.1792
▁parfaite	-10.1794
▁Rome	-10.1808
▁domestiques	-10.181
▁eh	-10.1811
▁prétexte	-10.1818
▁bourgeois	-10.182
huit	-10.182
▁aimable	-10.182
▁perte	-10.1822
▁voisine	-10.1827
▁demeura	-10.1837
▁faiblesse	-10.1846
▁supporter	-10.1855
▁fuir	-10.1862
▁appelé	-10.187
▁flamme	-10.1872
▁réalité	-10.1878
▁gouverneur	-10.1878
▁prends	-10.1882
▁tenu	-10.1889
▁victime	-10.1891
▁Roger	-10.1891
▁François	-10.1892
▁rend	-10.1897
▁fièvre	-10.1901
▁solitude	-10.1905
▁oublier	-10.1907
▁horrible	-10.1923
▁Grand	-10.1927
âmes	-10.1935
▁commencement	-10.1941
▁faudra	-10.1944
▁jrsquoaurais	-10.195
état	-10.1952
▁deviner	-10.1953
escalier	-10.1959
▁lrsquooreille	-10.1959
▁éclat	-10.1967
use	-10.1989
hôtel	-10.1991
art	-10.1997
▁Petit	-10.1998
▁nombreux	-10.2003
▁sergent	-10.2003
▁neveu	-10.2007
▁12	-10.2012
midi	-10.2012
▁termes	-10.2016
▁conséquence	-10.2021
▁plaine	-10.2022
▁volontiers	-10.2027
▁fureur	-10.2032
▁crains	-10.2035
▁saurait	-10.2041
▁tombé	-10.2041
▁lrsquoendroit	-10.2044
▁occupé	-10.2047
▁mirent	-10.2052
▁pensais	-10.2054
▁témoin	-10.2054
▁posa	-10.206
▁trouble	-10.2071
al	-10.2074
▁objet	-10.2078
▁papiers	-10.2081
▁retira	-10.2086
▁fil	-10.209
▁9	-10.2118
▁remis	-10.2121
agit	-10.2124
▁Toute	-10.2126
▁suivait	-10.2129
▁élevé	-10.2133
▁jaune	-10.2135
▁eaux	-10.2142
▁aperçu	-10.2143
▁manquait	-10.2144
I	-10.215
▁couché	-10.216
▁suffit	-10.217
▁aise	-10.217
▁serviteur	-10.2173
▁finir	-10.2175
▁voyons	-10.2178
▁cavalier	-10.2182
▁promenade	-10.2183
▁songer	-10.2185
▁maîtres	-10.2187
▁froide	-10.2189
▁permission	-10.2195
▁prisonniers	-10.2203
▁chasseur	-10.2207
▁devenue	-10.2213
▁tendit	-10.2219
mi	-10.2221
▁toutefois	-10.2224
w	-10.2227
▁forcé	-10.2229
▁vécu	-10.223
▁tapis	-10.2232
▁Aussitôt	-10.2234
▁énorme	-10.2239
▁désormais	-10.2242
▁mienne	-10.2244
▁vallée	-10.2249
▁meilleure	-10.225
▁déclara	-10.2256
ine	-10.2257
▁animaux	-10.2264
▁bouteille	-10.227
▁sienne	-10.2272
▁fleuve	-10.2274
▁précisément	-10.2276
▁mystère	-10.2278
▁baiser	-10.2282
habitude	-10.2287
▁patience	-10.229
▁qursquoau	-10.2299
▁branches	-10.2304
▁aimer	-10.2306
▁11	-10.2306
▁défense	-10.2307
▁entrée	-10.2317
ie	-10.2326
▁13	-10.2335
▁dirait	-10.2343
▁moine	-10.2344
▁manquer	-10.2347
▁travailler	-10.2354
▁dimanche	-10.2355
▁jugement	-10.2356
▁drsquoy	-10.2357
▁trou	-10.2362
▁Tenez	-10.2377
rons	-10.238
▁chaud	-10.2381
espère	-10.2382
▁dur	-10.2392
ation	-10.2395
▁commune	-10.241
▁bateau	-10.2411
▁ventre	-10.242
▁vraie	-10.2423
▁montrait	-10.2436
▁mettant	-10.2437
▁Ici	-10.2461
vis	-10.2462
▁congé	-10.2464
▁adieu	-10.2467
▁habits	-10.2469
affaire	-10.2474
▁douter	-10.2481
▁appeler	-10.2482
▁patron	-10.2487
▁rentra	-10.2491
▁triomphe	-10.2493
▁onze	-10.2501
▁Ou	-10.2511
▁semblables	-10.2513
▁Gilbert	-10.2514
▁mode	-10.2516
▁étais	-10.2516
ve	-10.2517
▁voyais	-10.2523
▁égal	-10.2524
ge	-10.2525
▁Toutes	-10.2526
▁dignité	-10.2528
▁commencer	-10.2536
▁couleurs	-10.2539
us	-10.254
▁Florence	-10.2543
▁eurent	-10.2544
▁têtes	-10.2551
ir	-10.2553
▁âmes	-10.2566
▁exactement	-10.2568
▁destinée	-10.2575
▁parla	-10.2576
▁vieilles	-10.2588
▁résolu	-10.2591
▁devenait	-10.2592
que	-10.2599
▁venus	-10.2612
▁ménage	-10.2614
▁Adieu	-10.2615
▁sortes	-10.2619
▁sûreté	-10.2622
▁bal	-10.2626
▁Jrsquoen	-10.263
mLes	-10.2631
▁voyageurs	-10.2631
▁ressemblait	-10.2636
▁blanches	-10.2639
Isra	-10.2641
▁14	-10.2656
▁aventure	-10.2662
▁Camille	-10.2676
▁port	-10.2678
▁disparut	-10.2683
▁entendait	-10.2686
▁demandai	-10.2706
▁apparence	-10.271
3	-10.2713
▁évidemment	-10.2717
ch	-10.2718
église	-10.272
uns	-10.2728
Et	-10.2729
▁servante	-10.2734
▁nrsquoaurait	-10.2735
▁travaux	-10.2741
▁villes	-10.2744
▁logis	-10.2748
▁prier	-10.2753
▁lrsquoavoir	-10.2754
▁thé	-10.2764
▁promesse	-10.2766
▁Anne	-10.2769
▁inquiétude	-10.2775
▁soutenir	-10.2776
▁retenir	-10.2786
▁dévouement	-10.2787
▁Srsquoil	-10.2788
▁secrétaire	-10.2789
▁canon	-10.2789
▁ombre	-10.2794
▁Louise	-10.2807
▁répond	-10.2816
▁unique	-10.2837
▁continuait	-10.2839
▁tableau	-10.2848
▁ailleurs	-10.2858
▁releva	-10.2862
▁quitta	-10.287
▁II	-10.2873
▁fuite	-10.2875
▁lrsquoinstant	-10.2883
▁ténèbres	-10.2899
▁Jrsquoavais	-10.29
rie	-10.2906
▁comprenez	-10.2908
▁intention	-10.2916
▁sourcils	-10.2934
▁certes	-10.2939
▁suprême	-10.2945
▁boutique	-10.2955
▁oiseaux	-10.2959
▁cavaliers	-10.2968
▁esprits	-10.2971
▁pousser	-10.2977
▁sable	-10.298
5	-10.2982
▁espèces	-10.2983
▁répondait	-10.2994
▁Gaston	-10.2995
▁pure	-10.2999
▁galop	-10.3004
▁réputation	-10.3005
▁sauf	-10.3008
▁expliquer	-10.3008
▁Pickwick	-10.301
▁pénible	-10.3021
▁égard	-10.3026
▁marier	-10.3031
«	-10.3032
▁êtres	-10.3039
▁Père	-10.3047
▁utile	-10.3057
▁dépit	-10.3058
▁Jrsquo	-10.3062
▁Encore	-10.3062
▁donnée	-10.3072
ter	-10.3084
▁charmant	-10.3088
▁tromper	-10.3088
▁srsquoils	-10.3094
▁régiment	-10.3109
▁séjour	-10.3112
▁srsquoapprocha	-10.3125
▁disent	-10.3125
▁coutume	-10.3127
importe	-10.3128
▁lrsquohistoire	-10.3132
▁bonhomme	-10.3136
▁demoiselle	-10.3137
▁partis	-10.3141
▁classe	-10.3156
▁uns	-10.3157
▁présenta	-10.3158
▁vôtre	-10.3158
▁morale	-10.3161
▁nrsquoétaient	-10.3174
▁amitié	-10.3182
▁livrer	-10.319
▁Pauvre	-10.3195
▁ceinture	-10.3196
▁toit	-10.3199
▁re	-10.3202
▁lieux	-10.3203
▁Se	-10.3229
▁songe	-10.3231
P	-10.3233
▁patrie	-10.3236
▁journaux	-10.3245
▁lrsquoaffaire	-10.3247
▁conséquent	-10.325
▁procès	-10.325
▁verrez	-10.3251
▁parties	-10.3251
▁notaire	-10.3255
▁nuages	-10.3255
▁servait	-10.3256
▁voisins	-10.3265
▁accent	-10.33
▁réflexion	-10.3301
▁regret	-10.3302
▁mouchoir	-10.3306
▁nrsquoeût	-10.331
▁O	-10.3312
▁banc	-10.3313
▁espoir	-10.3317
▁fameux	-10.3346
▁rude	-10.3356
▁vendre	-10.3366
▁motif	-10.3366
▁veulent	-10.3367
▁paru	-10.3368
intelligence	-10.337
▁environs	-10.3373
▁toile	-10.3385
▁mi	-10.3398
▁début	-10.3398
▁sortait	-10.3398
▁bel	-10.34
▁trouvai	-10.34
champ	-10.3401
rez	-10.3405
com	-10.3409
▁revenait	-10.341
▁tâche	-10.3413
▁observer	-10.3416
▁devient	-10.3418
▁quelconque	-10.3425
▁gré	-10.3429
▁différentes	-10.3449
▁secrets	-10.3455
▁Martin	-10.346
▁inconnu	-10.3461
▁tente	-10.3466
▁chemise	-10.347
▁victoire	-10.3473
▁mission	-10.3478
▁mrsquoest	-10.348
▁Écoutez	-10.3487
▁roses	-10.3487
▁lecture	-10.349
▁dessein	-10.35
▁écouter	-10.3507
▁arrivant	-10.3512
▁cadavre	-10.3516
▁propriétaire	-10.3528
▁trait	-10.3529
▁noblesse	-10.353
▁ridicule	-10.353
▁Prince	-10.3533
▁Avez	-10.3534
▁matière	-10.354
▁arrêter	-10.3543
▁r	-10.3558
▁LA	-10.3568
▁centre	-10.3569
▁perdue	-10.3571
▁Tant	-10.3571
▁défaut	-10.3571
▁réflexions	-10.3574
▁furieux	-10.3577
▁impression	-10.3582
▁Mary	-10.3582
▁millions	-10.3582
▁Dombey	-10.3583
▁poussé	-10.3591
▁drsquoaprès	-10.3597
▁loge	-10.3598
▁barque	-10.3599
▁souviens	-10.3599
▁choix	-10.3599
▁ailes	-10.3602
▁réfléchir	-10.3605
autant	-10.3605
▁srsquoagit	-10.3607
instant	-10.3608
▁passions	-10.3611
▁obtenir	-10.3611
▁R	-10.3615
▁sec	-10.3621
▁prévenir	-10.3627
▁prières	-10.3627
▁secoua	-10.3632
▁auxquels	-10.3637
f	-10.3639
▁empêcher	-10.3642
▁courte	-10.3645
▁étage	-10.3661
▁sœurs	-10.3663
devant	-10.367
▁néanmoins	-10.367
▁précieux	-10.367
▁pleins	-10.3675
▁mien	-10.3676
▁cocher	-10.3677
▁bande	-10.3683
té	-10.3689
▁chanter	-10.3696
▁acte	-10.3698
▁Drsquoailleurs	-10.371
▁trace	-10.3719
▁criant	-10.3732
B	-10.3734
▁serons	-10.3735
▁porta	-10.3736
▁sauvages	-10.3736
▁mœurs	-10.3737
▁Voulez	-10.3737
▁Sainte	-10.3743
▁pis	-10.3754
▁prononcer	-10.3757
▁...	-10.3759
▁F	-10.3766
▁appartement	-10.3768
▁major	-10.377
se	-10.3772
▁Jeanne	-10.3772
▁arbre	-10.3774
▁maire	-10.3774
▁rayons	-10.3778
▁çà	-10.3781
▁poser	-10.3791
▁lrsquoarmée	-10.3795
▁paysans	-10.381
▁dedans	-10.3817
▁montait	-10.3819
▁drsquoici	-10.3821
▁placer	-10.3825
▁rare	-10.383
▁É	-10.3838
▁ange	-10.3843
▁ferez	-10.3843
ées	-10.3848
▁sommet	-10.3851
entre	-10.3853
▁convaincu	-10.3866
▁Jrsquoétais	-10.3866
mde	-10.3872
▁œuvre	-10.3873
▁offrir	-10.3875
▁allée	-10.3876
▁services	-10.388
▁Ceux	-10.3881
▁boîte	-10.3889
▁réussi	-10.3891
▁tint	-10.3891
▁points	-10.3899
▁fallu	-10.3904
▁E	-10.3912
▁probable	-10.3914
▁Jane	-10.3918
▁atteint	-10.3924
▁Faites	-10.394
▁Ni	-10.3945
▁quelles	-10.3946
▁poing	-10.3951
▁né	-10.3953
▁marches	-10.3956
▁grosses	-10.3957
▁sachant	-10.396
▁arrivés	-10.3963
▁étrangers	-10.3964
▁recherche	-10.3965
▁projets	-10.3968
▁plaisirs	-10.3972
▁permettre	-10.3976
▁bâton	-10.3996
▁muraille	-10.3997
▁promptement	-10.4001
▁manqué	-10.4001
▁teint	-10.4007
▁choisi	-10.4011
mIl	-10.4019
▁trompe	-10.4021
▁Bussy	-10.404
▁ouvrage	-10.4042
▁tenez	-10.4042
▁jette	-10.4045
ier	-10.4052
▁vêtu	-10.406
▁célèbre	-10.4071
▁demie	-10.408
▁sévère	-10.4087
▁impatience	-10.4091
▁reproche	-10.4092
avenir	-10.4095
▁cessé	-10.4102
▁nation	-10.4103
▁existe	-10.4113
▁relations	-10.4115
▁vagues	-10.4115
▁papa	-10.4117
▁trompé	-10.4119
▁pipe	-10.412
▁savent	-10.413
▁minuit	-10.4138
particulièrement	-10.4142
▁criait	-10.4147
▁guide	-10.4147
▁viendra	-10.4148
▁paquet	-10.4153
▁adresse	-10.4154
▁quitte	-10.4162
▁voyageur	-10.4168
▁menton	-10.4176
▁importance	-10.4179
▁lrsquoâme	-10.4179
ement	-10.4182
▁action	-10.4183
▁besogne	-10.4188
▁retournant	-10.4191
▁Laissez	-10.4192
▁découverte	-10.4199
entendre	-10.421
▁répète	-10.4213
▁ressemble	-10.4225
▁lrsquoétat	-10.4227
▁venant	-10.423
4	-10.4234
▁héros	-10.4236
▁professeur	-10.424
▁passée	-10.424
▁gagné	-10.4241
▁pénétrer	-10.4242
▁époux	-10.4246
▁rocher	-10.4247
▁sortant	-10.4247
▁traces	-10.4248
▁20	-10.4252
▁silencieux	-10.4254
▁Venez	-10.4255
▁mystérieux	-10.4266
▁remplir	-10.4267
▁Hélène	-10.427
▁plaindre	-10.4277
▁colline	-10.428
▁couronne	-10.4285
▁habitudes	-10.4289
▁larges	-10.4291
▁particulière	-10.43
▁humain	-10.4311
tre	-10.4315
▁braves	-10.4315
▁source	-10.4322
▁affreux	-10.4331
▁dangereux	-10.4332
▁charme	-10.4334
▁fallut	-10.4336
▁possession	-10.434
▁Ha	-10.4349
▁gardé	-10.435
▁Vers	-10.4353
ux	-10.4354
▁Reine	-10.4356
▁préparer	-10.4357
▁disaient	-10.4359
▁corridor	-10.4363
▁prouver	-10.4369
▁Malgré	-10.4384
▁absence	-10.4385
▁touché	-10.4386
▁Indiens	-10.4395
▁serra	-10.4405
▁singulier	-10.4405
▁salua	-10.4408
▁désirs	-10.4409
▁détail	-10.4413
▁dure	-10.4423
▁tenaient	-10.4426
▁paille	-10.4427
▁excellent	-10.4438
▁lrsquooccasion	-10.4448
▁levé	-10.4458
▁nulle	-10.4459
▁fruits	-10.4464
▁vaisseau	-10.4466
▁système	-10.4477
el	-10.4484
▁Pourtant	-10.4485
mère	-10.4489
▁figures	-10.4489
▁ô	-10.4491
▁rares	-10.4501
▁cœurs	-10.4507
▁attend	-10.4509
▁bâtiment	-10.4513
▁traité	-10.4516
empêcher	-10.4518
▁carte	-10.4523
▁murmure	-10.4525
êtes	-10.4528
▁complète	-10.4535
▁balle	-10.4537
▁nord	-10.4539
▁éviter	-10.4542
▁rois	-10.4548
▁sentier	-10.4551
▁fermer	-10.4558
▁renseignements	-10.4582
▁drsquoautant	-10.4585
endroit	-10.4586
▁aurais	-10.459
ma	-10.4596
▁surface	-10.4597
▁peuples	-10.4601
▁animal	-10.4601
▁couvent	-10.4604
▁sauvé	-10.4607
▁Chacun	-10.4608
▁sérieusement	-10.4613
▁lrsquohôtel	-10.4627
▁arrivèrent	-10.4628
▁allant	-10.4632
▁saisir	-10.4633
▁difficulté	-10.4639
▁revient	-10.4641
▁chacune	-10.4643
▁réserve	-10.4649
▁appelait	-10.4655
▁événement	-10.4665
▁vivait	-10.4665
▁personnages	-10.4668
▁lut	-10.4675
▁Fouquet	-10.4677
▁lrsquoîle	-10.4679
▁chat	-10.4682
▁différence	-10.4683
▁grille	-10.4686
▁nu	-10.4688
▁velours	-10.4689
▁résistance	-10.4689
▁retard	-10.4691
▁essaya	-10.4691
▁lrsquoépaule	-10.4724
Le	-10.4726
ta	-10.4733
▁Don	-10.474
▁principe	-10.4741
rais	-10.4743
▁change	-10.4751
▁Grâce	-10.4754
▁Renaud	-10.4756
▁Marcellus	-10.4756
▁nouvel	-10.4759
▁19	-10.4766
▁lrsquoéglise	-10.4776
▁maigre	-10.478
épée	-10.478
▁Suzanne	-10.4783
▁conserver	-10.4785
▁proposition	-10.4787
▁Bretagne	-10.4787
▁désordre	-10.4788
▁refuser	-10.4799
h	-10.48
▁risque	-10.4803
▁décider	-10.4806
ard	-10.4807
▁habitude	-10.4808
▁sert	-10.4811
▁donnez	-10.4817
▁voudrez	-10.4818
▁comprenait	-10.4818
▁hautes	-10.482
▁blessure	-10.4824
▁souliers	-10.4827
aurai	-10.4828
▁Bientôt	-10.4836
▁os	-10.484
▁jalousie	-10.485
ner	-10.4851
▁sien	-10.4852
▁lrsquointérieur	-10.4854
▁dessous	-10.4862
▁telles	-10.4864
▁apprit	-10.4867
▁plat	-10.4868
haque	-10.4868
▁devons	-10.4874
▁chaîne	-10.4874
▁Combien	-10.4874
▁nuage	-10.4874
▁qualités	-10.4878
▁oreille	-10.4884
▁tas	-10.4884
▁terres	-10.4892
État	-10.4899
▁Blanche	-10.4912
▁française	-10.4917
▁signal	-10.4918
▁chute	-10.4921
▁lève	-10.4921
▁Milady	-10.4923
▁parc	-10.4938
▁satisfait	-10.4941
Angleterre	-10.4944
▁terribles	-10.4949
▁affection	-10.4952
▁sueur	-10.4952
▁pourvu	-10.4964
▁trône	-10.4964
▁divers	-10.4969
▁Ta	-10.4969
▁choisir	-10.4969
▁royale	-10.4971
▁précaution	-10.4974
▁entendant	-10.498
▁nobles	-10.4984
▁rêves	-10.4992
▁sujets	-10.5005
▁Re	-10.5008
entrée	-10.5011
▁Valentin	-10.5012
▁pavillon	-10.5019
▁tirant	-10.5024
▁montré	-10.5034
▁conseils	-10.5037
▁Bah	-10.5037
▁devais	-10.5039
ayant	-10.5041
▁chevaliers	-10.5047
▁poudre	-10.5047
eut	-10.5053
▁queue	-10.5054
▁traverser	-10.5066
▁gaieté	-10.5068
▁actes	-10.5068
▁pratique	-10.507
lé	-10.5072
▁restée	-10.5074
▁devoirs	-10.5075
▁familles	-10.5082
▁dirent	-10.5085
9	-10.5087
▁Robert	-10.509
▁monte	-10.5092
▁épaule	-10.5094
▁incapable	-10.5095
▁Miss	-10.5096
▁tire	-10.5102
▁puissant	-10.5108
▁remercie	-10.5118
▁possède	-10.5119
▁sacrifice	-10.5121
▁considérable	-10.5134
▁diverses	-10.5135
▁extrême	-10.5137
▁nuits	-10.5137
▁tombait	-10.5139
▁condamné	-10.5139
▁feuille	-10.5141
▁chant	-10.5149
▁hôtel	-10.515
▁publique	-10.515
▁chemins	-10.5151
▁menace	-10.5153
▁souffert	-10.5157
▁Sous	-10.5159
▁Angleterre	-10.5162
▁lrsquoavez	-10.5171
▁sauter	-10.5171
▁témoins	-10.5181
▁mets	-10.5186
▁meubles	-10.5186
occasion	-10.5191
▁Tandis	-10.5196
▁édition	-10.52
▁certitude	-10.5201
▁prirent	-10.5201
haut	-10.5205
▁frappant	-10.5208
▁grandeur	-10.521
▁serment	-10.5211
me	-10.522
▁dieux	-10.5223
▁pension	-10.5223
▁quantité	-10.523
▁séparer	-10.5233
▁conduisit	-10.5234
▁deviné	-10.5241
▁États	-10.5247
▁Maître	-10.5249
▁sombres	-10.5252
▁Planchet	-10.5252
▁tourné	-10.5252
▁distinguer	-10.5255
▁ronde	-10.5255
▁Geneviève	-10.5256
▁fine	-10.5259
▁Dis	-10.526
▁attitude	-10.526
eus	-10.5265
▁bourse	-10.527
▁tempête	-10.5275
▁effets	-10.5281
▁couper	-10.5289
▁trouvèrent	-10.5305
▁auriez	-10.5305
▁pus	-10.5312
▁Ulenspiegel	-10.5317
▁fausse	-10.5322
▁intelligence	-10.533
▁talent	-10.5334
▁agir	-10.5338
▁cherchant	-10.5343
▁ferais	-10.5345
▁mètres	-10.5352
▁Bonaparte	-10.5356
rai	-10.5358
▁fortement	-10.536
▁nécessaires	-10.5366
▁supérieur	-10.5367
âge	-10.5367
▁inquiet	-10.5368
▁lança	-10.5371
▁fâché	-10.5375
▁vinrent	-10.5377
▁bonnet	-10.5378
▁mince	-10.538
▁dirigea	-10.5385
8	-10.54
▁remords	-10.5415
▁Peu	-10.5417
▁résister	-10.5422
▁bizarre	-10.5423
▁rangs	-10.543
▁degré	-10.5432
▁supérieure	-10.5432
▁expérience	-10.5433
▁malheurs	-10.5434
▁proche	-10.5439
▁Naples	-10.5442
▁merveille	-10.5446
▁rideaux	-10.5455
▁fermée	-10.546
▁amené	-10.5469
▁clairement	-10.5471
▁hôte	-10.5473
▁rayon	-10.5486
▁courait	-10.5486
▁ayez	-10.5487
▁Messieurs	-10.5488
▁disparaître	-10.5489
▁pareilles	-10.5501
▁sent	-10.5501
▁actions	-10.5511
▁sympathie	-10.5512
▁poussant	-10.5514
▁revenant	-10.5532
▁important	-10.5539
▁regardé	-10.5542
temps	-10.5543
▁trouvant	-10.5562
▁rive	-10.5563
▁trésor	-10.5563
▁voudrait	-10.5563
intérêt	-10.5565
▁cousine	-10.5575
▁différents	-10.5576
▁principes	-10.5577
▁senti	-10.558
▁entrant	-10.5588
▁nullement	-10.559
▁conviction	-10.5592
▁gravement	-10.5594
▁lac	-10.5595
▁souffrance	-10.5598
▁meilleurs	-10.5603
▁sauta	-10.5604
▁épouse	-10.5605
▁répéter	-10.5609
▁imagination	-10.5611
quatre	-10.5617
▁commandement	-10.5627
▁cérémonie	-10.5629
▁ancienne	-10.5633
▁Henry	-10.5637
▁politesse	-10.5639
▁gestes	-10.5648
▁méchant	-10.5659
▁Pecksniff	-10.5661
▁ému	-10.5662
os	-10.5665
▁ouvriers	-10.5666
▁possédait	-10.5668
▁pensant	-10.5669
▁marin	-10.567
▁froidement	-10.5672
▁traiter	-10.5674
▁essayer	-10.5675
▁foyer	-10.568
▁solide	-10.5691
▁connue	-10.5699
▁coupe	-10.5703
v	-10.5704
▁abandonné	-10.5707
▁page	-10.5717
▁monté	-10.5719
▁you	-10.5724
▁sache	-10.5727
▁siècles	-10.5732
▁nièce	-10.5735
mJe	-10.5755
▁visages	-10.576
▁désirait	-10.5763
▁rochers	-10.5765
▁continue	-10.5771
▁intentions	-10.5775
▁réponds	-10.5789
▁auxquelles	-10.5789
▁drsquoesprit	-10.5791
▁venger	-10.5793
▁directeur	-10.5796
▁bu	-10.58
▁nourriture	-10.5803
▁comptait	-10.5803
▁lance	-10.5804
▁jambe	-10.5813
▁signes	-10.5825
▁difficultés	-10.5831
▁profit	-10.5832
ré	-10.5838
▁envoyer	-10.5842
▁linge	-10.5843
▁luxe	-10.5844
▁excepté	-10.585
▁princes	-10.5851
p	-10.5854
froid	-10.5855
▁accepter	-10.5861
▁soif	-10.5868
um	-10.5868
▁singulière	-10.5868
▁Guillaume	-10.5874
▁demeurait	-10.5876
▁marbre	-10.5884
▁prudence	-10.5885
▁attaché	-10.5886
Rose	-10.589
▁rarement	-10.5895
▁matinée	-10.5906
▁cartes	-10.5907
▁printemps	-10.5912
▁soupçons	-10.5912
▁saisi	-10.5913
▁claire	-10.5913
▁attendit	-10.5919
▁lourd	-10.5919
▁drsquoamour	-10.5923
▁voulaient	-10.5926
▁rivage	-10.5926
▁sentais	-10.5928
▁paysan	-10.5931
▁terme	-10.5933
▁mariée	-10.5938
▁chambres	-10.5939
▁extrêmement	-10.5942
▁lâche	-10.5944
▁esclaves	-10.5946
▁généreux	-10.5947
▁étendu	-10.5948
▁envoya	-10.5948
▁taire	-10.5955
▁prochain	-10.5961
▁garçons	-10.597
œuvre	-10.5972
▁couche	-10.5975
▁complet	-10.5975
▁bride	-10.5976
▁bords	-10.5978
▁Aux	-10.5983
▁entrait	-10.5991
▁morceaux	-10.5996
▁suivante	-10.6006
▁horreur	-10.6012
▁accident	-10.6013
▁violent	-10.6024
▁appel	-10.6031
▁écus	-10.6047
▁bottes	-10.6048
▁cerveau	-10.605
▁espérances	-10.6055
▁ferma	-10.6058
▁demeurer	-10.6065
▁fixés	-10.6071
▁rapports	-10.6071
▁Jérusalem	-10.6072
effet	-10.6075
▁aveugle	-10.6087
▁protection	-10.6087
ing	-10.6089
▁chasseurs	-10.6091
▁Quoique	-10.6096
▁serviteurs	-10.6098
▁Jack	-10.61
▁accompagné	-10.6102
▁pareils	-10.6106
▁rapidité	-10.6107
▁influence	-10.6113
▁apparut	-10.6114
▁douleurs	-10.6115
▁goutte	-10.6121
▁raconté	-10.6122
▁boue	-10.6123
R	-10.6124
▁Richelieu	-10.6135
▁secouant	-10.6135
▁sagesse	-10.6143
▁plaisanterie	-10.6144
▁Alice	-10.6145
intérieur	-10.6148
▁Altesse	-10.6157
▁souffrances	-10.6158
▁contente	-10.6162
▁promener	-10.617
▁mensonge	-10.6171
▁permettez	-10.6178
▁assure	-10.618
▁prononcé	-10.6181
▁soigneusement	-10.6184
▁donnent	-10.6188
▁preuves	-10.6189
▁pattes	-10.6191
▁profession	-10.6199
▁Prenez	-10.62
▁srsquoassit	-10.6201
▁Walter	-10.6206
▁appela	-10.6213
H	-10.6216
▁pistolet	-10.6221
▁orgueil	-10.6223
▁bleus	-10.6225
▁supplie	-10.6226
▁cavalerie	-10.6227
▁passaient	-10.623
▁grâces	-10.6237
▁dira	-10.6239
▁joué	-10.6247
▁faisais	-10.6248
▁brise	-10.6252
▁erreur	-10.6257
▁peintre	-10.6265
▁ré	-10.6266
▁regardaient	-10.6269
▁solitaire	-10.6272
▁annoncer	-10.6275
▁précautions	-10.6276
T	-10.6277
▁visiter	-10.6284
▁raconta	-10.6286
▁donnaient	-10.6291
▁procurer	-10.6293
▁brillant	-10.6295
▁combattre	-10.6299
▁traversa	-10.6301
▁voitures	-10.6313
▁payé	-10.6316
▁apercevoir	-10.6321
▁nrsquoavons	-10.6321
▁clarté	-10.6322
▁tristement	-10.6338
▁tressaillit	-10.6342
▁Sam	-10.6351
▁simples	-10.6359
▁No	-10.6362
▁demandez	-10.6365
▁jouait	-10.6371
▁armées	-10.6372
▁feux	-10.6376
M	-10.6377
qui	-10.6384
▁acheter	-10.6385
▁baissa	-10.6385
▁propriété	-10.6387
▁suit	-10.6388
▁rempli	-10.6388
car	-10.64
▁valait	-10.6401
▁sensible	-10.6402
▁dormait	-10.6406
▁image	-10.6408
▁marchant	-10.6411
▁ajouter	-10.6413
▁gentilshommes	-10.6413
▁heureusement	-10.6415
▁usage	-10.6419
▁trouvez	-10.642
▁chasser	-10.6428
▁croyant	-10.6432
▁jetait	-10.6437
▁réunis	-10.6439
▁cruelle	-10.6453
▁aspect	-10.6456
▁refusé	-10.6456
▁glisser	-10.6457
▁espérer	-10.6457
▁tenue	-10.6461
▁Entre	-10.6473
▁tue	-10.6473
▁péché	-10.6474
▁ordonna	-10.6475
▁pourraient	-10.6478
▁devrait	-10.648
▁sinistre	-10.6482
▁drsquohonneur	-10.6483
▁reposer	-10.6484
▁posé	-10.6484
▁mourut	-10.6486
▁descendait	-10.6489
▁essayé	-10.6493
▁supposer	-10.6495
▁poésie	-10.6497
▁col	-10.6504
▁relever	-10.6508
▁règle	-10.6508
▁lrsquointention	-10.6513
▁achevé	-10.6516
▁remarqua	-10.6516
▁noires	-10.6524
▁convenable	-10.6524
▁voleur	-10.6526
▁tabac	-10.6529
▁pères	-10.6534
mÀ	-10.654
▁étoiles	-10.6541
▁sabre	-10.6545
▁tremblante	-10.6548
Louis	-10.6551
▁Vive	-10.6552
▁religieux	-10.6553
▁enfance	-10.6555
▁tombée	-10.6555
▁Joe	-10.6557
▁ha	-10.656
▁cuir	-10.6562
▁remarquable	-10.6569
▁boulevard	-10.657
arrêter	-10.6573
expression	-10.6574
▁fermé	-10.6575
▁H	-10.6589
▁pencha	-10.6596
▁écoutait	-10.6602
▁puisqu	-10.6603
avance	-10.6605
▁poignard	-10.6608
▁visible	-10.6612
ennemi	-10.6618
▁souffre	-10.6619
▁présentait	-10.6622
▁assuré	-10.6628
▁saurais	-10.663
▁Jackal	-10.6633
▁deuil	-10.6636
▁partager	-10.6636
▁disposé	-10.664
▁évident	-10.6641
▁biens	-10.6645
▁jaloux	-10.6648
▁songeait	-10.6649
▁Madeleine	-10.6649
▁ruine	-10.6649
age	-10.6651
▁seras	-10.6652
▁type	-10.6652
hommes	-10.6655
▁lrsquohabitude	-10.6665
▁Christ	-10.6665
O	-10.6667
▁Celle	-10.6676
▁Henriette	-10.6679
▁f	-10.6684
▁physique	-10.6687
▁explication	-10.6698
▁lourde	-10.6703
▁deuxième	-10.6704
▁bourreau	-10.6707
▁portière	-10.6712
▁Croyez	-10.6715
▁favorable	-10.6718
▁cruel	-10.6718
▁gars	-10.6722
▁superbe	-10.6724
▁progrès	-10.673
▁récompense	-10.673
▁Nord	-10.673
appelle	-10.6736
rsquo	-10.674
delà	-10.6746
D	-10.6749
▁trouvent	-10.6756
▁galerie	-10.6757
▁subitement	-10.6761
▁dispositions	-10.6767
▁fatigué	-10.6774
▁commissaire	-10.678
▁rideau	-10.6782
aie	-10.68
▁jrsquoespère	-10.6813
▁élevée	-10.6817
at	-10.6818
▁Napoléon	-10.682
TRE	-10.6827
▁Dame	-10.6831
▁mener	-10.6834
▁21	-10.6848
▁vicomte	-10.6849
▁tenter	-10.6856
▁convenu	-10.6859
▁pressé	-10.6867
▁convient	-10.6873
▁poignée	-10.6893
▁pouvant	-10.6895
▁gare	-10.6897
▁note	-10.69
▁messe	-10.6903
▁parfait	-10.6903
sept	-10.6903
▁Bernard	-10.6904
▁seigneurs	-10.6909
mC	-10.6909
▁Certes	-10.6911
▁semblant	-10.6913
▁Rose	-10.6913
▁habile	-10.6914
assit	-10.6918
▁quatrième	-10.692
▁presse	-10.692
▁hélas	-10.6924
▁fraîche	-10.6927
▁poches	-10.6928
▁degrés	-10.6929
bien	-10.6947
▁jardins	-10.6958
▁esclave	-10.6961
▁date	-10.6963
▁saison	-10.6964
▁démarche	-10.697
▁craignait	-10.6972
▁signifie	-10.699
▁nombreuses	-10.7003
▁Ivan	-10.701
▁mangé	-10.7019
▁phrases	-10.7027
▁vus	-10.7032
année	-10.7041
▁passèrent	-10.7058
▁Vraiment	-10.7064
▁sou	-10.7064
▁nommer	-10.7066
▁recherches	-10.707
▁apporter	-10.7072
V	-10.7075
▁lrsquoavons	-10.7075
▁mauvaises	-10.708
▁aigu	-10.7082
men	-10.7083
Je	-10.7083
▁épais	-10.7086
▁pire	-10.7087
▁Darcy	-10.7087
di	-10.7088
▁guerriers	-10.7095
▁riait	-10.7097
G	-10.7099
▁profiter	-10.71
▁consoler	-10.7101
▁baronne	-10.7105
▁ombres	-10.7111
▁nrsquoêtes	-10.7112
▁gardait	-10.7113
▁conduisait	-10.7119
▁billets	-10.712
nant	-10.7125
▁Quelque	-10.7128
▁selle	-10.7142
▁escalier	-10.7147
▁écoute	-10.7147
▁reconnaissant	-10.7154
▁renoncer	-10.7154
▁rappelait	-10.7155
▁cimetière	-10.7157
▁Thomas	-10.7161
▁secrète	-10.7162
▁considération	-10.7172
▁longueur	-10.7177
▁librement	-10.719
qu	-10.7195
▁Certainement	-10.7196
▁chercha	-10.72
▁adversaire	-10.7201
raient	-10.7202
▁sortis	-10.7205
▁discussion	-10.7211
▁lrsquoentrée	-10.7212
▁Palais	-10.7212
▁carrosse	-10.7219
▁Soyez	-10.722
▁22	-10.7221
▁tournait	-10.7222
▁consolation	-10.7227
▁rompre	-10.7227
▁voisinage	-10.7228
▁cité	-10.7232
▁colonne	-10.7237
▁plafond	-10.7243
▁marque	-10.7244
able	-10.7245
▁places	-10.7248
▁plantes	-10.7251
▁statue	-10.7256
▁repartit	-10.726
▁sincère	-10.7273
▁drap	-10.7274
▁tableaux	-10.7275
▁Ensuite	-10.7276
▁Richard	-10.7282
▁soupçon	-10.7283
▁creux	-10.7284
▁brisé	-10.7286
▁savant	-10.7291
▁endroits	-10.7294
eur	-10.7297
▁Watson	-10.7298
▁glissa	-10.7308
▁osé	-10.7316
▁histoires	-10.732
ique	-10.7326
▁tourne	-10.7328
▁loup	-10.7329
▁produire	-10.7338
▁déclaration	-10.7339
▁paupières	-10.7339
▁règne	-10.734
▁Olivier	-10.7341
▁préparé	-10.7341
▁coupé	-10.7341
▁oiseau	-10.7343
▁résolut	-10.7348
▁bond	-10.7349
▁couverte	-10.7349
▁peines	-10.7351
▁admirable	-10.7351
▁nrsquoeut	-10.7355
▁roman	-10.7361
▁débarrasser	-10.7362
▁lait	-10.7362
▁lisait	-10.7364
▁comble	-10.7364
existence	-10.7364
▁raconte	-10.7366
▁éprouvait	-10.7368
▁accès	-10.7369
▁miracle	-10.737
▁groupes	-10.7371
▁Nos	-10.7375
▁sûrement	-10.7377
▁srsquoêtre	-10.7377
▁humble	-10.7378
ton	-10.7385
▁regrette	-10.7385
▁considérer	-10.7386
aide	-10.7386
▁Chez	-10.7387
▁Duc	-10.7391
▁charité	-10.7394
ami	-10.7394
▁mai	-10.7394
▁pleurait	-10.7395
épaule	-10.7396
▁chapelle	-10.7397
▁offre	-10.7402
▁caisse	-10.741
▁terrasse	-10.7412
▁trouverez	-10.7414
▁démon	-10.7416
▁serrant	-10.7418
▁pleines	-10.7421
▁avenir	-10.7427
▁Même	-10.7428
▁lrsquoennemi	-10.7433
▁satisfaire	-10.7442
▁vanité	-10.7443
▁parfum	-10.7443
▁25	-10.7449
▁tours	-10.7454
▁Pétrus	-10.7458
▁lrsquoavais	-10.7468
Rouge	-10.7473
▁merveilleux	-10.7474
▁pourrai	-10.7474
▁srsquoavança	-10.7476
attention	-10.7481
▁graves	-10.7482
▁branche	-10.7483
▁canne	-10.7485
▁dégoût	-10.7488
ras	-10.749
k	-10.7491
▁brouillard	-10.7491
▁révolution	-10.75
▁violemment	-10.7506
▁exprès	-10.7506
▁the	-10.7508
▁obéir	-10.7511
▁pria	-10.7512
▁flots	-10.7512
ît	-10.7514
▁malades	-10.7515
▁Déjà	-10.7515
▁apporté	-10.7519
ins	-10.7521
▁allusion	-10.7522
▁comprend	-10.7523
▁virent	-10.7523
▁drame	-10.7524
▁manche	-10.7524
▁portaient	-10.7528
▁inconnue	-10.753
▁étendue	-10.7531
▁perdit	-10.7539
▁sultan	-10.7544
▁trsquoen	-10.7545
▁prêts	-10.7546
▁généralement	-10.7546
ri	-10.7547
▁aimée	-10.7551
▁III	-10.7551
▁lumières	-10.7554
▁sourd	-10.7565
▁seriez	-10.7565
▁modeste	-10.7571
▁témoignage	-10.7573
▁fixé	-10.7576
▁fière	-10.7581
▁principal	-10.7582
▁fonctions	-10.7582
▁voulant	-10.7587
▁plancher	-10.7592
▁demandant	-10.7617
▁mélancolie	-10.762
▁emporté	-10.7626
isme	-10.7627
▁décida	-10.7634
▁pardonne	-10.7638
▁éclair	-10.7638
ig	-10.7646
▁pente	-10.7647
▁sublime	-10.7655
▁troublé	-10.7658
▁lrsquoavaient	-10.767
▁poursuivre	-10.767
▁fantaisie	-10.7671
▁IV	-10.7671
▁chêne	-10.7674
ot	-10.7679
▁drsquohommes	-10.768
ia	-10.7685
▁jouir	-10.7686
▁caractères	-10.7687
▁sud	-10.7695
▁prochaine	-10.7697
▁bibliothèque	-10.7702
▁bruits	-10.7707
▁savons	-10.7722
▁24	-10.7725
▁Claudine	-10.7726
du	-10.7729
N	-10.7729
▁nerfs	-10.7733
des	-10.7735
▁rappela	-10.7736
▁nue	-10.7744
▁Thérèse	-10.7748
▁nations	-10.7752
▁querelle	-10.776
▁éloigné	-10.7767
▁trembler	-10.7771
▁entreprise	-10.7776
riez	-10.7776
▁raisonnable	-10.7778
▁sonner	-10.7779
objet	-10.7781
▁échappé	-10.7783
▁contenait	-10.7785
▁carrière	-10.7785
ière	-10.7786
aire	-10.7788
▁cache	-10.779
▁odeur	-10.7791
▁flammes	-10.7793
▁Donc	-10.7795
▁magistrat	-10.7795
▁déclaré	-10.7796
▁terminé	-10.78
▁confusion	-10.7802
▁murailles	-10.7816
▁causé	-10.7816
▁23	-10.7818
▁appartient	-10.7821
Pierre	-10.7826
▁nomme	-10.783
▁rougit	-10.7837
▁marchands	-10.7843
▁laquais	-10.7859
▁arme	-10.7865
▁prononça	-10.7867
▁plaire	-10.7868
▁capitale	-10.7869
▁établi	-10.7872
▁tombeau	-10.7872
▁péril	-10.7872
▁machine	-10.7875
▁République	-10.7876
▁vivacité	-10.7876
▁levait	-10.7879
▁Dorothée	-10.7885
▁pp	-10.7887
▁exprimer	-10.7889
▁touche	-10.7889
É	-10.789
▁Julie	-10.7904
▁confier	-10.7907
▁connaissais	-10.791
▁aurons	-10.7911
▁bleue	-10.7919
▁meurtre	-10.7923
▁Louvre	-10.7929
▁fruit	-10.793
▁lecteur	-10.793
▁Eugène	-10.7931
▁précipita	-10.7932
espoir	-10.7933
▁Viens	-10.7935
▁offrait	-10.7938
▁monstre	-10.794
▁brillait	-10.7944
▁lrsquoavenir	-10.7944
▁trouvée	-10.7945
▁fiacre	-10.7948
▁annonça	-10.7949
officier	-10.7953
▁joyeuse	-10.7953
▁fournir	-10.7956
▁fît	-10.7957
ca	-10.796
▁prêter	-10.7962
▁secondes	-10.7962
▁embarras	-10.7964
▁voler	-10.7967
▁espérance	-10.7969
▁crie	-10.7972
▁muet	-10.7972
▁lrsquoeffet	-10.7976
▁remercier	-10.798
▁subir	-10.798
▁tristes	-10.798
allais	-10.7985
▁sut	-10.7986
▁gravité	-10.7986
intention	-10.7988
▁venais	-10.7992
▁constamment	-10.7994
▁permettait	-10.7994
▁hein	-10.7994
▁céder	-10.8003
▁naître	-10.8003
étranger	-10.8007
▁pro	-10.8026
▁attentivement	-10.8029
▁Éminence	-10.8038
▁pourrez	-10.804
▁brusque	-10.8046
▁dise	-10.8048
▁Cinq	-10.8048
▁srsquoélança	-10.8048
ion	-10.8051
▁amants	-10.8051
mhttp	-10.8054
▁blonde	-10.8057
▁créatures	-10.8058
▁Aliocha	-10.8062
▁chaude	-10.8066
▁contact	-10.8071
▁fixe	-10.8078
▁ramener	-10.8079
▁réussir	-10.8081
▁Ceci	-10.8086
▁pourriez	-10.8087
▁Will	-10.81
▁humide	-10.8103
▁verres	-10.811
▁malheureusement	-10.811
▁temple	-10.811
auteur	-10.8114
▁aider	-10.8122
Espagne	-10.813
▁André	-10.8132
ver	-10.8136
mla	-10.8137
▁Antoine	-10.8141
▁ardeur	-10.8148
▁puisqursquoil	-10.815
▁Anna	-10.8154
▁juges	-10.8156
▁permet	-10.8159
ul	-10.8163
▁souci	-10.8164
▁roubles	-10.8169
▁lrsquoobscurité	-10.8171
▁trahison	-10.8172
▁entend	-10.8189
▁admiration	-10.819
avant	-10.819
▁coins	-10.8201
Les	-10.8203
▁canons	-10.8209
▁tut	-10.8212
▁chérie	-10.8213
▁verrons	-10.8217
▁agi	-10.822
▁parlons	-10.8223
hiver	-10.8225
▁verra	-10.8225
▁simplicité	-10.8226
▁réveiller	-10.824
▁cherché	-10.8241
▁destin	-10.8241
▁compagne	-10.8249
rsquoaux	-10.8256
▁tonnerre	-10.8258
▁chargés	-10.8264
▁importante	-10.8264
▁briser	-10.8264
▁site	-10.8265
▁mesures	-10.8266
▁reconnais	-10.8268
▁quoiqu	-10.8268
▁tranquillité	-10.8269
▁gai	-10.827
ouvrit	-10.8271
▁entouré	-10.8271
▁Pardon	-10.8274
▁hé	-10.8279
▁lanterne	-10.8284
da	-10.8292
▁procureur	-10.8302
▁délicatesse	-10.8302
▁sérieuse	-10.8309
b	-10.8313
▁montant	-10.8314
▁cessa	-10.8314
eusse	-10.8316
▁message	-10.8316
▁brûler	-10.8317
▁rencontra	-10.8318
▁cave	-10.8319
▁muette	-10.832
mL	-10.833
▁aisément	-10.8332
▁craint	-10.8334
▁compliments	-10.8343
▁Drsquo	-10.8344
▁siens	-10.8354
approcha	-10.8355
▁fierté	-10.8358
▁Soit	-10.8358
▁messager	-10.8358
▁convives	-10.8359
▁gendarmes	-10.836
▁individu	-10.8362
▁placée	-10.8363
▁Grimaud	-10.8366
▁assurer	-10.8369
▁employé	-10.8371
▁blessés	-10.8372
▁Écoute	-10.8372
▁causes	-10.8374
▁traversé	-10.8376
▁airs	-10.8378
▁lointain	-10.8379
▁moral	-10.8379
▁vivants	-10.8382
▁pousse	-10.8386
été	-10.8387
attendait	-10.8388
attendre	-10.8392
▁pot	-10.8394
vie	-10.84
▁veiller	-10.8404
▁connaissances	-10.8409
▁appartenait	-10.8424
▁Léon	-10.8428
▁mrsquoont	-10.8432
▁tache	-10.8441
étant	-10.8441
▁sentis	-10.8446
▁milliers	-10.8446
▁Gérard	-10.8454
▁décision	-10.8461
▁lion	-10.8462
▁paraissaient	-10.8463
▁mène	-10.8466
▁voiles	-10.8468
▁commission	-10.8469
▁chapitre	-10.847
▁véritablement	-10.8472
▁violente	-10.8473
▁innocent	-10.8475
▁épouser	-10.8475
▁écrivit	-10.8476
▁frisson	-10.8476
▁entrèrent	-10.8481
▁enlevé	-10.8484
▁prévenu	-10.8487
▁bière	-10.849
▁cachait	-10.8492
▁religieuse	-10.8495
ad	-10.8496
▁Savez	-10.8497
▁lien	-10.8508
▁Parlement	-10.8509
▁regardez	-10.851
▁remarque	-10.8516
▁située	-10.8522
▁juré	-10.8526
▁tendant	-10.8527
▁appuyé	-10.8528
▁lrsquoabbé	-10.8532
▁vertus	-10.8533
▁franchement	-10.8535
▁pages	-10.8537
▁sentant	-10.8537
▁obtenu	-10.8538
▁to	-10.8539
irai	-10.8546
seulement	-10.8546
▁dangers	-10.8548
▁recevait	-10.8552
▁prises	-10.8557
ssant	-10.8559
▁entretien	-10.8561
▁gaiement	-10.8563
▁île	-10.8564
▁rouler	-10.8566
▁poisson	-10.8567
deux	-10.8568
▁Emma	-10.8569
▁franchise	-10.8571
▁sensation	-10.8572
▁fouet	-10.8576
▁St	-10.8576
▁vapeur	-10.8578
▁lrsquoaide	-10.8579
▁instructions	-10.8608
▁coûte	-10.8609
▁invisible	-10.8611
▁critique	-10.8612
▁savaient	-10.8619
▁offert	-10.8619
▁tribunal	-10.8624
▁masque	-10.8625
▁directement	-10.8625
▁causait	-10.8625
▁divine	-10.8628
▁occupée	-10.8632
▁pleurs	-10.8633
▁testament	-10.8633
▁Toutefois	-10.8634
▁plaça	-10.8637
▁textes	-10.864
▁vigueur	-10.8642
▁puissante	-10.8643
▁tremblait	-10.8652
▁do	-10.8655
▁nrsquoavoir	-10.8659
ebooksgratuits	-10.866
▁trouvais	-10.8663
▁multitude	-10.8669
▁Attendez	-10.867
▁nrsquoimporte	-10.8671
▁enchanté	-10.8674
▁uniquement	-10.8674
no	-10.8678
▁coude	-10.8685
per	-10.8691
▁ruines	-10.8692
▁plaira	-10.8694
▁population	-10.8696
adresse	-10.8698
li	-10.8702
▁In	-10.8703
▁penchant	-10.8704
▁supplice	-10.8705
▁marcha	-10.8711
Jean	-10.8712
▁Nelson	-10.8724
▁serpent	-10.8728
▁Toujours	-10.8733
▁vestibule	-10.8733
tion	-10.8734
▁banquier	-10.8742
▁vienne	-10.8743
▁juin	-10.8745
▁Ton	-10.8748
▁aventures	-10.8749
▁ouvrant	-10.875
▁Heureusement	-10.8751
▁poursuite	-10.8755
▁aient	-10.876
▁jrsquoaime	-10.8764
▁crimes	-10.8766
▁respirer	-10.8766
▁atteindre	-10.8768
▁Cornélius	-10.877
ose	-10.8773
▁reprises	-10.8774
▁refus	-10.8775
▁trsquoai	-10.8777
▁épaisse	-10.8783
ure	-10.8783
▁réduit	-10.8784
▁30	-10.879
▁entrevue	-10.8799
▁srsquoadressant	-10.88
▁Cour	-10.8807
aspect	-10.8809
▁Jim	-10.881
▁désirer	-10.8812
▁tremblant	-10.8813
ex	-10.8816
▁dieu	-10.8816
▁généraux	-10.8817
▁Regardez	-10.8817
▁XIV	-10.882
▁mystérieuse	-10.8822
▁nus	-10.8823
▁Balsamo	-10.8825
▁îles	-10.8826
ro	-10.8828
▁lunettes	-10.8834
▁juillet	-10.8836
Chapitre	-10.8843
▁prennent	-10.8847
fr	-10.8847
▁défendu	-10.8849
▁dut	-10.8849
entends	-10.8852
▁barrière	-10.8854
▁Te	-10.8855
ité	-10.8858
▁sale	-10.886
▁leçon	-10.886
▁donnerai	-10.886
▁paire	-10.8861
▁plomb	-10.8862
man	-10.8862
▁avantage	-10.8869
▁cloche	-10.8869
▁cieux	-10.8873
▁duel	-10.8877
▁sanglots	-10.8882
▁étroite	-10.8883
▁motifs	-10.8884
▁logement	-10.8885
▁garda	-10.8886
▁pape	-10.8887
▁silencieuse	-10.8887
▁eau	-10.8891
obscurité	-10.8896
▁débris	-10.8899
▁louis	-10.8899
▁tombant	-10.8905
▁énergie	-10.8912
ouvrir	-10.8915
▁visites	-10.8915
▁séparation	-10.8918
▁vision	-10.8927
▁bref	-10.8928
▁qursquoaprès	-10.893
▁pose	-10.8931
▁paisible	-10.8934
▁domaine	-10.8936
accord	-10.894
▁é	-10.8941
▁verte	-10.8943
▁prétend	-10.8945
▁examiner	-10.8951
▁retourne	-10.8955
▁grise	-10.8957
▁diamants	-10.8961
▁drsquoavance	-10.8962
▁pré	-10.8962
ph	-10.8963
▁vigoureux	-10.8964
▁voudra	-10.8967
▁former	-10.8971
▁battu	-10.8975
▁franc	-10.8976
▁sacré	-10.8978
▁Prosper	-10.8982
▁Ayant	-10.8985
▁éclata	-10.8988
▁notes	-10.899
▁Andrée	-10.8996
▁mélancolique	-10.9002
▁poussait	-10.9002
▁parvint	-10.9003
▁écouté	-10.9008
▁chanson	-10.9018
▁amours	-10.9019
▁coffre	-10.9022
▁reproches	-10.9026
▁rentré	-10.9027
agissait	-10.9033
ler	-10.9034
▁rente	-10.905
▁sonnette	-10.9056
▁intérieur	-10.9056
▁ressemblance	-10.9059
▁misérables	-10.906
mS	-10.906
▁milles	-10.9061
▁désespéré	-10.9062
voix	-10.9064
▁lrsquoétranger	-10.9066
▁dura	-10.9073
▁fortes	-10.9074
▁fonds	-10.9084
▁retentit	-10.9088
▁crise	-10.9089
▁vaincu	-10.909
▁délire	-10.909
▁laissée	-10.9091
▁contempler	-10.9092
▁Néanmoins	-10.9096
▁remonter	-10.91
▁intime	-10.9109
▁banque	-10.9114
▁repentir	-10.9117
▁Lrsquohomme	-10.9118
▁pantalon	-10.9126
▁fêtes	-10.9126
▁obligée	-10.9127
▁plumes	-10.913
▁quai	-10.9132
▁danser	-10.9133
▁préparatifs	-10.9133
▁Sud	-10.9136
▁engagé	-10.9136
▁voleurs	-10.9139
▁attaque	-10.9141
▁chevelure	-10.9145
▁refuse	-10.9145
▁paysage	-10.9148
▁mange	-10.9155
▁art	-10.9159
▁sourde	-10.916
▁restaient	-10.916
▁charger	-10.9162
▁San	-10.9163
▁Patrick	-10.9163
▁brune	-10.9167
▁venons	-10.9168
▁retiré	-10.917
▁frappe	-10.9176
propre	-10.9176
▁drsquoheure	-10.9178
euse	-10.9181
▁autorité	-10.9182
▁modèle	-10.9183
▁cachée	-10.9183
expérience	-10.9184
▁stupide	-10.919
▁veste	-10.9191
▁marié	-10.9192
▁forêts	-10.9192
▁seules	-10.9197
▁nerveux	-10.92
▁souriait	-10.9201
▁messire	-10.921
▁touchant	-10.9213
▁couverts	-10.9214
▁culture	-10.9222
▁pensif	-10.9222
▁flot	-10.9223
▁Simon	-10.9223
▁tenté	-10.9226
mM	-10.9229
▁srsquoagissait	-10.9231
▁problème	-10.9231
▁pardonner	-10.9232
▁balles	-10.9232
▁dés	-10.9233
▁ordonné	-10.9235
▁ressources	-10.9237
▁retrouvé	-10.9239
▁volé	-10.9243
▁déclarer	-10.9243
▁balbutia	-10.9244
▁descendant	-10.9246
▁vues	-10.9249
▁prêtres	-10.925
▁Justin	-10.9257
▁donnera	-10.9264
ar	-10.9268
▁Demain	-10.9268
▁médecins	-10.9269
RE	-10.927
▁Salvato	-10.9272
▁pâles	-10.9276
▁formé	-10.9276
▁rappelez	-10.9277
▁chrétien	-10.9279
▁faubourg	-10.928
do	-10.9282
▁passés	-10.9283
▁vivante	-10.9284
▁diamant	-10.9289
▁leçons	-10.9291
▁suivie	-10.9294
U	-10.9295
▁prouve	-10.9296
▁Guiche	-10.9297
▁volume	-10.9299
▁gêne	-10.9299
▁brun	-10.9304
▁formaient	-10.9306
▁faisons	-10.9308
▁conseiller	-10.9314
▁Marcof	-10.9316
▁battait	-10.9316
▁perdus	-10.9318
▁28	-10.9321
▁spectateurs	-10.9322
▁diriger	-10.9322
▁sexe	-10.9328
▁émue	-10.9329
▁pistolets	-10.9333
▁imbécile	-10.9334
▁intérieure	-10.9335
▁désagréable	-10.9335
▁nrsquoayant	-10.9336
empereur	-10.9345
▁conservé	-10.9345
▁visiteur	-10.9352
▁brillants	-10.9352
▁entendez	-10.9353
▁remise	-10.9355
▁souleva	-10.9359
▁soupira	-10.936
▁parvenir	-10.936
▁Armand	-10.9383
▁mêlée	-10.9394
▁Moïse	-10.9394
ange	-10.9398
▁retomber	-10.9399
▁importe	-10.941
▁lorsqursquoelle	-10.941
▁Alain	-10.9412
▁style	-10.9413
nait	-10.9415
th	-10.9417
▁villages	-10.9423
▁DrsquoArtagnan	-10.9424
▁rapporter	-10.9425
▁tirait	-10.9426
▁drsquoentre	-10.9431
▁compassion	-10.9432
▁accompli	-10.9432
▁envoie	-10.9433
▁timide	-10.9433
▁panier	-10.9436
▁nrsquoaurais	-10.9442
▁étranges	-10.9443
▁comédie	-10.9445
▁membre	-10.9445
▁miroir	-10.9446
mP	-10.9447
▁referma	-10.9447
▁œuvres	-10.9451
▁jugé	-10.9454
▁écoutez	-10.9459
▁nourrice	-10.9465
▁passent	-10.9471
▁meurt	-10.9472
▁lrsquoen	-10.9474
▁persuadé	-10.9476
▁échange	-10.9477
▁présenté	-10.9477
▁rit	-10.948
▁honteux	-10.9482
▁médecine	-10.9484
rsquoexpression	-10.9485
▁obéit	-10.9489
▁vice	-10.9491
▁sortirent	-10.9493
▁avouer	-10.9493
▁plainte	-10.9499
ale	-10.9503
▁semblent	-10.9504
▁espérait	-10.9508
▁songé	-10.9511
▁dépend	-10.9513
▁révolte	-10.9521
▁blé	-10.9524
▁zèle	-10.9531
▁éducation	-10.9538
▁Dix	-10.9541
▁acheté	-10.9542
▁serrure	-10.9545
ag	-10.9545
entrer	-10.9553
▁fixement	-10.9553
▁numéro	-10.9555
books	-10.9559
▁égale	-10.9563
▁mister	-10.9564
▁bouteilles	-10.9566
▁délicate	-10.9569
▁effrayé	-10.957
▁éprouvé	-10.9572
▁Toi	-10.9573
▁ivre	-10.9573
▁excellente	-10.9574
▁enlever	-10.9577
▁brillante	-10.9577
▁Pa	-10.9579
▁discrétion	-10.958
▁sécurité	-10.958
▁fidèles	-10.9582
▁desquels	-10.959
orgueil	-10.9593
▁ouverts	-10.9595
▁russe	-10.9598
▁lrsquoobjet	-10.9598
▁côtes	-10.9604
▁élève	-10.9607
▁éclats	-10.961
▁Russie	-10.961
▁Nrsquoest	-10.961
▁artiste	-10.9614
▁dédain	-10.9615
▁lrsquoarrivée	-10.9616
▁philosophie	-10.962
▁inquiète	-10.962
▁srsquoouvrit	-10.9623
▁armés	-10.9623
▁complice	-10.9625
▁Fils	-10.9627
▁drsquoentrer	-10.9628
▁laine	-10.963
▁descendu	-10.9632
▁Jacob	-10.9633
▁ira	-10.9633
ti	-10.9637
▁changea	-10.9644
▁franchir	-10.9648
▁prudent	-10.965
▁Diane	-10.965
▁genou	-10.965
▁allèrent	-10.9653
▁Fred	-10.9653
▁formidable	-10.9655
▁Aucun	-10.966
▁indigne	-10.9661
▁couloir	-10.9665
▁cage	-10.9667
▁réunion	-10.9668
▁perd	-10.9669
▁maigres	-10.967
▁tiers	-10.9673
▁cravate	-10.9675
asseoir	-10.9686
▁drsquoentendre	-10.9687
▁Lydgate	-10.969
▁pâleur	-10.9692
▁serré	-10.9692
▁faibles	-10.9694
▁moindres	-10.9696
▁nrsquoas	-10.9704
▁pleure	-10.9705
Ils	-10.9705
▁tendrement	-10.9708
ME	-10.9711
▁éclairée	-10.9714
▁éprouver	-10.9715
▁attendaient	-10.9716
▁fiancée	-10.9717
impression	-10.972
▁victimes	-10.9721
▁Luisa	-10.9721
▁Nelly	-10.9732
▁piste	-10.9733
▁souhaite	-10.9741
avis	-10.9741
▁rond	-10.9744
▁haie	-10.9746
▁étrangère	-10.9752
▁septembre	-10.9753
im	-10.9755
mLE	-10.9759
▁politiques	-10.976
▁restèrent	-10.9761
▁fous	-10.9762
▁embarrassé	-10.9764
▁jrsquoaurai	-10.9767
▁compliment	-10.9768
▁troubler	-10.977
▁forts	-10.9771
▁douloureux	-10.9771
▁tumulte	-10.9771
▁milord	-10.9771
▁richesses	-10.9772
▁chaises	-10.9774
▁travaille	-10.9777
▁demoiselles	-10.9777
La	-10.9797
▁ordinairement	-10.9798
▁Puisque	-10.9799
▁littéraire	-10.9808
pe	-10.981
▁prévu	-10.9812
▁précis	-10.9816
▁courrier	-10.9818
▁Renée	-10.9818
▁annonçait	-10.982
▁Providence	-10.9822
▁Nickleby	-10.9832
ante	-10.9833
▁gilet	-10.9838
▁chances	-10.9839
dit	-10.9846
▁lorsqursquo	-10.985
▁vitres	-10.9852
▁fidélité	-10.9852
ère	-10.9856
▁saisissant	-10.9857
▁infiniment	-10.9864
aimer	-10.9866
▁citoyens	-10.9872
▁plateau	-10.9886
▁levée	-10.9887
▁comique	-10.9893
▁mélange	-10.9893
▁bougie	-10.9899
▁cervelle	-10.9903
▁promets	-10.9908
▁disons	-10.9909
▁ruse	-10.9909
▁acquis	-10.9913
aï	-10.9914
▁rentrant	-10.9916
▁lrsquoêtre	-10.9923
▁écrite	-10.9924
▁consulter	-10.9924
expliquer	-10.9925
▁réfléchi	-10.9927
▁remède	-10.993
▁James	-10.9931
▁ministère	-10.9934
▁doutait	-10.9936
Car	-10.9937
▁dissimuler	-10.9938
▁liens	-10.9941
▁parent	-10.9949
▁région	-10.9952
▁culte	-10.9952
▁crâne	-10.9959
▁séance	-10.9961
▁cap	-10.9962
▁cuivre	-10.9962
▁appuya	-10.9962
▁longuement	-10.9962
▁fée	-10.9967
▁Lancelot	-10.9975
▁pendu	-10.9981
▁lrsquoespoir	-10.9983
▁danse	-10.9987
▁farouche	-10.9993
▁maux	-10.9994
▁détresse	-10.9996
▁Malheureusement	-10.9996
▁jrsquoaie	-11
▁connus	-11.0001
ac	-11.0003
▁soupe	-11.0006
▁nègres	-11.0007
rsquoappartement	-11.0009
▁hôtes	-11.001
▁tiennent	-11.0011
▁individus	-11.0013
▁W	-11.0015
▁ferons	-11.0018
▁armé	-11.0024
▁lrsquoofficier	-11.0025
mle	-11.0031
▁perdait	-11.0031
▁failli	-11.0032
▁féroce	-11.0032
▁veines	-11.0038
▁obstacle	-11.0038
▁militaires	-11.0039
▁couru	-11.0044
▁choc	-11.0048
▁délicieux	-11.0048
▁répétait	-11.0048
▁lutter	-11.005
▁trsquoa	-11.005
▁seize	-11.0055
▁magasin	-11.0055
▁régnait	-11.0059
▁descend	-11.0061
▁pavé	-11.0064
»	-11.0066
▁partage	-11.0068
▁Parlez	-11.007
▁fermeté	-11.0071
▁mourant	-11.0079
mp	-11.0089
ff	-11.0089
▁arracher	-11.0091
▁Nantes	-11.0101
▁peinture	-11.0108
▁suivis	-11.0111
▁posant	-11.0113
UR	-11.0113
▁fraîcheur	-11.0114
▁couvrait	-11.0115
▁charrette	-11.0118
▁William	-11.012
▁gracieux	-11.0121
▁supériorité	-11.0121
▁reçus	-11.0125
▁adresser	-11.0125
▁mêler	-11.0127
▁chœur	-11.0129
▁déclare	-11.0132
▁humaines	-11.0134
▁MM	-11.0135
▁différent	-11.0137
▁vase	-11.014
▁chirurgien	-11.014
▁âgé	-11.0142
▁étroit	-11.0143
mqui	-11.0147
▁juif	-11.015
▁gouttes	-11.0151
▁sonna	-11.0155
▁images	-11.0156
▁philosophe	-11.0159
▁bouquet	-11.016
▁fantôme	-11.016
▁Ralph	-11.0163
▁ruisseau	-11.0165
▁ci	-11.0171
▁coquin	-11.0176
▁éternelle	-11.0177
▁baisa	-11.0177
▁jolies	-11.0178
ancien	-11.0178
▁Co	-11.018
▁agitation	-11.0188
▁commode	-11.0193
▁comparaison	-11.0193
▁jrsquoallais	-11.0195
▁commettre	-11.0195
▁recommencer	-11.0202
to	-11.0204
hier	-11.0208
éclat	-11.0208
herbe	-11.0212
▁Marianne	-11.0216
▁abandonner	-11.0222
▁maudit	-11.0222
▁absolue	-11.0226
▁émotions	-11.0227
▁recula	-11.0231
▁cabane	-11.0235
▁concierge	-11.0237
▁fatale	-11.0242
▁confus	-11.0244
tête	-11.0249
▁Marthe	-11.025
▁profondeur	-11.025
▁fixer	-11.0253
▁observations	-11.0254
▁indifférent	-11.0256
▁revolver	-11.0258
▁base	-11.026
▁douces	-11.026
ssaient	-11.0262
▁trouverait	-11.0265
gu	-11.0272
▁brûle	-11.0272
▁matelots	-11.0273
enthousiasme	-11.0274
▁portent	-11.0275
▁lrsquoâge	-11.028
appartement	-11.0281
▁vainement	-11.0282
▁parquet	-11.0282
▁Devant	-11.0282
if	-11.0287
▁trouvera	-11.0288
née	-11.0294
▁diligence	-11.0299
▁tournure	-11.0301
▁lancer	-11.0302
▁crus	-11.0302
▁auront	-11.0311
▁façons	-11.0312
▁essayait	-11.0316
▁douloureuse	-11.0318
▁haleine	-11.0319
ser	-11.0321
▁respiration	-11.0323
▁enthousiasme	-11.033
▁talons	-11.0331
▁conséquences	-11.0332
▁crédit	-11.0333
▁flanc	-11.0333
▁plis	-11.0335
▁délivrer	-11.0336
▁reculer	-11.0337
▁monnaie	-11.0339
▁communication	-11.0342
▁Lorin	-11.0344
▁promenait	-11.0346
▁commander	-11.0348
▁réparer	-11.035
▁mars	-11.0353
▁périr	-11.0353
▁catholique	-11.0353
▁plate	-11.0354
▁défiance	-11.0355
▁quittant	-11.0356
▁observation	-11.0357
▁srsquoasseoir	-11.0357
▁drsquoarriver	-11.0358
▁file	-11.0359
▁perron	-11.0366
▁sourcil	-11.0371
▁théorie	-11.0375
▁fûmes	-11.0376
Mais	-11.0381
▁vulgaire	-11.0383
▁amener	-11.0386
▁portefeuille	-11.0388
▁devine	-11.0391
▁hauts	-11.0394
▁risquer	-11.0396
▁couple	-11.0397
ns	-11.0406
▁revanche	-11.0408
▁suffisamment	-11.0408
▁puits	-11.0409
▁endormi	-11.0409
lo	-11.0409
rsquoimpression	-11.0412
▁craintes	-11.0413
▁pleurant	-11.0413
▁habitué	-11.0416
▁Mole	-11.0417
▁détourna	-11.0422
▁saints	-11.0426
▁gaillard	-11.0429
▁frayeur	-11.0429
▁suivaient	-11.043
▁colonnes	-11.0431
▁Faut	-11.0436
▁justifier	-11.0436
▁chargée	-11.044
▁Thibault	-11.0442
▁mettez	-11.0442
▁provisions	-11.0446
ville	-11.0448
appelait	-11.0449
▁contenir	-11.0452
▁détruire	-11.0452
▁lrsquoépée	-11.0452
espérance	-11.0452
action	-11.0453
che	-11.0461
▁nôtre	-11.0461
▁lis	-11.0463
▁offrit	-11.0465
▁protéger	-11.0468
▁imaginer	-11.0472
▁regardèrent	-11.0474
▁Plusieurs	-11.0476
▁arrêtée	-11.048
▁viande	-11.0483
▁écouta	-11.0484
▁routes	-11.0484
▁calmer	-11.0486
▁avantages	-11.0486
▁hâta	-11.0491
▁Lorsqu	-11.0491
▁nègre	-11.0494
▁électronique	-11.0495
▁ravi	-11.0496
▁mrsquoétais	-11.0497
▁parlaient	-11.0499
▁joindre	-11.0501
▁Lionel	-11.0501
arrivée	-11.0502
▁commencèrent	-11.0506
▁Nigel	-11.0506
gé	-11.0506
▁revue	-11.0512
id	-11.0515
▁personnel	-11.0519
▁mettent	-11.0524
▁distinction	-11.0527
▁reprocher	-11.0528
▁nettement	-11.0529
chaussée	-11.0536
▁divin	-11.0543
▁rougir	-11.0544
époque	-11.0548
▁voûte	-11.0549
▁saura	-11.055
▁sucre	-11.0551
▁Donnez	-11.0551
▁fatal	-11.0553
▁srsquoarrêter	-11.0555
▁magnifiques	-11.0563
▁cesser	-11.0563
▁po	-11.0564
▁trésors	-11.0564
▁inutiles	-11.0569
oc	-11.0569
▁études	-11.0571
▁lame	-11.0572
▁déserte	-11.0572
iste	-11.0574
▁richesse	-11.0575
▁voyaient	-11.0576
▁nôtres	-11.0584
▁abandonnée	-11.0586
▁sauve	-11.0588
▁Al	-11.0592
leur	-11.0593
▁Harry	-11.0594
▁songeant	-11.0602
▁résoudre	-11.0605
▁journées	-11.0607
▁cordes	-11.0609
▁Qursquoil	-11.061
▁profondes	-11.0614
▁reçoit	-11.0616
▁piano	-11.0616
▁surprendre	-11.0618
▁trahir	-11.0621
▁feriez	-11.0621
▁lrsquoeût	-11.0622
ga	-11.0622
▁vendu	-11.0625
▁générosité	-11.0627
▁dommage	-11.0627
▁douzaine	-11.063
▁gratuits	-11.0631
▁rez	-11.0634
▁persuader	-11.0637
▁tables	-11.0639
▁communiquer	-11.0643
Église	-11.0643
▁29	-11.0644
▁vœux	-11.0649
▁coeur	-11.0649
▁défi	-11.0654
co	-11.0654
▁amies	-11.0656
J	-11.066
▁paradis	-11.066
▁Drsquoabord	-11.0661
▁guérir	-11.0663
▁solennel	-11.0668
▁Arthur	-11.0669
▁tendu	-11.0673
▁surveiller	-11.0676
▁élèves	-11.0677
▁réussit	-11.0682
▁détourner	-11.0685
▁anglaise	-11.0685
▁Quatre	-11.0693
▁église	-11.0694
▁assistants	-11.0699
▁exécuter	-11.0702
▁dévoué	-11.0704
mEt	-11.0704
▁torrent	-11.0704
▁ouvre	-11.0705
▁reçue	-11.0706
▁drapeau	-11.0708
▁con	-11.0711
▁mrsquoas	-11.0713
ol	-11.0716
▁forcer	-11.0719
▁lecteurs	-11.0722
▁moderne	-11.0727
chi	-11.0731
▁menaçant	-11.0738
▁agents	-11.0738
▁guerrier	-11.0738
▁flancs	-11.074
▁silencieusement	-11.0741
▁collines	-11.0743
▁épouvantable	-11.0746
▁souverain	-11.075
▁connaissent	-11.0753
▁ardent	-11.0754
▁lrsquoannée	-11.0758
▁toits	-11.0758
▁prenaient	-11.076
▁concert	-11.076
mE	-11.0761
▁Grande	-11.0765
▁retenu	-11.077
▁Dick	-11.0771
▁Bonjour	-11.0772
▁perspective	-11.0772
▁Lord	-11.0773
▁anges	-11.0774
▁pénétré	-11.0777
▁merveilleuse	-11.0781
▁Lady	-11.0787
▁tasse	-11.079
nes	-11.0791
▁morne	-11.0791
▁taureau	-11.0793
▁retrouve	-11.0802
▁intelligent	-11.0803
▁représentant	-11.0807
▁ignorait	-11.0813
▁foudre	-11.0817
▁gouvernante	-11.0827
▁mousquetaires	-11.083
▁serrer	-11.0834
▁Van	-11.0835
▁bataillon	-11.084
▁confidence	-11.0841
avoue	-11.0844
▁menaces	-11.0846
▁crsquoétaient	-11.085
▁posséder	-11.085
▁criminel	-11.0853
▁facultés	-11.0856
▁paroisse	-11.0858
ron	-11.0864
▁Ga	-11.0865
▁As	-11.0865
▁exact	-11.0866
amitié	-11.0868
▁veuille	-11.087
▁briller	-11.0871
▁occasions	-11.0873
▁rentre	-11.0877
▁précipitamment	-11.0884
▁conclusion	-11.0885
▁étendit	-11.0886
▁bat	-11.089
▁fusils	-11.0891
usage	-11.0891
▁honorable	-11.0892
▁blessures	-11.0895
▁brillaient	-11.0896
adressant	-11.0897
▁regardai	-11.09
▁commençaient	-11.0904
▁essayant	-11.0906
▁gagne	-11.0906
▁série	-11.0908
▁perles	-11.0909
▁honnêtes	-11.0912
▁ordinaires	-11.0921
▁DON	-11.0924
▁vente	-11.0925
▁soumis	-11.0927
▁situé	-11.0929
▁vitesse	-11.0937
▁manœuvre	-11.0937
▁passées	-11.0938
▁Agnès	-11.094
▁troupeau	-11.0946
▁vaguement	-11.0947
▁vides	-11.0951
▁vives	-11.0951
▁fusse	-11.0951
▁gentil	-11.0951
▁chandelle	-11.0953
▁conte	-11.0955
▁marins	-11.0957
▁Mont	-11.096
▁remplacer	-11.0964
ll	-11.0964
▁redoutable	-11.0965
▁cruellement	-11.0967
▁désirez	-11.0971
▁purent	-11.0971
▁honneurs	-11.0972
▁assister	-11.0974
▁préparait	-11.0976
▁nationale	-11.0978
▁saluer	-11.0981
▁âne	-11.0983
▁villa	-11.0992
▁laissaient	-11.1008
▁Était	-11.1009
▁finesse	-11.1013
▁courses	-11.1017
▁Fontenay	-11.102
▁Soudain	-11.102
▁Jules	-11.1022
▁malice	-11.1023
opinion	-11.1027
▁baissant	-11.103
▁lugubre	-11.1032
▁Étienne	-11.1033
▁contenu	-11.1033
eurs	-11.1042
▁couler	-11.1043
▁plans	-11.1043
▁Diable	-11.1044
▁dot	-11.1045
▁Émilie	-11.1045
po	-11.1047
▁songea	-11.1048
▁lrsquohorizon	-11.1049
▁chrétiens	-11.1052
▁donnés	-11.1055
▁plaisait	-11.1056
▁besoins	-11.1062
▁jetée	-11.1068
alors	-11.1068
▁observa	-11.1069
▁planches	-11.107
▁comptes	-11.1077
▁Guise	-11.1078
▁estime	-11.1079
▁réfléchit	-11.108
▁gants	-11.1082
▁ressort	-11.1086
▁épreuve	-11.1086
▁Charlotte	-11.1091
▁élan	-11.1101
▁baisers	-11.1108
▁habituelle	-11.1115
▁Mille	-11.1115
▁anciennes	-11.1116
▁retrouva	-11.1122
▁lrsquointérêt	-11.1124
mer	-11.1124
apprendre	-11.1125
▁direz	-11.1129
▁apportait	-11.113
▁quittait	-11.1133
▁lrsquoont	-11.1134
▁principaux	-11.1136
▁occuper	-11.1136
▁Julia	-11.1136
▁tendres	-11.1138
▁hache	-11.1144
▁vaincre	-11.1148
▁bienvenu	-11.1151
▁empressement	-11.1156
▁jrsquoeus	-11.116
▁Maxime	-11.1162
▁fameuse	-11.1162
▁X	-11.1165
▁affreuse	-11.1168
▁robes	-11.1168
rent	-11.1171
▁janvier	-11.1172
▁employés	-11.1174
▁voient	-11.1176
ois	-11.1177
major	-11.1179
▁ex	-11.1179
espace	-11.118
▁vins	-11.1182
▁Bastille	-11.1182
▁Permettez	-11.1183
▁Caroline	-11.1185
▁boucles	-11.1189
▁Vos	-11.119
▁occupait	-11.1198
aura	-11.1199
▁passants	-11.1201
▁lrsquoexistence	-11.1203
▁divan	-11.1206
▁Drsquoun	-11.1208
▁fosse	-11.1209
▁éléments	-11.121
influence	-11.1215
▁fautes	-11.1216
▁Vallière	-11.1221
▁populaire	-11.1222
▁texte	-11.1223
▁Maria	-11.1224
▁accepté	-11.1228
▁Squeers	-11.1229
▁scandale	-11.1229
▁vêtement	-11.1232
▁représenter	-11.1234
ah	-11.1237
ka	-11.1238
école	-11.124
▁Tartarin	-11.1241
▁cortège	-11.1241
▁conversion	-11.1242
▁sentinelle	-11.1244
▁réunir	-11.1245
▁mortel	-11.1246
▁royal	-11.1251
▁ouvertes	-11.1251
▁Boffin	-11.1253
▁Jonas	-11.1253
nce	-11.1255
▁fontaine	-11.1257
▁caresses	-11.126
▁pause	-11.1265
▁limites	-11.1266
▁futur	-11.1268
▁chagrins	-11.1273
▁explications	-11.1274
▁maintenir	-11.1276
▁garnison	-11.1283
▁dort	-11.1286
▁accomplir	-11.1286
▁opinions	-11.1288
▁suivirent	-11.1289
▁convaincre	-11.1289
six	-11.129
▁quoiqursquoil	-11.1292
▁pouce	-11.1294
▁méchante	-11.1296
abri	-11.1296
▁marine	-11.1298
▁relevant	-11.1302
▁annoncé	-11.1304
tin	-11.1307
élança	-11.1309
▁redingote	-11.1312
lin	-11.1314
▁haussa	-11.1316
▁devrais	-11.132
▁formait	-11.1325
▁cendres	-11.1329
▁apparition	-11.1334
▁confié	-11.1338
▁phénomènes	-11.1339
▁terminée	-11.134
▁aurions	-11.1343
▁remplit	-11.1343
iens	-11.1343
▁prié	-11.1344
▁arrêt	-11.1348
ni	-11.1349
▁ouvrait	-11.1351
▁serrait	-11.1354
▁expliqua	-11.1354
▁lrsquoest	-11.1354
▁auras	-11.1358
▁dépense	-11.1358
▁Geoffrey	-11.1359
▁flotte	-11.136
▁période	-11.1363
▁soudaine	-11.1372
éri	-11.1372
▁noces	-11.1373
▁pourpre	-11.1375
▁protecteur	-11.1376
▁facilité	-11.1377
▁masses	-11.1379
▁éternel	-11.1379
min	-11.1381
▁reviens	-11.1383
▁guise	-11.1383
Dame	-11.1404
▁composé	-11.141
▁revenus	-11.1413
▁vêtue	-11.1418
▁répondirent	-11.1419
▁carré	-11.142
Germain	-11.1427
▁produisit	-11.143
ssait	-11.1435
▁restés	-11.1437
cher	-11.1437
▁viendrait	-11.144
▁bec	-11.144
▁jeux	-11.1441
▁dangereuse	-11.1445
▁Rhin	-11.1446
▁cor	-11.1448
▁plaintes	-11.1452
▁Rachel	-11.1454
▁promit	-11.1454
▁traître	-11.1457
bis	-11.1463
▁bornes	-11.1465
inconnu	-11.1466
▁Gaspard	-11.1467
▁centaines	-11.1468
▁Rapha	-11.1468
autel	-11.1476
importance	-11.1477
▁collège	-11.1478
▁roues	-11.1482
pa	-11.1483
▁arrivaient	-11.149
▁contenta	-11.149
▁légitime	-11.1492
▁délicieuse	-11.1493
▁indifférence	-11.1494
▁fermés	-11.1497
▁moines	-11.1497
▁Juda	-11.1498
▁chantait	-11.1498
▁décidément	-11.1498
▁couverture	-11.1501
▁appartements	-11.1502
▁réelle	-11.1504
▁quatorze	-11.1504
▁garantie	-11.1509
▁lrsquoépoque	-11.1509
▁Derrière	-11.1514
▁Arrivé	-11.1515
▁menait	-11.1518
▁sociale	-11.1519
▁halte	-11.152
▁tribu	-11.152
▁mêlé	-11.1521
▁servit	-11.1523
▁Fernande	-11.1524
▁asseoir	-11.1527
ments	-11.1533
▁dresser	-11.1538
▁pommes	-11.1539
ab	-11.1542
▁fossé	-11.1544
▁peste	-11.1545
▁régent	-11.1545
▁concerne	-11.1545
avança	-11.1545
▁restera	-11.1546
▁srsquoéloigna	-11.1549
▁révéler	-11.1551
▁découvrit	-11.1551
assemblée	-11.1553
▁tendait	-11.1554
▁lancé	-11.1558
rions	-11.1559
▁parurent	-11.1559
▁discuter	-11.1559
▁obscur	-11.156
▁dépens	-11.1562
horizon	-11.1566
▁ri	-11.1567
▁révolutionnaire	-11.1569
▁restes	-11.1571
▁barre	-11.1573
▁rends	-11.1575
▁novembre	-11.1576
▁couvrir	-11.1585
▁Démétrius	-11.1587
▁commande	-11.1592
▁bienvenue	-11.1593
▁uniforme	-11.1593
▁avancer	-11.1593
▁reprenait	-11.1599
▁soulagement	-11.16
der	-11.16
▁hiver	-11.1603
▁regardais	-11.1603
▁ministres	-11.1604
▁valets	-11.1607
aperçut	-11.1611
▁scènes	-11.1611
▁DES	-11.1612
▁Barry	-11.1612
▁instrument	-11.1613
▁Esther	-11.1614
▁dettes	-11.1614
mV	-11.1617
▁traverse	-11.1618
mI	-11.162
ille	-11.162
▁revenue	-11.162
▁nrsquoétais	-11.1621
▁rendue	-11.1622
▁retomba	-11.1624
▁cadavres	-11.1626
▁tend	-11.1626
▁devenus	-11.1627
▁transporter	-11.1629
▁obscure	-11.1631
▁frappait	-11.1631
occuper	-11.1635
▁sincérité	-11.1648
▁Dé	-11.1648
▁Assez	-11.1649
▁majesté	-11.1652
▁habitait	-11.1654
▁destiné	-11.1655
▁étonnée	-11.1658
▁vaisseaux	-11.1661
▁apporta	-11.1662
▁serions	-11.1662
▁géant	-11.1664
▁piège	-11.1666
▁comptoir	-11.1666
▁punir	-11.1672
garde	-11.1674
▁marais	-11.1674
▁absolu	-11.1675
▁Hum	-11.1681
▁plongé	-11.1687
▁rendant	-11.1689
▁approchait	-11.1689
▁dessin	-11.1693
▁posée	-11.1694
▁apporte	-11.1697
▁hésiter	-11.1698
▁parts	-11.1699
▁appelée	-11.1704
▁irrésistible	-11.1707
▁Diana	-11.1709
▁extérieur	-11.171
aucun	-11.1715
vingt	-11.1716
▁vouliez	-11.1721
▁sèche	-11.1722
Europe	-11.1722
▁capables	-11.1727
▁silhouette	-11.1728
▁vrais	-11.1728
▁personnelle	-11.1731
▁Micawber	-11.1734
▁misères	-11.1735
▁placés	-11.1737
▁g	-11.1746
▁innocente	-11.1747
ww	-11.1751
mé	-11.1751
▁pâlit	-11.1751
▁Rosa	-11.1752
▁feras	-11.1753
▁poli	-11.1755
▁clerc	-11.1758
▁gracieuse	-11.1758
mA	-11.1761
▁vivent	-11.1762
▁Colbert	-11.1771
▁Jrsquoespère	-11.1772
▁établir	-11.1772
▁parvenu	-11.1776
▁couchée	-11.1777
▁moustache	-11.1777
▁cachette	-11.1781
▁craignez	-11.1783
▁31	-11.1786
▁cabaret	-11.1787
▁curieuse	-11.1787
▁avance	-11.1788
▁rendaient	-11.1789
ssé	-11.1789
▁chrétienne	-11.1791
▁Bois	-11.1795
▁brûlait	-11.1797
▁assurément	-11.18
▁serre	-11.1802
arrive	-11.1804
▁éclairé	-11.1804
▁jaunes	-11.1805
▁Raskolnikov	-11.1809
▁loisir	-11.1816
▁verdure	-11.182
▁suffisait	-11.182
▁délicat	-11.183
▁lrsquoattention	-11.183
▁Calyste	-11.1833
▁bandits	-11.1835
▁livrée	-11.1836
▁vieillards	-11.1845
▁régler	-11.1846
▁transport	-11.1846
▁enveloppé	-11.1852
▁soupçonner	-11.1857
▁inutilement	-11.1868
▁exposé	-11.187
si	-11.187
▁ra	-11.187
▁chante	-11.1871
▁aimez	-11.1872
▁Indes	-11.1883
uses	-11.1885
▁chers	-11.1889
▁nourrir	-11.189
▁respectable	-11.1891
▁Peggotty	-11.1895
▁promesses	-11.1895
▁appuyée	-11.1903
▁revers	-11.1908
▁absurde	-11.191
▁gueule	-11.1912
▁singulièrement	-11.1912
▁herbes	-11.1914
ttes	-11.1914
ble	-11.1915
▁ôta	-11.1915
▁témoigner	-11.192
▁peindre	-11.192
▁reprenant	-11.192
▁Vierge	-11.1922
ries	-11.1923
▁drsquoarmes	-11.1924
▁visiblement	-11.1925
▁saviez	-11.1925
F	-11.1927
▁Buckingham	-11.1933
▁gardien	-11.1933
▁enfermé	-11.1934
▁introduit	-11.194
▁Es	-11.1942
▁république	-11.1945
mlrsquo	-11.1948
▁pendre	-11.1948
▁refusa	-11.1952
▁tentative	-11.1953
▁mettons	-11.1958
▁Excellence	-11.196
▁Isra	-11.196
nte	-11.1965
mCe	-11.1967
▁incroyable	-11.1968
▁emporter	-11.197
▁Naturellement	-11.1971
▁bienveillance	-11.1971
▁séparés	-11.1974
arriver	-11.1976
▁écrivait	-11.1976
▁Laisse	-11.198
â	-11.198
va	-11.1984
par	-11.1988
▁puissent	-11.1989
▁forcée	-11.199
▁apercevant	-11.199
▁attendez	-11.1992
▁récemment	-11.1996
▁article	-11.2
▁réclamer	-11.2002
▁rigueur	-11.2004
▁eue	-11.2005
▁souhaiter	-11.2005
▁stupeur	-11.2009
▁reconnus	-11.2009
▁perfection	-11.2011
▁remuer	-11.2014
▁logique	-11.2015
▁caprice	-11.2017
▁meilleures	-11.2021
▁feront	-11.2021
mB	-11.2022
▁attirer	-11.2023
▁impressions	-11.2023
▁lâcher	-11.2023
▁entendue	-11.2026
cu	-11.2027
▁grotte	-11.203
lot	-11.2032
aimait	-11.2034
▁gagna	-11.2038
ed	-11.204
▁grimace	-11.2042
▁drsquohabitude	-11.2045
▁Navarre	-11.2046
▁permit	-11.2047
Tu	-11.2047
▁angoisse	-11.2048
autorité	-11.2049
▁lrsquoaime	-11.2051
▁phénomène	-11.2055
▁coucha	-11.2058
▁fracas	-11.206
ouest	-11.2062
▁fins	-11.207
▁Ho	-11.2078
aise	-11.2079
▁expédition	-11.2081
▁navires	-11.2086
épouser	-11.2087
neuf	-11.2087
▁décembre	-11.2088
iers	-11.2089
▁mères	-11.2092
étonnement	-11.2093
▁châtiment	-11.2094
▁disposer	-11.2096
▁allées	-11.2097
▁impassible	-11.2097
▁continuant	-11.2099
image	-11.2101
▁extrémité	-11.2103
▁verts	-11.2104
▁Bertha	-11.211
▁quiconque	-11.211
▁Vénus	-11.211
▁couvre	-11.2113
▁préfère	-11.2118
teur	-11.212
▁indispensable	-11.2121
▁calife	-11.2123
▁Parfois	-11.2123
▁sensibilité	-11.2123
▁propose	-11.2134
▁soirs	-11.2136
▁durée	-11.2138
ordinaire	-11.2139
▁hésitation	-11.2145
▁agité	-11.2146
▁ardente	-11.2147
tra	-11.215
fi	-11.2151
▁députés	-11.2151
▁recommandé	-11.2155
▁supérieurs	-11.2155
▁proposa	-11.2161
▁littérature	-11.2162
▁éveillé	-11.2164
▁secrètement	-11.2166
▁précieuse	-11.2168
▁tombaient	-11.217
▁pli	-11.2176
▁dignes	-11.2176
dé	-11.2178
mEn	-11.218
▁instruments	-11.2182
▁srsquoétant	-11.2182
▁avancé	-11.2184
▁cire	-11.2185
▁accompagner	-11.2186
▁Beaucoup	-11.2188
▁montée	-11.2189
▁Espagnols	-11.2194
▁lrsquoaprès	-11.2195
▁répugnance	-11.2197
▁baie	-11.2198
▁Jrsquoaurais	-11.2201
▁travaillait	-11.2202
▁intéressant	-11.2203
▁division	-11.2208
▁contraste	-11.221
▁aiment	-11.221
▁chevet	-11.2213
▁souffrait	-11.2214
▁Razumov	-11.2226
▁compromettre	-11.2228
▁conclut	-11.2233
▁brûlé	-11.2236
▁représente	-11.2239
▁Birotteau	-11.2239
▁présents	-11.2239
▁restent	-11.2242
▁employer	-11.2248
▁marques	-11.2253
▁arrivent	-11.226
▁vierge	-11.2262
▁nappe	-11.2266
▁trompez	-11.2271
▁lrsquoor	-11.2273
dix	-11.2275
▁fermier	-11.2275
admiration	-11.2276
▁civilisation	-11.2278
▁apercevait	-11.2279
▁partirent	-11.2281
▁joies	-11.2283
am	-11.2291
▁terminer	-11.2295
▁semblé	-11.2296
▁lrsquooncle	-11.2297
▁déranger	-11.2298
▁Hier	-11.2306
▁responsabilité	-11.2314
▁apprenant	-11.2317
▁flèche	-11.2327
▁miséricorde	-11.233
▁Winter	-11.233
▁canot	-11.2332
▁toucha	-11.2336
go	-11.2337
▁réel	-11.2338
▁cellule	-11.2341
▁balcon	-11.2341
▁verrai	-11.2343
▁bronze	-11.2343
▁poêle	-11.2343
▁avoué	-11.2346
▁Suisse	-11.2346
▁bossu	-11.2354
▁mousquetaire	-11.2354
▁absorbé	-11.2355
▁complaisance	-11.2357
▁excuses	-11.2358
▁effroyable	-11.2359
imagination	-11.236
▁charmes	-11.2362
▁couchant	-11.2363
▁Tel	-11.2363
inquiétude	-11.2364
▁calcul	-11.2365
▁jugea	-11.2378
▁privé	-11.238
▁Bonne	-11.2385
▁Chéri	-11.2385
auberge	-11.2387
dre	-11.2391
▁bandit	-11.2393
▁couraient	-11.2398
▁touchait	-11.2399
▁anxiété	-11.2406
▁prairie	-11.2406
▁cercueil	-11.2407
▁pourrions	-11.2408
ienne	-11.241
▁marchaient	-11.2412
▁tragique	-11.242
▁interrompu	-11.242
▁char	-11.2422
net	-11.2424
▁Mac	-11.2433
▁tienne	-11.2434
▁défunt	-11.2438
▁laissent	-11.2439
▁création	-11.2447
▁nécessairement	-11.2449
frère	-11.2449
▁éclater	-11.2449
▁Seine	-11.245
▁clos	-11.2451
Luc	-11.2454
▁bancs	-11.2454
azan	-11.2459
▁galant	-11.2461
mb	-11.2461
▁discipline	-11.2462
▁reconnaissait	-11.2462
▁Dubois	-11.2462
▁froideur	-11.2467
▁infâme	-11.247
▁racontait	-11.247
▁franchi	-11.247
▁bondit	-11.2473
▁jardinier	-11.2476
▁Cèdre	-11.2476
▁liste	-11.2476
▁lrsquoadresse	-11.2479
▁méthode	-11.2486
▁livré	-11.2487
▁loups	-11.2489
▁bourg	-11.2498
▁poings	-11.2499
▁vainqueur	-11.25
▁constater	-11.2505
▁obligés	-11.2507
▁consiste	-11.2509
▁signature	-11.2513
▁Coconnas	-11.2515
▁prévoir	-11.2515
▁bijoux	-11.2516
▁croient	-11.2518
▁août	-11.2518
▁décrire	-11.2522
▁accorder	-11.2529
▁interlocuteur	-11.253
▁niveau	-11.253
▁donnerait	-11.2533
▁kilomètres	-11.2536
▁épuisé	-11.254
▁souris	-11.2541
▁louer	-11.2542
▁drsquoAnjou	-11.2543
lle	-11.2544
tant	-11.2553
▁écoutant	-11.2554
unes	-11.2555
▁abattu	-11.2555
▁Nicole	-11.2555
▁Mitia	-11.2555
▁verser	-11.2557
▁effectivement	-11.2558
mont	-11.2562
▁délai	-11.2566
tour	-11.2569
▁redressa	-11.2574
▁résultats	-11.2575
▁incident	-11.2576
ic	-11.2578
▁Tréville	-11.2582
▁constitution	-11.2584
▁contenter	-11.2586
affection	-11.2588
▁insista	-11.2589
▁brigands	-11.259
▁principale	-11.2593
▁capital	-11.2595
▁succession	-11.2595
▁penses	-11.2597
▁servent	-11.2598
▁taches	-11.26
▁attiré	-11.2602
▁harmonie	-11.2606
▁conducteur	-11.2607
▁pauvreté	-11.2609
▁Oullier	-11.2609
▁stupéfait	-11.2612
▁Émily	-11.2622
▁menaçait	-11.2623
approche	-11.2623
▁chapeaux	-11.2626
▁disiez	-11.2629
▁trompée	-11.2631
aider	-11.2633
▁paye	-11.2635
▁favoris	-11.2639
▁désiré	-11.2642
▁talents	-11.2643
▁cuisinière	-11.2649
▁Dixmer	-11.265
▁décidée	-11.2653
▁lrsquoécole	-11.2657
▁caverne	-11.2658
▁latin	-11.2658
▁erreurs	-11.266
▁bénédiction	-11.2662
▁cachot	-11.2662
▁absent	-11.2673
▁née	-11.2674
▁reins	-11.2677
▁jrsquoeusse	-11.2678
▁antique	-11.2678
▁bain	-11.268
Christ	-11.2683
▁effrayée	-11.2685
▁doutes	-11.2687
▁remonta	-11.2688
▁larme	-11.2688
▁artistes	-11.2698
▁travaillé	-11.2701
▁asile	-11.2703
▁Minne	-11.2704
émotion	-11.271
▁parlent	-11.2713
▁Laurent	-11.2717
▁préfet	-11.2717
▁gaz	-11.2717
▁proposer	-11.2717
▁consentement	-11.2718
▁gazon	-11.2718
▁défauts	-11.2719
▁Mort	-11.2729
▁rentrée	-11.273
▁observé	-11.2731
▁appartenant	-11.2731
▁soyons	-11.2731
▁étonnant	-11.2732
▁Vois	-11.2732
▁fatiguée	-11.2733
▁Bonacieux	-11.2744
▁espace	-11.2748
▁Bou	-11.2751
▁dragons	-11.2755
arbre	-11.2755
▁demandais	-11.2757
▁charbon	-11.2758
▁vînt	-11.2758
sé	-11.2762
▁excuse	-11.2764
▁mouton	-11.2765
▁poil	-11.2765
▁Évidemment	-11.2772
▁lrsquoentendre	-11.2776
▁manches	-11.2783
▁sages	-11.2784
▁bouger	-11.2784
▁adressé	-11.2786
▁données	-11.2788
▁bâtiments	-11.2789
▁opération	-11.2791
▁battant	-11.2791
▁retint	-11.2799
▁connaissaient	-11.2799
▁qursquoavait	-11.2801
▁commandait	-11.2801
▁cinquième	-11.2802
▁énormes	-11.2805
▁inattendue	-11.2806
▁délices	-11.2806
pé	-11.2809
ba	-11.281
▁invités	-11.2811
▁funèbre	-11.2812
▁exécution	-11.2812
mar	-11.2815
▁religieuses	-11.2816
Unis	-11.2817
ette	-11.2817
▁regrets	-11.2819
▁bœuf	-11.2819
▁srsquoinclina	-11.282
▁indiquer	-11.282
▁lrsquoherbe	-11.2821
mLrsquo	-11.2824
▁roula	-11.2827
▁gras	-11.2827
▁sortaient	-11.2827
▁quartiers	-11.2831
▁arrêtés	-11.2837
▁marteau	-11.284
▁séparait	-11.2841
▁admirablement	-11.2845
▁bouton	-11.2848
▁poison	-11.2848
▁pan	-11.285
▁rentrait	-11.2851
▁différente	-11.2852
envie	-11.2852
▁raisonnement	-11.2854
▁publication	-11.2856
▁Ba	-11.2865
▁sciences	-11.2867
▁traversait	-11.2868
▁Pr	-11.2869
▁nommait	-11.2869
▁clefs	-11.287
▁déposa	-11.287
ue	-11.2874
▁assisté	-11.2877
▁tâcher	-11.2881
▁épousé	-11.2881
▁catastrophe	-11.2882
▁gibier	-11.2882
▁souvenez	-11.2882
▁surveillance	-11.2882
▁guéri	-11.2882
▁représentait	-11.2883
▁Salomon	-11.2886
▁mentir	-11.2888
▁ouvrages	-11.2891
▁réveillé	-11.2892
▁Lrsquoun	-11.2894
▁refuge	-11.2895
▁Compagnie	-11.2896
▁palier	-11.2896
▁poissons	-11.2898
▁vigne	-11.2898
▁opposé	-11.29
▁tronc	-11.2904
▁manqua	-11.2905
▁arrêta	-11.2906
▁Amérique	-11.2908
▁rival	-11.2909
▁concevoir	-11.2909
▁céleste	-11.2909
▁trottoir	-11.2909
▁grain	-11.2912
▁rudement	-11.2916
▁gueux	-11.2923
▁jalouse	-11.2924
▁Michele	-11.2928
▁profondeurs	-11.293
▁rougeur	-11.293
▁règles	-11.2931
▁mrsquoétait	-11.2933
▁machinalement	-11.2937
▁Ar	-11.2937
▁lrsquoy	-11.294
▁ambition	-11.294
▁inconnus	-11.2941
▁VI	-11.2942
▁repose	-11.2944
respectueusement	-11.2945
▁fardeau	-11.2951
▁illustre	-11.2951
▁Ivanovna	-11.2951
▁Beaufort	-11.2951
▁agent	-11.2951
▁considérait	-11.2954
▁loué	-11.2956
▁hésita	-11.2958
con	-11.2961
▁quarts	-11.2963
▁appétit	-11.2964
NE	-11.2964
▁Cécile	-11.2966
▁coulait	-11.2966
asse	-11.2968
▁nombreuse	-11.2969
▁Bo	-11.2969
▁traîner	-11.297
▁tombèrent	-11.2979
▁rêverie	-11.2981
▁tremblement	-11.2982
ut	-11.2984
▁domicile	-11.2993
▁samedi	-11.2993
▁reflet	-11.2993
▁adversaires	-11.2994
▁contrainte	-11.2996
▁indignation	-11.3002
▁étoile	-11.3004
▁Courtin	-11.3007
▁srsquoempêcher	-11.3012
▁attachée	-11.3012
▁rendus	-11.3015
▁embrasser	-11.302
▁instinct	-11.3021
▁lrsquoabri	-11.3024
▁reconnaît	-11.3025
▁pressant	-11.3028
▁véritables	-11.3029
▁CH	-11.3031
▁miens	-11.3034
▁malle	-11.3034
▁méprise	-11.3036
▁Ferdinand	-11.3039
▁joyeusement	-11.3039
▁professionnelle	-11.3041
▁favori	-11.3043
▁lrsquousage	-11.3043
▁tournée	-11.3045
▁dirais	-11.3046
▁tablier	-11.3049
▁marqué	-11.3053
▁exclamation	-11.3056
▁instruit	-11.3058
▁adressée	-11.3059
▁robuste	-11.3061
▁rougissant	-11.3062
▁goûter	-11.3063
▁Beau	-11.3064
Dieu	-11.307
ché	-11.3072
▁million	-11.3081
▁Bathilde	-11.3091
▁aveu	-11.3093
▁élégante	-11.3093
▁lrsquoextrémité	-11.3096
▁expliqué	-11.3096
mà	-11.3097
▁interdit	-11.3102
▁nerveuse	-11.3104
▁habillé	-11.3108
▁saurai	-11.311
▁voies	-11.3112
▁rapides	-11.3113
▁teinte	-11.3117
▁Ré	-11.3117
▁nrsquoaime	-11.3119
▁pilote	-11.3119
▁Guerche	-11.3119
▁résignation	-11.312
▁immobiles	-11.312
▁alliance	-11.3132
instruction	-11.3133
▁IX	-11.3133
▁contraint	-11.3133
▁Nucingen	-11.3134
▁mobilier	-11.3134
▁vicaire	-11.3134
▁Parfaitement	-11.3134
arrête	-11.3136
▁timidement	-11.3137
▁approcher	-11.3143
aille	-11.3144
▁relevé	-11.3151
▁méchants	-11.3151
▁soutenu	-11.3154
absence	-11.3158
▁intervalles	-11.3163
ly	-11.3163
île	-11.3165
▁XV	-11.3168
▁préféré	-11.3168
▁tarder	-11.317
▁apparaissait	-11.3171
▁condamnés	-11.3172
▁traite	-11.3178
▁mousse	-11.3179
▁reprend	-11.3183
▁fabrique	-11.3184
▁attaquer	-11.3186
▁Cor	-11.3187
▁pêche	-11.319
animal	-11.3192
▁Aucune	-11.3193
▁tenais	-11.3194
▁aille	-11.3198
▁considère	-11.3199
▁chéri	-11.3199
▁auteur	-11.3201
▁penchée	-11.3201
▁cadeau	-11.3204
▁distraire	-11.3205
▁dressa	-11.3205
▁mortelle	-11.3205
▁livrés	-11.3207
▁entourée	-11.3207
▁plante	-11.3208
ire	-11.3212
▁George	-11.3212
ouvre	-11.3213
▁drsquoA	-11.3215
▁jurer	-11.3223
▁tailleur	-11.3226
▁Cher	-11.3226
▁chants	-11.3229
▁sot	-11.3232
▁Temple	-11.3235
▁conclure	-11.3236
▁reposait	-11.324
▁invité	-11.3241
▁troublée	-11.3241
▁bandes	-11.3242
▁chantant	-11.3244
▁casque	-11.3246
▁contient	-11.3248
▁attachés	-11.3248
▁Clotilde	-11.3249
▁dépêche	-11.3249
▁désespérée	-11.3249
▁client	-11.3251
▁commandé	-11.3251
▁sacrifices	-11.3258
▁Chambre	-11.3262
▁procédé	-11.3264
ger	-11.3269
▁commerciale	-11.327
▁parlement	-11.3273
▁roche	-11.3276
rsquoimportance	-11.3277
humanité	-11.3279
gi	-11.3279
▁brisée	-11.3281
Empereur	-11.3283
▁péchés	-11.3285
▁rapporte	-11.3286
▁privée	-11.3289
▁Monsoreau	-11.3291
▁blancheur	-11.3291
▁complot	-11.3293
▁garni	-11.3298
Italie	-11.3298
▁pic	-11.3298
mou	-11.3301
▁irait	-11.3305
▁Na	-11.3313
▁trot	-11.3314
issant	-11.3318
▁Ch	-11.3318
▁Impossible	-11.332
▁Rousseau	-11.332
▁assassiné	-11.3321
▁déc	-11.3326
—	-11.3327
▁titres	-11.3328
▁partait	-11.3331
▁rêver	-11.3331
▁pleuré	-11.3334
▁Ivanovitch	-11.3334
▁Bar	-11.3335
▁rumeur	-11.3336
écrire	-11.3337
▁approche	-11.334
▁Val	-11.3343
▁rappelant	-11.3345
▁conférence	-11.3351
▁cruauté	-11.3351
▁torture	-11.3356
▁ignorance	-11.3359
▁chassé	-11.3359
▁tranquilles	-11.3361
▁coupables	-11.3362
▁ressemblent	-11.3363
▁gendre	-11.3363
▁craignant	-11.3363
▁voulons	-11.3363
▁confession	-11.3364
▁apparences	-11.3364
▁ruban	-11.3366
▁régions	-11.3369
ry	-11.3371
▁Carmélite	-11.3377
ive	-11.3378
▁lrsquoami	-11.3379
▁ressource	-11.338
▁ramasser	-11.3386
▁canapé	-11.3392
▁voisines	-11.3392
▁moustaches	-11.3399
▁défaite	-11.34
▁prenne	-11.3401
▁signé	-11.3404
▁pressa	-11.3405
▁successivement	-11.3407
▁achever	-11.341
▁réveilla	-11.342
▁Nointel	-11.3421
▁Presque	-11.3421
▁Hulot	-11.3421
▁gaie	-11.3423
▁feuillage	-11.3425
▁éclatant	-11.3425
▁sincèrement	-11.3426
▁rompu	-11.3426
▁lrsquoauberge	-11.3428
▁classes	-11.3429
▁apparaître	-11.3431
▁élever	-11.3432
▁visiteurs	-11.3435
▁solution	-11.3436
▁écuyer	-11.3437
▁drsquoaccord	-11.3437
▁meurtrier	-11.344
▁entraîné	-11.3444
▁vilain	-11.3444
dedans	-11.3444
▁commanda	-11.3446
▁ajoute	-11.3449
▁gamin	-11.3449
▁crépuscule	-11.345
▁levèrent	-11.345
▁Bref	-11.345
▁vaudrait	-11.3451
sent	-11.3452
▁génération	-11.3453
▁Berthe	-11.3465
▁distraction	-11.3468
▁indiquait	-11.347
▁casser	-11.3472
▁union	-11.3479
▁Tristan	-11.348
▁MA	-11.348
▁auberge	-11.348
▁furieuse	-11.3481
▁Cardinal	-11.3481
▁allure	-11.3485
▁drsquohomme	-11.3486
ème	-11.3489
▁!)	-11.349
▁nid	-11.3494
▁lrsquoaurait	-11.3495
▁habitués	-11.3496
▁recommandation	-11.3498
odeur	-11.3498
▁dirigeait	-11.3506
▁auteurs	-11.3507
▁parfums	-11.3508
▁enveloppe	-11.3508
▁agitée	-11.3509
ru	-11.3511
erie	-11.3512
forme	-11.3512
cha	-11.3512
▁frontière	-11.3515
▁résolus	-11.3516
▁interrogea	-11.3516
▁proposé	-11.3518
▁siennes	-11.3518
▁finie	-11.352
▁32	-11.3521
▁vivres	-11.3524
▁pudeur	-11.3524
▁restai	-11.3527
▁Veux	-11.3527
▁signer	-11.3528
▁entends	-11.3537
bon	-11.3542
▁partant	-11.3542
▁vieillesse	-11.3549
trois	-11.3551
▁pensai	-11.3551
▁soumettre	-11.3553
▁Be	-11.3555
▁malin	-11.3556
▁presser	-11.3556
▁avocat	-11.3558
▁aîné	-11.3559
▁accompagnée	-11.3562
▁quête	-11.3563
horreur	-11.3566
▁René	-11.3567
▁poussée	-11.3567
▁disparition	-11.3568
▁Magnus	-11.3568
▁draps	-11.3569
▁porteur	-11.3573
▁verras	-11.3574
▁découvre	-11.3577
▁admettre	-11.358
▁confidences	-11.3582
▁pourrons	-11.3583
▁lande	-11.3586
▁Hein	-11.3588
▁remplie	-11.3591
▁montaient	-11.3591
▁sacrifier	-11.3594
▁Tour	-11.3598
▁chiffre	-11.3602
▁annonce	-11.3608
▁vœu	-11.361
▁deviennent	-11.3615
▁Jusqu	-11.3616
▁conversations	-11.3619
▁présentant	-11.3619
▁mystères	-11.3621
▁étudier	-11.3626
▁Ciel	-11.3631
▁bague	-11.3631
▁funeste	-11.3632
▁éloignée	-11.3633
▁croisée	-11.3634
▁tambour	-11.364
▁finalement	-11.3643
▁cacha	-11.3646
▁causant	-11.3648
▁penché	-11.3649
▁collet	-11.3649
▁rires	-11.3651
▁élevés	-11.3653
chose	-11.3655
▁berceau	-11.3657
▁Gustave	-11.3657
▁station	-11.3657
▁déposer	-11.3658
▁allions	-11.3658
▁Italie	-11.366
ateur	-11.3664
▁loger	-11.3665
▁lrsquoempereur	-11.3667
▁Ville	-11.3671
▁bar	-11.3675
ork	-11.3675
▁contrée	-11.3677
▁crayon	-11.3677
▁Maman	-11.3678
▁hardi	-11.368
entendis	-11.3683
▁brume	-11.3686
▁tarda	-11.3687
▁Gorenflot	-11.3687
▁connaissons	-11.3688
▁février	-11.3689
▁splendide	-11.3689
▁paraissent	-11.3689
▁croisées	-11.3691
▁révélation	-11.3693
▁grommela	-11.3693
▁co	-11.3694
▁sursaut	-11.3698
▁vend	-11.37
▁contenance	-11.3702
▁Per	-11.3709
▁suspendu	-11.3709
▁sépare	-11.3714
▁Prussiens	-11.3725
▁Fais	-11.3726
-8	-11.3727
▁voyages	-11.3727
▁avertir	-11.3728
▁défend	-11.3729
▁marchandises	-11.3729
▁intimes	-11.373
▁assurance	-11.373
▁cloches	-11.3732
▁srsquoappelle	-11.3735
▁attentif	-11.3737
▁combats	-11.374
▁pêcheur	-11.3741
▁brûlant	-11.3741
▁subite	-11.3744
▁convenait	-11.3747
▁descendirent	-11.3747
▁examen	-11.3747
▁cachet	-11.3749
▁tiroir	-11.3752
▁saurez	-11.3753
▁activité	-11.3758
▁détour	-11.3761
▁octobre	-11.3762
▁vizir	-11.3762
▁désignant	-11.3766
Anne	-11.3766
▁prophète	-11.3767
▁Victor	-11.3768
▁Espagne	-11.3776
▁Corentin	-11.3778
▁lieue	-11.3778
▁soigner	-11.378
▁reparut	-11.378
▁réveil	-11.3781
▁diables	-11.3792
vi	-11.3795
▁Prends	-11.3796
▁blond	-11.3797
élève	-11.3797
ques	-11.38
arrière	-11.3801
▁traitement	-11.3801
▁Allemands	-11.3803
▁boutons	-11.3804
▁Challenger	-11.3808
▁légèreté	-11.381
▁ajouté	-11.3812
▁familier	-11.3813
▁grenier	-11.3813
▁nrsquoes	-11.3813
▁patriotes	-11.3813
▁gagnait	-11.3814
▁répandre	-11.3814
▁regagner	-11.3819
▁occupés	-11.382
▁crié	-11.382
▁plu	-11.3822
▁Révolution	-11.3823
▁Colomban	-11.3823
▁donnèrent	-11.3824
▁filet	-11.3824
res	-11.3825
▁insensible	-11.3826
▁fr	-11.3828
▁contrat	-11.3831
▁acheva	-11.3836
▁Modeste	-11.3838
▁meuble	-11.3842
rsquoadmiration	-11.3844
▁renversé	-11.3846
▁Max	-11.3846
▁ôter	-11.3847
indifférence	-11.3849
▁caresse	-11.385
▁chaînes	-11.3852
▁plats	-11.3852
▁excès	-11.3856
▁pressentiment	-11.386
▁casquette	-11.386
acte	-11.3865
appeler	-11.3866
▁Pons	-11.3868
▁peint	-11.3868
▁Telle	-11.3869
▁soulever	-11.3869
▁nier	-11.3869
▁pureté	-11.387
▁détachement	-11.3875
▁Qursquo	-11.3876
▁be	-11.3876
▁cherchez	-11.3878
▁réaliser	-11.388
▁appelez	-11.3883
▁trous	-11.3884
▁cornes	-11.3889
▁amoureuse	-11.3889
▁portier	-11.3891
▁salons	-11.3891
lu	-11.3898
▁canal	-11.3899
▁rêvé	-11.39
▁finissait	-11.3901
▁srsquoaperçut	-11.3902
▁élégant	-11.3903
▁tendue	-11.3903
▁Silence	-11.3905
▁territoire	-11.3905
▁doué	-11.3906
▁muscles	-11.391
▁retourné	-11.3911
ade	-11.3912
▁pendule	-11.3913
▁modestie	-11.3915
▁inquiétudes	-11.3915
▁courtoisie	-11.3915
▁Clara	-11.3915
▁entrailles	-11.3919
▁dormi	-11.3922
▁lrsquoancien	-11.3923
allée	-11.3923
▁arraché	-11.3923
▁Fritz	-11.393
inclina	-11.393
▁Pardonnez	-11.393
▁roulait	-11.3934
▁pardonnez	-11.3935
aucune	-11.3935
▁cul	-11.3936
▁préférence	-11.3936
▁péniblement	-11.3937
ô	-11.394
Autriche	-11.3941
▁prairies	-11.3948
▁généreuse	-11.3949
vin	-11.3951
▁plaisanteries	-11.3959
▁Maison	-11.3959
▁promettre	-11.3961
▁fixa	-11.3962
▁régulièrement	-11.3962
▁mrsquoavoir	-11.3965
espèce	-11.3965
écouter	-11.3966
▁drsquoapprendre	-11.3966
▁écriture	-11.3966
▁empêché	-11.3966
▁recueillir	-11.3968
▁lrsquoespace	-11.3969
mDe	-11.3973
▁Benjamin	-11.3976
▁ongles	-11.3976
▁tremble	-11.3981
▁Claude	-11.3983
▁sauvée	-11.3984
▁nrsquoêtre	-11.3985
▁lrsquoaspect	-11.3987
▁rencontrait	-11.3987
▁largeur	-11.3987
apercevoir	-11.399
AR	-11.3991
▁Régina	-11.3991
▁Natacha	-11.3991
▁Souvent	-11.3991
▁rapporté	-11.3995
▁Fort	-11.4
▁srsquoéloigner	-11.4001
▁v	-11.4001
▁Isabelle	-11.4002
▁emploi	-11.4003
▁suicide	-11.4005
▁régime	-11.4006
▁valoir	-11.4007
▁soupirs	-11.4007
▁Carker	-11.4007
▁gentlemen	-11.4008
▁consenti	-11.4009
▁adieux	-11.4011
▁allemand	-11.4011
▁soucis	-11.4013
▁correspondance	-11.4014
Si	-11.4018
ancienne	-11.4018
assurer	-11.4022
▁Ludovic	-11.4022
▁vingtaine	-11.4023
▁extraordinaires	-11.4026
amant	-11.4026
▁traversant	-11.4028
▁renommée	-11.4029
▁sonore	-11.403
▁informé	-11.403
▁appuyant	-11.4033
▁clients	-11.4036
▁bâti	-11.4038
En	-11.4041
▁revu	-11.4042
▁averti	-11.4042
▁rampe	-11.4043
▁dite	-11.4044
mes	-11.4044
▁songez	-11.4045
▁moyenne	-11.4052
▁précédente	-11.4053
▁timbre	-11.4053
▁couvrit	-11.4054
▁New	-11.4058
▁plaie	-11.406
▁habite	-11.406
tons	-11.4064
lant	-11.4065
éloigna	-11.4067
▁reviendra	-11.4069
▁Cha	-11.4069
oncle	-11.4071
▁mérité	-11.4071
▁flèches	-11.4073
▁faculté	-11.4076
▁distrait	-11.4076
▁collection	-11.4076
▁réservé	-11.4079
▁fiancé	-11.4081
▁loyal	-11.4083
▁Lamme	-11.4084
▁boudoir	-11.4085
▁Hervé	-11.4085
▁venues	-11.4086
▁insupportable	-11.4095
▁di	-11.4095
▁pouces	-11.4096
▁Lousteau	-11.41
▁Blake	-11.41
▁Tadeo	-11.41
▁Aujourd	-11.41
▁couches	-11.41
istes	-11.4103
▁goûts	-11.4103
▁pressait	-11.4105
▁façade	-11.4107
▁assassin	-11.4107
nu	-11.4109
▁Casaubon	-11.4116
▁desquelles	-11.4116
▁avancée	-11.4119
▁faillit	-11.412
▁patient	-11.4122
envoyer	-11.4122
▁passera	-11.4129
▁changements	-11.4129
▁volets	-11.413
▁neuve	-11.413
▁levai	-11.4131
▁Gibassier	-11.4131
▁légers	-11.4134
armes	-11.4134
aimerais	-11.4137
▁enquête	-11.414
rsquoinstruction	-11.4141
Jacques	-11.4144
▁lrsquoas	-11.4147
▁Buvat	-11.4147
▁méchanceté	-11.4147
▁Bonsoir	-11.4147
▁existait	-11.4147
▁tressaillir	-11.4149
▁Mar	-11.4151
▁cordon	-11.4152
▁cigare	-11.4156
ob	-11.4157
and	-11.4159
fils	-11.4164
▁XIII	-11.4177
▁avançait	-11.4182
▁devinait	-11.4183
▁préoccupé	-11.4185
▁dossier	-11.4186
▁puissants	-11.419
▁éclairs	-11.4191
▁étourdi	-11.4194
▁vastes	-11.4195
▁majorité	-11.4195
▁barreaux	-11.4195
op	-11.4196
▁imaginé	-11.4198
▁collier	-11.4202
▁pénétra	-11.4204
▁distingué	-11.4207
▁vertes	-11.4207
▁Quels	-11.421
▁composait	-11.4211
▁tempes	-11.4211
▁ch	-11.4215
ha	-11.4216
▁pouvions	-11.4226
▁comptant	-11.4229
▁habituel	-11.4231
▁rendent	-11.4234
▁œufs	-11.4235
ER	-11.4235
▁arc	-11.4239
▁Versailles	-11.4242
▁envoyés	-11.4242
atelier	-11.4243
▁promenant	-11.4247
▁articles	-11.4248
▁poètes	-11.4249
▁héritage	-11.4249
affaires	-11.4254
ise	-11.4254
▁Mousqueton	-11.4257
▁Rosemonde	-11.4258
ies	-11.4258
▁Peter	-11.426
don	-11.4265
ke	-11.4266
▁donnerais	-11.427
attend	-11.4272
▁inférieure	-11.4273
▁aurai	-11.4273
▁savants	-11.4274
▁appui	-11.4277
▁lente	-11.4279
▁roulant	-11.4281
▁rancune	-11.4282
▁lrsquoaction	-11.4283
▁détruit	-11.4285
▁lrsquoœuvre	-11.4288
▁valent	-11.4291
ène	-11.4293
▁bonjour	-11.4293
▁bagages	-11.4301
▁Felton	-11.4305
▁Quelquefois	-11.4305
▁effrayant	-11.4307
▁Mal	-11.4307
▁prendra	-11.4312
▁recours	-11.4312
▁parrain	-11.4314
▁murmurait	-11.4315
▁Sol	-11.4315
▁Fi	-11.4317
▁lrsquoattendait	-11.4318
▁lrsquoinconnu	-11.432
▁Mark	-11.4322
▁nuque	-11.4323
▁lueurs	-11.4325
▁Agathe	-11.4327
▁parlais	-11.4327
▁utiliser	-11.4332
▁jolis	-11.4333
io	-11.4337
▁Justement	-11.4339
mpar	-11.4346
▁suffi	-11.4348
▁abominable	-11.435
Or	-11.4351
▁saluant	-11.4353
▁langues	-11.4354
è	-11.4355
artiste	-11.4357
ina	-11.4367
général	-11.4367
▁of	-11.4369
▁Toots	-11.4369
▁fâcheux	-11.4369
▁métal	-11.4372
▁drsquoannées	-11.4373
▁Remy	-11.4374
▁lrsquoinfluence	-11.4378
▁splendeur	-11.4378
▁Romains	-11.4379
▁invitation	-11.438
▁rappelé	-11.4383
▁Crawford	-11.4385
▁distinctement	-11.4386
ts	-11.4387
▁DU	-11.4387
ignore	-11.4388
ien	-11.4389
▁ajoutait	-11.4389
▁Ri	-11.439
▁lié	-11.4391
▁sottise	-11.4394
▁vices	-11.4395
▁utiles	-11.4396
▁désolé	-11.4397
▁Bob	-11.44
cul	-11.4401
▁grains	-11.4401
▁Regarde	-11.4402
▁Vingt	-11.4405
aimais	-11.4405
aube	-11.4406
▁réponses	-11.4407
▁merveilles	-11.4408
▁Job	-11.4409
od	-11.441
▁aidé	-11.4413
▁indiqué	-11.4414
▁entières	-11.4416
▁mettaient	-11.4417
▁éteint	-11.4429
einec	-11.4433
▁cathédrale	-11.4433
▁comprenant	-11.4433
▁promettait	-11.4434
▁fatigues	-11.4439
pi	-11.444
▁restant	-11.4443
▁Gascon	-11.4443
▁compatriotes	-11.4449
▁solides	-11.4453
▁subi	-11.4454
▁sévèrement	-11.4457
▁chargea	-11.4461
▁moque	-11.4463
mUn	-11.4463
gue	-11.4464
▁revinrent	-11.4466
▁lèvre	-11.4475
rsquoimpatience	-11.4476
▁prêté	-11.4478
▁produits	-11.4478
▁précédent	-11.4478
▁injuste	-11.448
▁Europe	-11.4484
▁Satan	-11.4484
▁gr	-11.4484
▁jouant	-11.4485
▁éternellement	-11.4486
▁Verloc	-11.4498
hé	-11.4498
▁lrsquoart	-11.4499
▁Conseil	-11.45
éloigner	-11.4501
▁transporté	-11.4505
▁lits	-11.4506
tan	-11.4506
▁Elizabeth	-11.4506
▁spirituel	-11.4508
▁maris	-11.4509
▁sotte	-11.4515
▁Chut	-11.4515
▁regretter	-11.4519
▁embrassa	-11.4532
▁greffier	-11.4532
▁écu	-11.4533
iser	-11.4533
▁coupa	-11.4535
▁conter	-11.4537
▁figurer	-11.4538
▁concours	-11.454
▁matelot	-11.4541
▁ancêtres	-11.4545
▁Venise	-11.4547
▁sorcière	-11.4547
▁devriez	-11.4547
▁srsquoexclama	-11.4549
▁possibilité	-11.4557
▁fondre	-11.4558
▁100	-11.456
▁social	-11.4562
▁Chevreuse	-11.4563
▁cils	-11.4564
▁mrsquoécriai	-11.4565
▁Lrsquoautre	-11.4566
▁innocence	-11.4566
▁restez	-11.4571
▁campagnes	-11.4571
▁purement	-11.4572
▁serrées	-11.4575
▁lrsquohiver	-11.4575
ance	-11.4576
administration	-11.4578
▁pieux	-11.4581
obus	-11.4586
▁vache	-11.4588
▁gendarme	-11.4589
▁monotone	-11.459
▁DO	-11.459
▁jetèrent	-11.4594
▁charmé	-11.4607
▁doré	-11.4608
isse	-11.461
▁Angel	-11.4612
▁lâcha	-11.4617
▁culotte	-11.4617
j	-11.4622
▁forteresse	-11.4623
▁gentille	-11.4624
▁Ra	-11.4626
▁prépare	-11.4628
▁rapprocher	-11.4632
▁marée	-11.4634
▁obstacles	-11.4635
estime	-11.4639
▁gémissement	-11.464
▁examina	-11.4641
▁exécuté	-11.4643
élevait	-11.4644
▁Rastignac	-11.4646
▁parcourir	-11.4646
bi	-11.4646
▁renvoyer	-11.4646
▁frappée	-11.4646
▁cachés	-11.4648
▁contemplait	-11.4648
▁srsquoappelait	-11.4649
▁inspiré	-11.465
▁feraient	-11.4651
▁Lorraine	-11.4651
▁destinées	-11.4655
▁paternelle	-11.4656
▁tourbillon	-11.4657
▁répandu	-11.466
▁mariés	-11.4668
▁pi	-11.4671
▁châle	-11.4673
▁tentation	-11.4673
▁prétendu	-11.4677
▁poursuivait	-11.468
▁Nul	-11.4682
▁fantômes	-11.4683
▁haussant	-11.4687
▁satisfaite	-11.4689
▁durer	-11.469
▁repousser	-11.469
▁roches	-11.4693
▁Mordaunt	-11.4695
▁relativement	-11.4696
▁Po	-11.4697
mF	-11.4698
▁amène	-11.4698
qué	-11.47
▁caprices	-11.4701
▁Nrsquo	-11.4702
▁moulin	-11.4703
▁nocturne	-11.4706
▁sacrée	-11.4706
▁considéré	-11.471
▁stupéfaction	-11.4712
▁Godefroid	-11.4712
▁animé	-11.4713
▁Sara	-11.4714
▁accourut	-11.4716
▁accepta	-11.472
▁Alexandre	-11.4721
▁serrée	-11.4721
▁Alan	-11.4722
▁blonds	-11.4723
▁fantastique	-11.4723
▁frégate	-11.4723
▁installé	-11.4723
▁développement	-11.4724
▁sacs	-11.4725
son	-11.4725
▁allumé	-11.4726
▁aisé	-11.4729
▁desseins	-11.4732
▁solidement	-11.4734
▁odieux	-11.4735
▁apprend	-11.4735
▁humains	-11.4735
▁monture	-11.4736
▁sain	-11.4737
▁devina	-11.4737
▁traînant	-11.4738
▁description	-11.474
▁livide	-11.474
▁Pinch	-11.4746
onne	-11.4746
▁infinie	-11.4747
▁Christophe	-11.4747
▁créer	-11.4751
▁prouvé	-11.4755
▁admis	-11.4757
aujourd	-11.4761
▁Nathan	-11.4762
▁vîmes	-11.4762
▁signifiait	-11.4762
▁consentir	-11.477
▁irrité	-11.4771
▁bassin	-11.4777
▁lrsquoétait	-11.4778
▁planté	-11.4778
▁arrivera	-11.478
▁fumer	-11.4782
▁irons	-11.4792
▁volée	-11.4792
▁répété	-11.4794
▁lumineux	-11.4795
▁soufflait	-11.4797
exécution	-11.4801
▁consul	-11.4803
lée	-11.4804
▁regardent	-11.4808
▁devinrent	-11.4813
▁accordé	-11.4814
▁rassurer	-11.4815
▁conçu	-11.4822
▁drsquoelles	-11.4823
▁ouvrier	-11.4829
aimé	-11.4834
▁drsquoattendre	-11.4837
▁Port	-11.4841
aujourdrsquohui	-11.4842
▁Condé	-11.4845
▁surprit	-11.4845
▁soumission	-11.4846
▁meurs	-11.4848
▁retire	-11.4848
mon	-11.4849
▁illusion	-11.4849
▁satin	-11.4855
▁nommée	-11.4862
▁endormie	-11.4865
▁Sel	-11.4878
▁boutiques	-11.4878
▁dressé	-11.4878
▁Gabriel	-11.4879
▁srsquoavançait	-11.4885
▁reconnue	-11.4886
mParis	-11.4887
▁lançant	-11.4888
▁forment	-11.4889
▁vôtres	-11.4889
ite	-11.4891
mG	-11.49
ach	-11.4901
▁réclame	-11.4902
▁hurla	-11.4904
▁difficiles	-11.4905
▁Moscou	-11.4913
▁coton	-11.4914
▁pression	-11.4915
▁bateaux	-11.4915
▁h	-11.4915
établissement	-11.4917
ho	-11.4922
▁refusait	-11.4924
▁flacon	-11.4925
emp	-11.493
▁pistoles	-11.493
be	-11.493
ssiez	-11.4934
▁justes	-11.4934
▁naïve	-11.4939
▁échelle	-11.494
Elle	-11.494
▁vents	-11.494
▁sentinelles	-11.4942
▁Arnold	-11.4942
▁résolue	-11.4944
▁Ben	-11.4944
▁détacher	-11.4947
Harmental	-11.4947
▁Lisbeth	-11.4947
▁escaliers	-11.495
▁rebelles	-11.4953
▁dépôt	-11.496
irent	-11.496
autrefois	-11.496
▁immenses	-11.496
▁dût	-11.4963
▁signification	-11.4964
▁remplis	-11.4966
▁planche	-11.4967
▁fi	-11.4967
▁Américains	-11.4968
▁bougies	-11.4971
offre	-11.4973
▁croyance	-11.4977
▁grade	-11.4977
▁gage	-11.4979
ouvrage	-11.498
▁tempérament	-11.4981
Royal	-11.4981
▁Attends	-11.4984
accepter	-11.4988
▁lrsquoEmpereur	-11.4988
▁buissons	-11.4992
▁rauque	-11.4994
▁séparé	-11.4995
rsquoapercevoir	-11.4996
▁Société	-11.4999
rsquoexpérience	-11.5
ay	-11.5003
▁forcés	-11.5008
▁préoccupation	-11.5011
▁coquetterie	-11.5011
▁saisis	-11.5012
▁fugitifs	-11.5013
▁révélé	-11.5014
▁Smith	-11.5015
▁souffler	-11.5017
▁éprouva	-11.5018
▁pussent	-11.5019
▁ménager	-11.5021
▁terriblement	-11.5028
▁prisonnière	-11.5029
▁Perse	-11.5029
▁Lampieur	-11.5032
▁rêveur	-11.5033
▁comptez	-11.5034
rin	-11.5035
▁sitôt	-11.5036
▁mouche	-11.5039
aires	-11.5039
▁lrsquoanimal	-11.504
▁abbé	-11.5045
▁raide	-11.5045
▁gouffre	-11.5049
▁rendirent	-11.505
▁Bella	-11.5051
▁respirait	-11.5051
▁personnellement	-11.5053
attendais	-11.5054
▁gigantesque	-11.5063
▁liaison	-11.5063
▁assurée	-11.5065
▁coûté	-11.5067
▁jrsquoentends	-11.5068
▁secrètes	-11.5068
▁Midi	-11.5073
▁lrsquoabsence	-11.5074
mTout	-11.5078
▁actuel	-11.508
▁croisés	-11.508
▁écho	-11.5082
▁explique	-11.5086
ves	-11.5087
▁exemples	-11.5091
Amérique	-11.5092
▁demeuré	-11.5095
▁compté	-11.5096
▁consentit	-11.5098
▁Hugh	-11.5101
▁inventé	-11.5107
tri	-11.5107
▁jetés	-11.5109
▁inspirait	-11.5111
▁admirer	-11.5112
vo	-11.5113
tique	-11.5118
▁résidence	-11.5118
▁noce	-11.512
▁vaillant	-11.512
▁subit	-11.512
▁trahi	-11.5122
▁fourni	-11.5122
▁ruelle	-11.5123
▁noyer	-11.5124
▁rives	-11.5124
▁Entrez	-11.5124
▁amertume	-11.5126
▁profita	-11.513
▁substance	-11.5132
▁lundi	-11.5137
▁Collin	-11.5137
▁Garde	-11.5138
▁pendait	-11.5138
OR	-11.5139
▁lisant	-11.5141
▁lourdement	-11.5142
▁suspendue	-11.5143
▁guet	-11.5144
▁lrsquoespérance	-11.5146
▁grec	-11.5149
▁exprimait	-11.5149
mse	-11.5151
▁sollicitude	-11.5153
▁convenir	-11.5153
▁répandit	-11.5154
▁retournait	-11.516
▁prétendait	-11.516
ON	-11.5165
aperçus	-11.5165
▁réjouir	-11.517
▁timidité	-11.517
▁laissèrent	-11.517
▁moutons	-11.5171
▁coudes	-11.5174
▁étroitement	-11.5175
▁roue	-11.5177
▁lenteur	-11.5178
▁remparts	-11.518
▁ben	-11.5185
▁solennelle	-11.5186
▁Sarranti	-11.5188
▁incessamment	-11.5188
▁Maude	-11.5189
▁déposé	-11.5189
▁srsquoélevait	-11.5191
▁extrémités	-11.5194
▁ours	-11.5196
▁qursquoa	-11.52
▁dirigeant	-11.5202
▁construction	-11.5202
▁cadre	-11.5202
▁i	-11.5203
▁poignet	-11.5204
▁Charlot	-11.5204
▁équipage	-11.5206
▁accusé	-11.5213
orage	-11.5214
▁globe	-11.522
▁montèrent	-11.5222
▁trajet	-11.5222
▁Franklin	-11.5223
▁vacances	-11.5227
▁triple	-11.5227
▁chaussée	-11.5228
▁examiné	-11.5232
▁Virginie	-11.5233
▁proprement	-11.5234
▁oser	-11.5236
▁grêle	-11.5237
▁pouviez	-11.524
▁continuellement	-11.5241
▁choisit	-11.5241
ayez	-11.5242
▁huguenots	-11.5245
fort	-11.5247
▁sélection	-11.5248
▁lrsquoarbre	-11.5248
▁recommença	-11.5254
▁reviendrai	-11.5261
▁casse	-11.5261
▁prendrai	-11.5262
▁racines	-11.5265
-18	-11.5268
▁accablé	-11.5268
▁accueil	-11.5268
allait	-11.5269
▁priait	-11.5269
▁manquent	-11.5271
▁député	-11.5272
▁tiède	-11.5272
▁souterrain	-11.5274
▁dépenses	-11.5275
▁ras	-11.5275
▁Fiodorovitch	-11.5275
▁vignes	-11.5275
▁buvait	-11.5275
▁fromage	-11.5275
▁trompait	-11.5276
▁relève	-11.5277
▁destruction	-11.5278
▁rapprocha	-11.5278
rou	-11.5278
▁largement	-11.5279
▁servant	-11.528
▁Cla	-11.5285
▁voyager	-11.5289
▁centaine	-11.5291
cé	-11.5292
▁prendrait	-11.5293
▁Jasmin	-11.5293
▁jusqursquoalors	-11.5293
▁Sarah	-11.5293
ations	-11.5298
cri	-11.5301
▁mangeait	-11.5301
AL	-11.5301
▁offensé	-11.531
▁bonsoir	-11.5312
▁manoir	-11.5314
▁renversa	-11.5314
▁oubliée	-11.5314
▁Do	-11.5315
étude	-11.5316
drsquoAngleterre	-11.5319
▁cessait	-11.532
▁prompt	-11.5321
▁occupations	-11.5323
nés	-11.5327
▁rosée	-11.5328
incompréhensible	-11.5328
▁gracieusement	-11.5331
cal	-11.5331
▁Édouard	-11.5338
impatience	-11.5338
▁profil	-11.5338
▁mendiant	-11.534
aviez	-11.5343
▁réception	-11.5343
▁causa	-11.5345
▁gisait	-11.5346
▁and	-11.5346
▁attends	-11.5347
▁amer	-11.5347
▁assemblée	-11.5347
▁net	-11.5347
▁passai	-11.5348
lla	-11.5349
▁déterminé	-11.535
▁fièrement	-11.5351
▁Fontaine	-11.5352
▁fermes	-11.536
▁prétention	-11.5361
▁glorieux	-11.5363
▁bâtir	-11.5367
▁atteignit	-11.5371
▁versé	-11.5372
▁Adolphe	-11.5372
▁horriblement	-11.5373
▁jetai	-11.5375
original	-11.5377
▁légères	-11.5378
▁cigarette	-11.5379
ud	-11.5379
eaux	-11.538
▁délivrance	-11.5381
▁Chine	-11.5383
▁comparer	-11.5387
▁nrsquoait	-11.5388
▁lrsquohumanité	-11.5389
▁criaient	-11.5393
▁feutre	-11.5393
▁maudite	-11.5394
▁expressions	-11.5395
▁Ver	-11.5397
▁Glaucus	-11.5399
▁voulus	-11.54
▁définitivement	-11.5401
▁verrait	-11.5402
▁manifeste	-11.5405
▁variétés	-11.5407
▁épées	-11.5408
▁lrsquoauteur	-11.5412
▁mrsquoempêcher	-11.5413
▁Frère	-11.5415
▁Bulstrode	-11.5416
▁croyaient	-11.5416
▁essayons	-11.5416
▁Wilson	-11.5416
▁Parbleu	-11.5417
▁Hollande	-11.5417
OUVE	-11.5418
▁qursquoaucun	-11.5422
▁ramena	-11.5422
▁tués	-11.5423
▁ouverture	-11.5424
▁chaloupe	-11.5433
▁couvertes	-11.5433
▁vanter	-11.5433
▁fermées	-11.5433
▁remarquai	-11.5434
▁renoncé	-11.5435
▁remplissait	-11.5435
tez	-11.5435
Aignan	-11.5436
▁lisière	-11.5437
chant	-11.5438
▁agréables	-11.5441
▁dérobée	-11.5443
▁répondant	-11.5444
▁alluma	-11.5444
attends	-11.5449
▁espagnol	-11.545
▁établissement	-11.545
▁JACQUES	-11.5452
ssez	-11.5452
▁fâchée	-11.5452
▁for	-11.5455
▁glacé	-11.5455
▁dressait	-11.5456
▁limite	-11.546
▁vraisemblable	-11.546
▁précipité	-11.5463
▁étages	-11.5471
▁berger	-11.5472
▁percer	-11.5481
▁servaient	-11.5488
▁Jacqueline	-11.5489
▁positivement	-11.5489
angle	-11.5493
▁effroi	-11.5495
oy	-11.5499
▁lrsquoavant	-11.5501
▁particuliers	-11.5502
▁partez	-11.5504
▁Pro	-11.5505
▁Bounderby	-11.5506
▁saisie	-11.5506
▁réplique	-11.5508
▁évanouie	-11.5517
▁égaré	-11.5521
existe	-11.5522
▁attaqué	-11.5523
▁avril	-11.5523
▁retenait	-11.5524
ame	-11.5525
▁espérant	-11.5529
▁orné	-11.5529
▁fermait	-11.5533
▁pénétrant	-11.5535
our	-11.5535
▁propriétés	-11.5536
▁engagement	-11.554
▁romans	-11.5541
▁respectueux	-11.5542
▁Rieux	-11.5543
▁treize	-11.5546
▁archers	-11.5547
▁remercia	-11.5547
▁adorable	-11.5549
▁Taverney	-11.556
▁solennité	-11.556
▁Excusez	-11.556
▁sèchement	-11.5564
▁miel	-11.5566
▁fixant	-11.5567
▁mou	-11.5571
▁considérables	-11.5571
▁attente	-11.5578
▁dominait	-11.5579
▁républicains	-11.5582
applaudissements	-11.5583
▁usé	-11.5583
▁cabine	-11.5583
échapper	-11.5584
égard	-11.5587
▁possibles	-11.5588
▁dégager	-11.5596
▁sanctuaire	-11.5596
▁eûmes	-11.5596
▁ressemblaient	-11.5596
▁ironique	-11.5596
ven	-11.5597
▁trompette	-11.5597
▁srsquoassurer	-11.5599
mmdash	-11.5601
▁sensations	-11.5601
▁lrsquoouvrage	-11.5603
▁Loire	-11.5603
▁humides	-11.5605
tier	-11.5606
aurez	-11.5606
rsquoabandonner	-11.5607
▁four	-11.5608
lait	-11.5613
▁journaliste	-11.5614
▁Percival	-11.5614
▁causaient	-11.5616
▁distinguait	-11.5617
▁laissons	-11.5618
▁malaise	-11.5619
mque	-11.562
▁ignorant	-11.5621
▁Marcel	-11.5624
▁Bi	-11.5624
pp	-11.5625
hôpital	-11.5626
éducation	-11.5626
▁rejoint	-11.5629
▁nrsquoose	-11.5631
▁voudriez	-11.5633
▁pomme	-11.5638
nc	-11.564
▁Trop	-11.5642
▁béni	-11.5648
▁conquête	-11.565
▁brigadier	-11.5651
vr	-11.5652
▁ennuis	-11.5653
▁involontaire	-11.5658
▁sautant	-11.5662
▁folies	-11.5662
▁33	-11.5663
▁attachement	-11.5668
▁mises	-11.5668
▁laide	-11.5668
▁représentation	-11.5668
▁conspiration	-11.5669
▁saute	-11.5669
▁plaisant	-11.5669
▁habiter	-11.5672
▁k	-11.5677
▁promenades	-11.5681
ris	-11.5683
▁Qursquoon	-11.5686
▁tragédie	-11.5687
▁Stépanovitch	-11.5687
▁souvient	-11.5687
▁contemplation	-11.5688
▁manquaient	-11.5689
▁brillantes	-11.5689
▁difficilement	-11.569
▁sortent	-11.5693
▁créé	-11.5693
▁maladies	-11.5693
▁lrsquoexemple	-11.5694
▁Seigneurie	-11.5695
ck	-11.5696
▁continué	-11.5697
▁soirées	-11.5698
ide	-11.57
▁abri	-11.5701
extrémité	-11.5704
élever	-11.5704
▁fines	-11.5704
▁nœud	-11.5705
▁jupe	-11.5705
▁Francine	-11.5706
▁remettant	-11.5706
▁Ro	-11.5708
▁puni	-11.5708
▁pesant	-11.5711
▁accord	-11.5711
▁ramassa	-11.5715
▁empire	-11.5718
▁médiocre	-11.5721
▁arrivâmes	-11.5724
▁provinces	-11.5728
▁courtisans	-11.5728
▁souhait	-11.5729
▁bizarres	-11.5732
▁garnie	-11.5735
▁inattendu	-11.5736
Esprit	-11.574
▁naguère	-11.5742
▁atmosphère	-11.5745
▁moquer	-11.5748
▁envahi	-11.5752
▁demandes	-11.5754
▁évanoui	-11.5758
▁glissant	-11.5758
▁brebis	-11.5761
▁portez	-11.5763
og	-11.5765
▁exacte	-11.5768
▁poursuivi	-11.5774
▁mobile	-11.5779
▁blouse	-11.5779
▁Quilp	-11.5779
▁sabots	-11.578
▁éclairait	-11.5781
▁Jo	-11.5783
pt	-11.5786
▁dialogue	-11.5788
▁mena	-11.579
▁ET	-11.5791
▁exige	-11.5791
▁Camusot	-11.5798
▁bureaux	-11.5801
▁entrés	-11.5803
▁humblement	-11.5803
▁gémissements	-11.5804
offrir	-11.5807
approcher	-11.581
exemple	-11.5811
ja	-11.5811
▁coq	-11.5813
▁rétablir	-11.5813
▁murmurant	-11.5815
▁croupe	-11.5815
▁Pardieu	-11.5817
▁plage	-11.5817
▁nain	-11.5818
▁chatte	-11.5819
▁menti	-11.5825
▁citer	-11.5825
▁roc	-11.5827
▁convoi	-11.5828
▁pasteur	-11.5831
▁crièrent	-11.5832
agir	-11.5834
▁propositions	-11.5835
▁fréquemment	-11.5835
▁festin	-11.5835
▁adressa	-11.5835
▁bénisse	-11.584
▁laissai	-11.584
▁Royale	-11.5841
▁croirait	-11.5841
▁lrsquoégard	-11.5841
▁diras	-11.5842
▁repoussa	-11.5844
acier	-11.5846
att	-11.5847
ate	-11.5852
accent	-11.5852
▁nourri	-11.5852
▁églises	-11.5854
▁blessée	-11.5862
Ange	-11.5865
▁éloignés	-11.5866
▁rentes	-11.587
▁voudras	-11.5871
▁durs	-11.5871
▁Griffith	-11.5872
▁sévérité	-11.5872
▁revins	-11.5872
▁exprimé	-11.5873
▁hardiment	-11.5875
rsquoaccompagner	-11.5875
▁Chose	-11.5878
▁intégrité	-11.5878
▁quittée	-11.5884
▁ignore	-11.5885
▁rencontrèrent	-11.5891
▁cristal	-11.5891
▁poème	-11.5891
▁arranger	-11.5895
▁rudes	-11.5897
group	-11.5897
▁conseille	-11.5903
▁rendra	-11.5907
▁relation	-11.591
▁rides	-11.591
▁jrsquoirai	-11.5912
▁clé	-11.5912
▁enseigne	-11.5912
▁procession	-11.5913
▁promena	-11.5914
Macaire	-11.5915
▁lrsquoexécution	-11.5916
▁Juan	-11.5917
enfer	-11.5917
▁lrsquoÉglise	-11.592
▁parles	-11.5921
▁péri	-11.5922
ria	-11.5923
▁composée	-11.5925
tions	-11.5925
oiseau	-11.5926
▁Winkle	-11.5928
▁Lambert	-11.5928
▁département	-11.5932
▁sourires	-11.5932
▁cassé	-11.5937
▁Près	-11.5947
▁manuscrit	-11.5948
▁renard	-11.5949
▁cédé	-11.5949
▁blesser	-11.5951
▁égoïste	-11.5952
vé	-11.5952
hi	-11.5953
▁accoutumé	-11.5954
land	-11.5955
▁Ai	-11.5956
appel	-11.5957
années	-11.5959
▁basses	-11.5961
▁confuse	-11.5964
mo	-11.5965
▁hardiesse	-11.5967
▁sentence	-11.5967
ica	-11.597
édition	-11.597
▁imperceptible	-11.5972
▁escorte	-11.5972
▁pique	-11.5974
▁liquide	-11.5975
▁ressembler	-11.5977
▁lointaine	-11.5983
oit	-11.5983
▁coule	-11.5983
▁clergé	-11.5984
▁énergique	-11.5986
▁buste	-11.5986
▁Rochelle	-11.5987
▁donnai	-11.5992
▁borne	-11.5993
fille	-11.5994
▁injures	-11.5995
▁espion	-11.5996
▁étudié	-11.5998
ssions	-11.6002
▁faiblement	-11.6002
▁envoyait	-11.6003
▁demandèrent	-11.6003
▁destrier	-11.6003
▁actuellement	-11.6006
▁étrangement	-11.6009
▁Laura	-11.6014
▁respecter	-11.6016
▁opposée	-11.6017
▁délivré	-11.602
▁rupture	-11.6022
▁perruque	-11.6024
▁rêvait	-11.6024
▁conserve	-11.6024
▁soucieux	-11.6024
▁serviette	-11.6025
▁joueur	-11.6027
▁angoisses	-11.6029
vingts	-11.6029
▁montraient	-11.6031
▁haies	-11.6032
▁hauteurs	-11.6032
▁associé	-11.6032
▁plongea	-11.6032
▁enterré	-11.6033
▁intelligente	-11.6034
attitude	-11.6037
▁traversée	-11.6037
▁poétique	-11.604
▁Chère	-11.6041
▁statues	-11.6042
▁doctrine	-11.6043
▁amèrement	-11.6043
▁Gaule	-11.6045
▁rat	-11.605
▁vifs	-11.6052
▁glacée	-11.6052
▁dirige	-11.6054
▁âgée	-11.6055
▁rubans	-11.6057
▁Brown	-11.606
▁revenaient	-11.606
▁dépassé	-11.6061
▁copie	-11.6061
▁grossier	-11.6063
ste	-11.6065
aimée	-11.6065
▁sel	-11.6066
▁approché	-11.607
▁prime	-11.6073
▁future	-11.6075
▁Copperfield	-11.6079
▁Golymine	-11.6079
▁Muire	-11.6079
▁battit	-11.6079
▁Grandet	-11.6083
▁respectueuse	-11.6084
▁Durant	-11.6085
▁frissonna	-11.6087
▁lrsquoarrière	-11.6087
▁paie	-11.6089
▁considéra	-11.609
▁mêle	-11.6092
oir	-11.6092
▁Dora	-11.6092
▁promène	-11.6092
▁pèse	-11.6093
▁tombent	-11.6096
▁consigne	-11.6097
▁Sais	-11.6098
▁Pastouré	-11.6098
▁Décidément	-11.6098
▁Blondet	-11.61
▁condamner	-11.6105
▁arrangé	-11.6106
▁passionné	-11.6107
▁nette	-11.6107
▁fourreau	-11.6111
▁innombrables	-11.6114
▁Cibot	-11.6117
▁cailloux	-11.6117
avouer	-11.6118
▁honteuse	-11.6119
▁narines	-11.6121
▁éclairer	-11.6121
▁blâme	-11.6123
▁lrsquohôte	-11.6123
▁inexplicable	-11.6126
▁srsquoempressa	-11.6127
mT	-11.6128
▁assiette	-11.6131
▁imprudence	-11.6136
▁Sherlock	-11.6136
▁secourir	-11.6136
▁ver	-11.6137
▁lourds	-11.6137
▁rappelons	-11.6137
▁comté	-11.6138
val	-11.6138
▁mouches	-11.6141
▁fâcher	-11.6143
▁tradition	-11.6148
▁foin	-11.6148
cour	-11.6148
teurs	-11.615
eu	-11.615
ber	-11.615
▁parcouru	-11.6151
▁Léontine	-11.6156
▁carreaux	-11.6156
▁lâcheté	-11.6159
▁gages	-11.6161
▁féroces	-11.6162
étendue	-11.6164
ug	-11.6165
▁saut	-11.6167
▁niais	-11.6168
mOn	-11.617
▁impatient	-11.6171
bo	-11.6174
▁méritait	-11.6175
▁Hood	-11.6175
▁talus	-11.6176
▁mâle	-11.6177
▁privilège	-11.6177
igne	-11.618
▁sérieuses	-11.6181
▁conduits	-11.6182
▁sanglante	-11.6185
▁étouffé	-11.6186
▁renverser	-11.6187
▁demandaient	-11.6188
▁lampes	-11.6192
▁insensé	-11.6194
▁Béatrix	-11.6194
▁méfiance	-11.6194
▁consistait	-11.6194
▁massif	-11.6196
▁singe	-11.6197
▁pourront	-11.62
▁Nouvelle	-11.6201
mMais	-11.6201
ssons	-11.6201
mpour	-11.6202
▁mrsquoétonne	-11.6202
▁désigné	-11.6203
▁choisis	-11.6205
▁fauve	-11.6206
▁gêner	-11.6207
▁cha	-11.6208
▁tombés	-11.6209
maître	-11.6211
▁rangées	-11.6213
▁soutenait	-11.6213
▁sofa	-11.6213
aventure	-11.6215
▁révérence	-11.6216
▁coquins	-11.6218
▁disposée	-11.6221
▁Hector	-11.6222
ié	-11.6223
▁lrsquoimage	-11.6223
▁fausses	-11.6223
▁suppliant	-11.6226
▁scientifique	-11.6227
▁amena	-11.623
▁go	-11.6232
▁griffes	-11.6233
▁décide	-11.6236
entendit	-11.6237
ov	-11.624
▁achevait	-11.6243
▁dénoncer	-11.6243
▁plains	-11.6245
▁attacher	-11.6247
vent	-11.6252
▁Weller	-11.6252
▁éclatante	-11.6253
IN	-11.6254
▁égards	-11.6254
abandonner	-11.6255
▁commençai	-11.6256
▁protégé	-11.6256
▁frottant	-11.6257
mles	-11.6268
10	-11.627
▁vil	-11.6271
▁craignais	-11.6271
▁loyauté	-11.6271
▁Laquelle	-11.6271
▁jetaient	-11.6273
▁souple	-11.6273
▁sympathique	-11.6274
▁patte	-11.6275
▁Russes	-11.6278
▁lrsquoamitié	-11.6282
mma	-11.6288
▁beurre	-11.6291
bert	-11.6292
▁geôlier	-11.6294
▁vénérable	-11.6294
▁actuelle	-11.6294
▁glissé	-11.6296
▁parlerai	-11.6297
extraordinaire	-11.6298
▁distingue	-11.6299
▁revêtu	-11.63
▁graisse	-11.6301
tro	-11.6304
▁intéressé	-11.6305
▁laver	-11.6308
▁naturelles	-11.6308
▁fers	-11.6308
▁ardents	-11.6309
▁vocation	-11.631
▁Aujourdrsquohui	-11.631
▁contenant	-11.6311
▁marquer	-11.6316
▁rendis	-11.6316
▁particulières	-11.6317
▁Fa	-11.632
▁déteste	-11.6321
▁arts	-11.6322
▁affirmer	-11.6328
▁Jrsquoaime	-11.6328
▁retenue	-11.6329
▁Crsquoétaient	-11.633
▁sérénité	-11.633
▁opérations	-11.6331
▁pesait	-11.6331
▁Mousquetaires	-11.6332
▁formant	-11.6333
▁nuance	-11.6333
▁cherchaient	-11.6334
▁communes	-11.6335
▁clin	-11.6338
iques	-11.6339
êt	-11.6339
▁apprécier	-11.6341
▁fermant	-11.6346
▁Stépan	-11.6349
▁Vendée	-11.6349
▁Denbigh	-11.6349
▁vigoureusement	-11.6351
ges	-11.6351
▁bêtise	-11.6352
▁ruiné	-11.6356
▁Martine	-11.636
▁ennemie	-11.636
involontairement	-11.6361
▁épreuves	-11.6365
▁35	-11.6366
▁avoue	-11.6367
▁audace	-11.6367
▁ordonne	-11.6367
▁recommander	-11.6367
▁Malicorne	-11.6369
▁frémissement	-11.6369
▁Laurence	-11.6369
▁fîmes	-11.6369
sch	-11.637
▁eussiez	-11.6372
▁blême	-11.6372
▁spirituelle	-11.6373
▁roulement	-11.6375
▁Terre	-11.6376
▁école	-11.6378
▁résolument	-11.6378
▁précipiter	-11.6383
sol	-11.6384
▁lrsquoécart	-11.6384
▁prés	-11.6388
▁Iris	-11.6389
▁veau	-11.639
▁magique	-11.6392
▁drsquointérêt	-11.6392
▁calculs	-11.6393
ap	-11.6393
▁perçant	-11.6395
▁roule	-11.6395
mII	-11.6397
▁civile	-11.6398
▁rangée	-11.6399
▁Francis	-11.6407
▁sors	-11.641
▁cérémonies	-11.6413
▁habilement	-11.6414
▁demandent	-11.6415
▁abîme	-11.6416
Denis	-11.6417
▁doutais	-11.6418
▁paquets	-11.6419
▁troubles	-11.6423
▁monument	-11.6428
▁rompit	-11.6428
▁descente	-11.6428
▁vivaient	-11.6428
▁suivent	-11.643
▁dérober	-11.6431
▁fonctionnaire	-11.6431
▁canaille	-11.6432
▁valu	-11.6433
hôte	-11.6434
▁lrsquoespère	-11.6434
▁fillette	-11.6436
▁oubliez	-11.6436
entendait	-11.6438
▁déterminer	-11.6439
▁vitre	-11.6442
▁programme	-11.6444
▁Ier	-11.6444
▁mesurer	-11.6444
▁tourmente	-11.6447
▁excessivement	-11.6449
▁pa	-11.6451
▁restaurant	-11.6451
▁brute	-11.6453
▁remonte	-11.6453
▁dorée	-11.6453
Egypte	-11.6456
▁Go	-11.6456
▁posait	-11.646
▁pratiques	-11.6462
▁Bragelonne	-11.6467
11	-11.6469
éclair	-11.647
▁souffla	-11.6471
▁méditation	-11.6471
▁colonie	-11.6471
▁hurlements	-11.6472
▁atteinte	-11.6474
▁ranger	-11.6474
▁lrsquoopinion	-11.6478
▁scélérat	-11.6482
empire	-11.6485
▁supposant	-11.6489
▁LES	-11.649
▁butin	-11.649
▁ressentiment	-11.6491
▁Sou	-11.6494
▁préjugés	-11.6495
▁volontés	-11.6496
▁versa	-11.6502
▁carreau	-11.6506
▁Pavlovitch	-11.6507
▁poule	-11.6507
épreuve	-11.651
▁Dominique	-11.651
▁Farou	-11.6514
nez	-11.6515
huile	-11.6516
▁célèbres	-11.652
▁lrsquoéclat	-11.652
▁Li	-11.652
▁Bravo	-11.6527
▁effrayante	-11.6527
▁joint	-11.6529
▁angle	-11.653
▁locataire	-11.6531
▁responsable	-11.6531
▁torts	-11.6531
▁roux	-11.6532
▁brutal	-11.6533
▁proportions	-11.6534
▁glissait	-11.6536
▁minces	-11.6536
▁étonnés	-11.6537
▁secouer	-11.654
▁mensonges	-11.6543
▁Morand	-11.6548
▁Dr	-11.6549
▁catholiques	-11.655
jour	-11.6552
▁implacable	-11.6556
▁Lyon	-11.6556
▁épouvanté	-11.6556
FAIRE	-11.6558
▁VII	-11.6559
▁plaines	-11.6564
origine	-11.6565
▁reflets	-11.6566
▁baisser	-11.6566
▁entraîner	-11.6567
12	-11.6568
▁drôles	-11.6568
antichambre	-11.6569
▁paysanne	-11.657
▁troupeaux	-11.6571
▁fraîches	-11.6572
enfants	-11.6572
▁favorite	-11.6572
▁piété	-11.6572
▁Sé	-11.6573
vonne	-11.6573
▁lrsquoEurope	-11.6577
15	-11.6581
▁plonger	-11.6582
mSi	-11.6585
▁importantes	-11.6585
▁décharge	-11.6586
▁modernes	-11.6586
▁espéré	-11.6587
▁Rochester	-11.6587
▁douté	-11.6587
▁précipitation	-11.6587
▁conduisant	-11.6587
▁matériel	-11.6588
▁redouter	-11.6588
mR	-11.6589
▁srsquoétendait	-11.6591
▁aperçue	-11.6592
ouverture	-11.6593
▁exposer	-11.6593
▁avança	-11.6597
▁scrupules	-11.6602
▁emporte	-11.6603
▁priant	-11.6603
▁Schmucke	-11.6607
▁affectueux	-11.6607
▁Ca	-11.6608
▁scrupule	-11.6608
▁glaces	-11.6609
▁rassembler	-11.6609
▁gémit	-11.661
▁Weston	-11.6612
écoute	-11.6616
▁rusé	-11.6617
▁active	-11.6619
▁resterait	-11.662
▁bleues	-11.6625
▁Donne	-11.6625
▁jouissait	-11.6627
▁bœufs	-11.6627
▁franche	-11.6629
▁partons	-11.663
▁bravement	-11.6631
▁tentes	-11.6632
ssais	-11.6632
▁Vi	-11.6632
▁incontestable	-11.6636
tée	-11.6637
éleva	-11.6639
▁fur	-11.6641
din	-11.6641
▁Pont	-11.6644
▁franchit	-11.6645
▁intéressante	-11.6646
▁Crevel	-11.6647
▁défaire	-11.6647
▁dragon	-11.6652
▁spectre	-11.6652
▁destinés	-11.6659
▁fronça	-11.6659
▁Cœur	-11.6661
▁baptême	-11.6667
▁granit	-11.6667
▁occupe	-11.6668
ensemble	-11.6671
Orléans	-11.6673
▁changeant	-11.6674
▁34	-11.6678
▁Bu	-11.6679
▁éprouve	-11.6679
attaque	-11.6681
avancer	-11.6683
▁désirais	-11.6684
▁occupation	-11.6686
▁sieur	-11.6687
▁NOUS	-11.6687
▁corsage	-11.6688
▁joignit	-11.6688
▁nuire	-11.6689
▁bourgeoise	-11.669
▁Mistress	-11.6691
▁puissiez	-11.6692
▁sentiers	-11.6692
ès	-11.6693
heureux	-11.6695
can	-11.6695
srsquoarrêtèrent	-11.6696
▁armoire	-11.6696
▁nues	-11.6697
demain	-11.6697
▁assassins	-11.6699
▁rattraper	-11.6699
▁régiments	-11.67
▁écrasé	-11.6705
▁Popinot	-11.6707
▁Traddles	-11.6707
▁construire	-11.6707
▁soustraire	-11.6707
▁Marande	-11.6707
▁préviens	-11.6707
▁dévorer	-11.6707
ran	-11.6708
▁naïveté	-11.6708
▁Rosamond	-11.6709
▁spécialement	-11.671
▁proverbe	-11.6713
▁châteaux	-11.6714
▁document	-11.6714
Alors	-11.6715
Vous	-11.6715
▁Sois	-11.6717
▁pardonné	-11.6719
▁suspect	-11.672
étonne	-11.6722
gre	-11.6723
▁contentement	-11.6724
▁symptômes	-11.6726
▁arracha	-11.6727
▁lourdes	-11.6727
▁Mo	-11.6727
▁Pichegru	-11.6728
▁prompte	-11.673
▁naïvement	-11.6731
▁dupe	-11.6731
▁Street	-11.6732
▁climat	-11.6733
▁sachez	-11.6734
▁drsquoaffaires	-11.6736
ino	-11.6737
▁pleinement	-11.6738
▁tuteur	-11.6739
ane	-11.6739
▁origine	-11.6739
▁vêtus	-11.6741
▁publiques	-11.6741
▁musicien	-11.6747
▁Bixiou	-11.6748
ima	-11.6748
angoisse	-11.6748
▁recommande	-11.6749
▁martyre	-11.6749
▁livrait	-11.675
▁Clément	-11.675
▁veuillez	-11.6752
rée	-11.6753
▁intérieurement	-11.6754
▁Seul	-11.6756
▁bouge	-11.6757
▁répondez	-11.6757
▁organes	-11.6758
▁termina	-11.676
▁habitation	-11.676
▁couchés	-11.6762
▁fouiller	-11.6764
▁attendri	-11.6768
▁courageux	-11.6772
▁Dante	-11.6772
▁user	-11.6774
▁punition	-11.6774
lrsquoAngleterre	-11.6775
▁tigre	-11.6776
▁disposés	-11.6778
▁carton	-11.6779
▁idiot	-11.6781
▁CES	-11.6781
▁exception	-11.6782
▁And	-11.6782
Hôtel	-11.6782
▁mériter	-11.6784
▁sus	-11.6786
▁portraits	-11.6787
▁Convention	-11.6789
▁riposta	-11.6789
▁Rancé	-11.6789
▁appellent	-11.6792
▁inspirer	-11.6793
▁précision	-11.6793
▁naïf	-11.6795
▁pleura	-11.6796
▁soupirant	-11.6796
▁détacha	-11.68
▁mignonne	-11.68
▁srsquooccuper	-11.6805
▁w	-11.6805
▁joignant	-11.6809
▁épargner	-11.681
▁échangé	-11.6811
iv	-11.6813
terre	-11.6815
▁volupté	-11.6815
▁tapisserie	-11.6815
▁rechercher	-11.6817
▁issue	-11.6819
rsquoindignation	-11.6821
oublier	-11.6823
bé	-11.6828
▁Fauvarque	-11.683
▁quinzaine	-11.683
▁informatique	-11.683
▁devenaient	-11.683
▁Daniel	-11.6831
attente	-11.6832
▁Hoffmann	-11.6834
▁dizaine	-11.6836
▁félicité	-11.6837
oublie	-11.6837
ég	-11.6838
illon	-11.6841
▁mèche	-11.6842
▁chansons	-11.6848
▁universelle	-11.6848
▁miracles	-11.6849
▁CLASSIQUE	-11.685
▁Heathcliff	-11.685
▁b	-11.6852
▁ironie	-11.6854
▁allés	-11.6855
▁guérison	-11.6858
▁retrouvait	-11.6859
▁pensent	-11.6863
▁ouï	-11.6865
ennui	-11.6866
▁srsquoarrêtait	-11.6866
IDER	-11.6871
ahoo	-11.6871
▁condamnation	-11.6871
▁démarches	-11.6876
▁entretenir	-11.6879
▁apparente	-11.6879
▁retentir	-11.688
▁guerres	-11.688
▁ayons	-11.6881
▁teintes	-11.6883
▁dette	-11.6885
Au	-11.6887
mouvoir	-11.6889
▁bouts	-11.6889
▁fragments	-11.689
▁peinte	-11.689
▁CONNA	-11.6891
▁web	-11.6893
▁mécontentement	-11.6893
▁Morgan	-11.6893
▁pelouse	-11.6898
▁versant	-11.6899
▁jointes	-11.69
▁étendant	-11.69
▁proposait	-11.6905
▁entr	-11.6907
▁empêche	-11.6908
▁LITTÉRAIRES	-11.6912
▁pompe	-11.6916
▁habiles	-11.6918
▁postillon	-11.6919
▁enceinte	-11.692
▁commencent	-11.6921
▁U	-11.6924
▁démons	-11.6925
▁per	-11.6933
▁Gauvain	-11.6933
arrêtait	-11.6933
▁jrsquoentendis	-11.6934
▁dessert	-11.6935
▁rétribués	-11.6937
▁ramené	-11.6938
▁supposition	-11.694
▁buisson	-11.694
▁tourmenter	-11.6941
▁périls	-11.6945
▁jouissances	-11.6946
▁Brass	-11.6949
▁autorités	-11.695
▁srsquoarrêtant	-11.6951
groups	-11.6953
▁Veuillez	-11.6954
▁trêve	-11.6954
▁crosse	-11.6954
▁naturels	-11.6955
▁Pensez	-11.6955
▁sacrificateur	-11.696
▁sphère	-11.696
let	-11.6966
▁agitant	-11.6969
▁suffisante	-11.6969
observation	-11.697
arme	-11.6971
▁éteinte	-11.6972
▁prouvait	-11.6975
▁Chauvel	-11.6976
énergie	-11.6976
▁beautés	-11.6978
▁secousse	-11.6981
▁portion	-11.6982
▁sèches	-11.6985
▁caressant	-11.6985
▁gardez	-11.6986
Clair	-11.6988
pu	-11.6991
accompagner	-11.6992
assassin	-11.6993
▁animée	-11.6993
ira	-11.6995
▁lasse	-11.6996
▁Bible	-11.6997
▁mécontent	-11.6999
▁écrites	-11.7
▁retirée	-11.7002
▁poils	-11.7004
▁proches	-11.7004
▁club	-11.7005
▁étrangères	-11.7005
ardeur	-11.7008
▁citoyenne	-11.7009
▁sût	-11.7012
▁piqué	-11.7014
▁Pétrovna	-11.7016
▁respire	-11.7016
▁destination	-11.7018
▁cabriolet	-11.7019
▁cime	-11.702
▁peaux	-11.7021
bre	-11.7022
▁états	-11.7023
▁terrestre	-11.7024
▁lrsquoallée	-11.7025
▁Mars	-11.7026
▁clairs	-11.7028
▁maintien	-11.7029
▁manie	-11.7033
▁connaisse	-11.7035
▁postérité	-11.7037
▁mé	-11.7044
▁jument	-11.7045
▁Mieux	-11.7045
▁vaches	-11.7047
▁races	-11.7048
▁lrsquoaventure	-11.705
▁postes	-11.7051
▁pourras	-11.7053
▁assises	-11.7054
▁ornée	-11.7056
▁écrits	-11.7058
▁trouvés	-11.7058
▁Alleyne	-11.7058
▁Bordeaux	-11.7058
enfance	-11.706
▁Sca	-11.7061
▁nage	-11.7064
▁bénéfice	-11.7065
▁jouissance	-11.7065
▁sénateur	-11.7066
▁négociant	-11.7066
▁mât	-11.7072
▁mené	-11.7072
établir	-11.7074
▁hommage	-11.7074
▁dissiper	-11.7077
▁Br	-11.7078
▁extérieure	-11.7079
mCrsquoest	-11.7079
▁Assey	-11.7079
▁cauchemar	-11.7079
▁étendus	-11.7079
▁envoyée	-11.7079
▁drsquoécrire	-11.7085
sion	-11.7089
▁serrés	-11.709
▁boit	-11.7096
▁Montalais	-11.71
▁Trophimovitch	-11.71
▁familiarité	-11.71
▁rejoignit	-11.71
▁jouaient	-11.7101
effroi	-11.7102
▁continent	-11.7103
▁chaudes	-11.7106
▁lions	-11.7107
▁chèvre	-11.7108
▁fatigués	-11.7108
▁composition	-11.7108
▁prospérité	-11.7108
▁dentelles	-11.711
▁magistrats	-11.7114
▁laisserai	-11.7115
▁laid	-11.7116
▁attira	-11.7123
▁insu	-11.7124
lis	-11.7125
▁poliment	-11.7125
▁cherchais	-11.7127
▁démission	-11.7129
▁enlevée	-11.713
▁expériences	-11.7131
▁tirée	-11.7131
▁changée	-11.7134
▁Parisiens	-11.7135
▁botte	-11.7136
duc	-11.7138
▁générations	-11.7138
▁filer	-11.7139
▁Sch	-11.7139
▁jaillir	-11.7141
▁opposition	-11.7141
▁gratitude	-11.7142
▁maussade	-11.7142
▁partisans	-11.7143
▁nrsquoosait	-11.7146
▁précédé	-11.7149
▁hutte	-11.7151
▁ravin	-11.7154
▁joliment	-11.7155
▁jeudi	-11.7159
▁entreprises	-11.716
tif	-11.7162
écriai	-11.7162
▁errant	-11.7165
ép	-11.7165
▁lrsquoamiral	-11.7167
▁paisiblement	-11.7169
▁porteurs	-11.717
▁néant	-11.717
▁profonds	-11.717
▁comité	-11.7172
mQue	-11.7174
eussent	-11.7175
▁rejeta	-11.7176
embarras	-11.7179
▁séparée	-11.7183
▁serrurier	-11.7185
épouvante	-11.7186
▁fermement	-11.7189
▁console	-11.719
tèrent	-11.7192
▁brève	-11.7193
▁amenée	-11.7194
▁sonne	-11.7195
▁broussailles	-11.7199
▁conquis	-11.7199
▁appelant	-11.72
▁mines	-11.7202
▁Wardes	-11.7206
▁distribution	-11.7206
▁Songez	-11.7207
▁parloir	-11.7208
▁Juifs	-11.7208
▁Pétersbourg	-11.721
▁dauphine	-11.7213
▁légende	-11.7214
▁cloison	-11.7214
▁abord	-11.7218
▁fourré	-11.722
▁Pi	-11.7226
▁40	-11.7227
▁squatter	-11.7227
▁Mortimer	-11.7227
occupe	-11.7228
▁fatalité	-11.7229
▁hésitait	-11.7231
▁185	-11.7233
▁mont	-11.7234
▁pressés	-11.7234
▁établie	-11.7238
▁prolonger	-11.7239
▁exploits	-11.7241
impossibilité	-11.7241
▁mettrai	-11.7246
arc	-11.7247
▁attendent	-11.7247
▁Déroute	-11.7249
▁drsquoarbres	-11.725
▁servie	-11.7251
▁mettra	-11.7252
▁placées	-11.7252
▁Mina	-11.7253
▁Fou	-11.7253
▁grossière	-11.7253
▁lrsquohôpital	-11.7256
▁XVI	-11.7256
▁enleva	-11.726
▁com	-11.7261
▁communs	-11.7262
▁infini	-11.7264
▁baissés	-11.7264
▁roulé	-11.7266
▁connues	-11.7266
▁bêtises	-11.7267
▁jugeait	-11.7267
▁rats	-11.727
▁bétail	-11.727
▁coiffure	-11.727
uel	-11.727
▁hideux	-11.727
▁Sonia	-11.7274
mIII	-11.7275
▁abondance	-11.7276
▁canton	-11.7281
▁tranchée	-11.7281
▁gîte	-11.7283
▁hâter	-11.7285
▁suffira	-11.7286
▁Valnoir	-11.7292
▁poursuit	-11.73
▁liqueur	-11.7301
▁torches	-11.7301
▁chauve	-11.7301
▁déesse	-11.7301
▁boule	-11.7306
▁rassuré	-11.7308
▁meure	-11.7311
▁Lorenza	-11.7313
▁brutalement	-11.7315
▁échangèrent	-11.7315
▁dévouée	-11.7316
▁srsquoempara	-11.7317
ète	-11.732
▁Marc	-11.7321
▁Parle	-11.7321
▁publiquement	-11.7321
ban	-11.7322
▁héroïque	-11.7327
▁Amy	-11.733
▁avide	-11.7332
▁engagée	-11.7333
▁Pré	-11.7334
▁aperçoit	-11.7334
▁Tuileries	-11.7335
▁précieuses	-11.7341
ières	-11.7342
▁couchait	-11.7343
▁batterie	-11.7344
▁close	-11.7345
osa	-11.735
▁poules	-11.7352
▁bonhomie	-11.7356
▁http	-11.7356
▁vertige	-11.7356
▁vérifier	-11.7357
▁continuèrent	-11.7357
▁métayer	-11.7357
▁mêlait	-11.7358
▁magasins	-11.7363
▁Qursquoy	-11.7364
▁trouverai	-11.7364
▁barbares	-11.7365
▁perfide	-11.7366
▁interroger	-11.7366
▁dévoré	-11.7369
out	-11.7369
▁opposer	-11.7371
▁cure	-11.7372
▁constante	-11.7372
▁forge	-11.7374
▁illusions	-11.7374
▁atroce	-11.7375
▁témoigna	-11.7376
▁souffrant	-11.7383
▁mrsquoappelle	-11.7385
ê	-11.7385
▁probabilité	-11.7387
▁Édith	-11.7388
▁tourments	-11.7389
▁filets	-11.7393
▁déchiré	-11.7396
▁procédés	-11.7397
▁national	-11.7399
▁mainte	-11.7402
▁cruelles	-11.7405
▁brigand	-11.7405
▁précise	-11.7407
lou	-11.7407
▁chevalerie	-11.7407
▁lrsquoAmérique	-11.7407
▁exercice	-11.7409
▁Ampère	-11.741
mme	-11.7411
▁fidèlement	-11.7413
▁courus	-11.7414
▁lrsquoenvie	-11.7415
▁Crois	-11.7416
▁négligé	-11.7418
▁flatter	-11.7418
▁civil	-11.7418
▁menacé	-11.7421
▁chats	-11.7424
▁laissés	-11.7425
▁étude	-11.7428
évêque	-11.7428
▁paternel	-11.7428
▁indicible	-11.7429
occupait	-11.743
▁touchante	-11.743
empêche	-11.7432
ures	-11.7441
▁suffisant	-11.7442
▁paraissant	-11.7443
▁convaincue	-11.7443
▁Frédéric	-11.7444
avantage	-11.7444
▁marquée	-11.7445
▁disciples	-11.7446
dis	-11.7446
▁lrsquoéquipage	-11.7446
▁écuries	-11.7447
▁soupçonné	-11.7447
▁drsquoagir	-11.7448
▁redoute	-11.7449
auraient	-11.745
▁coquette	-11.7451
▁penchait	-11.7452
▁rempart	-11.7453
▁régulier	-11.7453
▁pâté	-11.7453
▁folles	-11.7454
▁Emmanuel	-11.7458
immense	-11.7462
ouvrait	-11.7465
▁communauté	-11.7465
▁veillait	-11.7465
▁mourait	-11.7466
▁ris	-11.7469
▁plaque	-11.7471
bar	-11.7472
▁drsquoécole	-11.7473
▁obtint	-11.7476
▁complices	-11.7477
▁soucie	-11.7478
▁machines	-11.7479
▁Albert	-11.7487
▁récits	-11.7487
aud	-11.7489
entend	-11.7489
▁dureté	-11.7491
▁arrête	-11.7493
▁baïonnette	-11.7497
▁obscurité	-11.7497
▁renseigner	-11.7498
▁compère	-11.7498
▁tirés	-11.7499
▁attentive	-11.75
arche	-11.7502
Opéra	-11.7503
▁parie	-11.7504
▁relâche	-11.7504
▁régner	-11.7509
▁fusillade	-11.7509
▁Léa	-11.751
▁profité	-11.7514
▁cherchent	-11.7516
▁Ru	-11.7516
ano	-11.7517
▁alliés	-11.752
douzaine	-11.7524
écu	-11.7528
▁Curumilla	-11.7531
▁Médicis	-11.7531
▁désolation	-11.7531
▁jusqursquoici	-11.7531
▁courtes	-11.7532
▁traîne	-11.7536
appui	-11.7537
ham	-11.7539
pin	-11.7539
mal	-11.7541
▁parisienne	-11.7542
▁Ursule	-11.7544
mis	-11.7544
▁guichet	-11.7547
▁téléphone	-11.7552
▁Lestérel	-11.7553
▁trouvâmes	-11.7553
▁calèche	-11.7553
▁joueurs	-11.7553
▁pair	-11.7554
▁tapage	-11.7555
▁amusant	-11.7559
▁Annie	-11.7561
▁réunit	-11.7562
osait	-11.7563
▁provoquer	-11.7564
▁imposer	-11.7572
▁Vite	-11.7572
▁mette	-11.7572
étend	-11.7574
▁compromis	-11.7574
▁Su	-11.7575
▁couvercle	-11.7575
▁balance	-11.7575
▁gardée	-11.7576
▁prétentions	-11.7578
▁connaissant	-11.7578
▁vapeurs	-11.7578
▁nrsquoaura	-11.7581
▁dominer	-11.7586
▁démontrer	-11.7589
▁publics	-11.7589
ssa	-11.7595
▁Jupiter	-11.7597
▁conquérir	-11.7597
▁taillis	-11.7597
▁souvint	-11.7597
▁matelas	-11.7597
▁Fère	-11.7598
▁réprimer	-11.7598
era	-11.7599
▁faction	-11.7599
Ar	-11.76
dor	-11.7601
▁remue	-11.7605
▁lrsquohabit	-11.7607
vers	-11.7608
▁batailles	-11.7609
▁mérites	-11.7611
▁lrsquoavis	-11.7615
▁attaques	-11.7615
lon	-11.7619
▁cirque	-11.7619
▁Haldin	-11.7619
rsquoimagination	-11.7619
▁Barbara	-11.7619
▁différences	-11.7621
▁briques	-11.7622
▁vendredi	-11.7625
▁heureuses	-11.7626
▁porche	-11.7626
▁volontaire	-11.7628
▁mers	-11.7628
▁déplorable	-11.763
▁lrsquoavoue	-11.7635
▁chiffres	-11.7635
▁engager	-11.764
▁choisie	-11.7644
embrasser	-11.7644
▁discret	-11.7653
▁pittoresque	-11.7654
▁fossés	-11.7654
▁gêné	-11.7659
imagine	-11.766
▁déroute	-11.766
▁représentants	-11.7662
▁vacarme	-11.7664
▁Taureau	-11.7664
▁disparurent	-11.7664
▁considérations	-11.7666
bou	-11.7666
▁descendaient	-11.7668
▁visité	-11.7669
▁calomnie	-11.7671
▁continuaient	-11.7674
▁feinte	-11.7675
▁galanterie	-11.7675
▁fixée	-11.7678
▁déserts	-11.768
▁lrsquoaise	-11.7681
empressa	-11.7682
▁consacrer	-11.7687
arbres	-11.7689
olia	-11.7691
▁principalement	-11.7691
▁enveloppée	-11.7692
automne	-11.7692
▁fa	-11.7693
▁frotta	-11.7696
éra	-11.7696
▁variété	-11.7698
▁exercices	-11.7698
▁gardant	-11.77
▁lorsqursquoun	-11.7701
▁bijou	-11.7706
▁contes	-11.7707
▁jugez	-11.7708
▁Bazin	-11.7708
▁Chasseur	-11.7709
▁Lundie	-11.771
▁adroitement	-11.771
entretien	-11.7711
▁sixième	-11.7713
▁inexprimable	-11.7714
▁pal	-11.7714
▁combattants	-11.7715
▁tunique	-11.7715
▁trsquoaime	-11.7715
gon	-11.7716
▁bi	-11.7716
▁clou	-11.7717
▁sottises	-11.7718
▁accomplie	-11.7719
▁caisses	-11.7729
▁hocha	-11.7729
rio	-11.7729
▁brisa	-11.773
▁probité	-11.7731
▁paresseux	-11.7731
▁conclu	-11.7731
▁tremblaient	-11.7732
▁sonné	-11.7732
▁pend	-11.7735
▁lrsquoangle	-11.7739
▁prétendre	-11.7743
On	-11.7744
▁frémir	-11.7745
▁Barbe	-11.7747
lette	-11.7751
▁achevée	-11.7752
▁légumes	-11.7753
▁majestueux	-11.7753
▁Tillet	-11.7753
▁recevant	-11.7753
▁accoutumée	-11.7754
▁témoignait	-11.7756
nier	-11.7759
ambition	-11.7759
▁drsquoenfant	-11.7761
▁pé	-11.7762
▁éveiller	-11.7763
▁mépriser	-11.7763
▁finira	-11.7765
▁sonnait	-11.7769
▁mortels	-11.777
ét	-11.7774
▁criminels	-11.7774
▁dédaigneux	-11.7776
▁révélait	-11.7777
▁ressentait	-11.7778
▁entendus	-11.7778
▁apparemment	-11.7778
▁priver	-11.778
▁lièvre	-11.7781
▁triomphant	-11.7781
▁avare	-11.7785
▁défie	-11.7786
▁présume	-11.7787
▁duré	-11.7787
▁amère	-11.7788
univers	-11.7788
▁récompenser	-11.7789
▁tortures	-11.7795
▁brille	-11.7795
▁Juste	-11.7796
▁romain	-11.7798
▁maternelle	-11.7801
▁Petite	-11.7802
▁propriétaires	-11.7802
▁compagnes	-11.7806
▁gardiens	-11.7807
▁perds	-11.781
▁ramassé	-11.781
▁défilé	-11.7811
▁clairière	-11.7812
▁promet	-11.7814
nière	-11.7814
▁cendre	-11.7815
▁repoussé	-11.7816
▁évidente	-11.7819
explication	-11.782
▁farine	-11.7821
▁bourgeoisie	-11.7823
▁bouleversé	-11.7824
▁montrée	-11.7825
▁contempla	-11.7826
▁présentent	-11.783
▁galères	-11.783
▁lrsquoémotion	-11.7831
▁enchantée	-11.7834
▁poussaient	-11.7834
▁coupée	-11.7835
▁parcourut	-11.7835
emporte	-11.7836
▁prodigieuse	-11.7841
▁Versilov	-11.7844
▁presbytère	-11.7844
▁Linton	-11.7844
▁approcha	-11.7846
▁reviennent	-11.7848
atmosphère	-11.7849
▁dépenser	-11.7851
Saint	-11.7852
▁apparaît	-11.7853
▁chaste	-11.7854
▁ignorer	-11.7855
▁provision	-11.7856
Antoine	-11.7857
quin	-11.7857
▁Arabes	-11.7858
▁accueilli	-11.7859
▁descendants	-11.7861
▁enfoncé	-11.7866
▁Foucauld	-11.7866
▁Lévy	-11.7868
▁Cap	-11.7869
▁traités	-11.7874
▁maîtresses	-11.7877
▁retournai	-11.788
14	-11.7883
▁pressée	-11.7884
▁buffet	-11.7888
▁Luxembourg	-11.7889
▁Nancy	-11.7889
ley	-11.789
▁répand	-11.7891
13	-11.7892
ix	-11.7894
▁Lrsquoenfant	-11.7898
mdans	-11.79
▁passerait	-11.79
▁lave	-11.7901
▁Porte	-11.7902
▁prononçant	-11.7904
▁commencée	-11.7905
▁préparée	-11.7906
▁spéciale	-11.7908
▁soupçonne	-11.7908
▁quasi	-11.791
▁miennes	-11.791
▁Simone	-11.791
▁entraient	-11.7911
▁instincts	-11.7911
aimez	-11.7919
▁lrsquoouverture	-11.7919
▁étudiant	-11.792
▁secouait	-11.7923
▁torche	-11.7925
▁brèche	-11.7925
▁sinistres	-11.7925
▁détours	-11.7927
▁pénibles	-11.7928
Votre	-11.793
honnête	-11.7933
unique	-11.7934
▁adopté	-11.7934
▁Pinocchio	-11.7935
obéir	-11.7935
▁lrsquoaurais	-11.7937
▁plier	-11.7938
▁féminine	-11.7938
▁économies	-11.7939
▁bordée	-11.794
allez	-11.7943
▁décor	-11.7945
▁sauva	-11.7947
abîme	-11.7948
▁barbare	-11.7948
▁violon	-11.7948
▁glisse	-11.7954
▁Blois	-11.7958
mAu	-11.7961
▁élevées	-11.7961
▁courbé	-11.7962
▁Ali	-11.7963
▁habituellement	-11.7963
▁Pierrette	-11.7963
▁sapins	-11.7963
▁courent	-11.7966
▁Holà	-11.7967
▁physiques	-11.7968
▁habité	-11.7968
▁lamentable	-11.7969
▁descendis	-11.7969
▁protesta	-11.7972
▁renseignement	-11.7972
▁soutenue	-11.7973
▁pardieu	-11.7975
▁décrit	-11.7976
▁lrsquoorgueil	-11.7979
ak	-11.7979
▁mardi	-11.7981
▁solennellement	-11.7984
▁descendent	-11.7985
▁habillée	-11.7986
▁souhaitait	-11.7986
▁Autant	-11.7986
adresser	-11.7987
▁srsquoattendait	-11.7987
▁ambitieux	-11.7989
▁devions	-11.7991
▁plaint	-11.7994
▁sifflement	-11.7996
▁Parisien	-11.7996
▁demanderai	-11.7997
▁épars	-11.8
▁oublie	-11.8002
▁coadjuteur	-11.8004
▁sterling	-11.8004
▁excité	-11.8004
▁peser	-11.8004
▁construit	-11.8004
▁dispute	-11.8005
▁drsquoair	-11.8008
▁entreprendre	-11.801
ow	-11.8011
▁anneau	-11.8013
▁sources	-11.8013
▁fondit	-11.8017
▁racine	-11.8017
▁couvertures	-11.8018
▁Mé	-11.8019
▁baronnet	-11.8019
▁instances	-11.8021
▁mourante	-11.8021
▁reviendrait	-11.8022
▁isolé	-11.8025
▁caporal	-11.8027
▁caractéristique	-11.8027
▁Pip	-11.8028
▁rencontrés	-11.8029
gn	-11.8031
▁lrsquoévêque	-11.8034
innocence	-11.8035
▁Six	-11.8035
▁réunies	-11.8036
Mac	-11.8036
▁drsquoEspagne	-11.8038
▁soulevant	-11.804
▁héritier	-11.8043
▁volumes	-11.8044
▁hais	-11.8044
ssement	-11.8045
▁exercer	-11.8048
-8.	-11.805
▁Milord	-11.805
▁Inutile	-11.805
▁Brunerie	-11.805
▁tracé	-11.8052
▁renverse	-11.8054
▁compagnies	-11.8056
▁philosophes	-11.8057
▁lier	-11.8058
obtenir	-11.8059
▁dorés	-11.8059
▁fonction	-11.8059
▁étreinte	-11.8059
Noir	-11.8063
accomplir	-11.8073
▁Barnabé	-11.8073
▁désappointement	-11.8074
arrêtant	-11.8074
▁offrant	-11.808
▁Castel	-11.8082
▁VIII	-11.8086
▁télégramme	-11.8088
▁philosophique	-11.8089
▁rames	-11.8093
▁bruyante	-11.8094
▁saintes	-11.8095
▁Newman	-11.8097
▁dénouement	-11.8097
▁Marius	-11.8097
▁résulte	-11.81
▁formule	-11.8102
▁oubliant	-11.8103
▁fronçant	-11.8103
mNous	-11.8108
▁charges	-11.8111
éro	-11.8112
▁sanglier	-11.8113
▁tambours	-11.8113
Voici	-11.8116
▁affections	-11.8117
▁brin	-11.8119
▁souvenait	-11.812
▁Drsquoautres	-11.812
▁tyrannie	-11.812
▁proportion	-11.812
▁Trappeur	-11.8121
▁Drsquooù	-11.8121
▁frappés	-11.8128
▁confortable	-11.8132
▁guides	-11.8133
▁commençant	-11.8137
▁my	-11.8143
▁Championnet	-11.8143
▁50	-11.8145
▁che	-11.8146
▁coussins	-11.8148
mêle	-11.8149
▁acteurs	-11.815
▁transports	-11.8153
lier	-11.8155
▁usages	-11.8159
▁sauveur	-11.8159
▁bonnement	-11.8159
▁prêtait	-11.8159
▁peintres	-11.8161
éprouve	-11.8163
▁perpétuel	-11.8164
▁excessive	-11.8165
▁lassitude	-11.8166
▁reprirent	-11.8166
▁Marseille	-11.8167
▁Herbert	-11.8167
▁Tantôt	-11.8167
▁dalles	-11.8171
▁convenablement	-11.8174
▁emportant	-11.8177
port	-11.8177
▁fixes	-11.8178
▁diminuer	-11.818
ture	-11.818
▁patriote	-11.8181
▁drsquoÉtat	-11.8182
▁partagé	-11.8185
▁questionner	-11.8187
Ouest	-11.8188
mor	-11.8189
▁morales	-11.819
▁brevet	-11.819
▁déférence	-11.819
▁pillage	-11.819
▁alliez	-11.8191
naient	-11.8192
▁correcteur	-11.8192
▁parût	-11.8193
▁désastre	-11.8194
▁alerte	-11.8195
▁dégagé	-11.8197
nais	-11.8201
▁lrsquoaimait	-11.8202
ements	-11.8202
▁Qursquoen	-11.8204
▁haïr	-11.8204
▁électrique	-11.8205
▁disgrâce	-11.8205
▁augmenter	-11.8209
▁conjure	-11.821
▁montés	-11.821
▁désigner	-11.821
▁courbe	-11.8212
▁Assurément	-11.8213
▁Carquefou	-11.8213
▁pénitence	-11.8213
▁Rosalie	-11.8214
▁arabe	-11.8214
▁matins	-11.8214
▁Charlemagne	-11.8215
▁Sophie	-11.8216
▁Allemagne	-11.8216
▁mrsquoêtre	-11.8218
▁salles	-11.8219
écart	-11.8222
▁vases	-11.8223
▁Har	-11.8223
▁étroites	-11.8223
▁trempé	-11.8223
▁auditeurs	-11.8228
▁drsquoenfants	-11.823
▁clocher	-11.8231
▁querelles	-11.8232
▁carabine	-11.8232
▁agréablement	-11.8232
▁confesser	-11.8234
▁déf	-11.8235
▁exclamations	-11.8236
▁Werth	-11.8237
▁Rochefort	-11.8237
▁Bouillon	-11.8237
▁dentelle	-11.8238
ct	-11.8238
▁orgueilleux	-11.8241
▁confiant	-11.8247
▁El	-11.8249
▁louanges	-11.8251
▁formée	-11.8251
▁lrsquoété	-11.8254
allai	-11.8256
▁Joyeuse	-11.8261
▁Judex	-11.8261
▁Chatoff	-11.8261
▁Gamp	-11.8261
▁Sp	-11.8264
▁Monck	-11.8264
événement	-11.8266
▁réservée	-11.8267
▁lrsquoespèce	-11.827
▁horribles	-11.8271
▁mo	-11.8272
▁éveillée	-11.8274
issent	-11.8275
▁requête	-11.8276
▁tabouret	-11.8276
▁haletante	-11.8278
▁guider	-11.8281
Que	-11.8282
▁passages	-11.8282
RI	-11.8283
étendait	-11.8283
▁prisons	-11.8283
▁lrsquoappel	-11.8284
▁Finalement	-11.8284
▁Steerforth	-11.8284
▁trouvons	-11.8284
▁égaux	-11.8285
▁Pilate	-11.8288
▁augure	-11.8289
▁claquer	-11.8291
▁touchée	-11.8292
▁Partout	-11.8293
▁sûrs	-11.8293
▁cachant	-11.8293
▁débat	-11.8298
dou	-11.8298
▁mêlés	-11.8299
▁Edmond	-11.8299
▁planter	-11.8299
▁diabolique	-11.83
avançait	-11.8301
exclama	-11.8302
▁interrogé	-11.8304
▁rebelle	-11.8305
▁définitive	-11.8306
interrompant	-11.8306
▁tuée	-11.8308
▁bagne	-11.8308
▁totalement	-11.8311
▁Miguel	-11.8311
md	-11.8313
▁vaine	-11.8316
▁chaumière	-11.8324
he	-11.8328
▁corne	-11.8331
▁promptitude	-11.8332
▁redoutait	-11.8332
▁éloquence	-11.8334
ind	-11.8335
▁Château	-11.8336
om	-11.8336
▁Chat	-11.8336
ça	-11.8339
▁garantir	-11.8339
▁drsquoordinaire	-11.834
▁srsquoarrête	-11.8341
▁battue	-11.8342
mdu	-11.8342
Allemagne	-11.8342
▁arriverait	-11.8343
br	-11.8343
▁Lorsqursquoil	-11.8343
nd	-11.8344
amuser	-11.8344
ki	-11.8345
hy	-11.8345
▁mourrai	-11.8345
▁Brésil	-11.8346
▁réduite	-11.8348
▁exister	-11.8349
▁changeait	-11.8352
sœur	-11.8353
▁aimant	-11.8354
▁magicien	-11.8354
▁Taupier	-11.8356
▁demeurèrent	-11.8356
▁découvrait	-11.8356
▁emmené	-11.8356
▁suivez	-11.8357
▁ôté	-11.8358
▁répandait	-11.836
▁répétant	-11.836
▁riaient	-11.836
▁vît	-11.836
bin	-11.836
▁mourra	-11.836
amateurs	-11.8361
▁renferme	-11.8362
▁réveille	-11.8365
▁visions	-11.8366
▁septième	-11.8371
▁total	-11.8371
▁frêle	-11.8372
▁bannière	-11.8372
▁bruns	-11.8374
▁manœuvres	-11.8377
▁200	-11.8379
▁illustres	-11.838
▁joug	-11.838
▁clientèle	-11.838
Note	-11.8381
▁condamnée	-11.8383
▁disparaît	-11.8384
TE	-11.8384
▁railleur	-11.8385
▁cités	-11.8386
▁mortes	-11.8388
▁chênes	-11.8388
▁chantaient	-11.8389
▁imbéciles	-11.8397
▁agit	-11.8399
▁idéal	-11.8403
▁Voyant	-11.8404
▁colporteur	-11.8404
▁plaignait	-11.8404
za	-11.8405
▁commissionnaire	-11.8405
mVous	-11.8407
▁drsquoordre	-11.8408
▁prononçait	-11.8411
▁daim	-11.8412
▁lâché	-11.8413
▁verrou	-11.8413
▁lrsquoodeur	-11.8414
▁dispose	-11.8415
Empire	-11.8419
▁pardessus	-11.8421
▁gant	-11.8424
▁lrsquoIndien	-11.8426
▁retirèrent	-11.8428
▁négligemment	-11.8428
▁prît	-11.8429
▁italien	-11.843
▁forçat	-11.8431
▁accordée	-11.8435
▁irez	-11.8439
▁volontaires	-11.844
▁Rouge	-11.844
up	-11.844
▁étouffée	-11.8441
▁gain	-11.8441
18	-11.8441
environ	-11.8442
▁sanglant	-11.8442
▁lrsquoaimer	-11.8443
▁deviendra	-11.8443
trice	-11.8443
▁pins	-11.8444
▁parapluie	-11.8445
▁impitoyable	-11.8447
▁contents	-11.8451
▁municipal	-11.8451
▁dépouillé	-11.8451
▁Dexter	-11.8452
▁renouveler	-11.8452
▁température	-11.8452
▁Sandrine	-11.8452
▁célébrer	-11.8453
▁indique	-11.8454
▁taisait	-11.8456
▁roseaux	-11.8456
▁magie	-11.8459
▁brûlante	-11.8459
▁tentatives	-11.8462
▁héritiers	-11.8462
▁tourment	-11.8462
▁fui	-11.8463
▁bébé	-11.8469
▁grimper	-11.8469
st	-11.847
so	-11.8475
▁cloître	-11.8476
▁bravoure	-11.8476
▁lambeaux	-11.8476
▁Ser	-11.8476
▁fumait	-11.8476
▁exclusivement	-11.8477
▁discussions	-11.8477
▁confondre	-11.8478
▁dîné	-11.848
▁insensiblement	-11.848
▁légions	-11.8481
▁disputer	-11.8483
▁passagers	-11.8484
▁importants	-11.8484
avocat	-11.8486
▁boucher	-11.8488
▁Auguste	-11.8491
entendais	-11.8492
▁mangea	-11.8495
▁violents	-11.8499
▁intolérable	-11.85
▁ho	-11.8501
▁habileté	-11.8501
▁devise	-11.8503
▁creuser	-11.8503
▁disposait	-11.8503
▁créanciers	-11.8503
▁lrsquoabbaye	-11.8504
▁Autour	-11.8506
▁litière	-11.8507
▁drsquoAutriche	-11.8507
▁hochant	-11.8507
▁délicats	-11.8511
▁cadet	-11.8513
▁poulet	-11.8514
▁interruption	-11.8514
cra	-11.8516
▁obéi	-11.8516
▁déception	-11.8518
▁cuisse	-11.8518
▁blâmer	-11.8519
▁champagne	-11.8525
▁procéder	-11.8526
acheter	-11.8526
ule	-11.8534
▁continuez	-11.8534
emporter	-11.8535
▁can	-11.8536
▁Hippolyte	-11.8536
▁souhaité	-11.8544
▁chaussures	-11.8544
▁laissera	-11.8544
▁croissante	-11.8548
mne	-11.8548
▁cuisinier	-11.8549
▁mousseline	-11.8549
▁coiffé	-11.855
▁confie	-11.855
▁Ti	-11.855
▁charmantes	-11.8552
▁Conti	-11.8554
▁mouillé	-11.8556
lan	-11.856
ole	-11.8563
▁resterai	-11.8563
▁habituée	-11.8563
▁crête	-11.8567
▁invincible	-11.8568
▁témoignages	-11.8569
ines	-11.8569
▁historique	-11.857
▁vole	-11.8572
▁venge	-11.8573
▁Dmitri	-11.8573
▁Nastasie	-11.8573
▁prodigieux	-11.8573
▁tranche	-11.8574
▁nrsquoavions	-11.8575
▁chaire	-11.8579
aut	-11.858
▁jura	-11.8584
▁objection	-11.8584
instinct	-11.8585
▁conjectures	-11.859
▁baisse	-11.8594
▁tri	-11.8594
▁grenadiers	-11.8596
▁accidents	-11.8596
▁Peyrade	-11.8598
▁vivons	-11.8598
▁lrsquoÉtat	-11.8598
▁évêque	-11.8599
▁Robinson	-11.8599
▁ravie	-11.8599
▁conservait	-11.86
▁qursquoavant	-11.86
▁développer	-11.8604
▁cruels	-11.8608
▁découvertes	-11.8608
▁original	-11.861
▁songes	-11.8616
▁baraque	-11.8616
▁directe	-11.8618
rant	-11.862
▁observait	-11.8621
▁lrsquoassassin	-11.8622
▁montent	-11.8622
▁disparaissait	-11.8622
▁pois	-11.8623
▁grises	-11.8624
gra	-11.8624
▁défier	-11.8625
mais	-11.8626
▁consacré	-11.8627
▁recueilli	-11.8628
▁haillons	-11.8629
▁convenances	-11.8633
▁Général	-11.8638
▁menu	-11.8639
▁Lise	-11.8639
▁vieilli	-11.864
▁décret	-11.8641
▁ponts	-11.8644
▁Tes	-11.8644
rsquoen	-11.8644
▁Verneuil	-11.8647
▁Malone	-11.8647
▁fuyant	-11.8648
ros	-11.8648
▁toux	-11.8649
▁trompettes	-11.8649
▁tournèrent	-11.8649
▁volontairement	-11.865
accorder	-11.8652
▁indéfinissable	-11.8652
arrêtèrent	-11.8653
▁rapprochant	-11.8656
▁triompher	-11.8658
▁faces	-11.8659
▁gouverner	-11.866
▁vallées	-11.866
▁pourpoint	-11.8662
▁informations	-11.8663
▁examinant	-11.8663
rsquoexplication	-11.8663
▁cochon	-11.8665
▁angles	-11.8667
Espard	-11.8671
▁candeur	-11.8671
▁Freneuse	-11.8671
▁quittèrent	-11.8672
▁Elton	-11.8672
▁Strasbourg	-11.8672
▁abus	-11.8673
AS	-11.8673
hu	-11.8678
▁bouquets	-11.8678
▁pots	-11.8678
▁répandue	-11.8679
▁repoussant	-11.8682
erreur	-11.8683
▁laisserait	-11.8686
▁accorde	-11.8687
▁nés	-11.8689
▁hangar	-11.869
▁débauche	-11.8691
ache	-11.8691
▁salué	-11.8692
▁nuances	-11.8692
▁spécial	-11.8692
▁universel	-11.8693
▁Mathieu	-11.8696
▁Philippovna	-11.8696
▁ardemment	-11.8696
▁captivité	-11.8696
▁promettant	-11.8696
▁renfermait	-11.8697
engager	-11.8698
ES	-11.8698
20	-11.8699
▁plaisante	-11.8702
▁injure	-11.8703
▁molle	-11.8704
▁Pascale	-11.8704
▁considérant	-11.8704
▁Lequel	-11.8705
▁battaient	-11.8705
▁inconnues	-11.871
▁parenté	-11.8711
▁déclarait	-11.8711
échafaud	-11.8713
▁valise	-11.8715
▁hurlement	-11.8716
▁déchirer	-11.8716
vel	-11.8717
▁pâte	-11.8719
▁Rabourdin	-11.8721
▁inévitable	-11.8722
▁grandement	-11.8724
ml	-11.8724
▁pénétrait	-11.8726
▁aborder	-11.8726
▁instruction	-11.8727
▁défendait	-11.8727
▁coupés	-11.8729
▁Tais	-11.8733
▁Chi	-11.8733
▁céda	-11.8734
▁remarquables	-11.8734
▁menaçante	-11.8735
▁ajoutant	-11.8738
▁Bas	-11.8738
infini	-11.8738
▁monastère	-11.874
19	-11.8741
▁Gontran	-11.8746
▁participé	-11.8746
han	-11.8746
▁tiendra	-11.8747
▁ruisseaux	-11.8747
▁roulaient	-11.8749
line	-11.875
▁parois	-11.875
▁républicain	-11.8752
▁Eugénie	-11.8755
▁remontant	-11.8758
▁composer	-11.8759
▁froides	-11.8759
▁amas	-11.876
rsquointerrompit	-11.8761
▁rendrait	-11.8763
▁contrées	-11.8763
▁pêcheurs	-11.8763
▁registre	-11.8765
▁Saxon	-11.8765
ans	-11.8766
▁tyran	-11.8767
▁délicates	-11.8767
▁indigné	-11.8768
▁perle	-11.8768
ajouter	-11.8769
▁flottait	-11.8771
▁intimité	-11.8772
ssi	-11.8774
▁romaine	-11.8775
▁croissant	-11.8776
▁sauté	-11.8777
▁poumons	-11.8779
▁lrsquooiseau	-11.8779
ze	-11.878
▁Alfred	-11.8781
▁Disposition	-11.8781
▁e	-11.8785
25	-11.8786
▁renvoyé	-11.8788
▁cercles	-11.8788
▁mansarde	-11.879
▁sociales	-11.8791
▁eusse	-11.8792
ang	-11.8794
▁plut	-11.8794
▁naufrage	-11.8795
▁royauté	-11.8795
▁servira	-11.8796
▁foncé	-11.8796
▁pierreries	-11.8797
int	-11.88
ret	-11.88
▁désolée	-11.8804
▁courts	-11.8808
exception	-11.8815
▁Frances	-11.8817
▁aristocratique	-11.8818
▁Cromwell	-11.882
▁produisait	-11.8821
▁réfléchissant	-11.8821
▁intense	-11.8823
▁embrassé	-11.8824
▁échos	-11.8826
▁portèrent	-11.8827
▁Pourvu	-11.8827
▁Turcs	-11.8829
▁sapin	-11.883
▁imposant	-11.883
▁Breton	-11.8831
▁mettrait	-11.8837
▁glorieuse	-11.8838
▁remet	-11.8839
▁bâtons	-11.8839
▁mordre	-11.8842
▁Babylone	-11.8846
▁prenais	-11.8846
▁littéralement	-11.8846
▁Florine	-11.8846
▁vider	-11.8847
▁voulût	-11.8848
▁retirant	-11.8851
▁confesseur	-11.8851
mre	-11.8852
▁emmener	-11.8853
▁explosion	-11.8856
assez	-11.8856
▁élégance	-11.8857
▁salaire	-11.8858
▁drsquoattention	-11.8859
▁expérimentale	-11.8859
▁soumise	-11.8861
▁refermée	-11.8861
▁Loup	-11.8863
▁régulière	-11.8866
éré	-11.8867
van	-11.887
▁dévoués	-11.887
▁muni	-11.8872
▁appelés	-11.8872
▁travailleurs	-11.8872
▁aimables	-11.8872
▁incidents	-11.8874
▁approchant	-11.8875
▁utilité	-11.8875
▁lrsquoéchelle	-11.8877
▁plongée	-11.8879
▁aînée	-11.8879
▁déb	-11.888
▁lançait	-11.8882
▁barons	-11.8882
▁orage	-11.8884
exercice	-11.8885
▁américain	-11.8886
▁bénéfices	-11.8887
▁pieuse	-11.8889
artillerie	-11.8891
▁caserne	-11.8891
▁souveraine	-11.8893
▁circulaire	-11.8894
▁humbles	-11.8895
▁existé	-11.8896
▁ramène	-11.8896
habit	-11.8897
▁audience	-11.8897
▁allumer	-11.89
▁achevant	-11.8905
mIV	-11.891
▁criminelle	-11.891
▁lrsquoempêcher	-11.891
▁inscription	-11.8912
▁hi	-11.8913
▁entrepris	-11.8916
▁supposé	-11.8916
▁combinaison	-11.8916
▁pouvoirs	-11.8919
▁Fairfax	-11.8921
▁Mettez	-11.8921
▁corruption	-11.8921
▁instinctivement	-11.8922
▁srsquoapprocher	-11.8926
▁domine	-11.8926
▁écarta	-11.8928
▁fumant	-11.893
▁allemande	-11.8931
▁clous	-11.8933
▁durement	-11.8933
Est	-11.8936
▁grandi	-11.8938
▁jettent	-11.8939
▁lumineuse	-11.8942
▁tendance	-11.8942
Qualité	-11.8942
▁coussin	-11.8942
imaginer	-11.8944
▁affecté	-11.8945
▁gosier	-11.8946
▁Valois	-11.8947
▁Champ	-11.8947
▁sales	-11.8949
▁couteaux	-11.8949
▁invisibles	-11.895
▁insulte	-11.8953
▁lointains	-11.8953
▁rangés	-11.8956
▁salue	-11.8956
▁bâtie	-11.8957
▁qursquoy	-11.8957
▁rivale	-11.8959
▁extase	-11.8962
▁indifférente	-11.8964
▁acquérir	-11.8964
▁traitait	-11.8965
uc	-11.8967
▁boulets	-11.8967
▁légion	-11.8967
udi	-11.8967
▁dépouiller	-11.8969
▁prétends	-11.897
▁bloc	-11.8971
▁respira	-11.8971
▁rencontrée	-11.8972
▁récente	-11.8972
▁Champagne	-11.8972
▁trahissait	-11.8972
▁PROU	-11.8972
▁sifflet	-11.8974
▁fâcheuse	-11.8975
▁ridicules	-11.8976
▁isolée	-11.8977
annonce	-11.8979
▁dirigé	-11.898
ada	-11.898
▁livra	-11.8983
▁lrsquoassemblée	-11.8985
▁relevait	-11.8987
▁inter	-11.8987
▁écarter	-11.8991
avenue	-11.8991
▁limpide	-11.8993
exprimer	-11.8995
▁impénétrable	-11.8996
▁Italiens	-11.8997
▁Bianchon	-11.8997
▁tabatière	-11.8997
▁pêle	-11.8997
▁conservation	-11.8997
▁Sept	-11.8998
Martin	-11.8998
▁paraissez	-11.8999
AN	-11.8999
mD	-11.8999
▁douloureusement	-11.9003
▁percé	-11.9005
▁nrsquoexiste	-11.9006
▁sentaient	-11.9007
▁promise	-11.901
▁obligations	-11.9012
▁gronder	-11.9018
▁insectes	-11.9021
▁Hu	-11.9022
▁atelier	-11.9023
▁Lébédev	-11.9023
▁Rogojine	-11.9023
▁Valgeneuse	-11.9023
▁Gi	-11.9024
▁genres	-11.903
▁Hortense	-11.9032
▁partageait	-11.9033
▁entendirent	-11.9033
▁reverrai	-11.9035
jo	-11.9035
chev	-11.9036
▁appartiennent	-11.9037
▁tribus	-11.9038
▁coiffée	-11.904
▁invention	-11.9041
▁srsquoéleva	-11.9042
▁love	-11.9044
▁débarrassé	-11.9044
▁collègue	-11.9044
ouch	-11.9046
▁carriole	-11.9048
▁plâtre	-11.9048
▁Pablo	-11.9048
agent	-11.905
▁théories	-11.9052
▁collègues	-11.9053
ich	-11.9054
▁pin	-11.9056
ord	-11.9056
▁rétabli	-11.906
▁prépara	-11.9061
▁variations	-11.9063
▁arguments	-11.9066
▁royalistes	-11.9069
avions	-11.907
▁oubliait	-11.907
▁appareil	-11.9071
▁Barnstable	-11.9074
▁Coumbes	-11.9074
▁He	-11.9074
▁effaré	-11.9076
▁suffirait	-11.9077
▁sanglot	-11.9078
▁soufflet	-11.9079
ites	-11.9084
▁sacrificateurs	-11.9091
▁fiers	-11.9092
coup	-11.9092
▁logé	-11.9095
▁murmurer	-11.9097
oubli	-11.9099
▁Antinahuel	-11.91
▁réduire	-11.91
▁recourir	-11.91
▁Bennet	-11.91
▁furie	-11.9103
▁sauvés	-11.9103
▁mairie	-11.9105
▁hésitant	-11.9106
▁lrsquoOpéra	-11.9107
▁suites	-11.9109
▁sentez	-11.911
▁fauteuils	-11.911
▁fondé	-11.9112
▁liés	-11.9112
▁approuva	-11.9112
rier	-11.9115
▁précipice	-11.9122
▁magnificence	-11.9122
▁provisoire	-11.9123
▁ouvertement	-11.9125
▁heurter	-11.9125
▁chancelant	-11.9125
▁refrain	-11.9125
▁retenant	-11.9126
▁Longueville	-11.9126
No	-11.9126
▁perdues	-11.9126
▁produite	-11.9129
▁tenta	-11.9132
▁dispenser	-11.9133
étrange	-11.9134
▁rendrai	-11.9138
▁embrasse	-11.9138
▁honoré	-11.914
▁dessins	-11.9141
▁paresse	-11.9147
▁montrent	-11.9147
orient	-11.9147
▁bergère	-11.9148
▁Goulden	-11.9151
▁Piotr	-11.9151
▁moribond	-11.9151
▁Théâtre	-11.9151
▁remettait	-11.9151
▁Vienne	-11.9152
▁dixième	-11.9153
▁odieuse	-11.9153
▁bah	-11.9153
▁lrsquoéchafaud	-11.9155
▁manifester	-11.9156
▁viendront	-11.9162
▁aigre	-11.9168
▁indiscrétion	-11.9171
▁protège	-11.9171
▁avertissement	-11.9174
▁carrefour	-11.9174
▁repasser	-11.9175
▁risques	-11.9177
▁Frapillon	-11.9177
▁crever	-11.9177
▁donnât	-11.9178
▁épaisses	-11.9178
▁attacha	-11.918
▁pendaient	-11.918
disant	-11.918
Al	-11.9181
▁chancelier	-11.9183
▁levés	-11.9186
▁suffire	-11.9187
▁Ex	-11.9187
rus	-11.919
▁prodigue	-11.919
▁avisé	-11.919
▁vir	-11.9193
humeur	-11.9194
▁fournit	-11.9195
amener	-11.9195
▁modifications	-11.9198
▁attentions	-11.9199
▁danseuse	-11.92
▁paume	-11.92
▁secoué	-11.9202
▁Coolmicro	-11.9203
▁Manicamp	-11.9203
▁hésité	-11.9203
▁traduction	-11.9203
▁Moreau	-11.9204
▁Surtout	-11.9204
▁sub	-11.9205
▁Louve	-11.9206
▁impérieux	-11.9206
inspecteur	-11.921
▁déguisé	-11.921
▁marchande	-11.9211
▁remplacé	-11.9213
▁réglé	-11.9221
oli	-11.9221
▁mrsquoaime	-11.9223
▁ressentir	-11.9223
▁frontières	-11.9225
inquiéter	-11.9228
▁lâches	-11.9229
▁Phallus	-11.9229
▁comprenais	-11.9229
▁dormaient	-11.9229
▁patiemment	-11.9229
▁parvenait	-11.9229
▁apportée	-11.9229
▁fréquentes	-11.923
▁sonnaient	-11.923
▁taureaux	-11.923
▁mutuellement	-11.9231
éli	-11.9231
mMa	-11.9232
▁publier	-11.9232
▁Pan	-11.9234
▁lisez	-11.9235
▁lrsquoexception	-11.9236
lèrent	-11.924
▁bienfaits	-11.9242
éviter	-11.9242
▁récolte	-11.9244
gen	-11.9248
▁parchemin	-11.9249
ster	-11.9249
▁perpétuelle	-11.9254
▁creuse	-11.9254
▁bruyamment	-11.9255
▁Wegg	-11.9255
▁chapelet	-11.9255
▁Ramée	-11.9256
▁Colette	-11.9256
▁renseigné	-11.9258
▁regrettait	-11.9258
▁vraies	-11.9258
▁renonce	-11.9259
▁jaillit	-11.926
▁faveurs	-11.9261
▁drsquoautrefois	-11.9262
▁Point	-11.9262
▁cape	-11.9269
col	-11.9273
▁pirates	-11.9275
▁000	-11.9276
▁accusation	-11.9276
▁pans	-11.9277
▁ennui	-11.9278
▁successeur	-11.9278
▁compléter	-11.9282
▁hautain	-11.9282
▁Comité	-11.9282
▁signaler	-11.9284
▁traînait	-11.9285
▁prêta	-11.9285
▁adroit	-11.9287
▁toiles	-11.9289
▁mens	-11.9289
▁doutez	-11.9292
▁dimanches	-11.9293
gou	-11.9294
▁parente	-11.9295
▁habitant	-11.9296
▁tourmenté	-11.9298
esclave	-11.9299
▁abandon	-11.9301
▁violentes	-11.9302
▁acquise	-11.9302
▁imp	-11.9303
esclavage	-11.9303
▁croira	-11.9304
▁fauves	-11.9305
▁siffler	-11.9308
▁Aglaé	-11.9308
▁Vsévolodovitch	-11.9308
▁Bourgogne	-11.9308
▁négligence	-11.9308
▁remerciements	-11.931
▁mousquet	-11.9311
▁perdant	-11.9314
▁post	-11.9314
▁soulevait	-11.9315
▁Grecs	-11.9317
▁sacrifié	-11.9321
▁douteux	-11.9321
aussi	-11.9326
non	-11.9327
▁Pol	-11.9328
▁parade	-11.9329
▁aie	-11.9329
▁malédiction	-11.9331
▁Juif	-11.9331
▁battus	-11.9332
nightley	-11.9334
▁Minoret	-11.9334
▁ferveur	-11.9334
▁nœuds	-11.9335
▁carrée	-11.9335
▁dures	-11.9336
▁voulurent	-11.9337
▁haletant	-11.9339
ï	-11.9339
rer	-11.9339
▁essaie	-11.9342
ote	-11.9346
▁rencontrai	-11.935
▁prophètes	-11.9352
apparence	-11.9352
▁fantaisies	-11.9354
▁séparèrent	-11.936
▁radieux	-11.936
▁Broussel	-11.9361
▁momentanément	-11.9361
▁trappe	-11.9364
▁matières	-11.9365
▁rende	-11.9367
▁bavard	-11.9367
▁Samuel	-11.9367
▁massacre	-11.9367
îmes	-11.9369
▁actif	-11.937
▁monarque	-11.937
▁consulté	-11.937
ible	-11.9371
▁échanger	-11.9373
ub	-11.9373
▁affront	-11.9374
▁puisqursquoelle	-11.9376
▁suivants	-11.9378
explique	-11.9379
▁familière	-11.9382
extrême	-11.9383
rsquoaussi	-11.9386
▁indulgence	-11.9386
▁Saumur	-11.9387
▁ldquo	-11.9387
▁Arrêtez	-11.9388
▁infaillible	-11.9388
▁raillerie	-11.9388
▁ravissante	-11.9389
▁baissée	-11.9392
▁écharpe	-11.9395
▁allumée	-11.9399
▁rapportait	-11.9399
▁régna	-11.9399
nèrent	-11.94
arracher	-11.9401
▁noyé	-11.9403
roit	-11.9404
▁aucunement	-11.9405
▁pusse	-11.9405
▁impériale	-11.9405
▁épouvantée	-11.9409
▁Genève	-11.9413
▁Grèce	-11.9413
▁servitude	-11.9414
▁rebord	-11.9414
▁Tox	-11.9414
▁marquait	-11.9414
▁détermination	-11.9415
▁lances	-11.9415
▁couvraient	-11.9417
▁portés	-11.942
▁embarrassée	-11.9421
ath	-11.9424
▁enfer	-11.9424
▁creusé	-11.9425
▁froids	-11.9425
▁Gros	-11.9426
▁imposé	-11.9429
▁interrompue	-11.943
▁ignoble	-11.943
▁srsquoécriait	-11.9432
audace	-11.9432
▁opéré	-11.9433
▁pénètre	-11.9434
▁confrères	-11.9435
▁Indien	-11.9435
▁costumes	-11.9437
▁ornements	-11.9438
▁bailli	-11.9439
▁Baisemeaux	-11.944
▁Fontainebleau	-11.944
▁barbier	-11.944
▁bourdonnement	-11.9441
▁déguisement	-11.9441
indépendance	-11.9443
▁no	-11.9443
▁manquerait	-11.9445
▁maternel	-11.9449
▁commençais	-11.9452
vol	-11.9458
ng	-11.9459
▁Bel	-11.9459
▁fortunes	-11.9463
▁grotesque	-11.9465
▁dévotion	-11.9465
ult	-11.9466
▁Delamayn	-11.9467
▁Cadot	-11.9467
▁Souday	-11.9467
▁rançon	-11.9467
▁soupçonnait	-11.9468
▁Président	-11.9469
rdquo	-11.9469
▁accusés	-11.9472
▁vilaine	-11.9475
▁lrsquoépreuve	-11.9475
rsquoantichambre	-11.9477
▁passionnée	-11.9479
▁observateur	-11.9482
▁mrsquoattend	-11.9483
▁familiers	-11.9484
▁muets	-11.9485
élite	-11.9486
▁devra	-11.9489
▁grange	-11.9492
▁ample	-11.9496
▁sortira	-11.9496
▁trsquoes	-11.9498
▁srsquoécrie	-11.9498
éd	-11.95
▁commandements	-11.9501
accomplissement	-11.9501
▁prononcées	-11.9501
▁drsquoouvrir	-11.9506
▁lrsquoordinaire	-11.9507
▁pensaient	-11.9508
èle	-11.9515
atrice	-11.9515
▁Brooke	-11.9516
▁éperons	-11.952
▁collége	-11.9521
▁Cent	-11.9522
▁surprenant	-11.9523
▁vainqueurs	-11.9525
▁gardaient	-11.9525
▁Afin	-11.9526
▁dessinait	-11.9529
▁dépendait	-11.953
▁lrsquoorage	-11.9531
▁lard	-11.9536
▁al	-11.9537
▁drsquoavis	-11.9537
▁lrsquoenfer	-11.9538
▁aiguille	-11.954
▁estomac	-11.9541
▁Mer	-11.9543
isé	-11.9544
▁Scheherazade	-11.9547
gin	-11.9548
▁résigné	-11.9548
▁retournèrent	-11.9548
▁bourreaux	-11.9549
▁fichu	-11.9552
▁payait	-11.9552
sa	-11.9553
▁lapin	-11.9553
▁immédiate	-11.9553
▁vertueux	-11.9553
▁ébranlé	-11.9554
ères	-11.9556
▁appartenir	-11.9559
▁engage	-11.956
▁natures	-11.9563
▁douta	-11.9563
▁clameurs	-11.9564
▁errer	-11.9566
écriture	-11.9566
▁meurent	-11.9571
▁Flandre	-11.9573
▁Bumble	-11.9574
▁Canalis	-11.9574
▁échoué	-11.9574
▁mystérieuses	-11.9574
▁poussèrent	-11.9575
▁Antonio	-11.9579
euses	-11.9581
▁eus	-11.9582
▁Hi	-11.9583
▁doive	-11.9596
▁rousse	-11.9601
▁Pamphile	-11.9601
▁monstrueux	-11.9601
▁thème	-11.9601
▁Valérie	-11.9601
▁nomination	-11.9601
Honoré	-11.9601
▁empereur	-11.9605
▁annonçaient	-11.9606
▁lrsquoancienne	-11.9606
▁servantes	-11.9607
▁contemplant	-11.9608
▁drsquohorreur	-11.9609
mdes	-11.961
▁exigences	-11.9611
▁lrsquoaube	-11.9612
▁bougea	-11.9612
▁brigade	-11.9612
▁pointes	-11.9614
étonner	-11.9615
▁terreurs	-11.9616
▁reculant	-11.9616
épouse	-11.962
sses	-11.9621
dic	-11.9624
abandonne	-11.9625
▁torrents	-11.9628
▁Madrid	-11.9628
▁Michu	-11.9628
▁crème	-11.9628
▁Triphon	-11.9628
▁gendarmerie	-11.9629
▁XVIII	-11.9633
▁entiers	-11.9633
▁équilibre	-11.9635
ants	-11.9635
▁imposante	-11.9636
▁Ad	-11.9637
▁dépensé	-11.9639
▁parbleu	-11.964
▁pigeons	-11.964
▁distinctes	-11.964
▁Pe	-11.9641
▁Loin	-11.9644
▁publié	-11.9645
▁annonçant	-11.9646
▁colonies	-11.965
▁intervalle	-11.9653
▁éloges	-11.9654
▁procuré	-11.9655
▁reçois	-11.9655
▁retient	-11.9655
▁lrsquoayant	-11.9656
▁essentiellement	-11.9656
▁Demandez	-11.9657
▁drsquoacier	-11.9662
▁Blanc	-11.9662
chet	-11.9666
▁respecte	-11.9669
▁exiger	-11.9671
▁préserver	-11.9671
▁réuni	-11.9673
▁tournaient	-11.9673
▁imprimé	-11.9675
▁exquis	-11.9675
▁descendue	-11.968
échelle	-11.9681
▁démonstration	-11.9682
▁veine	-11.9682
▁formation	-11.9682
issait	-11.9682
▁Marneffe	-11.9683
▁Dumas	-11.9683
▁Nanon	-11.9683
▁mâchoires	-11.9683
▁dessiner	-11.9684
▁voudraient	-11.9688
▁Grise	-11.9688
▁Julien	-11.969
▁secs	-11.969
mDans	-11.969
▁peintures	-11.9691
▁essuya	-11.9693
▁chauds	-11.9693
▁agitait	-11.9694
▁traîné	-11.9697
▁plaies	-11.9698
▁lrsquoarme	-11.9698
▁païens	-11.97
▁échappa	-11.9705
nent	-11.9706
aperçois	-11.9708
▁Provence	-11.971
▁complétement	-11.971
▁décisif	-11.971
▁Polonais	-11.971
▁baguette	-11.971
▁cottage	-11.971
▁buvant	-11.971
▁vertueuse	-11.9711
▁serpents	-11.9712
▁Qursquoavez	-11.9712
approchant	-11.9713
▁coûter	-11.9713
▁passionnément	-11.9713
▁XI	-11.9715
▁audacieux	-11.9716
▁totale	-11.9717
▁courtisane	-11.9718
quet	-11.9719
arrêt	-11.972
▁Contre	-11.9722
▁soulevé	-11.9724
▁chèvres	-11.9727
usqursquoà	-11.9727
▁poussent	-11.9729
▁ingrat	-11.9729
▁hussards	-11.9732
▁So	-11.9733
▁conseillé	-11.9733
huissier	-11.9734
▁traditions	-11.9734
▁bouclier	-11.9737
▁croisa	-11.9737
▁Séchard	-11.9737
▁Virgile	-11.9737
▁Dinah	-11.9737
▁antiques	-11.9741
▁fondée	-11.9741
▁volant	-11.9742
▁oublia	-11.9742
▁dors	-11.9743
▁remontait	-11.9746
▁marchent	-11.9748
aine	-11.9748
▁her	-11.9749
▁occupaient	-11.975
▁traîtres	-11.9752
▁carnet	-11.9753
cor	-11.9754
▁élu	-11.9754
▁inférieur	-11.9754
▁locataires	-11.9759
▁prononcés	-11.976
▁Papa	-11.9762
▁écrivains	-11.9764
▁mâchoire	-11.9764
▁Bertram	-11.9765
▁banlieue	-11.9765
end	-11.9765
▁pâlir	-11.9766
▁obstinément	-11.9767
▁épris	-11.9767
▁concitoyens	-11.9769
▁manteaux	-11.9773
rsquoeût	-11.9776
▁nrsquoayez	-11.9776
▁présentée	-11.9778
▁Di	-11.9779
▁redoubla	-11.9781
▁indigènes	-11.9782
▁oubli	-11.9782
▁consent	-11.9784
▁força	-11.9787
▁Ginevra	-11.9792
▁Lincoln	-11.9792
▁conviens	-11.9792
▁Merlin	-11.9793
▁poursuivant	-11.9797
▁Bretons	-11.9798
Sa	-11.9802
âtre	-11.9804
mJ	-11.9806
▁donnerez	-11.9809
▁dresse	-11.9811
lic	-11.9813
bu	-11.9814
▁Srsquo	-11.9815
▁lrsquounivers	-11.9815
▁corriger	-11.9816
▁chariot	-11.982
▁corbeille	-11.982
▁Desroches	-11.982
▁réfléchissait	-11.982
▁tendus	-11.9821
▁Continuez	-11.9821
▁drapeaux	-11.9822
qua	-11.9822
▁déshonneur	-11.9822
▁cruche	-11.9822
▁bains	-11.9823
▁moisson	-11.9823
▁lents	-11.9824
▁supplia	-11.9824
▁accompagna	-11.9829
▁galeries	-11.9831
▁38	-11.9832
▁enfonça	-11.9833
emploi	-11.9833
▁incendie	-11.9836
▁hautement	-11.9839
off	-11.9842
▁réchauffer	-11.9845
▁Cité	-11.9846
▁devenues	-11.9848
▁intervint	-11.9848
▁révérend	-11.9848
▁domination	-11.9848
▁chaux	-11.9849
merveilleusement	-11.985
▁Char	-11.985
▁vulgaires	-11.9852
▁verrous	-11.9856
▁désigna	-11.9856
▁chargées	-11.9859
▁indiqua	-11.9862
▁aperçurent	-11.9862
engage	-11.9864
▁personnelles	-11.9865
▁dauphin	-11.9866
by	-11.9868
▁chuchota	-11.9869
▁bol	-11.987
▁oblige	-11.987
▁sociétés	-11.9872
▁cal	-11.9872
antes	-11.9875
▁Scrooge	-11.9875
▁rênes	-11.9875
▁surlendemain	-11.9875
▁divinité	-11.9876
▁prédit	-11.9876
▁avoua	-11.9879
sur	-11.988
Hassan	-11.9881
ell	-11.9887
har	-11.9888
▁supplier	-11.989
▁plaçant	-11.9893
Océan	-11.9897
▁échappe	-11.9897
▁mûr	-11.9899
▁siége	-11.99
approchèrent	-11.9903
▁Bargeton	-11.9903
▁Lawton	-11.9903
▁grève	-11.9904
▁chameaux	-11.9904
▁étouffer	-11.9904
▁drsquoa	-11.9905
▁devraient	-11.9906
▁barques	-11.9906
▁recommence	-11.9907
▁viendrai	-11.9908
▁poignets	-11.9908
▁srsquoouvrir	-11.9909
▁Reste	-11.9909
▁confident	-11.991
▁bouillon	-11.9911
▁modestement	-11.9912
▁vagabond	-11.9912
▁bouches	-11.9913
▁conjugale	-11.9916
▁détaché	-11.9919
▁étoffe	-11.992
▁soulager	-11.9922
▁éloigner	-11.9923
ey	-11.9926
▁surnom	-11.9926
▁réfugier	-11.9927
▁mécanisme	-11.9931
▁reparaître	-11.9932
▁flatté	-11.9932
▁végétation	-11.9932
▁auto	-11.9932
▁alternativement	-11.9932
▁rouvrit	-11.9932
atteindre	-11.9933
▁causée	-11.9935
▁nationaux	-11.9935
▁boisson	-11.9936
▁Mouy	-11.9936
▁cuisses	-11.9939
▁dollars	-11.994
▁inclination	-11.9941
lia	-11.9942
▁mrsquoaurait	-11.9944
▁confirmer	-11.9944
▁cimes	-11.995
▁rec	-11.9954
▁méditations	-11.9954
ko	-11.9955
ip	-11.9956
av	-11.9958
▁propice	-11.9959
▁Hugues	-11.9959
▁Sikes	-11.9959
fé	-11.996
▁cahier	-11.996
cro	-11.996
▁persuadée	-11.9961
▁Sylvestre	-11.9962
▁Da	-11.9962
▁inflexible	-11.9965
▁Mariette	-11.9966
▁Marian	-11.9966
inclinant	-11.9967
▁charrettes	-11.9967
ables	-11.9969
▁suivantes	-11.9971
▁Agar	-11.9971
▁gémir	-11.9975
▁Ab	-11.9978
▁attribuer	-11.9979
▁oreiller	-11.9981
▁monuments	-11.9982
▁ennuyé	-11.9983
▁vaincus	-11.9983
▁Valentine	-11.9985
▁mulâtre	-11.9986
▁Boulogne	-11.9987
▁dormant	-11.9987
▁Régine	-11.9987
▁surplus	-11.9987
▁consolations	-11.9989
▁défenseur	-11.9993
VOUS	-11.9993
▁converti	-11.9994
▁combattu	-11.9995
▁entrez	-11.9995
▁bûcher	-11.9996
▁caves	-11.9996
▁résolutions	-11.9997
instrument	-11.9998
▁accompagnait	-12.0002
▁srsquoemparer	-12.0004
▁trouverons	-12.0006
Paul	-12.0007
▁abattre	-12.0014
▁Frank	-12.0015
▁Swiveller	-12.0016
▁fuyait	-12.0016
▁percepteur	-12.0016
▁Ami	-12.0016
▁Peste	-12.0016
▁chalet	-12.0017
▁fable	-12.0017
▁tenus	-12.0019
▁innocents	-12.0022
▁deviendrait	-12.0022
écrie	-12.0024
▁appartenaient	-12.0025
▁indice	-12.0027
▁farce	-12.0027
▁Champs	-12.0032
idées	-12.0032
▁enfermée	-12.0037
▁attraper	-12.004
▁fiévreuse	-12.0041
▁majestueuse	-12.0041
▁écrivain	-12.0044
▁Soufflard	-12.0044
▁notamment	-12.0044
▁Ayez	-12.0044
mSC	-12.0045
▁transition	-12.0045
▁vaisselle	-12.0047
▁résiste	-12.0047
▁fixait	-12.0049
▁préoccupations	-12.0051
▁lrsquoétude	-12.0054
▁mare	-12.0055
▁permets	-12.0056
▁pat	-12.0056
▁inquiets	-12.0057
▁communion	-12.006
ib	-12.006
▁Cal	-12.0061
▁flatte	-12.0063
gh	-12.0065
▁sourds	-12.0067
▁pensive	-12.007
office	-12.0072
▁jury	-12.0072
▁frein	-12.0072
▁Nrsquoimporte	-12.0073
▁flambeaux	-12.0073
▁contradiction	-12.0073
▁personnalité	-12.0073
▁avidement	-12.0075
▁exprima	-12.0077
▁assemblées	-12.0077
ata	-12.0078
▁lus	-12.0078
alliance	-12.0078
▁richement	-12.0079
▁grandir	-12.0083
▁recevra	-12.0087
▁dérange	-12.0087
▁reporter	-12.0087
▁prolongé	-12.0088
▁indiquée	-12.009
▁entrevoir	-12.0093
▁confirma	-12.0098
▁museau	-12.01
estomac	-12.01
▁Gradgrind	-12.0101
▁Sylvie	-12.0101
▁Marsay	-12.0101
▁facteur	-12.0101
▁drsquoeffroi	-12.0106
▁chemises	-12.0107
▁dons	-12.0107
▁comptais	-12.0108
▁objections	-12.0108
▁marie	-12.0112
▁capote	-12.0113
(1)	-12.0116
▁Tours	-12.0122
▁protégée	-12.0126
▁Balthazar	-12.0129
▁Rasoumikhine	-12.0129
▁concernant	-12.0129
▁revenez	-12.0129
▁Rappt	-12.0131
▁photographie	-12.0131
▁symbole	-12.0131
▁sillon	-12.0131
▁grilles	-12.0132
▁éloge	-12.0132
▁déclarant	-12.0134
▁partaient	-12.0137
cre	-12.0138
▁effacer	-12.0142
▁séduit	-12.0144
▁élément	-12.0145
▁supposez	-12.0147
▁souffrante	-12.0151
▁écarté	-12.0154
▁regagna	-12.0154
▁incomparable	-12.0156
▁mécanique	-12.0157
▁Attention	-12.0158
▁Haredale	-12.0158
▁capitaux	-12.0158
▁décisive	-12.0158
▁Beule	-12.0158
interroger	-12.0158
▁raisonnements	-12.0158
▁connaissiez	-12.0159
▁compatriote	-12.0159
▁romanesque	-12.0159
effort	-12.016
▁gaillards	-12.0161
▁lrsquoan	-12.0163
▁Capitaine	-12.0163
▁remarques	-12.0163
▁indiquant	-12.0163
▁drsquoenvoyer	-12.0165
X	-12.0167
▁hasarda	-12.0167
tait	-12.0168
▁drsquoamitié	-12.0168
▁biche	-12.0169
▁sanglotant	-12.0172
▁charmants	-12.0175
▁Pen	-12.0178
▁éventail	-12.0179
▁outils	-12.0183
▁rafraîchir	-12.0184
▁Balzac	-12.0186
▁milady	-12.0186
▁entrâmes	-12.0187
▁lrsquoincendie	-12.0187
▁bondissant	-12.0187
▁district	-12.0188
▁déposition	-12.0188
égalité	-12.0192
▁pâli	-12.0192
▁propreté	-12.0193
▁soudainement	-12.0195
▁passez	-12.0195
▁lanternes	-12.0196
▁brutale	-12.0199
▁redressant	-12.0199
▁For	-12.02
auriez	-12.02
▁protestations	-12.02
▁paya	-12.0201
▁ét	-12.0203
examiner	-12.0205
▁privations	-12.0207
▁surintendant	-12.0209
▁sauriez	-12.0211
▁férocité	-12.0215
▁viendrez	-12.0215
▁trouvât	-12.0215
▁cède	-12.0215
▁puissances	-12.0216
▁dépassait	-12.0216
œ	-12.0217
▁aile	-12.0217
▁suave	-12.0218
▁gâté	-12.0219
▁reçues	-12.0219
▁ga	-12.0219
▁résumé	-12.0219
▁hall	-12.022
▁emportée	-12.0221
▁valeurs	-12.0221
old	-12.0222
▁ren	-12.0222
Ce	-12.0222
▁cheminées	-12.0222
empressement	-12.0223
▁munitions	-12.0223
▁Her	-12.0224
tha	-12.0224
▁Hiéranie	-12.0224
▁sentent	-12.0224
▁roide	-12.0226
▁adressait	-12.0228
▁rhum	-12.023
▁imiter	-12.0233
▁retirait	-12.0234
ards	-12.0235
▁accepte	-12.0237
▁campement	-12.0237
▁vigoureuse	-12.0244
▁Alpes	-12.0244
▁graduellement	-12.0244
▁chanta	-12.0245
▁bruyère	-12.0246
▁fragment	-12.0246
▁positif	-12.0246
▁murmures	-12.025
▁demeurant	-12.0251
▁cuirasse	-12.0251
exposer	-12.0253
▁golfe	-12.0254
▁affirma	-12.0254
▁intellectuelle	-12.0255
▁fées	-12.0255
▁lrsquoépouser	-12.0256
▁jouent	-12.0257
▁Pascal	-12.0257
▁types	-12.0257
chon	-12.0258
▁espère	-12.026
lus	-12.026
▁défends	-12.0263
▁affligé	-12.0265
▁organisation	-12.0266
▁volet	-12.0266
▁bataillons	-12.027
▁brosse	-12.027
▁connut	-12.0272
▁Bingley	-12.0273
▁Cambry	-12.0273
▁Smerdiakov	-12.0273
▁Gallardo	-12.0273
▁permettaient	-12.0273
▁Galmot	-12.0273
▁sachiez	-12.0273
▁noix	-12.0273
▁supérieures	-12.0273
ignorance	-12.0274
▁enragé	-12.0274
▁troublait	-12.0274
▁tais	-12.0275
▁puissions	-12.0277
▁srsquoéchapper	-12.0277
▁nrsquoentendait	-12.0277
▁srsquoexpliquer	-12.0278
tel	-12.0281
sant	-12.0282
▁commentaires	-12.0282
▁compose	-12.0283
▁françaises	-12.0283
▁favorables	-12.0284
▁Can	-12.0289
▁frémissant	-12.0289
▁convertir	-12.0291
▁anéanti	-12.0291
▁déchira	-12.0292
▁soulève	-12.0294
▁élevant	-12.0294
▁boîtes	-12.0296
▁gentiment	-12.0302
Hélène	-12.0305
▁lrsquoaccent	-12.0311
▁Abou	-12.0314
▁empreinte	-12.0316
▁drsquoespoir	-12.0316
▁joua	-12.0318
opposer	-12.0318
▁prétendue	-12.0321
▁vaincue	-12.0323
mMon	-12.0323
▁ad	-12.0324
illustre	-12.0325
▁défait	-12.0325
▁détourné	-12.0325
▁immobilité	-12.0325
▁insouciance	-12.0327
▁ressortir	-12.0331
▁classique	-12.0333
▁permettent	-12.0334
▁frissonner	-12.0334
▁Moyen	-12.0335
▁mordit	-12.0335
▁gué	-12.0336
▁fend	-12.0337
▁tact	-12.0337
Adresse	-12.0338
▁drsquoémotion	-12.0343
▁parisien	-12.0344
ologie	-12.0344
▁Mi	-12.0347
bus	-12.0348
▁section	-12.0349
▁sensibles	-12.0349
▁habitent	-12.0351
û	-12.0351
tit	-12.0352
▁étonnante	-12.0353
lrsquoinspecteur	-12.0354
▁Lorris	-12.036
▁énormément	-12.036
▁exigé	-12.036
▁contraires	-12.036
▁lrsquoeut	-12.036
▁niche	-12.036
▁chanté	-12.0361
▁réduits	-12.0361
▁significatif	-12.0361
▁Marche	-12.0361
▁Suis	-12.0362
illes	-12.0362
▁pourvoir	-12.0362
▁caravane	-12.0363
▁provoqué	-12.0367
▁hurlant	-12.0369
▁trouverais	-12.0371
▁drsquohiver	-12.0374
▁sévères	-12.0378
▁ruiner	-12.0381
interrompit	-12.0382
▁encor	-12.0383
fo	-12.0384
ouvris	-12.0385
informer	-12.0385
ling	-12.0386
▁Wharton	-12.0389
▁populace	-12.0389
▁précipitèrent	-12.0389
▁Ione	-12.0389
▁parliez	-12.0389
Orient	-12.0389
▁repartir	-12.039
▁demeures	-12.039
▁coulaient	-12.0391
▁femelle	-12.0392
▁hostile	-12.0394
encre	-12.0395
▁amuser	-12.0396
▁lrsquoavenue	-12.0396
▁exciter	-12.0397
▁Serait	-12.0398
▁fortifications	-12.0398
▁lrsquoattitude	-12.0399
▁ambassadeur	-12.04
▁couronnes	-12.0401
habiller	-12.0403
▁souriante	-12.0404
▁reconduire	-12.0406
▁obliger	-12.0407
▁évidence	-12.0407
▁rapproché	-12.0409
▁mord	-12.0413
▁délit	-12.0414
▁lrsquoattaque	-12.0415
IS	-12.0416
▁espions	-12.0417
▁luttes	-12.0418
▁Chantecoq	-12.0418
▁racheter	-12.0419
▁comprise	-12.0419
▁Hollandais	-12.0419
▁inviter	-12.042
▁précipite	-12.042
▁sorcier	-12.0422
▁thèse	-12.0422
▁jrsquoallai	-12.0423
▁Justice	-12.0423
▁drsquoajouter	-12.0423
ages	-12.0424
issaient	-12.0424
▁contrôle	-12.0425
▁ingénieux	-12.0427
LE	-12.0429
▁enfantine	-12.043
▁infernal	-12.0432
mau	-12.0434
▁hum	-12.0436
ous	-12.0437
▁Cou	-12.044
▁pures	-12.0443
▁enchantement	-12.0445
▁barrières	-12.0448
drsquoinquiétude	-12.0448
▁Diégo	-12.0448
▁Graslin	-12.0448
▁Justus	-12.0448
▁Finot	-12.0448
▁ciseaux	-12.0448
▁ravissement	-12.0448
▁supposait	-12.0449
article	-12.045
▁humilié	-12.045
▁srsquoouvrait	-12.0451
▁porcelaine	-12.0451
▁inclina	-12.0451
▁apparu	-12.0452
ours	-12.0453
▁caveau	-12.0453
▁abandonnés	-12.0453
▁lrsquoextérieur	-12.0454
mc	-12.0454
▁ramenait	-12.0454
▁all	-12.0455
▁Augustin	-12.0456
▁directions	-12.0462
▁ordonnance	-12.0462
mf	-12.0462
espérais	-12.0469
asseyant	-12.0469
▁affirme	-12.0469
indignation	-12.047
▁soigné	-12.0471
▁affaibli	-12.0472
▁offres	-12.0475
▁foire	-12.0477
▁Rogron	-12.0477
▁rentrèrent	-12.0477
▁transmettre	-12.0478
▁Toussaint	-12.0478
▁mandat	-12.048
étudiant	-12.048
▁faciles	-12.0482
▁vida	-12.0482
▁sourdement	-12.0486
▁Monte	-12.0487
▁dérobé	-12.0493
▁recouvert	-12.0498
▁épargné	-12.0498
ç	-12.0499
apporter	-12.0499
arr	-12.0501
▁Nele	-12.0501
embrassa	-12.0504
OU	-12.0506
▁Dundas	-12.0507
▁Vimpany	-12.0507
▁parapet	-12.0507
mScène	-12.0507
étonnait	-12.0511
▁srsquoétend	-12.0514
ût	-12.0515
▁présage	-12.0515
▁guinées	-12.052
▁srsquoinclinant	-12.0522
▁dépasse	-12.0522
▁lrsquoautorité	-12.0522
▁reconnaissante	-12.0523
bri	-12.0524
envoie	-12.0524
▁unis	-12.0535
▁Delgrès	-12.0537
▁pâlissant	-12.0537
▁préférable	-12.0537
▁charitable	-12.0538
▁reprochait	-12.0538
▁Bé	-12.0539
▁Élisabeth	-12.054
▁menus	-12.0542
▁vaillants	-12.0543
ara	-12.0545
mElle	-12.0548
▁monstres	-12.0548
▁hardie	-12.0549
tive	-12.0551
kh	-12.0551
▁cerf	-12.0551
94	-12.0554
▁paniers	-12.0556
drsquoétonnement	-12.0558
bat	-12.0559
▁racontant	-12.056
inter	-12.0563
activité	-12.0563
▁capuchon	-12.0564
▁confiée	-12.0564
aubergiste	-12.0565
▁Ja	-12.0565
▁refaire	-12.0567
▁sifflant	-12.0567
▁pertes	-12.0568
▁réaction	-12.0569
▁séant	-12.0569
▁caresser	-12.057
▁rapprochait	-12.057
▁détective	-12.0571
▁vaines	-12.0577
▁entouraient	-12.0577
▁UN	-12.0582
▁refermer	-12.0584
▁présentes	-12.0584
32	-12.0587
▁parure	-12.0587
▁puissantes	-12.0588
▁sortez	-12.0588
▁renversée	-12.0589
▁écuyers	-12.059
▁carrés	-12.0593
▁domaines	-12.0594
28	-12.0595
▁pou	-12.0595
écurie	-12.0596
▁Dunwoodie	-12.0596
▁Havisham	-12.0596
▁Pardaillan	-12.0596
▁RODRIGUE	-12.0596
▁inquiétez	-12.0596
▁Montjoie	-12.0596
▁décès	-12.0596
▁remplissaient	-12.0597
▁drsquoAlençon	-12.0598
▁fugitif	-12.0601
▁judiciaire	-12.0601
▁gredin	-12.0601
▁pitoyable	-12.0601
▁crochet	-12.0601
▁demandée	-12.0601
▁méprisant	-12.0602
▁tuyau	-12.0603
▁augmentait	-12.0603
▁horizon	-12.0605
▁durent	-12.0607
▁lrsquoaider	-12.0608
▁baissait	-12.0608
▁exquise	-12.0609
▁féminin	-12.061
lement	-12.061
▁drsquoété	-12.0611
enveloppe	-12.0612
▁constitue	-12.0615
▁obéissant	-12.0617
voy	-12.0617
▁dôme	-12.0618
▁pains	-12.0621
court	-12.0624
▁moue	-12.0626
▁Murdstone	-12.0626
▁déployer	-12.0626
▁monarchie	-12.0626
▁Normandie	-12.0628
examen	-12.0629
▁ca	-12.0629
etty	-12.0631
▁sermon	-12.0631
berg	-12.0632
IL	-12.0633
▁Oscar	-12.0633
▁agonie	-12.0635
▁rame	-12.0635
organisation	-12.0636
dehors	-12.0636
▁pantoufles	-12.0637
▁Amélie	-12.0638
▁capitaines	-12.0639
▁ronds	-12.0641
▁lrsquoautel	-12.0642
▁signa	-12.0644
Hommes	-12.0646
▁mrsquoaider	-12.0647
▁déclin	-12.0647
▁West	-12.0648
▁allures	-12.065
▁tranchant	-12.0651
▁martyr	-12.0653
enlever	-12.0654
▁épouvante	-12.0656
▁Fairlie	-12.0656
▁flûte	-12.0656
▁prudemment	-12.0656
▁famine	-12.0656
▁Frankland	-12.0656
▁anneaux	-12.0657
▁labeur	-12.0657
▁brutalité	-12.0658
▁préférait	-12.0658
▁grasse	-12.0659
nel	-12.0659
▁avenue	-12.066
▁accuser	-12.0661
▁frotter	-12.0661
▁vérités	-12.0661
Ne	-12.0663
▁lrsquoin	-12.0664
▁cueillir	-12.0665
▁jouit	-12.0665
▁étoffes	-12.0667
▁sauraient	-12.0668
▁chauffer	-12.0669
▁bassesse	-12.0669
accepte	-12.067
▁claires	-12.067
▁visibles	-12.0671
▁remarquée	-12.0672
▁fiche	-12.0677
▁meublée	-12.0677
▁enlève	-12.068
eff	-12.068
▁heurta	-12.0684
▁troncs	-12.0686
▁Betteredge	-12.0686
▁Médéric	-12.0686
▁ennuyeux	-12.0686
▁Havre	-12.0687
▁prose	-12.0689
▁Bray	-12.0689
ANT	-12.069
▁exaspéré	-12.0691
▁imaginaire	-12.0691
▁lot	-12.0692
▁institutions	-12.0694
▁lointaines	-12.0698
▁incliné	-12.0699
Anglais	-12.07
▁faisiez	-12.0702
▁exercé	-12.0703
▁acclamations	-12.0705
▁amical	-12.0709
▁flottant	-12.071
▁agita	-12.0714
▁lestement	-12.0715
toire	-12.0715
amuse	-12.0716
main	-12.0716
▁Huslin	-12.0717
▁harnais	-12.0717
mCorrect	-12.0717
▁Coralie	-12.0717
▁inférieurs	-12.0717
▁rouleau	-12.0719
▁inerte	-12.0722
▁lrsquoancre	-12.0722
▁bienfaiteur	-12.0722
▁Heyward	-12.0722
▁taverne	-12.0722
▁penche	-12.0723
▁rejeté	-12.0724
▁irréprochable	-12.0724
▁possédé	-12.0725
ius	-12.0727
▁héritière	-12.0728
▁coffret	-12.0729
▁superbes	-12.0729
▁songeais	-12.073
▁payée	-12.073
▁refusez	-12.0731
▁chères	-12.0733
▁altérée	-12.0734
▁documents	-12.0739
▁appliqué	-12.0739
▁distractions	-12.074
▁mrsquoeût	-12.0743
sseur	-12.0745
▁remarquait	-12.0746
▁Caracciolo	-12.0747
▁reconnaissez	-12.0748
▁Bath	-12.0748
▁caressait	-12.0749
▁rassemblés	-12.075
▁notion	-12.0752
▁jurés	-12.0752
▁doublé	-12.0753
▁lrsquoA	-12.0754
▁réjouit	-12.0754
attache	-12.0755
▁dérangé	-12.0756
aîné	-12.0756
▁commissaires	-12.0758
▁Maures	-12.0759
▁Long	-12.0767
▁pencher	-12.0767
▁An	-12.077
▁rencontres	-12.077
▁ivresse	-12.0771
▁princesses	-12.0771
mens	-12.0773
attacher	-12.0777
▁Baudraye	-12.0777
▁caissier	-12.0777
grand	-12.0777
▁consens	-12.0777
cule	-12.0779
▁Jérôme	-12.0779
▁saine	-12.0779
▁découragement	-12.078
▁travaillant	-12.0782
bor	-12.0783
abandon	-12.0784
▁tige	-12.0786
▁lrsquoempire	-12.0787
▁ruses	-12.079
pied	-12.0794
▁amenait	-12.0795
ali	-12.0795
siez	-12.0795
apparition	-12.0797
▁étincelants	-12.0798
▁hypothèse	-12.0798
▁br	-12.0798
▁chanoine	-12.0802
▁séparées	-12.0803
▁grossiers	-12.0805
▁infernale	-12.0806
▁flambeau	-12.0808
▁Lydia	-12.0808
▁Mériadec	-12.0808
▁brièvement	-12.0808
▁dirigèrent	-12.0808
▁restât	-12.0808
▁Percy	-12.0808
▁Blaireau	-12.0808
▁produisent	-12.0809
▁grogna	-12.0809
▁ânes	-12.0809
▁présentaient	-12.0811
▁lapins	-12.0811
▁srsquooccupait	-12.0812
▁pressaient	-12.0812
▁souri	-12.0812
▁imperturbable	-12.0814
▁Amadis	-12.0815
▁verger	-12.0815
▁bougeait	-12.0816
▁croûte	-12.0817
Texte	-12.0818
▁mouvoir	-12.0822
▁ecclésiastique	-12.0823
éloignait	-12.0824
aye	-12.0826
▁arrangement	-12.0829
▁avertis	-12.083
rsquoapparition	-12.083
▁allongé	-12.0831
▁parvenue	-12.0831
quer	-12.0832
mPar	-12.0832
▁révèle	-12.0833
▁lacs	-12.0835
▁obstiné	-12.0837
▁exaltation	-12.0838
nie	-12.0838
▁Gouvernement	-12.0838
▁mercredi	-12.0838
▁brisés	-12.0838
▁sécher	-12.0838
attaquer	-12.0844
▁fragile	-12.0844
▁captif	-12.0844
▁détente	-12.0847
▁balai	-12.0849
▁embuscade	-12.0849
▁contours	-12.085
ori	-12.0851
▁menée	-12.0853
▁avances	-12.0854
tie	-12.0859
▁manifesta	-12.0859
▁drsquoépée	-12.0859
▁Carlos	-12.0861
▁srsquoavançant	-12.0861
mNe	-12.0863
▁is	-12.0863
▁écoles	-12.0864
▁aveugles	-12.0866
▁quais	-12.0868
▁Hullin	-12.0869
▁figuré	-12.0869
▁Alban	-12.0869
apporte	-12.0871
▁Huit	-12.0872
▁rassura	-12.0873
extérieur	-12.0873
ju	-12.0874
▁nrsquoauraient	-12.0874
▁trouves	-12.0875
▁pupitre	-12.0875
▁lrsquoécurie	-12.0876
▁moqueur	-12.0877
▁bouc	-12.0878
excuse	-12.0879
▁négliger	-12.0881
▁tenons	-12.0882
▁pile	-12.0882
hor	-12.0885
▁tiendrai	-12.0888
▁amateur	-12.0889
▁succéda	-12.089
▁offense	-12.0891
▁pensionnaires	-12.0891
▁solitaires	-12.0892
▁bruyant	-12.0893
▁retarder	-12.0894
▁prunelles	-12.0896
▁accueillit	-12.0897
Inde	-12.0897
▁vaudra	-12.0898
▁Fiodor	-12.09
▁Châtelet	-12.09
▁Ernauton	-12.09
▁vigilance	-12.09
▁Bourse	-12.09
▁Roche	-12.09
▁gronde	-12.0904
▁hautaine	-12.0904
accident	-12.0904
▁traversèrent	-12.0905
▁confrère	-12.0906
Mignonne	-12.0909
dra	-12.0911
▁finissent	-12.0914
▁mrsquoavaient	-12.0915
sais	-12.0917
ales	-12.0919
▁tricot	-12.092
▁irritation	-12.0924
▁guillotine	-12.0926
▁sacrés	-12.0928
▁nomma	-12.093
▁Chuzzlewit	-12.0931
▁Vincennes	-12.0931
▁Voltaire	-12.0931
▁patriotisme	-12.0931
▁Thorpe	-12.0931
▁salade	-12.0931
▁avantageux	-12.0932
▁remuait	-12.0932
▁désignait	-12.0933
▁abandonne	-12.0936
▁gonds	-12.0936
▁déguiser	-12.0942
▁féliciter	-12.0945
élaboration	-12.0947
ces	-12.0947
▁José	-12.0948
ige	-12.0949
▁trembla	-12.0951
▁informe	-12.0952
fa	-12.0955
▁lrsquoembrassa	-12.0956
fe	-12.0959
▁candide	-12.0962
▁hérité	-12.0962
▁Vendale	-12.0962
▁Pouvez	-12.0962
▁dépasser	-12.0963
24	-12.0964
▁Éva	-12.0966
éternité	-12.0967
employer	-12.0967
▁royaliste	-12.0969
▁emb	-12.0969
▁ricanant	-12.0969
▁importait	-12.097
▁servirait	-12.0974
▁voilée	-12.0974
▁quoiqursquoelle	-12.0976
mdrsquo	-12.0976
pl	-12.0977
▁lrsquoéclair	-12.0978
▁Willi	-12.0979
ave	-12.0984
▁reines	-12.0984
AC	-12.0985
▁pentes	-12.0985
▁diront	-12.0985
▁manquera	-12.0986
▁mâles	-12.0989
▁Mère	-12.0992
▁constance	-12.0993
▁régularité	-12.0993
▁sépulture	-12.0993
▁figurait	-12.0993
▁pèlerinage	-12.0994
▁enseveli	-12.0994
ivresse	-12.0994
rsquoentretenir	-12.0995
▁crurent	-12.0995
▁terrains	-12.0999
▁tulipe	-12.0999
rsquoinfanterie	-12.1
▁bienheureux	-12.1001
▁regardée	-12.1002
▁lrsquoardeur	-12.1002
▁Eustache	-12.1003
▁justesse	-12.1006
▁admirait	-12.1007
▁boulet	-12.1007
▁vécut	-12.1008
▁goûté	-12.1013
▁bail	-12.1016
▁Gu	-12.1017
▁revienne	-12.1019
▁assiettes	-12.1021
▁Bruxelles	-12.1024
▁Gaulois	-12.1024
▁manège	-12.1024
▁harpe	-12.1024
▁Gania	-12.1024
▁Brière	-12.1025
▁battent	-12.1025
▁peloton	-12.1031
autrui	-12.1031
▁spectacles	-12.1032
▁indispensables	-12.1034
▁grimaces	-12.1035
▁maladresse	-12.1035
▁pince	-12.1036
▁drsquohier	-12.1036
▁soutien	-12.1037
▁nrsquoétant	-12.1039
▁constaté	-12.104
▁hardis	-12.1046
▁confesse	-12.1051
ini	-12.1052
▁demandera	-12.1053
▁bontés	-12.1053
écho	-12.1054
▁exposée	-12.1054
▁cochère	-12.1055
Université	-12.1056
▁voûtes	-12.1057
tés	-12.1057
29	-12.1058
cou	-12.1058
horloge	-12.1061
▁susceptible	-12.1062
écoutait	-12.1063
▁pendus	-12.1066
▁lames	-12.1067
▁39	-12.1068
▁tournoi	-12.1068
▁inouïe	-12.1069
▁passais	-12.107
alité	-12.1072
▁travaillent	-12.1074
▁pressentiments	-12.1075
tal	-12.1079
▁faillite	-12.1081
▁possèdent	-12.1083
▁bordure	-12.1083
(1	-12.1084
▁répondrai	-12.1087
▁bou	-12.1089
▁punch	-12.1089
▁Né	-12.1089
▁tribut	-12.109
▁traduire	-12.1091
▁herbe	-12.1093
▁lrsquoesclave	-12.1094
▁battement	-12.1094
▁invita	-12.1095
▁labour	-12.1097
▁offraient	-12.1097
▁The	-12.1097
▁gelée	-12.1098
▁surgir	-12.1099
▁étudiants	-12.11
individu	-12.11
▁Lo	-12.1104
mn	-12.1104
ico	-12.1106
mLA	-12.1107
▁Barancos	-12.1118
▁pâture	-12.1118
▁pouls	-12.1118
▁Silas	-12.1119
▁rejeter	-12.1119
▁Major	-12.1119
▁cousins	-12.1121
▁crue	-12.1123
▁furieusement	-12.1123
échappa	-12.1124
▁Claes	-12.1125
▁pirate	-12.1125
▁lrsquoimmense	-12.1127
▁graines	-12.1128
▁parer	-12.113
▁lrsquoaffection	-12.1133
▁examinait	-12.1133
▁rôti	-12.1134
mO	-12.1134
ava	-12.1139
rac	-12.1141
▁exil	-12.1141
▁problèmes	-12.1142
puissant	-12.1143
oche	-12.1145
▁Seule	-12.1145
▁mariages	-12.1148
▁Grouchegnka	-12.1149
▁Riderhood	-12.1149
▁Véronique	-12.1149
▁Varden	-12.1149
▁office	-12.115
▁balançait	-12.115
▁jrsquoaperçus	-12.1151
▁dorées	-12.1151
▁défenseurs	-12.1151
▁Laissons	-12.1154
▁Félix	-12.1155
▁Pharaon	-12.1155
▁attendais	-12.1155
▁potence	-12.1157
▁jambon	-12.1157
▁marchandise	-12.1158
▁(1	-12.1158
▁précipitée	-12.1158
▁renvoya	-12.116
▁soulagé	-12.1161
lieutenant	-12.1162
Jésus	-12.1162
malade	-12.1163
▁tombai	-12.1164
▁dose	-12.1166
▁effusion	-12.1167
▁sagement	-12.1167
▁errants	-12.1169
▁coiffe	-12.1169
▁Aoustin	-12.1169
▁chi	-12.1169
▁honnêtement	-12.117
Quand	-12.1171
entendez	-12.1171
▁ricana	-12.1171
▁idole	-12.1179
▁Asie	-12.118
▁Sta	-12.1181
▁Micaud	-12.1181
▁Mayenne	-12.1181
▁Caleb	-12.1181
▁lancée	-12.1181
▁Bal	-12.1182
▁braver	-12.1182
dy	-12.1184
▁édifice	-12.1185
▁peigne	-12.1186
▁Flore	-12.1186
▁béante	-12.1186
89	-12.1187
▁aperçus	-12.1187
▁dramatique	-12.1189
▁champion	-12.1191
den	-12.1191
▁avaler	-12.1192
mPour	-12.1195
▁ébloui	-12.1196
US	-12.1198
▁nef	-12.1201
▁excuser	-12.1203
▁vitrée	-12.1204
▁subtil	-12.1205
▁plonge	-12.1205
▁dressée	-12.1206
▁représenté	-12.1208
▁emportait	-12.1212
▁Précisément	-12.1213
▁Dolly	-12.1213
▁composaient	-12.1213
▁Fer	-12.1216
▁Lisez	-12.1217
▁ressenti	-12.1218
▁mitraille	-12.1219
▁Marat	-12.1219
▁modes	-12.1219
▁parages	-12.122
▁insistance	-12.1222
arranger	-12.1223
étoffe	-12.1224
▁Luce	-12.1224
▁surveillant	-12.1225
▁soutient	-12.1225
▁Guy	-12.1225
▁réfugiés	-12.1227
iennes	-12.1227
étendre	-12.1227
▁termine	-12.1228
▁Sauvages	-12.123
▁étincelle	-12.123
▁croisant	-12.123
▁ivrogne	-12.1231
apercevant	-12.1232
▁projeté	-12.1232
▁intéresser	-12.1232
▁centimes	-12.1233
▁qursquoavez	-12.1235
▁nrsquoentend	-12.1236
▁habitations	-12.1237
▁traduit	-12.1239
illant	-12.1241
chef	-12.1242
illé	-12.1242
▁achète	-12.1243
▁hasarder	-12.1243
▁respecté	-12.1243
lés	-12.1244
▁rivières	-12.1244
▁Chalandrey	-12.1245
▁anxieux	-12.1245
▁balustrade	-12.1245
▁surveillait	-12.1245
▁retentirent	-12.1247
▁pluies	-12.1247
drsquoœuvre	-12.1249
▁prévôt	-12.1251
▁lrsquoentretien	-12.1252
▁clôture	-12.1253
▁monstrueuse	-12.1253
▁constate	-12.1254
▁fâche	-12.1254
laboration	-12.1259
Marc	-12.1261
▁profitant	-12.1263
▁continuai	-12.1264
▁cuire	-12.1265
▁hommages	-12.1265
▁sépara	-12.1266
▁Sor	-12.1268
▁modifier	-12.1268
▁recommandations	-12.1269
for	-12.127
▁dépourvu	-12.1275
▁Comminges	-12.1277
▁Légion	-12.1277
▁Moseley	-12.1277
▁Autrefois	-12.1277
▁Mikhaïlovna	-12.1277
▁Autrichiens	-12.1277
▁furtivement	-12.1277
▁ducats	-12.1278
▁Ge	-12.1278
▁plaisanter	-12.128
▁Allen	-12.1282
▁confia	-12.1283
the	-12.1283
▁brunes	-12.1283
▁matinale	-12.1285
▁charpentier	-12.1285
▁portail	-12.1287
▁nocturnes	-12.1287
▁assassinat	-12.1288
▁lrsquoamant	-12.1291
▁habitaient	-12.1294
▁prononcée	-12.1295
aimes	-12.1296
▁avançant	-12.13
▁garderai	-12.1301
▁chic	-12.1302
▁précises	-12.1307
▁abattue	-12.1307
▁Mirande	-12.1309
▁frissonnant	-12.1311
▁aisance	-12.1311
▁ressemblant	-12.1311
▁protester	-12.1312
▁rasé	-12.1313
▁pires	-12.1313
IE	-12.1314
▁drsquoobtenir	-12.1314
▁impatiente	-12.1315
▁emparé	-12.1315
▁arrivées	-12.1316
Athos	-12.1317
agitation	-12.1318
▁lrsquoavantage	-12.1318
▁cloué	-12.1319
▁demeuraient	-12.132
nât	-12.1322
▁intrépide	-12.1323
Enfer	-12.1327
▁inclinée	-12.1327
▁calmes	-12.1329
▁cachées	-12.1329
mVI	-12.133
▁Tim	-12.1331
nées	-12.1331
incendie	-12.1336
▁butte	-12.1339
▁Boishardy	-12.1341
▁Woodhouse	-12.1341
▁sceau	-12.1341
ers	-12.1342
▁coûtait	-12.1342
▁échec	-12.1343
ain	-12.1344
▁tir	-12.1345
cœur	-12.1345
▁traitée	-12.1347
▁quittai	-12.1347
▁Voir	-12.1349
▁wagon	-12.135
rés	-12.135
▁sympathies	-12.1352
▁rencontrent	-12.1352
▁anonyme	-12.1353
▁tirai	-12.1354
▁raisonner	-12.1356
▁surnaturel	-12.1358
▁Alpha	-12.1358
▁bosse	-12.1359
▁baisant	-12.136
▁intrigues	-12.1362
▁code	-12.1362
▁Gui	-12.1368
naire	-12.1368
▁baissé	-12.1369
▁rondes	-12.1371
▁portera	-12.1372
▁plaise	-12.1373
▁drsquoOrcival	-12.1373
▁entrefaites	-12.1373
▁dévorait	-12.1374
▁gâteaux	-12.1374
▁lrsquoaccusé	-12.1376
▁frémit	-12.1376
23	-12.1377
▁patronne	-12.1378
▁prierai	-12.138
▁primitive	-12.138
éteindre	-12.1381
▁perroquet	-12.1382
▁Lrsquoidée	-12.1385
▁résigner	-12.1385
▁talon	-12.1386
▁1830	-12.1387
▁abandonna	-12.1388
▁permettra	-12.1391
▁théologie	-12.1397
tout	-12.1398
▁ordonnances	-12.1402
21	-12.1403
▁fébrile	-12.1403
▁relevée	-12.1403
▁srsquoavancer	-12.1404
▁horreurs	-12.1404
▁Aladdin	-12.1405
▁BURIDAN	-12.1405
▁Tupman	-12.1405
▁chocolat	-12.1405
▁sabbat	-12.1405
▁taciturne	-12.1405
▁Quélus	-12.1405
▁sincères	-12.1406
▁Restez	-12.1408
▁conforme	-12.1408
dent	-12.1411
▁Davidée	-12.1411
▁plairait	-12.1413
▁violettes	-12.1414
emparer	-12.1414
▁bagage	-12.1415
▁flatteur	-12.1416
endormir	-12.1417
31	-12.1418
▁enveloppés	-12.142
▁We	-12.1421
▁cigares	-12.1423
ades	-12.1423
▁témoigné	-12.1425
▁ravir	-12.1426
▁absente	-12.1428
▁criai	-12.1428
her	-12.1429
▁écraser	-12.143
▁battements	-12.143
▁Allemand	-12.1432
▁enflammé	-12.1434
▁purs	-12.1435
▁paisibles	-12.1436
▁vivra	-12.1437
▁Godfrey	-12.1438
▁Goriot	-12.1438
▁frénésie	-12.1438
▁Docteur	-12.1438
▁empreintes	-12.1438
▁Fitz	-12.1438
▁séduire	-12.1439
▁Carrier	-12.1439
▁gâteau	-12.1439
▁contenue	-12.1441
▁blague	-12.1441
assurance	-12.1442
sser	-12.1443
▁Bourg	-12.1444
▁déchirant	-12.1447
▁Ambroise	-12.1447
▁ficelle	-12.1447
[...]
