#version: 0.2 - Trained by `huggingface/tokenizers`
Ġ d
Ġ l
q u
e s
e n
Ã ©
a i
Ġ p
o u
Ġ s
o n
Ġ c
r e
a n
Ġd e
r s
Ġ m
Ġ a
Ġ Ċ
e r
Ġ qu
e t
en t
rs qu
â Ģ
l e
o i
n e
Ġ t
Ġ v
ai t
a r
e u
Ġ f
rsqu o
i t
i l
a s
Ġl a
âĢ Ļ
Ã ł
Ġ et
i s
Ġl e
e l
i n
t e
Ġ Ãł
Ġ j
Ġ n
ou s
o m
ai s
Ġ r
Ġ u
an t
Ġ b
o r
ou r
Ã ¨
Ġ en
u s
m e
Ġqu e
u r
Ġl es
Ã© t
a u
Ġa v
an s
a t
c h
m ent
es t
Ġp r
c e
Ġu n
Ã ª
t re
Ġp ar
Ġp as
Ġ g
i on
Ġc h
a l
Ġa u
Ġ re
Ġqu i
u i
el le
Ġs e
Ġ il
r i
s e
Ġd es
Ġ ne
Ġ M
Ġ !
Ġj e
Ġc om
Ġ ;
i en
d as
das h
i e
on t
Ġp l
Ġd ans
en d
Ġp our
Ġv ous
a v
Ġ h
a g
Ġd u
eu r
i r
Ġt r
Ġu ne
Ġ Ã©t
ou t
d e
n dash
ou v
Ġl rsquo
Ã© s
Ġ C
Ã© e
on s
r es
Ġc e
o s
Ġs on
m p
ai n
Ġ L
an d
a b
Ã¨ re
Ġ ?
p r
Ġs ur
ai ent
o l
e c
Ġl ui
a m
Ġ J
oi s
qu e
eu x
Ġpl us
Ã© c
ě [
or t
l es
Ã© p
Ġs a
on n
a p
Ġ in
oi r
f f
oi n
Ġ P
Ġs i
u is
u t
Ġ e
Ġ E
Ġt out
Ġm e
Ġd it
I l
Ġ S
et te
e z
Ġav ec
l i
Ġ o
Ġ A
a c
Ġ :
Ã© r
s i
Ġ Â
Ġd rsquo
Ġm ais
ai re
ar d
Ġ est
âĢ ¦
Ġn ous
Ġm on
oi l
Ã¨ s
e rs
Ġav ait
i er
Ġg r
Ġ ě[
il le
Ġ D
Ġcom me
Ġb ien
on d
Ġ elle
Ġs es
âĢ ĵ
ĠÃ©t ait
u n
o t
i c
i g
Ġ Il
o y
u e
Ġm a
Ã ¢
Ã §
ĠJ e
Ġd Ã©
at ion
Ġn rsquo
u x
m es
i v
rsqu oil
g e
Ġ V
Ġ y
l le
Ġc ette
Ġs rsquo
rsqu ou
u re
i re
ag e
Ġc on
Ġ B
Ã ´
ch e
Ãª me
Ġc r
Ġ ent
Ã ®
il l
i eu
Ġp eu
e m
Ġ T
Ġpr o
ou p
Ġ Ã©
Ġs er
ĠÂ »
Ġ N
ab le
t es
en s
u it
om me
i ne
Ãª tre
Ġ ou
au t
Ġd is
Ġf r
it Ã©
Ġqu rsquoil
o tre
Ã »
i d
Ġa r
oi t
ou rs
Ġqu el
Ġf ait
m b
Ã ¹
Ġb r
l l
on ne
ou te
e au
Ġe x
Ġr Ã©p
Ġ O
Ġs ans
Ġde v
es s
p p
Ġt e
Ã©t ait
an ce
or d
Ġde m
o re
an g
Ġd rsquou
Ġde ux
t Ã©
Ġqu rsquo
eu rs
t er
a d
t r
Ġ R
Ġo Ã¹
u ne
end re
Ġc el
Ġm oi
c i
Ġc es
ais s
en ce
Ã© es
is s
âĢ Ķ
ion s
an c
on c
er t
Ġm ar
Ġm ain
Ġs u
Ġf aire
rsquo est
Ġm Ãªme
i Ã¨re
u l
Ġl eur
as s
Ġ Q
Ġ G
Å ĵ
Ã© n
ap p
Ġau x
an te
Ġ F
mp s
a y
om b
qu es
Ġr Ã©
Ġ on
ou l
or te
Ġa m
et it
Ġa s
c c
i m
Ġpar t
Ġc ar
b le
Ġre g
r ent
pr Ã¨s
v e
Ġen c
Ġt u
Ġ ai
o p
Ãª te
Â «
o rs
Ġp etit
eu re
i eux
ĠM ais
Ġj rsquo
Ġm al
Ġenc ore
u m
Ġpas s
r a
Ġtr ouv
Ġcom p
g n
t res
Ġv en
Ġt ous
ĠÂ «
Ġa us
Ġf em
v ous
e ment
Ġs eu
end ant
c t
ĠL e
Ġa t
Ġj eu
ch er
Ã» t
Ġgr and
Ġp uis
es p
Ġa ll
Ã´ t
o se
Ġc ont
i eur
ĠE t
Ġv ie
t ant
au x
i que
Ã¨ rent
au v
Ġcom m
oin t
ons ieur
a le
Ġm es
Ġh omme
Ġj us
ag n
ai ne
r Ã©
Ġreg ard
Ġd onn
Ġ H
Ġv otre
Ġm rsquo
Ġp er
Ġc ons
il s
om p
ĠÃ©t Ã©
ĠrÃ©p ond
Ġs ont
Ġ Ã©c
av ait
Ġd ire
o b
el les
Ġd ont
oin s
Ġch e
Ġ Ã
Ġc a
Ġil s
i f
on g
Ġs uis
Ġen f
i mp
Ġaus si
Ġd i
er re
ĠL a
Ġr ien
Ġf ut
Ġp ouv
Ġte mps
Ġf or
Ġt ou
an de
a Ã®
our n
ar t
ĠQ u
a ce
Ġcel a
Ġa pp
Ã© d
is e
Ġat t
Ġdrsquou n
l er
i Ã¨
ri v
Ġj am
Ġd onc
Ġc our
a me
ĠV ous
Ġd Ã©s
Ã© g
Ã© ri
Ġv oi
Ã© l
Ġc oup
is t
Ġdem and
Ġp re
u rs
Ġy eux
oi re
ant s
Ġfem me
Ġqu and
Ġent re
e x
ie rs
Ġl Ãł
. .
pr it
in t
Ġpeu t
ou le
b re
Ãª t
Ġp oint
om mes
Ġf it
Ġre t
Ġt oute
ĠC h
Ġf ois
l ors
Ġ Ãªtre
en ant
Ġp ers
Ġquel que
Ġin s
Ġd Ã©c
Ġ eu
Åĵ ur
Ġs ous
r ait
Ġjam ais
L e
Ġl eurs
Ġm onsieur
Ġpre m
r ai
Ġjeu ne
j ours
i ent
us e
se z
Ġc rsquoest
Ġl ong
Ġf er
Ġ imp
Ġv oy
Ġche v
in s
mb l
Ġa prÃ¨s
Ġv ers
Ġf ais
Ġc onn
om ent
Ġre c
Ġt Ãªte
Ġm an
Ġp os
ĠE lle
le ment
Ġb on
c es
Ġv is
a re
en ir
it u
Ġtou jours
Ġdrsquou ne
Ġre m
Ġm oment
Ġse c
in g
Ã© m
Ġp ort
Ġde r
Ġv oir
Ġj our
Ġp orte
ig n
et tre
Ġre v
ic i
Ġ Ã©p
at t
Ġb eau
res s
Ġp ens
Ġn dash
o le
Ġs ou
Ã§ a
it e
Ġch er
Ġo b
al l
Ġch ez
Ġ U
ĠE n
o c
Ġav oir
Ġl aiss
ien s
ui v
ec t
Ġv oul
Ġs av
Ġs ent
Ġn i
ment s
Ġtr Ã¨s
au tre
Ġtr ois
Ġn ouv
p os
Ġr en
ch es
u p
Ġpr Ã©s
o g
ĠÃ©t aient
Ġa b
Ġtout es
d re
Ġa p
Ġm ont
Ġs ort
Ġjus qu
Ġm oins
Ġa cc
Ġch ose
o d
ĠrÃ©pond it
Ġf ort
ĠL es
a ur
m Ãªme
ig ne
Ġtr av
ie z
ar r
Ġd Ã©p
Ġau tre
n es
Ãª tes
Ġn on
Ġar riv
as se
i ce
ent e
j e
Ġ an
Ġm ot
Ġquel ques
Ġs ais
Ġe ff
Ġn otre
ai r
p uis
Ġa ff
Ġa ur
Ġc ri
Ġr est
Ġm ort
Ġn om
ar g
Ġqursquo elle
Ġvoi x
Ġser v
Ġl rsqu
ĠC e
Ġd r
Ã¢ t
Ġdev ant
ai lle
i de
ĠP ar
ĠD ieu
ain t
Ġmon de
Ġf aut
Ġc Åĵur
te ment
ĠdÃ© j
Ġp Ã¨re
l Ã©
Ġc et
Ġr oi
Ġd ou
e mp
ation s
Ġcon tre
il les
Ġf ille
ent s
Ġa d
ain si
en ait
Ġc or
Ġtr op
Ġv iv
Ġmais on
i b
Ġf in
l a
Ġp u
Ġp e
re t
ouv er
r it
Ġ ainsi
end u
uit e
Ġc ol
Ġav ant
er v
Ġs our
Ġcon v
Ġ I
Ã©c ri
au d
Ġr Ã©s
i es
Ġlrsquo h
Ġas s
Ġp ay
es te
Ġcel ui
Ã© v
Ġc ond
Ġen v
o rsqu
Ġa lors
Ġc ap
qu el
Ġt er
Ġm at
Ġc Ã´
Ġpr is
et s
an ge
Ġg ar
Ġt ant
Ġcon f
ĠO ui
Ġs uiv
E t
m er
Ġh eure
at ure
Ġs ol
ie d
Ġg Ã©n
Ġp le
ag es
ai ll
ĠÃ Ģ
a de
b li
t u
Ġs al
Ġpro f
us s
i le
rsquou n
s t
i Ã©
it ion
Ġb l
Ġma Ã®
ir ent
Ġh ommes
Ġ es
f in
Ġex p
Ġ ont
Ġm is
ĠdÃ©j Ãł
ĠO n
ai res
ac t
Ġjrsquo ai
in u
Ġav aient
Ġpr in
Ġt omb
omb re
Ġg u
Ġav ez
am bre
Ġn uit
Ġde puis
Ġb ou
Ġau tres
Ġder n
Ġseu l
ĠC rsquoest
re z
o ch
Ġpers onne
av ais
Ġc l
oil Ãł
Ġp auv
ĠS i
Ġcom pr
u es
Ġh ab
l Ãł
Ġpr Ã¨s
Ġgr ande
Ġ 1
Ġd Ã©t
eu se
o v
Ġe mp
oi gn
ai l
li g
Ġt on
Ġin d
Ġt erre
Ġp ied
Ġse mbl
Ġm Ã¨re
m oi
L a
ri Ã¨re
Ġqu oi
Ġs ouv
Ġas sez
Ġch a
Ġma d
Ġpetit e
Ġf l
Ġ ici
eur es
ĠcÃ´ tÃ©
ous s
qu oi
Ġmad ame
le v
Ġp endant
is te
ĠA h
c oup
ch Ã©
ĠdÃ© f
Ġch ambre
ĠF r
Ġnrsquo est
Ã©cri a
Ġj et
p ar
or m
Ġ âĢĵ
Ġv rai
Ġ im
ang er
Ġs oir
om m
Ġdemand a
Ã ¯
Ġg ens
si ble
Ġj ours
qu er
Ġn os
h eure
n er
rsquo Ã©tait
re r
Ã§ on
Ġqursquo on
p t
Ġpouv ait
c l
Ġm ieux
Ġv u
.. .
Ġc ou
Ġbr as
ĠN ous
Ġc eux
Ġr app
Ġv ol
Ġpr Ã©c
Ġle v
Ġmain s
u d
Ġl ieu
ĠE h
u g
Ġre pr
aÃ® tre
ĠJ rsquo
Ġm il
Ġch ar
ab les
Ġchev al
Ġc ert
Ġr ais
Ġ Ãªtes
Ġs oit
Ġdonn er
mb le
Ġj ou
Ġ! âĢ¦
Ġl orsqu
Ġ (
ur es
Ġh eures
Ġin t
ĠM a
Ġ W
Ã¨ res
Ġl iv
t enant
Ġb ar
Ġmar i
ĠM ar
our d
Ġ esp
oi e
Ġau c
ĠgÃ©n Ã©r
Ġser ait
es se
ĠO h
Ġpauv re
Ġf eu
Ġbeau coup
os es
Ġam i
ĠP our
Ġa g
Ġau t
i a
ĠN on
Ġrec onn
Ġpr om
ĠU n
Ġf ils
Ġe Ã»t
Ġpe ine
d r
Ġap pr
Ġpr endre
Ġpay s
i x
av oir
Ġch em
Ġpar ler
Ġc elle
Ġcr ois
J e
Ġb onne
Ġpro p
ac c
j et
ais e
Ġin c
Ġ ans
Ġpl ace
ap pr
Ġv os
eu t
Ġ ouv
on de
at h
Ġm in
Ġt our
an Ã§
ĠT u
en u
en se
ag ne
Ġd oute
Ġre prit
ĠprÃ©s ent
te mps
at s
Ã© ch
Ġb out
Ġfais ait
Ġr ou
ĠM on
p endant
Ġcont inu
Ġg l
Ġf am
Ġv ieux
g ne
L es
Ġt oi
at re
Ġprem ier
es que
Ġv a
Ġ ord
Ġm ille
Ġm ur
Ġqu it
Ã ī
Ġr end
i ques
ĠÃ ī
Ġo ff
itu de
Ġn ature
h omme
ĠD e
Ġ eux
Ã©t ais
Ġv ois
f ait
li c
A r
anc es
u y
ur ent
Ġs c
qu i
Ġjusqu rsquo
er a
ien ne
Ġsu pp
Ġ Ã¢
Ġp h
i ment
f ois
Ġmain tenant
c on
Ġmat in
Ġser a
Ġs il
Ġseu lement
iÃ¨ res
Ġtrav ers
Ġpl ais
Ġr i
Ġdi ff
el l
g r
p h
u v
Ġc in
ant es
Ġm er
Ġf ond
i el
Ġper d
Ġcomm en
ch a
Ġ Ã§a
h eur
ieu se
E n
Ġsou ff
s es
Ġch oses
ĠmaÃ® tre
m i
ce v
ent ion
Ġs ang
ĠA n
m in
Ġeu t
en f
p s
Ã¨ ne
ĠÃ© v
Ġv Ã©r
Ġprem iÃ¨re
u c
Ġh aut
Ġv it
ct ion
Ġre f
Ġin ter
Ġs oup
cc up
d ess
Ġv eux
Ġt able
Ġt ourn
Ġc o
Ġnouv eau
ĠÃ©t r
Ġ or
ain s
Ġven ait
is se
Ġvis age
Ġdes c
Ġc al
av ez
Ġcap it
Ġpr esque
Ġcont r
ĠIl s
Ġla qu
Ġv oilÃł
Ġl oin
ol es
Ġre p
Ġaur ait
en ez
m Ã©
oi d
igne ur
ir a
Ġins tant
Ġb as
Ġl it
Ġqu atre
er ie
Ġchem in
Ġb es
z e
Ġmil ieu
ĠQ ue
Ġv oit
an che
Ġan n
Ġgr os
Ġp at
end s
Ġcom b
ĠÃ©c l
Ġr este
Ġenf ant
ĠPar is
Ġc ent
Ġcom ment
Ġl ar
Ġb elle
ct eur
a h
ri r
ĠÃ© g
Ġpar ce
Ã© ment
Ġl Ã©g
Ġg ard
end ait
u li
a ff
Ġs Ã»
av e
Ġs p
Ġ id
Ġr esp
Ġenf in
et t
ing t
Ġtrouv er
Ġfem mes
Ġv ille
Ġlaqu elle
Ġ elles
qu et
Ġv er
E lle
Ġf ig
Ġr Ã©c
Ġm it
Ġf Ã»t
Ġcor ps
it er
d es
an n
ard in
M ais
Ġqursquoil s
Ġnrsquo y
Ġs rsquoil
iss ait
ĠP r
ul t
Ġseu le
Ġcha que
Ġcr oy
ĠA u
Ġconn aiss
Ġv ais
o ff
Ġin f
Ã¨ v
ch ant
m Ã©e
Ġt a
Ġlong temps
Ġdi x
Ġrais on
ire r
Ġar r
in c
end it
ĠdÃ© b
Ġper m
ic t
Ġai r
Ġc as
Ġlrsquo autre
Ġqu est
Ġl ettre
Ġdis t
Ġr ue
er c
Ġdis ait
Ġdr oit
Ġf a
aÃ® t
iv e
b l
Ġm Ã©
ĠgÃ©nÃ©r al
b e
te au
Ġpass er
i p
re ux
o che
ab ord
an ch
res se
ex p
in es
Ġpr it
j out
Ġim m
ĠN e
dess us
Ġpr Ã©
tÃ© ri
Ġ K
Ġfor ce
ĠS aint
ne l
Ġaut our
ĠÃ© ch
Ã©t aient
Ġbr uit
anc s
ill er
Ġm ettre
li qu
Ġjeu nes
ĠM me
Ã©t Ã©
Ġpar l
Ġcomp agn
Ġsav oir
Ġre tr
ĠU ne
Ġr oute
Ġpour quoi
Ġs auv
Ġfr Ã¨re
h e
ar de
Ġav ons
ien ce
Ġall ait
am b
ĠÃ© l
i ble
Ġp ol
Ġs t
Ġh um
ĠM onsieur
av ant
Ġfr app
a ch
Ã©p ar
er Ã§
Ġv ue
Ġd rsqu
it Ã©s
ĠC om
Ġeff et
it Ã´t
t out
r ant
Ġenf ants
elle ment
Ġder riÃ¨re
Q u
Ġs oi
Ġdev ait
r Ã©e
and is
u le
Ġtr ait
Ġa c
as t
Ġp ouss
ri b
aut res
Ġc rsquoÃ©tait
ou x
Ġm ois
A n
Ġall er
ĠdÃ© v
ĠT out
Ġsil ence
Ġf en
ĠG r
Ġbes oin
g l
Ġsrsquo Ã©cria
el a
Ġp are
o ci
h ui
Ġcapit aine
ois elle
Ġt ard
u er
an qu
Ġb at
Ġpied s
Ġm our
Ġsi mp
Ġven ir
ain es
I I
onne ur
g rÃ©
Ġc ur
Ġv i
Ġr ent
m C
ut ion
Ġam is
Ġs ens
Ġm auv
i qu
Ġsrsquo Ã©tait
Ġlrsqu oin
Ġnrsquo avait
Åĵ il
Ġre Ã§
Ġs ommes
Ġb ois
Ġin v
rsquou ne
al itÃ©
ale ment
Ġmot s
ient Ã´t
Ġv ingt
aille urs
ĠrÃ© f
Ġs orte
Ġ ess
Ġf all
oule z
Ġnrsquo Ã©tait
Ġsi gn
ur a
Ġf le
m a
oy en
Ġa jout
Ar t
Ġr ac
i ch
Ġr endre
r as
Ġca use
Ġab s
l us
Ġpar oles
er ait
Ã Ģ
ieu rs
ĠQu and
Ġm ouv
y s
Ġret ourn
Ġapp ar
j ourd
Ġcin q
ir ait
Ġj ourn
de m
n Ã©
Ġv ou
ĠA lors
Ġsa c
Ġj u
Ġpro pos
l rsquo
i me
Ġc iel
ier re
Ġsrsquo en
onn es
Â »
Ġd iv
Ġche f
arg ent
Ġdonn Ã©
Ġsur pr
ress ion
Ġb al
am our
ĠA r
au te
C e
Ġp ap
Ġlorsqu e
Ġd oit
er ai
Ġrem ar
Ġob s
Ġou i
Ġgar de
Ġl ib
Ġnrsquo en
Ġn ombre
Ġg en
Ġa y
ri ble
t h
agn an
Ġc ouv
Ġcom te
Ġlrsquo on
Ġm en
e ff
Ġpart ie
Ã¢ ce
Ġprin ce
ĠB r
Ġf ai
a Ã¯
Ġd om
Ġdem ande
Ġp iÃ¨
Ġsembl ait
Ġmouv ement
Ã©t r
Ġre mp
Ġm or
er n
Ġcr u
ui re
Ġt re
Ġjusqursquo Ãł
Ġfig ure
Art agnan
Ġp Ã¢
Ġpass Ã©
n ous
ĠT r
Ġfam ille
es prit
Ġe mb
ĠCom ment
Ġmur m
Ã¨ te
Ġent endu
Ġl um
ri g
Ġquest ion
U n
Ġpeu p
Ġf ace
able ment
Ġpro d
Ġauc un
ais se
ĠrÃ© g
oule ur
r ais
us ement
Ġgrand s
iÃ¨ me
or g
ain te
Ġdern ier
Ġsouv ent
Ġs uite
ac un
Ġlaiss er
o pp
Ġtr omp
Ġn u
ĠC ette
Ġvie ille
ĠrÃ© v
Ġg ent
Ġf us
h Ã©
ĠS a
Ġch ap
Ġman iÃ¨re
Ġplais ir
Ġd o
Ġhab it
Ġr Ãª
tes se
Ġf ou
Ġce pendant
Ġca us
Ġqu rsquoun
Ġp en
Ġplus ieurs
Ġsu b
n a
Ġf ac
Ġdis c
er ne
b r
ve ill
Ġapp el
ĠD ans
in aire
iss ant
Ġb ientÃ´t
Ġlrsquo ai
ch ait
il itÃ©
ole il
Ġj oie
Ġnrsquo ai
u me
Ġmal heure
ure r
Ġdu c
Ġvoul ait
Ġp Ã©n
Ġd oi
Ġcher cher
Ġnouv elle
en v
Ġen se
ĠJrsquo ai
ont Ã©
Ġ? âĢ¦
em ain
Ġca mp
Ġprof ond
Ġqu elle
Ġb ord
oin dre
Ġv oulez
Ġt andis
Ġtr ans
es c
b les
Ġdes s
Ġpouv oir
Ġm iss
Ġdou ce
Ġcr oire
Ġex c
Ġsol d
al ier
ill ard
Ġauc une
Ġle quel
Ġf urent
Ġcomp l
arr Ãªt
n ent
Ġbon heur
Ġp eur
ist oire
ĠJe an
Ġm Ãª
ĠdÃ© m
Ġsour ire
Ġf at
ĠvÃ©r itÃ©
Ġd onne
Ġpar ole
Ġc an
id ent
Ġmrsquo a
ĠFr ance
et tes
s itÃ´t
Ġdem i
Ġv e
Ġaus sitÃ´t
Ġpar le
ĠP uis
Ġs oleil
ĠÃ© m
Ġd ame
oy ez
Ġpos sible
c ont
Ġfr ont
ĠCh ar
a te
Ġr ap
en ue
Ġtr anqu
Ġv ent
Ġs ait
Ġdemand er
ĠL rsquo
Ã©c ess
il i
Ġimp os
us si
Ġven u
Ġex tr
ĠE st
Ġpro v
at eur
ĠV otre
Ġes prit
ot s
m ait
ĠC ar
ĠQ ui
ĠÂ» ,
v ers
Ġcomp te
Ġl i
Ġl Ã¨v
Ġsav ez
Ġdis par
Ġsur tout
Ġs Åĵur
ci p
Ġv eut
ot te
R E
l ar
Ġcons id
Ġau tant
h ab
Ã «
Ġmar qu
Ġp o
Ġpro c
Ġr ire
Ġpl ut
an e
Ġtr ou
ĠJ ac
Ġtrouv e
v ent
in er
Ã§ ait
al es
s s
Ġpr Ã©v
ad ame
Ġre ine
Ġay ant
oy er
c in
Ġt rsquo
us t
oi te
Ġpuis s
Ġsi x
Ġv ient
Ã©r Ãªt
aiss ait
ot t
en c
Ġau jourd
u de
ce pt
Ġf ix
au l
Ġc ir
el s
et Ã©
ou is
end emain
Ġd Ã¨s
oup e
Ġn Ã©cess
Ã¨ ve
Ġcontinu a
it iÃ©
Ġqursquo Ãł
c ons
Ġfen Ãªtre
Ġsu p
Ġnrsquo a
i ff
Ġplut Ã´t
Ġou bli
Ġfa Ã§on
a z
Ġc ab
Ġcr Ã©
at is
Ã© qu
it ions
ien d
con tre
o que
Ġpl ac
Ġgr Ã¢ce
ab l
Ġv ert
Ġtrouv ait
ri e
Ġass is
Ġdern iÃ¨re
Ġt enait
Ġo ccup
Ġ ir
onn Ã©
Ġcon se
m ment
onn er
Ġt Ã©m
Ġch acun
Ġj ol
Ġv al
Ġs omme
Ġa fin
Ġsu cc
Ġpens Ã©e
ĠS on
ĠsÃ» r
act ion
il es
b res
Ġcon c
lle z
cev oir
les s
Ġrapp ort
Ġgar Ã§on
Ġheure ux
ai gn
ic k
Ġpetit s
Ġlar mes
Ãª tres
Ġchev eux
Ġpr ess
Ġpour tant
ĠmaÃ® tres
u f
Ġsu ff
Ġc ours
Ġdrsquo Ãªtre
Ġdo cteur
ass er
aur ais
oi mp
Ġs avait
Ġconn ais
Ġf av
ĠrÃ©s ol
Ġm od
i ant
o qu
Ġvoy ant
Ġv int
Ġvoul u
Ġl endemain
Ġsec ret
Ġmon tre
er m
ĠA v
le x
ag er
Ġent endre
ad es
Ġbou che
oi rs
g ent
ĠPour quoi
che v
Ġmal grÃ©
Ġn o
a prÃ¨s
Ġju ge
Ġb our
Ġajout a
Ġinter r
Ġacc omp
Ġvi ol
Ġad m
Ġpar fait
Ġch Ã¨re
isse ment
it es
Ġre d
liqu a
Ġfr ancs
rsqu oin
av aient
ĠdÃ©c ouv
Ġlum iÃ¨re
Ġcomm and
ĠQu el
Ġb less
ord re
ĠlÃ¨v res
Ġpu bli
Ġl ang
o Ã»t
u ment
Ġr am
ĠdÃ©c id
Ġ anc
Ġfall ait
Ġpar mi
Ġregard a
oi se
aut Ã©
Ġg al
Ġsi gne
Ġg agn
Ġt ir
u ve
us es
Ġdis pos
Ġent ra
Ġ âĢĶ
ĠA ll
Ġv ite
Ã¨re ment
appr och
au che
Ġp ours
Ġlrsquo air
Ġsort ir
Ġlev a
Ġaff aire
Ġfait es
l les
ig e
en ne
re ur
ĠÃ¢ me
lle ment
Ġgu erre
Ġfort une
ĠC omme
Ġs itu
Ġr ess
b Ã©
Ġpeup le
Ġvoit ure
Ġmar ch
Ġlong ue
Ġcert aine
Ġc av
os s
Ġv in
Ġdit es
m m
ut es
Ġm oyen
o de
Ġf oi
Ġcomm un
Ġsal le
Ġch Ã¢
cc as
Ġse mble
Ġme ille
Ġcar act
Ġpos s
Ġesp Ã¨
p ect
Ġconv ers
Ġd Ã®
ĠdÃ©s ir
O n
est Ã©
oi ci
u b
ne ment
Ġch arg
d ans
Ġess ay
Ġl rsquoun
Ġmauv ais
in a
ĠV oilÃł
uit s
dem oiselle
i rs
ĠA l
Ġvoy ait
Ġsu jet
Ġpart i
en ces
Ġma demoiselle
Ã´t el
r Ã©s
o ccup
Ġch ant
Ġre l
on se
o ge
Ġter rible
Ġr iv
ce p
in Ã©
Ġren cont
ri er
Ġpour rait
ion n
ĠdÃ© g
Ġs y
Ġ ang
Ġam our
Ġvoi ci
enf ant
Ġret our
r Ã©t
is es
as ard
Ġdiff Ã©r
ort er
ai e
Ġ1 8
b es
Ġ 2
Ġpart ic
f r
a mp
g er
Ã¢ mes
Ġresp ect
ĠdÃ© li
ĠS e
Ġperd u
Ġren contre
Ġs oci
ouver te
Ġg ouver
Ġjrsquo avais
Ġpar d
s uite
Ġjus t
Ġprop re
am ment
ig u
ou ill
ent es
Ġref us
is er
Ġt hÃ©
Ġliv res
Ġf ont
Ġense mble
Åĵ uv
Ġpart ir
Ġh asard
Ġple in
in si
Ġ X
b er
Ġs atis
d rsquo
e Ã»t
o h
Ġt es
Ġau prÃ¨s
Ġr esse
Ġserv ice
Ġtranqu ille
Ġen ne
ĠM adame
g t
Ġchev aux
Ġb Ã¢t
Ġtrouv Ã©
Ġvoy ez
Ġn oir
o Ã¹
Ġremp l
Ġv as
ter nel
Ġid Ã©e
Ġremar qu
Ġtrouv a
Ã¨ le
Ġd est
ĠrÃ©p Ã©t
ri ne
Ġlrsquo ex
Ġobs erv
el opp
el on
anÃ§ ais
on te
Ġfais ant
Ġcour t
Ġjus te
Ġrou g
Ġrac ont
Ġt ri
s on
Ġs out
Ġv ill
iv ement
Ã¢ me
Ġcri a
Ġl ut
Ġvie illard
al ler
Ġtrav ail
Ġcoup s
Ġdoi gt
Ġconsid Ã©r
i ments
Ġqu art
ĠdÃ©s esp
A u
ar riv
Ġj ardin
ĠD es
Ã¨ me
Ġqu rsquoune
Ġm us
Ġsi Ã¨
Ã¢ tre
in d
Ġatt a
Ġre pos
Ġmin utes
Ġar t
Ġo p
Ġpr on
Ġp al
Ġatt end
Ġs Ã©ri
Ġap erÃ§
r is
oi x
ĠH en
Ã® t
d ire
Ãª ter
Ġbr ill
it ation
li er
r aient
Ġrapp el
Ġd Ã»
Ġb le
Ġcontr aire
Ġarriv Ã©
ĠAll ons
Ġcons t
Ġpr Ãªt
Ã´ le
ĠÃ©c out
t oi
Ġbr Ã»
Ġd Ã©r
Ġh Ã©r
Ġlrsquo avait
ent re
Ġr oy
Ã© rer
ĠP as
Ġdr oite
o te
Ġd on
Ġd ur
ĠB on
Ġsent iment
Ġt ort
Ġmrsquo en
i z
Ġrou ge
at ri
ĠrÃ©p liqua
Ġd out
m is
Ġm et
re use
ĠrÃ©pond re
emp le
Ġsrsquo est
ac le
Ġlrsquo av
Ġc oin
E ternel
onc le
Ġch ange
Ġg auche
are r
Ġdrsquo h
Ġenv oy
i ance
ĠEn fin
on e
Ġt end
Ġdem ain
Ġb e
L rsquo
Ġprin cip
Ġpuis que
Ġquel qu
si eurs
Ġpar ut
ĠÃ©p au
Ġp ut
Ġmurm ura
en aient
Ġregard ant
ĠÃ©c rit
Ġfor m
Ã¨ g
Ġmour ir
Ġb ut
Ġvoy age
ĠprÃ©s ence
Ġnouv elles
Ġcommen c
ill on
ccas ion
ue il
Ġt elle
Ġse m
pr ouv
ĠA prÃ¨s
it ch
Ġrest er
tr u
Ġchap eau
b out
Ġfr oid
ess ion
aur ait
Ġmari age
Ġman qu
Ġcal me
an ches
Ġr ob
Ġtomb er
Ġ ait
Ġregard er
Ġm Ã©t
ain c
Ġdem eur
j estÃ©
ort h
Ġgr av
) ,
D e
ĠÃ©cl at
Ġp ense
onc er
ĠP h
ri m
Ġpouv ez
Ġpartic uli
ĠR e
ĠÃ©t at
Ġf ol
r on
Ġob lig
ic es
ĠM aur
Ġcol Ã¨re
ĠmÃ© de
Ġt enir
Ãª cher
Ġrap ide
Ġmal heur
lÃ© ch
m an
Ġf oule
quel s
Ġper dre
o cher
if s
Ġli bre
Ġimpos sible
Ġd orm
ent ement
Ġimp ort
ĠchÃ¢ teau
Ġre lev
ien nent
ot h
Ġh or
ĠrÃª v
Ġsec ond
y p
an Ã§a
ĠI n
ardin al
d er
Ġrec omm
id es
Ġv erre
Ġa l
Ġh uit
Ã©s ent
el lig
Ġpas se
Ġliv re
r ay
Ġv eu
or me
Ġt ent
se igneur
ĠT h
ou ff
ĠpiÃ¨ ce
L E
ĠÃ© lev
Ġcr is
ĠrÃ©p onse
s p
cons t
Ġpass a
Ġmalheure ux
am ar
Ġt el
ĠdÃ©c lar
Ġan im
ĠpÃ¢ le
is me
t a
Ġtr iste
l ui
ĠprÃ©c ip
Ġdis ant
Ġre lig
Ġjet a
Ġc ents
Ġsec onde
Ġdi able
ĠM oi
P uis
arrÃªt a
Ġgrand es
Ġpours uiv
Ġdrsquo autres
aint enant
avant age
ĠC ela
Ġsimp le
ĠC es
ri ve
ar i
Ġbl anc
Ġj ug
Ġviv re
Ġfait e
g Ã©
Ġquit ter
Ġcompr endre
am es
Ġa ct
Ġregard ait
pr is
Ġhab itu
Ġmar che
Ġpr end
ri f
h ors
euse ment
Ġa llez
Ã©r Ã©
on ge
Ġall a
is tes
o k
que ment
Ġcour age
t on
ur Ã©
Ġm oindre
Ġsold ats
er ci
ĠvÃ©r it
ĠdÃ© ch
ob s
Ġcheval ier
Ġpr Ã©t
Ġvou dr
Ġm Ã©r
Ġd os
Ġprin ces
j ets
Ġconvers ation
Ã§ ons
Ġfor me
ve ille
our g
end ue
on ie
Ġentre r
Ġch ass
Åĵ urs
o w
Ġdrsquo A
Ġmal ade
Ġd ouleur
oit iÃ©
de v
id i
ĠC r
l u
Ġen suite
Ġdonn a
Ġreg ret
Ġs elon
Ġemp l
rsquo hui
qui Ã©t
l or
Ġca ch
Ã« l
oi res
ett ait
Ġpar v
a f
Ġlaiss Ã©
ĠrÃ© un
er tÃ©
Ġent iÃ¨re
ĠmaÃ®tres se
ĠespÃ¨ ce
Ġh ors
Ġpr ot
ĠM ont
app el
Ġv ict
Ġpar lÃ©
Ġint Ã©rÃªt
Ġcert ain
Ġdrsquo abord
Ġte mp
Ġo re
C h
Ġv ag
Ġd ois
ĠÃ©tr ange
Ġson ge
Ġp oin
Ġf illes
ici le
Ġdrsquo avoir
Ġm oitiÃ©
Ġsa ur
in ation
Ġlaiss a
Ġaff aires
tÃ©ri eur
it re
Ġsuiv re
Ġoff ic
Ġlrsquo Ã©p
Ġcaract Ã¨re
b as
t in
onne ment
it a
ĠsÃ» re
ĠdÃ® ner
ais sez
ĠV al
is tre
in te
c ul
ou reux
Ġp ai
Ġpol it
Il s
Ġconn aÃ®tre
Ġse pt
Ġs Ã©par
Ġn ot
Ġsort it
Ġ ign
Ġm anger
Ġp oit
Ġcir const
o Ã¯
Ġs ombre
Ġpris onn
Ġtre mbl
Ġple ine
Ġlrsquo Ã©t
ale ur
d ain
r oit
ĠM al
Ġprom en
ĠÃ©ch app
at eurs
Ġbr us
Ġpar aissait
ir ai
Ġf our
Ġpr Ã©par
Ġpetit es
Ġlrsquoh omme
et tres
qu rsquo
ĠMa jestÃ©
Ġabs ol
ui r
ang Ã©
Ġchar m
Ġch ois
Ġes c
Ġab and
Ġcomb at
Ġs us
Ġjrsquo en
Ġc ess
in ce
Ġen g
E S
ail les
Ġc ardinal
a rs
Ġpro b
ĠreÃ§ u
Ã§ ant
Ġdonn ait
Ġport ait
ap h
Ġcomb ien
oy ens
Ġjrsquo Ã©tais
Ġport er
ĠB l
Ġreg arde
Ġter r
Ġv iens
iss ent
Ġcont ent
Ġpens er
Ġaur a
ard s
Ġs aint
ect ion
Ġeff ort
Ġh aute
Ġall ons
au me
Ġserv ir
qu rsquoil
ent end
Ġviv ement
Ġde bout
Ġfin i
Ġf um
Ġsouv enir
Ġlib ertÃ©
Ġf i
ĠprÃ© f
I T
Ġg este
Ġcel les
ĠO Ã¹
Ġlar ge
os itÃ©
Ġl u
) .
Ġdev oir
Ġpers onnes
Ġa ch
Ġsurpr ise
Ġsec ou
Ġsal on
tÃ© ress
Ġatt ention
ath er
Ġfer me
C ette
Ġjourn Ã©e
Ġc uis
p our
ord inaire
ĠChar les
ant Ã©
ol l
ĠdÃ© lic
Ġm Ã©d
Ġf orte
Ã¢ ch
b ert
ou ch
Ġlrsquo ar
Ġri che
oule v
T out
op h
Ġpap ier
th os
g u
Ã©c ut
an ne
eu s
ĠS ans
ĠdÃ©p art
Ġde hors
Ġfle urs
Ġann Ã©es
aiss ance
Ġr oul
Ġr ang
Ġs aut
Ġvis ite
Ġcon te
f s
ill et
Ġl ettres
ĠA insi
Ġn our
ri ez
Ġr av
Ġcin qu
Ġrepr Ã©sent
ĠHen ri
dr oit
Ġpoit rine
at ique
Ġm ag
Ġs au
Ġsitu ation
ĠS al
Ã©r able
U ne
ĠC l
ai me
r ons
re au
eu ses
Ġp ou
Ġgu Ã¨re
N ous
Ġfor c
ĠG e
ĠL ouis
Ġbar on
Ġpr ix
Ġne z
Ġdem eure
Ġcol l
Ġor g
ĠrÃ©f lÃ©ch
Ġdom est
Ġsp ect
a che
ol og
ov itch
Åĵuv re
Ġd avantage
Ġve ille
Ġs oin
Ġenv ir
ar c
d it
Ġt irer
ĠC rsquoÃ©tait
Ġsrsquo Ã©l
Ġin ut
Ġlrsquoh eure
Ġp eux
am is
Ġpr ie
li quer
Ġat te
ather ine
Ã©c l
Ġpar aÃ®t
Ġparl ait
Ġsup Ã©ri
Ġvrai ment
Ġcompagn ie
Ġquoi que
Ġpass ait
O N
j ou
Ġ oncle
Ġb Ã©n
ess es
ag r
Ġmes ure
ĠÃ©pau les
ĠM lle
Ġc it
Ġc amar
Ġcons erv
Ġtrav aill
Ġt ap
Ġs Ã©
Ġc ad
Ġf id
ous e
Ġconf iance
Ġmes sieurs
ĠMar ie
Ġl og
Ġdouce ment
Ġf il
ass Ã©
ist ence
ieuse ment
Ġvill age
Ġjust ice
Ġretr ouv
Ġpuis se
au c
ait e
is tr
ag it
Ġar mes
ĠB ar
Ġ os
en n
Ġfer m
Ġcomm ence
Ġr ay
le z
Ġresse mbl
Ġen droit
Ġm ent
Ġj oy
r y
Ġent end
Ġlrsquo a
ot ion
eau x
Ġs ing
Ġgen oux
is Ã©
Ġbr ave
Ġsatis f
ĠÃ©tr ang
qu elles
ĠS t
P ar
Ġbe autÃ©
Ġsc Ã¨ne
us ion
Ġcons Ã©qu
l am
Ġfor Ãªt
Ġlrsquo ab
onn a
Ġapp art
ĠÂ» .
ĠM aintenant
iv es
att end
ous se
Ġrest a
Ġjusqursquo au
Ġord re
Ġpass age
ich el
ri c
if ic
m Ãª
Ġpl an
Ġtr ente
l ais
c ur
Ġb ais
Ġlrsquo ent
esp Ã¨re
Ġc oul
O U
Ġre cevoir
iss ion
Ġarriv a
Ġarriv er
Ġim ag
Ġs in
Ġr is
Ġai me
av ec
ĠdÃ©t ail
ir ation
Ġh istoire
esc alier
Ġsent iments
os se
Ã¨ tement
Ġf aud
Ġcom tesse
e v
el ui
Ġm ai
t Ã©r
Ġser ais
Ġcond uis
Ġtr aÃ®
li que
Ġex emple
Ġapp ort
Ġl aisse
Ġd anger
Ġag rÃ©
ĠM es
Ġfais aient
Ġregard s
Ġ Z
Ġcons c
Ġre j
Ġconnaiss ance
Ġpers onn
Ġvoudr ais
Ġd igne
p e
Ġb att
Ġm Ã©l
l ise
Ġcouv ert
ĠnÃ©cess aire
d i
is ait
ĠÃ©t ant
Ġcol on
ĠA ussi
Ġu s
Ġai m
Ġmal ad
Ġsac rif
Ġtr ain
Ġp itiÃ©
a que
Ġdou x
Ġchar ge
Ġch ien
ad is
Ġg oÃ»t
in ter
Ġc ous
Ġid Ã©es
Ġf ant
Ġsoci Ã©tÃ©
in et
Ġpar c
Ġse igneur
f ort
i ait
em b
Ġb ons
Ġn Ã©g
Ġpai x
ĠdÃ© n
Ġm y
Ġqu in
app ar
Ã¨ de
ac es
ign es
Ġn av
ĠC or
Ġjam bes
Ġrest ait
iss aient
ag Ã©
m M
Ġdrsquo elle
Ġf ur
t ait
ĠA d
ĠS ur
Ġven ue
ĠÃ ĩ
ĠD rsquo
p ort
ore ille
Ġdiff icile
Ġdrsqu oin
Ġaccomp agn
Ġpart out
Ġesp Ã©r
Ġdist ing
Ġfav or
ĠC atherine
as si
E R
Ġp ont
Ġcond am
t t
Ã® mes
r ist
Ġinterr omp
Ġbl anche
Ġdis p
Ġrob e
Ġparfait ement
ain dre
Ġaujourd rsquohui
aff aire
Ã© b
o f
ap erÃ§
Ġcommen Ã§a
ui e
Ã©ri c
Ġp oign
Ġl oi
Ã¢ che
Ġrev int
ĠN ic
Ġpare ille
e y
Ġm agn
mp e
Ġp oche
Ġt aille
Ġatt endre
Ġtrois iÃ¨me
ette z
it aire
Ġlrsqu oins
Ġrev enir
oh n
Ġpubli c
d u
Ġprinces se
Ġob t
n oc
Ġl ire
Ġcou cher
in Ã©e
Ġf aute
Ġvoul ut
Ġapp uy
ĠÃ© n
Ġcr ainte
ĠÃ© prouv
us se
Ġqursquo en
r age
Ã©r ence
Ġsrsquo y
Ġb asse
v re
ar m
Ġsent ait
Ġpare il
eu lement
Ġcroy ez
Ġav is
Ġpr iv
oup es
ĠQu oi
ad ress
Ġm eur
acc omp
Ġd im
ĠR ob
er be
c le
j our
Ġpos ition
Ġp ierre
A lors
Qu and
om ie
Ġouv ert
Ġser ai
l ant
Ġt al
ri d
in dre
ĠO r
os er
Ġdesc end
and s
ĠrÃ©v ol
is ter
Ġdrsquo Artagnan
Ġmauv aise
Ġvol ontÃ©
Ġord res
am me
ĠÃ©v Ã©
Ġa chev
ou e
Ġst up
Ġl entement
ĠP ierre
Ġau quel
Ġfai ble
Ġcamp agne
et erre
ĠS es
tr ait
Ġfor ces
Ġprem iers
Ġserv it
ĠSe igneur
ĠÃĩ a
A prÃ¨s
Ġpeu vent
h onneur
Ġpouv ais
ĠmÃ©de cin
Ġmont er
Ġter min
Ġconte mp
Ġpass ion
ĠB ien
av es
ĠrÃ©c it
orth os
Ġg ui
te z
ien nes
Ġr u
Ġreconn aÃ®tre
D ans
o Ã»
ĠCe pendant
Ġpauv res
Ġp Ã»t
gl eterre
Ġmontre r
ĠA m
Ġr om
ri ers
Ġcond uite
Ġd ents
Ġb aiss
si ve
Ġpens Ã©es
ĠdÃ©j eu
or itÃ©
Ġh Ã©s
ap er
Ġme mb
Ġt ante
Ġex am
Ġcons ol
Ġmais ons
ĠJac ques
Ġo pp
Ġfait s
P our
Ġcri me
u el
ĠQu ant
Ġcl air
Ã© an
v ille
am ais
Ġcinqu ante
ĠD u
Ġdrsquo en
Ġgen re
om e
ĠvÃ©rit able
Ġtr ah
Ã©l as
Ġcompr is
Ġm Ã©m
ĠpÃ©n Ã©t
Ġch aise
Ġsou h
ches se
Ġno ble
l ait
Ġmer veille
m S
Ġd ress
Ġf irent
Ġh onn
Ġcompr ends
oy ons
Ġm Ã©n
Ġinc onn
id itÃ©
Ġheure use
Ġprop ri
arg uer
Ġu t
Ġjet er
ĠP l
ĠmÃ© pris
Ġlrsquo eau
Ġp ain
Ġcha mp
m ul
Ġsec ours
ĠmÃª mes
Ġsing uli
Ã© lev
. )
Ġad ress
Ġprof onde
Ãª tÃ©
Ġma j
Ġdist ance
Ġconn u
h um
A N
Ġc ouleur
Ġ 3
ond res
Ġob Ã©
Ã© f
ou Ã©
en er
Ġp i
ce au
ieu ses
Ġar rive
ct ions
Ġm ous
ad m
Ġtu er
Ġdis si
onc Ã©
Ġmarqu is
m ais
r o
Ġs oul
Ġtri omp
mÃª mes
Ġvoy ag
Ã©d ia
Ġconse il
in ion
Ġar bres
Ġfr Ã¨res
Ġgent il
ĠtÃ©m oign
Ġpar fois
Ġch agr
Ġre cher
ĠL uc
ĠÃ©t ions
og ne
ri ge
ĠA thos
Ġqu ant
Ġs ir
Ġc Ã©l
Ġjol ie
Ġarr Ãªt
Ġt endre
Ġm eu
av ons
Ġj al
ĠQu elle
s ur
end roit
ĠÃī c
en us
Ã¨ che
Ġc Ã´t
Ġtrait s
er ies
Ġjeunes se
m V
ĠJ ohn
Ġb ure
Ġfac ile
Ġappr is
us te
ri ce
Ġm ir
Ġport es
Ġm ill
ass es
onc t
arguer ite
ĠL ondres
Ġh Ã¢
if ique
on or
Ġbeau x
Ġar d
ĠMar c
Ġpr ise
orsqu e
Ġlang ue
Ġsrsquo Ã©t
ĠG u
Ġb Ãªte
ĠP eut
op e
ne ments
ĠP aul
u bli
Ġd ames
Ġenne mis
Ġun s
Ġconsc ience
Ġen lev
Ġb elles
ci eux
er g
li ce
er tes
ĠrÃ©p and
0 0
o ok
Ġne uf
is ion
or ge
Ġm Ã©ch
Ġcour ant
ĠR ien
ue ill
Ġg ai
Ġav ais
Ġc erc
Ġfer a
Ġcomp os
ĠV oici
Ġeff ray
Ġfr anch
on Ã§a
Ġt ellement
Ġlrsquo Ã©c
ĠT ous
i lement
r ont
Ġcolon el
Ġch au
li ne
Ġv aut
ĠH ol
ir Ã©
Ġbrus quement
Ġdoigt s
ĠrÃ© d
ar ante
Ġ Y
ĠP orthos
Ġgr ave
ay ant
Ġcur i
Ġimm ob
ri re
Ġvol ont
Ġsomme il
Ġpr enant
Ġn oire
us er
Ġr endu
lle m
aut ant
Ġbat aille
iend ra
Ġen d
ĠrÃ©pÃ©t a
anc er
re v
Ã® n
ĠR en
Ġviv e
Ġt rib
i k
Ġh ier
Ġsal u
iv er
ĠÃ¢ ge
Ġc li
it ait
Ġar riÃ¨re
inu te
ob les
Ġgard er
ou er
Ġlrsquo emp
re d
an im
Ġav ent
Ġrem ont
am an
ĠÃ©cl air
Ġpouv aient
Ġt Ã´t
Ġconnaiss ait
Ġn oirs
II I
ili pp
qu is
Ġdemand Ã©
Ġm oyens
ĠM art
Ġam ie
i as
Ġgr is
Ġsour iant
ĠS ire
ĠcÃ´t Ã©s
Ġcommand ant
Ġtant Ã´t
Ġfer ai
au le
Ġri ant
Ġsav ais
Ġtr is
Ġ w
ar in
Ġquin ze
Ġcur Ã©
Ġh onte
ĠrÃ©s ult
eu il
at or
m A
Ġmar cher
H A
Ġextr a
Ġcertaine ment
Ġb onnes
Ġdrsquo or
Ġquelque fois
Ġarriv Ã©e
Ġgl iss
ĠrÃ©f lex
ĠMaur ice
tres s
Ġph ras
Ġent r
Ã©g lise
Ġjou er
Ġabsol ument
Ġpar ents
ĠdÃ©s ire
ri mer
Ġdi rige
Ġcroy ait
Ġint ellig
Ġexp ression
Ġsuiv ant
Ġgr oupe
Ġmon seigneur
Ġsrsquo av
Ġpos te
le y
onn ait
Ġs rsquoin
Ġcab inet
Ġf ourn
ex c
Ġcon cl
Ġl ois
Ġore illes
Ġign or
Ġent endit
Ġcompagn ons
Ġ ant
oi de
Ġdiff ic
Ġar gent
p er
Ġins t
ss ent
ĠÃ© d
uss ent
Ġf e
ist ance
Ġpol ice
ar es
ict ion
Ġcompagn on
Ġpass ant
Ġrec ul
Ġlrsquo att
m ar
Ã©ri r
Ġdev enu
Ġsold at
s rsquo
Ġvert u
li ge
Ġn ation
Ġcav al
ys tÃ©ri
Ġquelqu rsquoun
Ġl igne
ĠL or
Ġdev int
Ã¨ se
Ġsauv er
Ġrem erc
Ġble u
Ġsuiv i
oule urs
Ġm inute
Ġven ez
Ġar m
Ġposs Ã©d
ĠdÃ©s ert
ĠdÃ©p l
b y
in ait
Ġretr ouver
P endant
l et
Ġpl a
Ġfen Ãªtres
Ġcuri ositÃ©
Ġv ont
Ġtomb a
Ġoubli Ã©
g es
i mb
ĠD i
ĠL Ãł
iv ers
id ence
Ġf au
ar re
ĠdÃ©sesp oir
Ġdiv ers
Ġfat ig
ur ait
cl am
oute z
Ġmort s
ure ur
Ġf ier
en sible
Ġfr oide
Ġtu Ã©
Ġpris on
Ġfle ur
ĠpiÃ¨ ces
is c
I n
Ġent our
Ġpal ais
Ġven aient
Ġlaiss ant
m ont
v an
ĠNic ol
Ġpr enait
Ġc ord
uis s
O r
Ġch asse
Ġ ouverte
et er
i mes
ass in
onn Ã©e
ĠmÃ©m oire
Ġemb r
all Ã©e
Ġr ass
Ġs oulev
ique ment
Ġser ont
ĠrÃª ve
u les
org es
Ġretourn a
m il
ent endre
p lus
Ġce ci
Ġph il
Ġdern iers
em br
m oins
Ġsou dain
Ġsang l
ĠrÃ© uss
m ndash
u te
X X
rsqu oimp
or de
Ġpro jet
par avant
Ġjus que
Ã©r a
Ã© on
ĠM arguerite
Ã® le
ĠÃ©t ud
Ġp a
Ġm urs
Ġt ira
ar n
Ġj au
Ġgent le
p it
Ġfr anÃ§ais
Ġvois in
Ġr omp
un s
Ã¨ ge
Ġord inaire
Ġdr ap
Ġouv rit
Ġp eau
Ġimm Ã©dia
Ġvoul oir
Ġs antÃ©
oy Ã©
Ġbour ge
Ġmy st
on ce
Ġcap able
Ġar ra
Ġrev oir
Ã© li
Ġb oire
anc Ã©
Ġfav eur
id Ã©e
Ġpouss a
ou bli
Ġlev er
Ġspect acle
Ġdev enir
Ġfer ait
Ġmeille ur
Ġpens ait
Ġsal ut
og er
Ġ z
Ġqu arante
Ġconv ainc
Ġcommen Ã§ait
cept ion
1 8
ou che
Ġtourn a
Ġp av
ĠÃ©c riv
at es
omb res
et h
b ourg
Ġfai bles
Ġ1 7
ois s
Ġv Ãªte
an ou
Ġn obles
Ġv Ãªt
Ġca cher
Ġrapide ment
Ġlrsquo am
ĠdÃ©jeu ner
Ġsent it
m P
Ġtr ess
p as
is on
onn ant
ch Ã©e
Ã´ te
ĠÃ©g alement
h ommes
Ġr are
Ġh a
ĠprÃ©c Ã©d
Ġquit tÃ©
Ã©r ation
Ġcompl Ã¨tement
Ġsimp lement
agn es
A l
Ġin quiÃ©t
Ġtomb e
iv id
Ġjourn al
Ġc os
Ġvoul ais
Ġsucc Ã¨s
Ġm ystÃ©ri
ov na
Ġb ond
Ġgagn er
Ġv ain
o ccasion
Ġs oyez
aine ment
Ġsurpr is
Ġinut ile
I s
Ġap er
Ġdesc endre
ĠAr amis
Ġv ide
Ġquest ions
ais on
ĠT om
Ġh onneur
Ãª che
Ġcond uire
Ġs Ã©v
ĠF ou
Ġdou ze
Ġm ante
Ġdou ble
t al
op ul
Ġnature l
Ġins p
Ġrecomm and
Ġlrsqu oimp
u Ã©
ĠM ade
Ġsouff r
Ġcour ir
ĠÃ©p oque
ĠdÃ© l
Ġlev ant
Ġre cev
i o
acc ord
Ġr ues
Ġcr aign
Ġfaut euil
Ġsy mp
ou d
at te
J rsquo
Ġg Ãª
Ġdire ction
Ġdess us
k e
Ġenv elopp
Ġseul s
Ġexc ell
ĠS u
Ġl oge
Ġles quels
c les
Ġc ul
Ġa h
Ġgl oire
Ġcharg Ã©
Ġh aine
Ġfr ais
Ġbure au
Ġpr omp
approch a
Ġoblig Ã©
ĠdÃ©t ourn
Ġg ri
Ġatt ent
Ġch aud
Ġpr Ãªtre
ab ri
emp Ãªcher
Ġemp ort
ou re
Ġret omb
Ġdisc ours
Ġsoup ir
Ġ! ...
Ġl une
I N
ai gne
Ġsouh ait
m ine
m D
ic ier
h er
Ġatt endant
Ġatt endait
Ã¨ nes
Ġmis Ã©rable
Ġlrsquo esprit
ĠDe puis
C omme
g arde
Ġimp at
ĠGr and
m Le
Ã©ri ence
Ġp Ã©r
Ġin tÃ©ress
Ġo ccasion
Ġp ist
Ġt ab
Ġserv i
age ment
Ġsoir Ã©e
Ġdemand ait
arr Ãªter
ĠÃ©l oign
Ġman que
ur ant
Ġlrsqu oint
Ã©ch app
ore r
Ġvou d
tr od
Ãī t
ĠP endant
in f
Ġmen a
Ġjou es
l ie
Ġsp Ã©c
Ġpuiss ance
Ġc le
aur ai
Ã© h
Ġqursquo elles
Ġterre ur
Ġ oise
ĠHol mes
ilipp e
Ġren vers
Ġracont er
o od
ĠAv ec
r oy
Ġvag ue
Ġp ure
Ġb an
ĠdÃ©tail s
og r
Ġpay er
A R
ouv rit
onne z
Ġacc ord
Ġemb arr
Ġf is
Ġgentil homme
Ġenv ie
Ġadm ir
re c
ĠFr anÃ§ais
Ġm Ã©c
ĠE lles
Ġp ur
ys ion
Ġpre uve
Ġcirconst ances
Ġjet Ã©
ĠlÃ©g er
i che
E sp
er r
Ġse rez
si Ã¨re
ĠimmÃ©dia tement
Ġgros se
ass a
Ġpr ud
Ġcons ent
Ã©p arer
Ġcher ch
Ġlong ues
ar a
Ã Ī
Ġr Ã´le
Ġret ent
y si
g Ã©n
r omp
Ġb oute
ĠR os
x te
Ġmont agne
Ġplais ant
r ou
Ġlorsqu rsquoil
Ġtourn ant
Ġav ions
Ġdrsquo eux
aire ment
Ġman quer
Ã´ tre
Ġrem ettre
c ar
Ġav eu
esp Ã©r
Ġoffic iers
h or
Ġt ient
Ġb and
onn et
Ġl is
y r
ĠcrÃ© ature
ir es
g re
Ġretourn er
ib les
ul tÃ©
Ġpers u
er ve
Ġmin istre
Ġr ose
Ġ Åĵil
Ġm orte
Ġdu chesse
Ġsour c
oi m
ĠagrÃ© able
ĠP lus
Ġren se
ĠN ap
Ġmemb res
ien dr
us c
p l
Ġlrsquo amour
Ġpl uie
o Ã®
lu ence
r u
v u
at ive
Ġsrsquo arrÃªta
Ã©s us
Ġind iqu
Ġf Ãªte
ĠdÃ© d
Ġcomp ter
Ġc out
Ġm u
ĠV oyons
ĠQu rsquoest
Ġpar aÃ®tre
al itÃ©s
Ġph ysion
mb ler
ĠNicol as
Ġlaiss ait
Ġs inc
ic ot
Ġsoup Ã§
c om
ab bÃ©
Ġnature llement
iÃ¨ vre
Ġin noc
l Ã©e
Ġfr aÃ®
Ġchagr in
Ġt or
b on
ĠQu rsquo
Ġin j
Ġmis tress
o ches
Ġall um
Ġgar n
Ġa mb
m L
Ġb ag
Ġphil os
lic ation
Ġle ct
Ġsem aine
Ġautre ment
Ġdrsquo autre
Ġimm ense
r up
ers onne
os t
ĠSal v
Ġes cl
Ġ k
Ġpens a
Ġextra ordinaire
ĠD av
Ġt oit
c omme
l in
v er
Ġcert ains
Ġfus il
Ġrais ons
Ġt iens
Ġsuiv it
Ġarr ÃªtÃ©
f er
ve iller
f um
ĠprÃ©c is
Ce pendant
Ġsus p
Ġs ab
ĠB eau
Ġpl aÃ®t
ad y
ĠE x
Ġac cep
Ġco qu
Ġmarch and
Ġp un
u ff
tr a
Ġma ch
en g
Ġr ide
se au
ill Ã©
Ġmar chÃ©
Ġsrsquo Ã©taient
Ġpour rais
int ure
or c
Ġch anger
an a
Ġbl ancs
Ġappr och
Ġb ri
Ġsembl able
ĠprÃ©c aut
Ġrest Ã©
Ġdroit s
d y
Ġcr ut
Ġam en
are t
Ġbless Ã©
Ġvoi e
Ġson n
Ġgu er
an itÃ©
Ġh u
S i
h am
app elle
Ġextr Ãªme
m dash
ĠÃī t
Ġparl ant
Ġmus ique
Ġc iv
ess eur
l ent
ĠB al
Ġhonn Ãªte
Ġau paravant
Ġm ise
Ġprop res
ĠlÃ©g Ã¨re
y l
Ġch ance
ĠF lor
le ur
Ġfr iss
Ġpolit ique
h a
Ġp opul
it ant
Ġdrsquo ailleurs
gl ais
Ġou tre
hab itude
cin q
ois se
er ce
si er
ĠN otre
m T
Ġsour it
Ġlrsquo A
ĠD E
Ġm ess
asse mbl
Ġconn aÃ®t
ĠdÃ©v ou
ĠcÃ´ te
m s
Ġv ole
Ġpr ouv
Ġsoi ent
k s
Ġch rÃ©t
eff et
Ġmont ra
Ġtr oupe
Ġfat igu
Ġlrsquo argent
est er
Ã© ant
Ġenv ers
Ġd ange
er nel
ĠC ol
Ġpens Ã©
i al
con que
v ier
Ã¨ bres
Ġrent rer
Ġautre fois
Ġ1 9
Ġdomest ique
Ġhum eur
Ġca f
ai d
ĠP ard
ĠM r
Ġrapp elle
Ġenvoy Ã©
Ġdev aient
Ã©ch al
Ã©an moins
op he
Ġprom is
P IT
Ġcomm is
Ġcos tu
Ġj ure
Ġman if
Ġex Ã©cut
Ġriv iÃ¨re
if ier
b ien
Ġhaut eur
emp l
ĠdÃ©t r
Ġsatisf action
ĠM ichel
Ġpro ch
ose ph
Ġtr oupes
Ġcon j
I V
on f
Ġb ontÃ©
Ġpro te
ĠdÃ©s ign
Ã©r o
Ġaff ect
Ġsc ience
ass ent
Ġgentle man
Ġmante au
ĠP etit
Ġdrsquo aller
Ġven ge
Ġdou c
Ġm ine
Ġrend it
Ġb or
n rsquo
p Ã¨re
m en
Ġau g
Ġsupp ose
ĠentiÃ¨re ment
ĠC our
Ġprem iÃ¨res
Ġc Ã©d
r oi
ĠgÃ©n ie
Ġchef s
Ġai de
ul g
Ġsais it
Ġlut te
Ġm ett
ĠÃ©t abl
el ier
oid Ã©e
ab and
ĠÃ©p ous
qu it
Ġo d
Ġretr aite
Ġfai m
i Ã©e
it h
Ġcit oyen
v is
is ation
Ġdu re
ra Ã«l
ĠJac k
Ġsi ff
Ġs ois
aiss ant
Ġces se
ide mment
g le
Ã¢ cher
ĠrÃ©v Ã©l
Ġv ic
ĠÃ©p Ã©e
Ġprisonn ier
ar mÃ©e
ĠC elui
Ġport rait
Ġcuis ine
Ã© lic
Ġrepr endre
l and
er min
dre z
er f
Ġpar fum
re f
Ã© te
ĠaperÃ§ ut
Ġp es
Ġphysion omie
Ġbourge ois
Ġ Ã´
Ġsoi x
ĠrÃ© veill
Ġm as
as p
p ent
al le
HA PIT
HAPIT RE
ot tes
Ġdispar u
Ġpropri Ã©t
Ġt im
Ġrep ouss
Ġentre t
Ġd irai
Ġman ge
cur itÃ©
Ġai mait
Ã©r Ã©m
Ġinstant s
Ġai mÃ©
u il
Ġne ige
ĠsiÃ¨ cle
Ġgouver nement
Ġs oins
ar mes
Ġob st
Ġhum aine
Ġaff ir
ne ur
Ġt Ã©n
uv es
isse ments
Ãª ch
ĠthÃ© Ã¢tre
ĠGe orges
ĠÃ©vÃ© nements
anc ol
ug u
ent ions
Ġseu il
Ġmalad ie
ĠM or
ĠJ amais
l oc
Ġrem it
Ġcad av
m et
Ġf aux
ĠC Ã©s
Ġcond itions
Ġmagn ifique
ĠLuc ien
ĠA s
Ġall aient
An gleterre
n Ã©e
Ġv ig
Ġcaus er
Ġrencontre r
Ġnrsquo avez
Q ue
Ġh ur
Ġconnais sez
ĠdÃ©f endre
Ġhabit ants
Ġdrsquo av
Ġs omm
Ġquart ier
Ġo h
Ġconv en
pr ise
Ġl ors
Ġtrouv aient
ĠrÃ©sol ution
ĠC am
Ġsrsquo ass
tin ct
Ġcomm ande
Ġf onct
ac itÃ©
Ġarriv ait
Ġch aleur
Ã©c out
C es
us Ã©
ac Ã©
Ġreconn u
Åĵ uf
Ġas si
Ġdesc endit
enne mi
Ġtr ad
Ġsupp os
Ã´ me
ag rÃ©
C rsquoÃ©tait
Ġv aleur
ĠsÃ©ri eux
oid s
ail li
Ã¢ ge
Ġpart it
Ġnom mÃ©
ĠI van
mC HAPITRE
Ġimmob ile
ĠD eux
Ġvie illes
Ġlrsquoh onneur
Ġprob ablement
Ġg Ã©m
Ġh ard
ĠdÃ©p os
Ġeffort s
er d
ĠgÃ©n Ã©
anÃ§ ait
Ġlrsquo exp
Ã©r itÃ©
ĠhÃ¢ te
Ġall Ã©
Ã©t at
Ġv ainc
Ã¨ tres
ĠJ Ã©sus
Ġtrans port
Ġred out
Ġhor rible
Ġph ysi
Ġval et
Ġt oil
Ġcond uit
Ġnouveau x
Ġser aient
Ġpen sez
Ġcomp li
Ġmarqu ise
in ant
ĠD ites
Ġex ac
Ġmis Ã¨re
Ġcours e
Ġre b
Ġd or
Ġcroy ais
ĠÃ©p ouv
Ġviv ant
Ġind iff
Ġsauv age
Ġparle z
Ġc oute
Ġas se
Ġcur ieux
ĠPh ilippe
ook s
ai de
ol and
Ġgard es
Ġsouv en
Ġbr is
Ġchemin Ã©e
ri pt
ĠC et
ac er
qu Ã©
at if
Ġam oureux
Ġsoix ante
est es
ĠmÃ©l ancol
Ġg out
Ġai lle
esp oir
Ġmont rant
Ġpersu ad
Ġai mer
Ġcerc le
Ġgr ac
Ġp an
Ġport ant
Ġv if
Ġrend ez
ĠdÃ©li v
Ġvie il
Ġm ettait
ier ge
Ġquit t
Ġpoin te
ĠÃ©t iez
Ġcoup able
Ġcomp ar
Ġ erre
Ġav ert
Ġin fin
ĠS ir
Ġr id
ul s
ĠdÃ©cid Ã©
Ġsouff rir
Ġdis ais
Ġman iÃ¨res
Ġprod uit
Ġp ous
Ġrelig ion
Ġt itre
ĠrÃ©pond u
Ġr ace
Ġlrsquo enfant
ob Ã©
Ġsort ie
iend rait
Ġrep as
Ġmer ci
u mes
Ġsec r
Ġex pos
Ã©t abl
ĠB ret
Ġfaud rait
Ġl aissez
ĠmÃ©r ite
Ġl rsquoune
Ġsign al
o x
ĠprÃ© occup
Ġenne mi
ent in
Ġann Ã©e
rit ure
Ã´ ne
Ġpart is
p re
Ġcom prit
up art
Ġr ude
uss itÃ´t
Ġparc our
i Ã©s
m oiselle
Ġeu ssent
ĠI s
Ġparticuli er
g el
Ġfrapp Ã©
Ġtend resse
Ġcharm ante
arr y
Ġl ourd
oi ff
Ġreconn aissance
Ġcamar ades
Ġent ier
Ġopp os
ĠCh rist
Ġcert aines
un es
Ġtour ment
Ġtress aill
Ġm ult
Ġcond ition
Ġmoment s
Ġtr Ã©s
Ġress ent
ĠvÃªte ments
ĠM il
Ġmain t
Ġjet ant
Ġil lus
Ã¨ bre
Ġf asse
Ġpersonn age
Ġl ignes
Ġp oids
ĠCÃ©s ar
Ġ ine
Ġdonn ant
ĠJ oseph
Ġf ussent
Ġles quelles
Ġfid Ã¨le
Ġc erv
Ġpr oie
Ġlieu tenant
Ġprofond Ã©ment
1 2
Ġl arg
Ġch iens
Ã¨ tes
ĠdÃ©f aut
ĠpÃ©n ible
Ġsuff is
Ġl im
ai mer
ot es
ic ule
Ġ eur
it s
Ġbat tre
Ġsymp ath
Ġdouc eur
Ġn ul
A v
Ġrend ait
Ġperm is
Ġdr Ã´le
Ġpl upart
Ġtrou b
1 0
Ġt ire
si f
Ġlrsquo escalier
Ġjus tement
ĠC al
Ġreconn ut
ouv re
Ġjou e
ĠA b
ist ait
b ooks
Ġlrsquo ordre
ĠS ch
Ġdoi vent
Ġjug er
h uit
Ġqursquo au
Ġs Ã©d
ĠL ou
Ġfor mes
ĠPar ce
v ue
Ġm ouch
g ie
Ã§ aient
Ġmrsquo avez
Ġfin it
h Ã´tel
Ġm idi
ĠrÃ© ellement
Ġlit tÃ©r
Ġpoin g
end ez
Ġimp r
Ġnom s
v ie
Ġex istence
ĠdÃ©couv rir
Ġroy aume
ĠÃ©c rire
ĠprÃ©s ident
E N
h istoire
Ġang lais
Ġop inion
ab ilitÃ©
Ġm aud
Ġv iennent
off icier
Ġaur aient
ult Ã©s
Ġind ivid
Ġvas te
Ġlib res
u ch
I S
dess ous
Ġmeur t
Ġ? ...
om n
Ġdorm ir
Ġapp elle
ĠdÃ©couv ert
Ġcostu me
ĠL y
ĠFr anÃ§
it Ã©e
Ġenvir on
Ġe mm
h ous
all ais
Ġsouff le
ann Ã©e
oc r
Ġass ur
ĠDav id
Ġsouven irs
Ġ ais
Ġp ier
Ġm ons
Ġse in
Ġfr Ã©m
ĠH Ã©
Ġsembl aient
Ġgal op
Ġr Ã¨g
ĠrÃ©pond is
Ġri ches
ĠTr Ã¨s
e lez
ĠsiÃ¨ ge
tru ction
ĠprÃ©sent er
ĠMon seigneur
Ġd oul
ĠÃ©l Ã©g
Ġtranquille ment
Ġjol i
g g
ĠÃ©t ouff
ang es
ĠB elle
Ġdrsquo oÃ¹
ain tes
Ġcomm iss
Ġanc ien
k er
ĠprÃ© te
ĠP al
Ãīt at
ou bl
Ġmont agnes
Ġroug es
Ġveu ve
hous ias
Ġser r
Ġdi rig
Ġmont a
Ġb iz
Ġfeu illes
Ġcour ut
Ġsent ir
Qu el
Ġcle f
Ġv ari
Ġsi re
tant s
Ġj adis
Ġam ant
ann y
Ġoffic ier
Ã» mes
ĠA tt
Ġdes se
ac re
d is
Ġt enant
ĠÃ© le
Ġrev enu
Ġcher chait
Ġnature lle
Ġple urer
Ġpist ol
Ġc at
Ġcaf Ã©
ĠdÃ©c l
Ġco Ã»
ĠÃ©chapp er
Ġch angÃ©
Ġpouv ons
Ġpr os
Ġch air
ĠT oute
Ġdev ez
uy er
Ġins tr
Ġsatis fait
Ġl ord
anch o
Ġcr aindre
Ġport Ã©e
Ġpo Ã¨te
ĠÃ©m otion
Ġm ens
b ilitÃ©
Ġjrsquo y
ch otte
Ġrej oindre
Ġvoi le
il ier
Ġdern iÃ¨res
Ġfum Ã©e
Ġav iez
ouv rir
Ġviol ence
our de
obs erv
pr op
Ġsin on
ĠrÃ©sult at
ĠdÃ©b arr
v oy
Ã©l oign
Ġmalheure use
Ġcirconst ance
Ġb illet
a oul
Ġatt endu
Ġsign if
ĠdÃ©t ermin
ĠrÃ©c omp
Ġtris tesse
Ġsoup er
Ġdur ant
tÃ©ri eure
oc at
âĢ¦ ,
Ġm aman
Ġlrsquo or
Ġbar b
1 4
ĠR oi
Ġorg an
Ġtourn er
Ġlu eur
Ġau rez
Ġp ot
Ġr age
Ġtoil ette
orm ais
Ġpl ant
Ġmrsquo avait
ĠrÃ©s erv
rib u
ĠA llez
Ġmor ceau
Ġport Ã©
Ġphras e
Ġappr endre
Ġterr ain
Ġdrsquo y
ĠW il
Ã©tr anger
1 7
qui p
agn ol
Ã©c u
Ġjoy eux
z aine
Ġl oint
ĠCh icot
Ġcomp t
i quer
el ot
Ġlong s
Ġfin ir
Ġfol le
ent rer
Ġn aÃ¯
Ġcha mps
Ġen n
Ġtou cher
erne lle
ĠH Ã©las
dev ant
ĠM erci
Ġper f
ĠIn d
och a
Ġnrsquo avais
1 3
Ã©p h
Ġmoi ne
Ġc ult
Ġb rig
ĠQui chotte
w ick
ou reuse
v eu
Ġf ar
Ġdu quel
Ġh al
Ġdrsquo Åĵil
Ġnrsquo avaient
Ġquel s
i ot
Ġacc ent
Ġgr at
ra Ã®
Ġouv rir
Ġpard on
Ġl ou
Ġpr iÃ¨re
obs curitÃ©
Ġf un
Ġass ise
Ġsem aines
Ġnav ire
Ġsort i
c onn
ĠM e
anc Ã©e
Ġret irer
au de
Ġcher che
on Ã§ait
Ġh ist
Ġrencont rÃ©
Ġlrsquoh ab
Ġb Ãªtes
ut ation
Ġla c
Ġprof ession
Ġc Ã©rÃ©m
asse oir
Ġcamar ade
Ġcor de
Ġlrsqu oidÃ©e
Ġm asse
Ġla mpe
Ġch aÃ®
Ġcontinu er
Ġp Ã©ri
Ġc oiff
ĠG en
Ġar mÃ©e
Ġvenge ance
en ais
Ġet c
Ã©ri que
Ġv endre
Ġpier res
Ġfrapp er
Ġpr ier
mb re
Ġp ant
ĠgÃ©nÃ©r ale
1 5
ĠlÃ©g Ã¨rement
Ġt els
ond s
Ġmar Ã©chal
Ġcr oix
Ġimp ression
ĠS eulement
En fin
auv re
Ġrepr is
Ġfrapp a
Ġdispos ition
Ġinterromp it
Ġv el
ĠV oyez
Ã©d ie
Ġm un
Ġpour ra
ar te
Ġdi am
Ġacc our
Ġrep art
ĠdÃ©b ut
Ġg orge
att endre
Ġcri er
Ġn erv
ri es
ber ge
k a
iss ante
Ġbar be
Ġmouvement s
Ġla dy
ĠAn glais
Ġinter v
ign ation
m on
ĠdÃ©p ens
Ġcoute au
att a
Ġchange ment
Ġqu alitÃ©
Ġst at
Ġpr enez
l end
Ã¢ chÃ©
rib les
Ġpr Ãªte
Ġdrsquo eau
at er
Ġcomm erce
Ġfol ie
p ens
ĠÃ©t onnÃ©
Ġdrsquo argent
ob jet
Ġfatig ue
Ġpous siÃ¨re
Ġb el
Ġb a
ĠT iens
Ġcommenc Ã©
ĠD or
Ġtir Ã©
Ġmil itaire
Ġ ombre
Ġp iqu
ent rÃ©e
Ġsupp li
ĠprÃ©s ente
Ã©c ution
ĠÃ©t onnement
ionn aire
Ġavent ure
ĠÃ©tr anger
ĠÃ©cl ai
Ġh au
om in
Ġlrsquo Åĵil
Ġnrsquo ont
Ġqursquo est
Ġfac ilement
ĠS c
Ã©ri e
accomp agn
ce aux
ĠE sp
ad resse
1 9
rsqu oins
Ġt Ãªtes
Ġlrsquo ombre
ĠS am
ĠMa z
Ġs age
Ġrappel er
n ait
u elle
Ġen chant
Ġatt ach
u eux
d eux
l ot
Ġcr oit
ĠmÃ©n age
Ġlieu es
eus se
1 6
Ġpoursuiv it
Ġbien s
Ġp ois
ut eur
Ġsembl a
Ġcont in
Ġ *
Ġmar chait
ĠmÃ©t ier
est a
anÃ§ ant
Ġs ainte
eu e
Ġref er
Ġanc iens
Ġcal cul
ĠreÃ§ ut
Ġc ath
au p
Ġe h
Ġmous quet
Ġdissi mul
Ġplac Ã©
ĠintÃ©rÃªt s
Ġsou m
iv re
Ġob jets
Ġpr ends
Ġh onor
Ġin qui
Ġent rÃ©
im ag
Ġsu pr
ĠS im
ill a
gr at
ign itÃ©
ĠdÃ©v elopp
ĠsrsquoÃ©l oign
Ġca chÃ©
Ġt h
ĠÃ© ner
Ġdest in
Ġbr ou
Ġlang age
ent ends
Ġsil enc
in rent
al ors
Ġcous in
Ãª le
Ġremar quer
t ion
re aux
e reur
re g
est re
ĠMar i
Ġv end
o quer
fr oid
Ġprov ince
Ġgl ace
il bert
Ġg end
Ġparfait e
m idi
ur g
c r
ogr aph
Ġ 4
Ġdomest iques
rsquoimp orte
C rsquoest
Ġch at
ĠR ome
Ã© j
h aut
Ġpr ol
and re
Ġ Ãªtres
Ġper te
s a
Ġaim able
si bilitÃ©
U R
al ter
ĠÃ© te
Ġfl amme
ĠÃ©g al
Ġfaud ra
Ġr approch
Ġvis it
Ġpe in
aul t
ĠnÃ©cess itÃ©
on ique
Ã©l Ã¨ne
Ġpap iers
Ġs ages
Ġf iÃ¨vre
Ġcr ains
Ġappel Ã©
Ġdemeur a
ire z
Ġfaibles se
ab s
Ġsur v
Ġper p
c k
Ġne veu
eu l
Ġt enu
Ġpens ais
Ġre jet
Ġmar ier
ĠrÃ© alitÃ©
Ġvois ine
ide ment
Ġgouver neur
ĠSalv ator
Ġpos a
Ġvict ime
ag issait
Ġser gent
Ġm irent
ĠF anny
ouver tes
Ġtrou ble
Ġsec rÃ©t
c ette
ĠD Ã¨s
Ġsaur ait
ĠRob in
Ġlrsquo acc
aiss aient
Ġinf orm
A m
Ġn aissance
ĠS ancho
Ġremerc ie
ĠÃ©t inc
Ġremarqu Ã©
Ġb uv
Ġnombre ux
Ġch Ã¢t
ri que
ĠrÃ© gn
Ġvis ible
Ġter mes
Ġpr Ã©d
Ġp ip
ĠM rs
Ġret ard
Par is
Ġob jet
ĠMaur in
Ġf ureur
ĠrÃ© jou
ign it
Ġ Ã§
Ġs oie
uis e
Ġe aux
Ġtomb Ã©
ĠprÃ©te xte
ar me
Ġjrsquo aurais
Ġb oÃ®
ĠtÃ©m oin
Ġoccup Ã©
Ġ 5
ar tÃ©
Ġb ande
Ġsol itude
m La
Ġpat ron
Ġvolont iers
Ġphilos oph
S ur
Ġsuiv ait
Ġcommence ment
Ġvoy ons
Ġtap is
ĠÃ©t oi
Ġlrsquo oreille
Ġperm et
Ġpl aine
Ġrense igne
Ġsuff it
er ais
Ġt endit
Ġret ira
Ġ aise
in al
Ġbr uy
Ġpl ume
ĠR aoul
ret te
Ġmanqu ait
arriv Ã©e
Ġlrsquo endroit
ĠB ern
ĠÃ©lev Ã©
Ġservit eur
ĠconsÃ©qu ence
ĠA g
Ġsrsquo agit
ĠG al
Ġcou chÃ©
Ġprisonn iers
l is
ou jours
Ġc re
ait es
ĠdÃ© fin
Ġsp ir
Ġchass eur
Ġcav alier
ri rent
Ġsupp orter
Ġtrans f
V ous
Ġm ienne
Ġl un
Ġpromen ade
Ġv allÃ©e
ur ope
Ġrem is
Ġtoute fois
ĠÃ¢ mes
ĠmÃ©de c
ĠÃ©t ais
Ġdev enue
Ġf Ã¢ch
res p
Ġs ienne
Ġent rÃ©e
appr endre
Ġjau ne
at oire
Ã©s ie
Ġai gu
Ġven us
ĠdÃ©clar a
ĠÃ©n orme
Ġf uir
Ġfle uve
Ġanim aux
Ġd irait
Ã©p Ã©e
Ġforc Ã©
Ġbr anches
Ġproc Ã©d
ĠX V
Ġmyst Ã¨re
ĠdÃ©s ormais
m Les
Ġb oule
Ã©c ile
Ġv illes
Ġpl ong
ĠdÃ©f ense
Ġsort es
Ġpat ri
Ġine x
ĠM in
ord s
Ġcar ess
ap t
og ue
h Ã©r
Ġmeille ure
ĠS rsquoil
Ġcommenc er
ĠN rsquo
ĠaperÃ§ u
Ġdrsquo ex
Ġboute ille
Ã©m itÃ©
Ġad vers
Ġexp liquer
oim ag
Ġba teau
ĠM ac
Ġpat ience
C ar
Ġad ieu
Ġhabit s
in aires
lÃ© ment
Ġvrai e
Ġmet tant
Ġdim anche
ĠT enez
Ġappel er
ay er
Ġon ze
ĠMade moiselle
Je an
ĠprÃ©cis Ã©ment
Ġjuge ment
cha mp
Ġsrsquo emp
Ġint ention
el ler
uis it
ĠJ o
Ġrent ra
onn Ã©s
ĠdÃ©lic at
c ore
Ġpl at
Ġlrsquo env
Ġt yp
Ã©r Ã©e
Ġdev iner
Ġeur ent
Ġv il
ill age
Ġla b
Ġmont rait
Ãª que
Ġcor rid
iz on
ĠFranÃ§ ois
d ou
ol d
Ġperm ission
ubli que
Ġvoy ais
ĠO u
Ġprot Ã©g
Is raÃ«l
Ġd ir
Ġin trod
im m
Ġbais er
Ġg az
Ġprof it
ellig ence
ĠrÃ©vol ution
Ġc ouleurs
ĠPr ov
ick wick
ouv ert
Ġcomm une
ĠdÃ©s ol
Ġl oup
Ġend orm
m X
Ġre par
ĠL Ã©
Ġdis tr
Ġdev enait
att endait
Ġart ic
Ġdout er
Ġ is
Ġsembl ables
appel ait
Ġvoyag eurs
r un
Ġch amb
ast on
Ġoubli er
adress ant
Ġbl anches
Ġexac tement
Ġdrsquo An
Ġins tru
Ġpar la
Ġson ger
ĠB el
Ġvent re
Ġdispar ut
er te
Ġdemand ai
ĠR oland
Ġgar ant
Ġpoint s
am in
or Ã©
ĠMaz arin
qu Ãªte
ours e
Ġemp Ãªcher
ĠP Ã©tr
ĠT ant
f ace
Ġlorsqu rsquo
Ġesprit s
ĠrÃ©sol u
Ġdest inÃ©e
Ġc uir
Ġtrav aux
Ġent endait
ici p
i ale
Ġserv ante
Ġcompr end
ĠÃ©v idemment
Ġaper cev
l it
Ġlrsquo ass
Ã©r al
Ġmag istr
Ġl ux
Ġtravaill er
Ġcon gÃ©
ĠQuel ques
Ġlog is
Ġc ig
Ġlrsquoh Ã´tel
m Ã¨re
Ġque re
Ġenf er
Ġgr en
Ġperm ettre
Ġret enir
Ġressembl ait
arriv er
ĠC ons
c re
Ġp Ã©
Ġaille urs
ĠL ui
ĠrÃ©c lam
Ġcons ul
Ġprom esse
Ã©n om
ĠinquiÃ©t ude
at ures
ĠA lex
Ġsrsquoil s
Ġsout enir
e in
Ġlrsquo avoir
Ġcontinu ait
Ġappar ence
Ġm ode
Ġtriomp he
Ġcompr enez
ĠsÃ»re tÃ©
Ġjal ous
ac cep
appar tement
o gn
on v
Ġpl ai
Ġc ertes
Ġtable au
ĠTr ois
Ġrelev a
Ġsourc ils
exp liquer
ĠtÃ©n Ã¨bres
ĠsecrÃ©t aire
ĠP ickwick
m B
or mes
Ġsupr Ãªme
ĠdÃ©vou ement
Ġdisting u
Ġch iff
Ġquit ta
Ġprod ig
b ut
Ġlrsquo Ãī
Ġpart ies
Ġacc us
l ir
Ġd ignitÃ©
ph Ã¨re
Ġcaval iers
n Ã©s
ai m
Ġnrsquo aurait
ĠrÃ©pond ait
ĠespÃ¨ ces
Ġaug ment
Ġun ique
Ġins tinct
Ġsau f
z a
it ution
Ġh Ã¢t
Ġdis ent
Ġcan on
Ġlrsquoins tant
Ġtou ch
igu eur
Ġoise aux
Ġs able
Ġv Ã©cu
Ġf uite
uc ation
Ã©t ant
m al
min istr
ui ne
Ġdonn Ã©e
Ġliv rer
ĠI I
Ġn Ã¨g
c omp
Ġbout ique
v es
Ġsur veill
ill ait
ĠÃ©g ard
Ġm ord
ĠP Ã¨re
Ġcompr om
Ġ1 6
Ġut ile
Ġm rsquoest
Ġinc ap
eu le
id er
ĠAd ieu
Ġb i
Ġret ir
Ġempl oy
oÃ¯ s
Ġl ourde
er b
ĠdÃ©p it
gr Ã¨s
ĠdÃ©m ar
Ġbr av
Ġfl ot
qursquo elle
Ġcout ume
ĠP ersonne
Ġv Ã´tre
d rÃ©
as e
Ġj ur
oi gne
Ġentra Ã®
Ġlrsquo en
Ġatte int
Ġbon homme
Ġcharm ant
Ġl ait
Ġacc r
Ġam itiÃ©
arr as
Ġl ieux
Ġvois ins
Ġpr ouver
ĠR oger
is sez
Ġbiz arre
Ġpr at
Ġdem oiselle
ĠprÃ©sent a
ĠB en
Ġbr ut
ĠrÃ©g iment
Q U
Ġm oin
Ã©d ition
Ġai d
ĠJrsquo en
as pect
Ġnu ages
Ġmaj or
Ġ out
br an
ir on
mC h
ens ion
ĠFlor ence
S on
Ġh Ã´tel
ĠV ers
och ers
j rsquo
Ġverre z
y n
Ġcha uss
Ġsecret s
ri ch
Ġlrsquoh istoire
Ġb anc
ĠrÃ©p utation
gl ise
Ġnot aire
Ġt int
Ġserv ait
I L
m and
Ġmor ale
Ġproc Ã¨s
F r
Ġfam eux
en cieux
ut ions
Ġjourn aux
Ġt aill
Esp agne
in v
at tr
Ġce inture
ac une
ĠD omb
in i
Ġveu lent
ins tant
Ġs Åĵurs
ig h
Ġenvir ons
Ġm i
ĠL orsque
Ġesp oir
Ġmouch oir
Ġl oy
Ġdev ient
Ġpat rie
Ġsub it
ĠrÃ©flex ion
ar itÃ©
ific ation
Ġlrsquo affaire
Ġfr Ã©qu
Ġsort ait
Ġv ac
Ġrev enait
ĠD is
Ġobserv er
ĠÃ©pouv ant
Ġp Ã©t
Ġmot if
Ġnrsquo eÃ»t
Ġtoi le
iend rai
ar ch
Ġnrsquo Ã©taient
si gn
ĠJ Ã©r
imp orte
f ais
Ġr oses
Ġdrsquo Ã©t
atri ce
Ġin cl
ic ation
p art
Ġpouss er
ĠhÃ©r it
Ġpass ions
Ġple ins
Ġmiss ion
1 1
Ġp ais
ĠJ ust
Ġha uss
ou c
Ġcour te
Ġexp ri
Ġai les
Ġtrouv ai
Ġquit te
housias me
Ġinconn u
A insi
Ġl in
Ġc Åĵurs
Ġv est
Ġs uit
Ġpar u
av enir
ol y
ĠR Ã©p
y ant
Ã©t ique
Ġquel les
Ġsy st
Ġsecou a
Ġfur ieux
Ġlrsquo au
Ġch oix
ay e
oi ent
Ġpr iÃ¨res
Ġcl asse
Ġsouv iens
Ġquel conque
l aud
ĠrÃ©flex ions
Ġdesse in
Ġat tr
Ġchem ise
Ġlect ure
Ġcri mine
Ġarr Ãªter
Ġpouss Ã©
ĠconsÃ©qu ent
j us
Ã© prouv
Ġm ou
Ġcar r
Ġarriv ant
R A
Ġr ois
Ġsrsquo enf
ĠDomb ey
Ġm ob
ĠPr ince
ĠdiffÃ©r entes
Ġobt enir
d el
Ġperd ue
Ġcadav re
ĠÃīc outez
Ġmill ions
Ã´ tres
Ġser ons
Ġbar que
ĠprÃ©v enir
ĠLou ise
it t
Ġgr Ã©
ass ait
ĠCam ille
Ġn Ã©
ĠB er
Ġvict oire
Ġco cher
ĠÃ§ Ãł
ass Ã©e
Ġb er
Ġlrsquo aut
si bles
h ier
uss y
sive ment
ĠdÃ©m on
au ff
Ġs ouver
Ġcap t
Ġlrsquoin ter
ĠAv ez
il de
Ġdrsquo aprÃ¨s
2 0
n ant
Ġrid icule
Ġt Ã©l
Ġaux quels
Ġserv ices
Ġac te
Ġtromp er
en ons
ĠÃ©t age
L ouis
Ġmat iÃ¨re
Ġm ien
Ġm Åĵurs
aperÃ§ ut
Ġde dans
ac te
Ġmar ches
Ġfe rez
ĠprÃ©c ieux
c o
ĠÃ©c ras
ĠpropriÃ©t aire
out um
Ġlrsquo E
Ġnobles se
Ġte int
ĠMart in
roy able
i ze
x i
Ġn Ã©anmoins
Ġh ont
Ġarriv Ã©s
Ġsauv ages
Ġray ons
anc ien
Ġa ction
Ġar bre
app e
Ġf iÃ¨re
appr ocher
ais es
Ġal li
qu atre
ĠJ us
ĠV oulez
omb ien
Ġpays ans
m N
Ġt ente
Ġplais irs
Ġbien v
Ġf Ã©lic
Ã¨ ce
Ġdrsqu oici
tal ie
Ġall Ã©e
Ġmont ait
p ie
Ġr os
Ġfall u
Ġbl anch
org ueil
Ġcri ant
on Ã§ant
ĠB ert
Ġexp l
Ġ Åĵuvre
ou ge
off re
a w
Ġan ge
Ġm ut
Ġf ine
omb r
ĠboÃ® te
Ġir rÃ©
v el
Ġt ut
Ġgros ses
Ġsomm et
Ġfl amb
Ġtr ace
Ġdem ie
Ġlrsquoar mÃ©e
T ous
Ġpro jets
iel d
Ġsa chant
qu in
an o
ac les
auc un
ag on
Ġappar tement
Ġparticuli Ã¨rement
k i
ou n
Ġt Ã¢che
ag Ã©e
ĠÃ© veill
ĠsÃ© jour
Ġt enez
Ġrep ent
ne lle
lic itÃ©
h eurs
Ġf oss
as te
Ġc ler
er ons
Ġc op
Ġlrsquo est
ign Ã©
att ention
ĠbrÃ» l
resp ond
Ġ imb
ĠÃ©trang ers
ĠV a
Ġcon Ã§
ĠR ose
Ġad or
Ġprop h
Ġsoi gne
Ġconvainc u
l um
Ġcent re
S a
Ġl iqu
ĠÃ©cout er
Ġcess Ã©
ĠrÃ© al
en nent
Ã¨ les
Ġcri ait
Ġpou dre
Ġor ig
Ġindiff Ã©r
ou ille
Ġouv rage
Ġvag ues
ĠrÃ©flÃ©ch ir
M on
Ġmat Ã©ri
Ġplac er
Ġconf ond
Ġsav ent
Ġprot est
ĠF aites
Ġmur aille
Ġd il
Ġbr aves
Ġs ien
Ġmin uit
espÃ©r ance
ab li
Ġretourn ant
qu iÃ¨
ĠÃ Ķ
Ġore ille
ĠvÃªt u
pr endre
Ġpromp tement
is ions
Ġrel ations
Ġv ap
Ġbes ogne
ĠsÃ©v Ã¨re
et tant
ĠS ainte
l t
m de
ent ret
Ġresse mble
ĠP auvre
aiss ent
ress ions
ĠhÃ©r os
Ġciv il
L orsque
Ġp us
Ġtromp e
Ġpa quet
Ġ âĢ¦
ol ont
Ġpass Ã©e
Ġmanqu Ã©
Ġh eur
Ġtr aces
ĠÃ©t endu
Ġport a
Ġlarg es
al t
ĠP e
Ġtromp Ã©
Ġvoyag eur
Ġv iendra
oy ant
Ġfig ures
u ge
re uve
ĠG aston
Ġspir itu
ill Ã©e
Ġpron oncer
z anne
ĠrÃ© ussi
ĠMar y
Ġsp lend
ĠdÃ©r ob
A S
iv itÃ©
ill ets
anÃ§ aise
Ġoff rir
ĠdÃ©s irs
Ã©cl at
D rsquo
u ellement
Ã¨ que
Ġmar in
ĠEn core
Ġter res
ut er
ĠV enez
ĠN o
Ġex iste
Ġsrsquo Ã©c
int Ã©rÃªt
toi ne
ĠdÃ©c ouverte
Ġimport ance
ĠÃ©p oux
Ġsil encieux
Ġr ocher
Ġad resse
Ġgui de
or b
Ġrais onn
Ġgl ac
Ġex erc
Ġnuit s
u eur
Ġpl aindre
Ã©p are
Ġaff reux
Ġprob able
or mer
ad d
Ġfall ut
Ġpress ent
m rsquo
Ġprof esseur
Ġimpat ience
ript ion
Ġp endu
ĠrÃ©p Ã¨te
Ġfer mer
ast ique
Ġress our
Ġhabitu des
Ġlrsquo Ã¢me
ar Ã©
ĠC ert
Ġsalu a
Ġm aire
ĠlrsquoÃ©t at
l ens
Ġsort ant
Ġcol line
ĠInd iens
Ġp is
au g
Ã¢ ces
Ġser ra
ĠcÃ©l Ã¨bre
mb lement
Ġdange reux
Ġr ares
Ġgagn Ã©
Ġfant ais
Ġlev Ã©
omb e
iÃ¨ ce
pie gel
ic ien
ĠAv ant
Ġf an
Ġj ette
ol ique
Ġven ant
ĠMa x
ell us
ens Ã©
Ġsour ce
Ġpeup les
ĠmystÃ©ri eux
lens piegel
Ġh Ã´
ĠL aissez
Ġrepr oche
Ġsc and
Ġhum ain
Ġfr uits
ang ers
aur a
Ġpip e
Ġt enaient
ĠV an
Ġdis aient
appr oche
Ġred ress
Ġt as
Ġris que
pit al
Ġcorrid or
Ġn ord
/ /
Ġacc ident
c our
Ġc rsquo
ĠJ ane
Ġcr aint
Ġaur ais
Ġgard Ã©
Ġsinguli er
M E
iÃ¨ ve
omm age
Ġdisc uss
ev iÃ¨ve
tt p
Ġtou chÃ©
Ġpos er
Ġco ff
cep tÃ©
Ġment on
ĠG ilbert
Ġposs ession
Ġcar te
Ġabs ence
Ġexcell ent
Qu ant
Ã¢ ne
ar que
art h
Ġm rsquoin
Ġph Ã©nom
Ġpr atique
an es
Ġch anc
ĠdÃ©s agrÃ©
M al
ĠF ont
Ġarriv Ã¨rent
Ġsyst Ã¨me
I RE
Ãª tant
ĠbÃ¢t on
Ġhau tes
a j
ĠM an
ĠA li
Ġsou d
ĠbÃ¢t iment
m Il
ĠG l
Ġpart age
Ġab att
Ġchant er
Ġsrsquo Ã©lev
ĠAn ne
ber g
Ġsent ier
Ġcor respond
Ġrecher che
eu ille
it aires
Ġch Ãª
ĠprÃ©cip it
ĠV er
Ġpap a
Ġappel ait
Ġ .
ĠR uss
Ġvais seau
ĠsÃ©ri eusement
m H
Ġch acune
Ġrev ient
Ġt elles
Ġb u
Ġb anqu
ĠpÃ©nÃ©t rer
at ifs
ĠB ah
ĠG ui
Ġaff ection
Ġsauv Ã©
Ġbal le
Ġser t
Ġtrou bl
w w
Ġr ub
Ġgr ille
Ġcouv ent
. ,
ri Ã¨res
ist a
ouill Ã©
Ġrenseigne ments
T E
Ġall ant
ĠmÃ©d i
m c
Ġlrsquo occasion
Ġdrsquo autant
Ġviv ait
Ġtrait Ã©
Ġnu lle
ĠtrÃ©s or
ĠEn tre
Ġanim al
Ġchar me
es cl
ĠR om
ĠRe ine
is tres
Ġmurm ure
ĠÃ©ch ange
Ġter ribles
ĠÃ©v iter
rsqu oir
Ġpar ent
ra me
Ġpersonn ages
Ã ±
at a
all ait
v ingt
Ġchem ins
ĠRe garde
Ġb oulev
Ġvou drez
Ġessay a
Ġch ans
Ġcour onne
ĠdÃ©p end
Ġaut or
Ġmai gre
Ġvel ours
ob t
Ġap prit
Ġsour d
I E
Ġpr Ã©parer
Ġsu jets
esp ace
Ġfam illes
ĠrÃ©g uli
Ġdonne z
v oir
Ġchois i
ĠBret agne
: //
te ments
Ġremp li
ĠÃ©vÃ© nement
Ġdiffic ultÃ©
Ġd irent
ap arte
Ã ¼
Ġr onde
ur ier
Ġgl or
ĠrÃªv es
ec ks
ĠS te
ne z
Ġmon te
ĠJrsquo avais
ell ent
Ġs oign
Ġau d
Ġlrsquo Ã®le
Ġnouv el
ĠdiffÃ©r ence
ĠprÃ©t end
qu ets
Ġp aille
Ġdev ons
Ġhab itude
R ose
Ġdess ous
Ġqu alitÃ©s
se c
er bes
ĠV end
Ã©m in
Ġeff ets
ble u
Ġrempl ir
ort ance
Ġver d
Ġinf Ã©ri
Ġinv ent
ĠEx c
Ġcheval iers
Ġnu age
Ġlrsquo Ã©glise
Ġcou ch
Ġmen ace
Ġsoul iers
Ġcompr enait
Ġcompl Ã¨te
Ġress ort
am mes
Ġprincip e
ĠlrsquoÃ©p aule
oc k
Ġsais ir
ud es
Ġtrib un
ar ra
ĠdÃ©s ordre
Ġpropos ition
ĠJean ne
Ġrefus er
Ġfr anche
Ġdev oirs
Ġr as
Ġent endant
ĠdÃ©g oÃ»t
r an
Ġreg agn
Ġcons ac
Ġsou ci
Ġlrsquoh or
Ġdrsqu oimp
Ã©j Ãł
ĠDrsquo ailleurs
ĠprÃ©caut ion
or ation
Ġconse ils
Ġc la
ĠÃ©p uis
Ġtir ant
Ġjalous ie
Ġb ib
Ġac tes
Ġbless ure
Ġm ets
Ġch ute
P ierre
s eulement
ĠL A
Ġinterr og
ar ie
ĠdÃ©t a
eff or
Ġroy al
ph e
Ġparticuli Ã¨re
Q ui
Ġv Åĵ
ign er
Ġroy ale
m at
ff e
al d
Ġfr anÃ§aise
Ġdev ais
m E
Ġc ant
Ġqu eue
in tes
Ġdrsquo Ã©p
em m
ĠrÃ©s erve
ill ant
anch et
org an
li vier
Ġcr it
le ine
Ġj oign
Ã©m otion
Ġren fer
Ġd ent
Ġsur face
re l
as tr
m h
Ġrest Ã©e
ĠtÃ©m oins
Ġs ombres
ar rive
av ent
D es
at ter
Ġcons tr
Ġpav illon
an k
Ġsa che
Ġtomb ait
oÃ» te
aper cev
Ġlrsquo avez
Ġpays an
ĠGu ill
le ction
Ġsrsquo approcha
f ord
is Ã©e
Ġdis cip
ill ons
' s
Ġb onnet
Ġd ieux
ĠrÃ©s ister
Ġass ass
Ã©r ait
Ġfer ais
ĠdÃ©cid er
Ġvic om
Ġr oule
app art
Ġlrsquoin tÃ©rieur
Ġpr irent
av ance
Ġmeu bles
Ġdire c
Ġmont rÃ©
ĠdÃ©g uis
Ġchamb res
Ġv rais
Ġdist in
ĠsupÃ©ri eure
Ġdivers es
Ġincap able
Ġg Ã¢
Ġmar t
Ġvis ages
igne urs
Ġsacrif ice
Ġl Ã¢che
ec te
Ã¨ ches
Ġfa usse
ĠTout es
Ġcondam nÃ©
Ġtr Ã´ne
Ġaur iez
Ġas pect
ĠMa rs
Ġpuiss ant
Ġs ensible
olog ie
O R
Ġl Ã¨ve
ol ution
Ġser ment
ĠH Ã©lÃ¨ne
Ġgai etÃ©
Ġconduis it
ale m
Ġab ord
u euse
Ġanc ienne
ĠnÃ©g lig
Ġm Ã¨tres
Ġexp liqu
ĠAn gleterre
Ġtriomp h
ĠÃīt ats
x e
Ġb ourse
ĠL is
Ġatt itude
Ġtourn Ã©
en a
Ã©c ur
r Ã©p
Ġf Ã©ro
our ir
Ġson ner
ubli c
ens es
op inion
Ġmrsquo y
Ġrom an
ĠchaÃ® ne
Ġv aill
ag u
Ġab ond
ĠrÃ©s istance
al ie
ĠB ussy
Ġmal heurs
Åĵuv res
ĠÃ©pau le
Ġgrand eur
Ġcher chant
Ġvin rent
T RE
r ain
ĠV rai
em bl
Ġcr oir
ign ait
ĠNap ol
ĠfraÃ® che
r Ã©es
Ġpour vu
Ġbal but
Ġay ez
T u
Ġp il
Ġf Ã¢chÃ©
Ġtrouv Ã¨rent
rÃ©t ion
Ġp Ã¨res
enf er
Ġpubli que
Ġinqui et
Ġpais ible
Ġimp Ã©ri
Ġforte ment
ass ant
Ġfeu ille
Ġl anÃ§a
ue ille
ug it
exp ression
Ġf abri
Ġb av
Ġsol lic
Ġrang s
Ġ 6
Ġsu bli
Ġtal ent
Ġpare illes
ĠNap les
n iff
ar qu
Ġpens ion
Ġdirige a
Ġren v
ĠnÃ©cess aires
end orm
Ġsu eur
Ġquant itÃ©
Ġintellig ence
ecks niff
Ġh Ã´te
Ġcoup e
Ġride aux
Ġcour ait
Ġrem ords
a ussi
Ġchois ir
ĠRob ert
Ġpl onge
Ġfer mÃ©e
quiÃ¨ te
Ġpro che
ĠÃ©tinc el
Ġact ions
Ġtemp Ãªte
f aire
Ã© ge
Ã¨ gne
se pt
ab eth
onn ier
iv al
Ġdev inÃ©
Ġsu lt
Ġr ig
ĠA uc
aill ard
Ġde grÃ©
Ġent rant
Ġper c
Ġposs Ã¨de
Ġsou c
Ġcl airement
Ġsign es
Ġmeille urs
Ġdisting uer
Ġv Ã©n
Ġpouss ant
ĠsupÃ©ri eur
s ans
Ġexp Ã©ri
Ġmin ce
Ġsouff ert
c omm
Ġf uy
Ġg estes
Ġfrapp ant
Ġh yp
Ġy ou
Ġren ouv
u pp
el ine
Ġtr oup
Ġrev enant
o z
Ġr ond
us alem
Ġgrav ement
m d
Ġtrouv ant
Ġind is
ĠCl aud
Ġcous ine
ĠLy d
m ma
re inte
ant erie
bl ou
ĠRen aud
Ġsaut a
Ġin tÃ©rieure
uis se
Ã¨v es
ĠSu zanne
i pp
Ã©d i
Ġac cept
Ġv ulg
ĠC omp
ul te
ĠMes sieurs
a jout
Ġt ue
os a
ĠJ ul
Ġconf ir
ĠFou quet
Ġamen Ã©
Ġd am
Ġn um
Ġnu llement
Ġimport ant
Ġsympath ie
quip age
Ġp end
p oint
ĠJ on
Ġcert itude
Ġinv is
Ġl ant
at o
Ġtr ag
Ġexp Ã©rience
Ġ 8
Ġregard Ã©
Ġpoign ard
Ã İ
Ġdispar aÃ®tre
Ġm out
ie v
pr ouver
ĠP ecksniff
Ġrev Ãªt
ĠsiÃ¨ cles
Ġfroide ment
m G
Ġf oyer
ir ant
ĠC ont
Ġmont Ã©
Ġn iÃ¨ce
ĠrÃ©pond s
Ġgar Ã§ons
Ġouv riers
occup er
Ġprincip es
g res
s ent
Ġp age
Ġgent ils
m iÃ¨re
ĠÃ©p ar
Ġtranqu ill
ĠdiffÃ©r ents
Ġen r
am i
ob re
Ã©cl air
ĠE ug
ĠmÃ©ch ant
ĠÃ©d ition
ĠP in
li eu
Ġtravers er
adm iration
Ġvoud rait
ĠC ombien
u gn
ĠW alter
ĠcÃ©rÃ©m onie
g s
Ġconv iction
Ġbord s
ĠD el
age a
Ġcommande ment
el et
Ġch and
Ġre dev
av is
ter n
Ġc im
Ġcoup er
Ġsol ide
Ġ1 5
Ġint entions
Ġsouffr ance
qu Ã©rir
ens er
ĠdÃ©s irait
Ġconn ue
ĠGr Ã¢ce
Ġpolit esse
Ġconserv er
Ġmous ta
Ġp aup
li oth
Ġpos t
ĠthÃ© or
Ã®n t
Ġr ochers
ĠQuel que
Ġenv oyer
resse ment
ou ci
ĠpossÃ©d ait
ac ieux
Ġven ger
Ġray on
at ience
Ġrec ueill
r Ã¨rent
u eusement
en ues
Ġple ure
Ġrac onte
in o
Ġcar tes
Ġjam be
ui f
Ġdrsquo H
Ġdire cteur
er nes
Ġt aire
ĠM ort
Ġser as
Ġsoup Ã§ons
Ġsucc Ã©d
Ġatt endit
Ġass ure
Ġl ance
Ġb Ã©
Ã©t Ã©s
ay ez
Ġfix Ã©s
Ġaband onnÃ©
Ġdesc endant
appel er
Ġdiffic ultÃ©s
ab e
Ġsc rup
Ġimag ination
Ġlux e
Ġlin ge
t ent
Ġcomp tait
Ġsoi f
ĠconsidÃ©r able
Ġsent ine
Ġn ette
al on
Ġgr Ã¢ces
ichel ieu
Ġr ive
Ã©d it
Ġcou che
a qu
Ġs Ã©parer
Ġcl aire
Ġdemeur ait
Ġaux quelles
Ġobs c
entend is
2 2
Ġdrsquo esprit
Ġlrsquoin f
Ġatta chÃ©
l Ã©s
r ite
ne au
ĠA llem
oy ait
Ġviol ent
Ġnour riture
m os
Ġdu t
Ġdrsqu oins
Ġmar bre
Ġsent ais
Ġter me
Ġmari Ã©e
Ġrare ment
Ġent rait
ĠÃ©c us
Ġprud ence
Ġb oul
Ġh ar
Ġmatin Ã©e
Ġd ouleurs
Ġs elle
Ġpr ai
Ġpro bl
Ġar ch
app uy
Ġpare ils
Ġservit eurs
ĠMarc ellus
Ġperp Ã©t
ĠP ort
Ġgr ond
ĠR Ã©g
Ġcir cul
Ġsecou ant
Ġsinguli Ã¨re
Ġm oqu
Ġv us
om as
Ġprin temps
Ġriv age
Ġp el
Ġn ov
ch ez
Ġbien veill
Ġsimp les
Ġaccep ter
Ġsuiv ante
Ġmor ceaux
Ġs at
Ġb ottes
dr Ã©e
Ġhor reur
Ġ it
Ġpens ant
Ġenvoy a
Ġescl aves
Ġappar ut
Ġchass eurs
Ġcerv eau
ĠrÃ©pÃ©t er
Ġble us
ĠJÃ©r usalem
r il
Ġt ord
Ġvoit ures
Ġrapport s
Ġr Ã©t
ĠrÃ©f ug
Ġdiv in
m F
Ġbri de
Ġvoul aient
Ġinex p
ri che
ole mment
ĠgÃ©nÃ© reux
Ġpre uves
Ġcompl et
Ġrap iditÃ©
ĠextrÃªme ment
ĠÃī mil
n i
y m
Ġperm ettez
ĠÃ© qu
E s
Ġresp ons
ĠÃ©m u
Ġsent i
atri Ã¨me
l s
Ġd oc
and es
Ġag ir
oth Ã©e
oÃ¯ se
ĠWil li
ĠG ri
yp te
Ġasse mbl
u ction
Ġde t
Ã©r ables
Ġgri mp
h Ã©s
Ġj aill
Ġfer ma
Ġmat el
Ġsupp ort
Ġsaut er
Ġcr av
Ġdonn ent
Ġsages se
Ġ 7
ch ose
ĠC eux
Ġapp ela
3 0
Ġl oc
Ġpromen er
Ġmag as
Ġsrsquo ex
M a
O L
Ġd ira
m Je
r ions
ex istence
ĠÃ©p ouse
Ġpat tes
ale ine
Ġfais ais
Ġtravers a
Ġpron oncÃ©
auc une
Ġla ment
te aux
ĠC an
Ġfou et
ĠHen ry
ĠespÃ©r ances
Ġtressaill it
Ġcontin ue
Ġcons p
Ġsais i
ĠPr enez
al les
Ġin att
Ġvis iter
Ġinf luence
Ġdemande z
Ġplaisant erie
J ac
Ã©r Ã©s
ĠdÃ©p ut
ĠJrsquo Ã©tais
Ġaccompagn Ã©
ĠPl anchet
uis ait
Ġdrsquo amour
Ġtu mul
ĠBl anche
Ġm ass
v ant
ol phe
Ġex ceptÃ©
Ġrem u
lic ations
Ġerre ur
r in
av oue
Ġessay er
Ġf eux
Ġdrsquo Ã©c
Ġbou e
Ġproch ain
Ġt amb
Ġpl af
ard ins
ĠprÃ©caut ions
Ġsrsquoass it
Ġh aÃ¯
Ġpass aient
Ġcl artÃ©
Ġarm Ã©es
Ġpistol et
et iÃ¨re
Ġt au
Ġsrsquo Ã©cri
Ġnrsquo avons
min ence
quiÃ©t ude
Ġsouffr ances
prop re
l ac
m ÃĢ
Ġcaval erie
Ġprote ction
Ġr ad
Ġtrouv ez
Ġorg ueil
mpe reur
Ġemp Ãª
Ġpein tre
Ġm end
Ġr amp
os ait
Ġpay Ã©
ud ence
ĠAl tesse
Ġbrill ant
Ġtris tement
in tÃ©rieur
Ġbaiss a
Ġgout te
Ġn oires
Ġn omme
Ġsour de
ĠI ci
Ġjou ait
Ġracont a
Ġcombat tre
Ġc and
ir g
Ġregard aient
b at
ou ette
Ġsol itaire
Ġremar que
Ġpuis qu
Ġdonn aient
Ġdorm ait
Ġaper cevoir
Ġsoigne usement
Ġt he
Ġh arm
Ġjet ait
Ġr assembl
anim al
Ġch al
ĠR ich
iss ance
Ġim age
j ect
Ġv oil
ĠE d
ra de
Ġval ait
Ġbrou illard
ĠM ous
ĠS p
ĠF i
aff ection
ĠpÃ© chÃ©
Ġt o
del Ãł
Ġsaur ais
Ġach eter
Ġus age
Ġt ot
Ġt enue
Ġr uine
li Ã¨re
Ġca che
Ġpos Ã©
Ġesp Ã©rer
ĠJack al
Ġdev rait
Ġmes se
Ġpe ines
Ġheure usement
er ont
Ã©l ie
Ġtab ac
Ġlrsquo app
Ġmar chant
Ġcru elle
Ġvole ur
m R
ĠC ap
ĠD on
Ġbr ise
at ivement
ĠB ir
gr Ã©s
Ġmour ut
Ġremarqu a
Ġsin istre
Ġaveu gle
Ġa llem
ĠD r
Ġmens onge
rÃ© d
ĠdÃ©f end
Ġplac es
Ġpropri Ã©tÃ©
M adame
Ġp oil
ol i
ĠdÃ©v or
Ġrac ontÃ©
jourd rsquohui
ĠÃ©toi les
2 6
Ġr af
ĠMil ady
A d
ĠL Ã©on
ĠCh amp
Ġjal oux
m le
ent i
ol Ã©
ĠFr anc
ĠÃ©cout ait
Ġboule vers
Ġgentils hommes
er fs
ĠJ u
Ġdesc endait
Ġrelev er
Ġ 9
âĢ ĭ
is Ã©s
Ġg ars
ĠD ix
Ġsupp lie
Ġpen cha
2 4
ous er
Ġpour raient
ĠCh ev
g ypte
ur ne
ĠL u
if iques
Ġtomb Ã©e
Ġpo Ã©sie
ent our
Ġex ig
2 5
Ġch oc
Ġappr Ã©c
ĠD uc
ĠÃ©v ident
Ġtrembl ante
Ġlrsquoint ention
Ġtyp e
ou a
Ġfr uit
ĠprÃ©sent ait
Ġbour reau
Ġchau de
ĠGen eviÃ¨ve
I X
Ġen ch
Ġenf ance
Ġfer mÃ©
Ġcroy ant
Ġboulev ard
d Ã©s
Ġref l
Ġrelig ieux
T r
Ġj ardins
Ġr ab
Ġsonge ait
ĠGuill aume
ĠN ord
ai es
Ġin gÃ©n
Ã©l ite
ĠÃ©p ais
x tes
ass Ã©s
Ġtrouv ent
Ġbou ge
Ġjou Ã©
arr Ãªte
ĠPour tant
ern itÃ©
or ne
ĠP ol
Ġpriv il
el Ã©
Ġass urÃ©
lioth Ã¨que
Ġlrsquo O
Ġsur n
Ġcont ente
Ġdispos Ã©
Ġconven able
S ans
d res
v oix
ĠM ath
ĠR h
ĠAn drÃ©
Ġmen er
Ġfr ag
ĠÃ Ĭ
ign on
Ġpo ches
Ġride au
Ġs Ã¨che
Ġlrsqu oi
Ã©cri re
Ġsup erbe
Ġessay Ã©
Ġach et
Ġlrsquo art
Ġann oncer
Ġcru el
ĠrÃ©un is
el er
os c
Ġex ige
Ġm Ã»
Ġch asser
Ġport iÃ¨re
cl ina
Ġrefus Ã©
Ġtr istes
ĠR ichelieu
arc y
onn erre
ang le
gn on
omm od
Ġtrait er
Ġmult ip
il et
ĠP eu
ĠT rÃ©
Ġsupp oser
dem ment
Ã©p aule
Ġpro grÃ¨s
Ġdeux iÃ¨me
Ġgliss er
t Ãªte
Ġde uil
Ġexp lication
Ġremarqu able
Åĵuf s
Ġpr Ãªter
Ġmar m
Ġpos it
Ġdispos itions
rsqu oimag
ĠG Ã©r
ĠÃ©lev Ã©e
Ġphysi que
ol n
all um
Ġgal erie
Ġfatigu Ã©
Ġindivid u
Ġcommiss aire
ou b
Ġg Ã©
ĠÃ© b
Ġjrsquo espÃ¨re
ĠW est
ĠCr oyez
Ġsubit ement
A b
ou dre
Ġse igneurs
if orme
Ġconv ient
Ã¨ve ment
Ġpress Ã©
m LE
ĠT ur
e d
Ġde grÃ©s
Ġt ours
it ations
ot ions
Ġfavor able
ĠJ os
heure ux
ĠBon aparte
Ġdrsquoh onneur
Ġvicom te
ing ham
ats on
Ġmauvais es
Ġcab aret
Ġphras es
Ġlrsquohab itude
re ment
Ġh Ã©las
Ġpoign Ã©e
Ġqu atriÃ¨me
Ġfl att
Ġsub st
Ġsab re
Quel ques
Ġtor rent
Ġpouv ant
Ġhab ile
Ġ er
Ġl ion
Ġc itÃ©
ass it
Ġconv enu
y le
is tÃ©
Ġtrans p
ĠrÃ¨g le
Ġun ivers
Ġsais on
ĠrÃ©p ugn
I ER
Ġd ate
Ġbr od
Ã©r ant
Ġex act
Ġas p
Ġc rev
or n
Ġnom mer
Ġno te
Ã¨ tre
Ġlrsquo Ã©ch
Ġdrsquo am
ob lig
Ġord onna
Ġn at
Ġpass Ã¨rent
Ġacc outum
ĠÃ©v anou
Ġlrsquoin d
Ġescl ave
c tr
on om
Ġb illets
Ġsort is
Ġass oci
Ġpard onne
aper cevoir
Ġprol ong
it oy
itu des
k h
Ġ ombres
as c
ĠÃ©t abli
Ġri ait
ann Ã©es
2 3
C elui
ab elle
od or
Ġobs cur
Ġcraign ait
Ġmanif est
Ġ &
tr Ã©mitÃ©
ement s
p le
ĠC lar
int elligence
Ġrecher ches
Ġsignif ie
ĠM iss
Ġbou ff
g ate
ers e
uit es
ct eurs
Ġpe int
ĠdÃ©mar che
mos phÃ¨re
Ġp ire
ĠA ut
aff aires
o ce
Ġl Ã¢
or ce
ĠP ier
Ġsembl ant
ĠVal entin
Ġesc alier
Ġterr asse
Ġdemeure r
Ġm ol
Ġnombre uses
Ġproc urer
oure usement
in iÃ¨re
ĠD ame
ĠV ict
Ġrappel ait
ĠMade leine
ĠrÃ©comp ense
ĠC omm
ill y
Ġbar onne
Ġconst itu
Ġlrsquoav ons
Ġguer riers
Ġcom ble
Ġtrsquo en
Ġhist oires
C H
t it
Ġde lÃł
Ġtr ott
si re
Ġachev Ã©
Ġlrsquo Ã©v
Ġjusqursquo aux
Ġlum iÃ¨res
Ġlibre ment
Ġrepart it
or ig
Ġg are
ĠM ic
ĠM Ã©d
Ġnrsquo Ãªtes
ĠB Ã©
Ġgard ait
Ġsecr Ã¨te
Ġc ors
Ġm oul
ĠÃī v
Ġajout er
Ġveu ille
ĠS ous
2 7
Ġc reux
or es
Ġbruit s
Ġsangl ot
ĠNapol Ã©on
i ante
ĠCh aque
Ġint ime
ĠNe w
D Ã¨s
Ġr um
Ġrem erci
Ġple ines
Ġendroit s
p te
ĠdÃ©s irer
Ġcompl ais
Ġconduis ait
Ġtrav aille
Ġgros s
g les
en Ã©
ur b
Ġgr oupes
Ã¢ tres
Ġlong ueur
ĠW atson
m XX
Ġch ang
Ġson g
ist ocr
in tÃ©ress
ĠS oyez
Ġenc our
Ġcoup Ã©
ĠPal ais
ĠCert ainement
os sible
Ġdrsquo Ãī
tr ois
Ġsav ant
Ġsouff re
Ġtourn ait
Ġrecomm enc
Ġcarr osse
Ġcim etiÃ¨re
Ã¨ mes
ĠM er
ois elles
Ġdess in
Ġcourt is
Ġoise au
m onde
Ġve iller
Ġinterr oge
ĠN i
Ġbr isÃ©
Ġstat ue
ĠJo e
Ġad op
Ġmor al
Ġadvers aire
an vier
Ġt ais
Ġpl antes
Ġsrsquo Ãªtre
Ġser rant
Ġgrav es
erci ce
Ġgliss a
R ouge
Ġl isait
Ġp Ã¢t
Ġnrsquo eut
Ġfr ay
ĠÃ©c oute
lement s
Ġsc ul
Ġos Ã©
ĠVrai ment
qu ise
Ġacc Ã¨s
esta ment
A L
Ġreconn aissant
ĠrÃ©sol ut
Ġdiscuss ion
Ġmal ades
Ġapp orter
Ġcher cha
ĠprÃªt s
Ġromp re
Ġrepos er
Ġplaf ond
f em
Ġpart ager
Ġbat aill
Ġtre mp
Ġlrsquoent rÃ©e
Ġvoisin age
Ġsinc Ã¨re
ĠsÃ»re ment
Ġa j
Ġav al
ĠA lice
tr ouv
Ġple urait
Ġ Ã®
us ez
Ã´ mes
Ġex clam
Ġtrouve rez
A ussi
ign y
Ġconsol ation
Ġchau ff
uiv re
ĠmÃ©c ont
assembl Ã©e
ĠmÃ©t h
ĠÃ©prouv ait
Ġhu mble
Ġpaup iÃ¨res
N E
N e
m J
ag eux
ĠU lenspiegel
Ġoff re
Ġtable aux
ĠTh omas
ĠprÃ©par Ã©
OU S
Ġmir acle
Ġadmir able
M me
Ġf ugit
Ã¨ ner
ard es
Ġex prÃ¨s
Ã©ri d
ĠlÃ©g it
Ġprod uire
ĠdÃ©clar ation
Ġquere lle
m ann
Ġr out
Ġest im
Ġbr on
ass ion
enf ants
h iver
Ġav enir
Ġser iez
Ġfl ots
Ġfau bourg
E st
b is
Ġc ouverte
Ġenv ah
Ġtour ne
Ġp Ã©ch
Ġv irent
Ġfr anc
Ġperd it
ĠHenri ette
Ġdim inu
Ġg onf
Ġins c
r og
Ġcol onne
ĠR och
ĠconsidÃ©r ation
Ġform id
L Ãł
Ġc aisse
Ġpour rai
ouv oir
Ġconf us
Ġprof iter
ĠmÃ© f
ĠBern ard
in alement
ĠC ad
ĠS av
Ġchap elle
Ġfix Ã©
ĠdÃ©fin it
Ġlrsquo avais
Ġchev el
Ġman che
enc ore
Ġtent er
Ġapport Ã©
Ġimpat ient
Ġqu ai
Ġemp run
env oyer
ĠbrÃ» ler
Ġmerveille ux
p etit
Ã© fait
Ġdans e
ĠÃ©t ernel
ĠJ uli
ĠS ouv
in q
ap e
ĠV ive
Ġsrsquo arrÃªt
Ã©d iction
ĠFr ank
Ã® me
Ġbr un
Ġrent re
Ġp oul
Ġv anitÃ©
il Ã©
Ġn ations
Ġpr im
Ġai mÃ©e
Ġcaract Ã¨res
Ġd rame
Ġl ent
Ġp omp
am us
Ġmar que
Ġins ol
ĠI V
Ġvol up
Ġsatisf aire
Ġport aient
ĠÃ©t endue
Ġall usion
des c
Ġpr ia
ĠC oc
ĠA ussitÃ´t
aut eur
Ġvi olemment
Ġs en
Ġpar is
Ġvoul ant
Ã©t it
Ġdist inc
Ġsens ation
ionn aires
Ġch ir
Ġsu d
Ġsecond es
Ġ17 9
ab es
Ġprincip al
ĠRich ard
Ã©g r
Ġdemand ant
int ention
Ġoff ert
w ood
as sez
oqu Ã©
Ġfonct ions
e books
Ġp p
Ġp ente
Ġn erfs
ci de
ĠtÃ©moign age
Ġg ib
Ġsav ons
Ġmod este
c al
Ġm angÃ©
Ġn ue
Ġr Ã¨gne
ĠL orsqu
if ice
Ġregret te
Ġplan cher
Ġai rs
Ġtou che
Ġfl ammes
2 1
Â °
ĠP av
ĠD en
ĠD arcy
ist Ã¨re
ĠchÃª ne
ar ge
Ġf aill
Ġinconn ue
p es
ouv rage
ine z
ĠgÃ©nÃ©r alement
I D
k y
Ġt yr
Ġpr esse
m ier
ĠT hÃ©
ĠI II
acc r
Ġsult an
it able
ab el
ĠP er
gn er
Ġemport Ã©
Ġs ut
Ġser pent
Ġroug it
Ġex ces
ul iers
Ġlaqu ais
Ġgouver n
c a
Ġan al
Ġpoursuiv re
Ġsrsquoav anÃ§a
r ages
Ġlrsquo ad
Ġbr anche
Ġchar itÃ©
l y
Ġinst all
j or
p ied
Ġg re
tÃ© es
Ġabs ur
Ġcan ne
Ġpron onc
Ġv ant
Ġappart ient
Ġtermin Ã©
Ġtroub lÃ©
Ġmagistr at
S es
at ives
Ġcaus es
Ġod eur
Ġg rim
Ġcar riÃ¨re
Ġcrois s
Ġmur ailles
Ġcaus Ã©
Ġmarch ands
ĠÃ©loign Ã©
Ġfantais ie
d a
Ġaur ons
Ġlev ait
Ġtre mbler
Ġrapp ela
Ġproch aine
c ir
Ġc oins
ĠM ad
mh ttp
ĠÃ©t ourd
Ã©l itÃ©
Ġtomb eau
De puis
Ġtransf orm
Ġsubli me
ĠÃ© blou
s am
Ġh ein
Ġgu Ã©r
aigne z
Ġf Ã®t
ĠP atri
Ġcont enait
Ġfam il
Ġsoup Ã§on
Ġjug es
l ong
ĠE l
Ġ1 0
Ġ iv
in k
Ġpour rez
Ġlrsquo ennemi
Ġtrouv Ã©e
Ġmu et
Ġpl aire
ĠA p
ĠCh acun
ĠÃ©chapp Ã©
ĠpÃ©r il
Ġraisonn able
a k
ĠF ern
Ġconf ier
nÃ© li
Ġr ic
Ġoff rait
ĠL ouvre
Ġbour g
Ġbrill ait
Ġdrsquoh ommes
ag ent
Ġam ants
ĠdÃ©c our
Ġver res
Ġmeur tre
Ġlrsquo avaient
ĠS il
ĠrÃ©p ublic
Ġven ais
ĠÃī minence
ĠdÃ©barr asser
Ġle cteur
Ġj up
ol a
ĠPh il
ĠTh Ã©r
A C
en nel
ĠS auv
ĠÃ©c art
Ġcapit ale
Ġgrav itÃ©
ĠnÃ©g oci
Ġ Ã´t
Ġl ugu
Ġlrsquo Ã©l
Ġren oncer
Ġsau ve
QU ES
ĠJ ud
ter ie
Ġconf usion
accep ter
r aine
in ces
Ġn aÃ®tre
Ġpass ionn
or a
at tre
ul er
Ġ aient
ĠL ong
Ġfi acre
attend ais
en nes
Ã© veill
tr ai
ĠH eure
ex am
Ġmons tre
oi es
oi ne
Ġpour riez
ouv rait
ĠA ss
ĠD un
ĠR em
Ġentre prise
Ġviv acitÃ©
Ġexp rimer
Ġcan ons
xi Ã©tÃ©
Ġb Ã¢
Ġint rig
ĠRÃ©p ublique
Ġlrsquo effet
ĠR od
Ġmes ures
ĠespÃ©r ance
In d
c s
Ã©t ri
Ġlrsquoav enir
Ġjoy euse
id ents
ĠcrÃ© atures
ĠprÃ©cip ita
le urs
ec i
Ġconnaiss ais
Ġac quis
Ã©p an
Ġbr iser
Ġconsid Ã©rer
Ġram ener
ueil li
Ġbrus que
Ġf ri
Ġf oul
Ġr Ã©tabl
Ġdiv ine
c an
Ġtr anch
Ġprop ort
cha uss
Ġdil ig
in ent
m O
au ph
Ġai der
Ġver rons
rim aud
Ġtemp le
Ġard eur
u cteur
Ġdrsquo E
Ġcont act
aperÃ§ us
Ġremerc ier
Å Ĵ
ĠL eur
emp ereur
ĠmÃ©lancol ie
Ġbien fait
Ġcharg Ã©s
Ġembarr as
Ġdrsquo entre
Ġam us
Ġbl onde
Ġbou ill
Ġperm ettait
ĠX IV
pte mbre
Ġdrsquo ar
oy al
ĠB ast
Ġquoi qu
Ġrou bles
Ġble ue
Ġscand ale
Ġm illes
elle ct
ĠM ir
onn aient
Ġt estament
se mbl
Ġhum ide
Ġtrsquo ai
Ġattent ivement
ĠF l
ĠdÃ©m ons
Ġconst amment
en ay
Ġb all
Ġcri e
Ġann onÃ§a
inc onn
D ieu
res que
ĠT on
Ġdis e
ci ent
ĠJac ob
Ġa mp
att ends
oc ation
Ġparl ons
2 9
Ġg e
Ġacc ueill
els on
os per
Ã©ri f
Ġpris es
Ġtrah ison
Ġvain qu
ĠClaud ine
ag ir
ĠE s
Ġpuis qursquoil
Ġlrsquoh um
Ġpron onÃ§a
Ġmach ine
Ġgend armes
Ġmalheure usement
qu elle
ĠM aÃ®tre
de au
Ġar me
Ã©v anou
ĠÃ©tr oit
Ġver ra
id Ã©
Ġbless Ã©s
ch et
Ġcomp agne
Ġvoi les
exp Ã©rience
ĠdÃ©cid a
Ġp Ãªch
Ã©p end
Ã´ pital
Ġd angers
an Ã©ment
Ã©g ard
Ġsol ennel
Ġmess ager
Ġcompli ments
Ġs ite
ĠM ay
ort un
ich ambre
Ġstup Ã©fait
ĠPard on
D eux
Ġc ave
Ġm dash
ob e
ĠsrsquoÃ©l anÃ§a
ĠobÃ© ir
an i
ĠC ertes
Ġplac Ã©e
Ġir rit
Ã©chapp er
Ġt onnerre
Ġmu ette
Ġs iens
Ġviv ants
Ġproc ureur
j ug
Ġref use
ap itre
ĠB e
Ġdis s
ĠsÃ©ri euse
m ond
Ġm and
Ġconv ives
ĠdÃ©clar Ã©
Ġentour Ã©
2 8
Ġt endu
Ġvert us
ĠWilli am
i ants
Ġt endant
Ġcr Ã©p
Ġimport ante
ĠÃ©criv it
Ġtranquill itÃ©
R O
in ci
ĠV iens
od es
Ġl ien
Ġentr Ã¨rent
as k
Ġseu les
grat uits
Ġp ousse
Ġv ins
Ġlrsquo obscuritÃ©
ĠC on
act ions
Ġlant erne
Ġb ec
ĠL E
ob lige
Ġfond s
ĠrÃ©uss ir
ĠMous quet
at ie
Ġais Ã©ment
C l
Ġv ues
Ġdrsquo Ar
ĠN ell
im itÃ©
ach eter
j eu
Ġp ages
Ġca chait
Ġsimp licitÃ©
ore au
Ġlrsquoab bÃ©
ĠÃ©ner g
ĠThÃ©r Ã¨se
Ġj urÃ©
Ġr Ã´
Ġch Ã©rie
ien drez
ob st
Ġsent is
Ġconnaiss ances
Ġregarde z
Ġloint ain
Ġe au
ra le
Ġmrsquo ont
Ġempl oyÃ©
Ġdisp ers
ĠS an
ĠR oche
Ġlum ine
Ġdissi p
Ġgai ement
Ġfourn ir
Ġmess age
p in
Ġd ot
ou ches
ĠB our
esp Ã¨ce
Ġsent ant
Ġcri mes
Ġreconn ais
I talie
Ġ Ã®le
ĠprÃ©v enu
Ġsitu Ã©e
ĠdÃ©d aigne
Ġbib liothÃ¨que
if iÃ©
Ġinnoc ent
m la
Ġsa le
ĠV Ã©n
ass ad
Ġcaus ait
Ġrecev ait
nÃ©li us
Ã¢ le
Ġam ours
Ġjou ir
Ġpard onner
Ġn us
ĠdÃ©c ision
Ġmill iers
Ġvap eur
ar on
Ġun es
ĠC ast
Ġsav aient
ĠdÃ©licat esse
ĠGÃ©r ard
uis ant
ĠS avez
Ġcher chÃ©
oise au
Ġappart enait
Ġpl aign
ĠL ion
Ġcomm ission
Ġvis ites
ĠvÃ©rit ablement
ou f
Ġple urs
Ġchap itre
Ġappuy Ã©
Ġconsol er
ebooks gratuits
y ez
Ġt Ã¢cher
Ġb ann
Ġfor mer
Ġtrembl ait
raÃ® ch
S aint
Ġtrouv ais
heure usement
Ġfranche ment
Ġp ose
Ġpr Ãªtres
Ġfort s
Ġcou de
ĠÃīc oute
Ġenlev Ã©
sam o
l aient
Ġm ouill
Ġg ig
ĠO livier
Ġoccup Ã©e
ĠdrsquoA l
Ġfier tÃ©
Ġfr ot
ĠG or
ĠH ar
ĠdÃ©c or
Ġcommen Ã§
ow n
Ġtribun al
P r
Ã© les
ou Ã¯
Ã¨ ler
Ġpar aissaient
Ġrencont ra
Ġcess a
ĠB ois
Ġsu gg
aur aient
inter romp
ou est
ur Ã©e
al ph
ĠI mp
Ġinv olont
ĠAtt endez
au m
ĠrÃ© veiller
ĠCh er
Ġju in
Ġpla Ã§a
ĠEug Ã¨ne
en ouill
Ġrec ond
Ġvol er
Ġpen chant
Ġcli ent
at iques
ĠH e
Ġsucc es
Ġvest ib
Ġd ieu
Ġv igueur
ert ume
Ġfix e
Ġobt enu
au n
ort able
Ġpass Ã©s
Ġass urer
Ġdonner ai
Ġouv rant
Ġri ch
Ġdrsqu oint
Ġk il
Ġmas que
ĠÃ® les
h onn
Ġd ura
Ġt en
onn aie
ĠT our
Ġenchant Ã©
Ġinstru ctions
ai der
Ġch uch
onne urs
ĠPar lement
gr and
Ġrelig ieuse
Ġru ines
Ġtr a
Ã©g or
Ġmot ifs
Ġcl ai
Ġconc ert
Ġdirec tement
Ġchir urg
d on
ĠC elle
Ġeff ect
Ġass assin
Ġess uy
Ġavent ures
Ġinvis ible
od eur
Ġsupp lice
Ġbanqu ier
ĠH a
Ġappr end
Ġlrsquoai de
H en
Ġpar lement
ag ue
ab re
ĠT art
ĠJul ie
Ġmar cha
ĠÃ©c oul
Ġl ouis
Ġc ieux
Ġdu el
Ġnrsquo avoir
Ġsrsquo adressant
Ġind igne
Ġcal omn
Ġviol ente
Ġlun ettes
Ġcrit ique
it ent
Ġle Ã§on
ig es
orte z
Ġsangl ots
oÃ¯s me
d rsquoun
d rsquoune
Ġm assi
Ġb iÃ¨re
ĠB ab
Ġcommun iqu
ĠmÃ©c an
ĠcoÃ» te
el Ã©e
Ġdrsquo heure
ĠV inc
age ait
Ġrepr ises
Ġju illet
Ġsub ir
ĠdÃ©ch ir
ĠrÃ©d uit
ĠAli ocha
Ġun iquement
Ġqursquo avec
Ġentre vue
ĠÃ©p aisse
Ġpuiss ante
Ġpopul ation
Ġenn uy
ĠDor othÃ©e
Ġp aire
Ġs Ã©n
ĠM Ãªme
ill Ã©s
ess ay
eff ray
Ġtrembl ant
M ac
ri en
' t
Ġfort es
Ġbar riÃ¨re
Ġpours uite
Ã©cout er
Ġv aud
Ġb ref
ĠgÃ©nÃ©r aux
i us
Ġpl omb
ĠdÃ©b ris
mCh apitre
Ġp ars
as con
Ġadm iration
Ġplai ra
n u
Ġ ond
av iez
Ġcour b
Ġgard a
ĠÃ©clat a
Ġnot es
Ġatte indre
i an
Ġf Ãªtes
Ġst ation
Ġconse iller
Ġretour ne
Ġtour b
Ġperd us
ĠPr osper
ĠnaÃ¯ ve
Ġf Ã©min
Ġch im
Ġsrsquo ab
ert ir
Ġab out
Ġdom aine
Ġpromp t
Ġdiam ants
Ġbav ard
n ie
S e
ais ons
Ġresp irer
o ques
Ġn rsquoimporte
Ġdans er
ĠC as
Ġsur g
ap Ã©
ĠS er
Ã©n erg
anÃ§ aient
ĠÃ©tr oite
Ġsac rÃ©
ĠpÃ¢ les
Ġvoud ra
Ġpois son
Ġm ul
Ġpr ennent
Ġrepr oches
Ġtravers Ã©
Ġver te
Ġparv int
Ġindis pens
ac Ã©e
ĠCh ez
Ġinter loc
Ġpouss ait
Ġrent rÃ©
Ġaccomp li
ĠforÃªt s
Ġvig oureux
Ġcompli ment
Ġs ott
Ġc ot
om ac
Ġh Ã©
Ġcar n
Ġcor re
Ġdesc endu
S E
Ġvis ion
ĠPÃ©tr us
ĠfrÃ©qu ent
A T
Ġcr ise
Ġex h
ul Ã©
a chev
ien ces
ad er
ĠMal grÃ©
Ġperf ection
Ġv ienne
Ġtr onc
tr av
Ġfranch ise
Ġloge ment
Ġentret ien
g ers
is ant
Ġr it
Ġmont ant
Ã©cri ai
Ġmis Ã©rables
qursquo Ãł
Ġretent it
it res
Ġlaiss Ã©e
Ġavant age
Ġroul er
A thos
L uc
z z
ĠV ille
Ġtomb ant
Ġsonn ette
ĠmÃ©dec ins
Ġbal les
Ġvole urs
r en
ĠS ud
Ġpat ient
Ġcouvert s
ĠmystÃ©ri euse
Ġven ons
Ġmun icip
Ġvestib ule
G E
ou iller
Ġr asse
Ġr ente
Ġpl umes
ag Ã©s
ir al
Ġin tÃ©rieur
Ġex emp
A Ãİ
Ġjrsquoai me
con v
Ġfriss on
ĠRegarde z
s c
end ie
Ġgr ise
ĠÃ© lÃ©
cept ible
ĠPatri ck
Ġm Ã¨ne
Ġnrsquo as
Ġfa uss
Ġil lum
Ġsu rs
Ġcach Ã©e
ent r
Ġla v
Ġqursquo aprÃ¨s
ict ions
Ġpen sif
ĠBar b
ĠBar n
Ġnerv eux
d en
Ġoblig Ã©e
Ġmaj est
ĠdÃ©cl are
Ġcre us
Ã©cur itÃ©
Ġd ort
Ġb apt
Ġlrsquo Ã©tranger
Ġou bl
Ġmar iÃ©
ct obre
Ġsour iait
Ġdonner a
rib uer
ĠprÃ©par atifs
ĠQuoi que
Ġbalbut ia
Ġt Ã¢
ut riche
Ġcar rÃ©
gn Ã¨s
Ġins ensible
Ġfl ott
Ġir r
Ġvill ages
Ġdrsquoav ance
Ġchans on
k ins
Ġcr a
Ġret irÃ©
ĠdÃ©f endu
ĠdÃ©sesp Ã©rÃ©
ĠÃ©trang es
Ġmult itude
Ġa li
end e
Ġsil h
Ġsilenc ieuse
AÃİ TRE
ard eur
ĠÃ© bran
Ġvol Ã©
Ġag i
ĠbÃ©n Ã©f
Ġbatt u
Ġvainc u
C et
Ġ [
ĠN os
Ġcontemp ler
Ġexam iner
o o
ol ine
ec ter
Ġma rs
Ġstup ide
Ġprouv e
Ġcult ure
Ġsrsquo approch
ĠT ar
Ġaut oritÃ©
Ġir rÃ©s
Jac ques
g ar
Ġr al
onn ante
uis a
Ġrest aient
Ġsub s
ĠGui che
Ġle Ã§ons
Ġb aign
ĠN ick
Ġpays age
eff roi
ĠÃ©pous er
Ġpistol ets
ĠexpÃ©ri ment
O u
l aise
n aire
Ġo ccas
Ġentre pr
Ġporte f
ĠÃ©ner gie
Ġprobl Ã¨me
Ġbou quet
w ard
ort a
ĠAn toine
Ġpro clam
anc ienne
uc k
Ġbrill ants
Ġb re
ĠA ux
oy a
Ġex ception
ĠH ug
Ġatta que
Ġeng agÃ©
ĠEsp agnol
Ġchevel ure
Ġs anc
Ġg oÃ»
Ġtou chant
Ã©l Ã©r
Ġfais ons
Ġretrouv Ã©
b al
Ġav ance
ĠM oÃ¯se
ĠL anc
Ġfor mÃ©
Ġmod Ã¨le
Ġressembl ance
Ġvisit eur
Ġrapp elez
Ġco Ã»t
env ie
Ġtent Ã©
Ġesc al
Ġsoulev a
le m
ac k
Ġbr une
Ġimp rÃ©
Ġform aient
Ġhist or
Ġressour ces
an ie
Ġt irait
ĠAn na
ĠobÃ© it
Ġs ui
Ġse xe
Ġbatt ait
Ġpant alon
Ġ Åĵuvres
Ġl aine
Ġf ous
ĠÃ©c outez
Ġviv ante
Ġvol ume
Ġsoup ira
Ġremp art
Ġentend ez
Ġdiam ant
Ġsouver ain
Ġc och
Ġsuiv ie
Ġfrapp e
ĠmÃª lÃ©e
Ġp s
ĠJ im
ĠdÃ© gr
ĠH oll
Ġbou d
Ġcl oche
ĠchrÃ©t ien
ĠcÃ©d er
ĠfÃ©ro ce
om ne
ad j
ĠcÃ´ tes
Ġta che
An ne
ĠÃ©le ctr
Ġcoff re
V oici
c rsquoest
Ġl Ã¢ch
ĠN av
Ġob lige
fait ement
Ġpan ier
ri ces
ĠD onc
Ġpass ent
ĠW ill
ouvert ure
Ġb Ãªt
Ġpl ate
ĠsÃ©par ation
qursquo on
Ġconserv Ã©
ĠfraÃ® ch
p eu
Ġsrsquo agissait
Ġsort irent
Ġind isc
Ġhont eux
t eur
Ġb oit
ĠD ub
un ique
Ġspect ateurs
Ġmir oir
Ġimb Ã©cile
ĠÃĬ tes
R I
Ġch aises
ouv ante
Ġfid Ã¨les
Ġz Ã¨le
Ġhal et
Ġexpl oit
Ã± a
d Ã©c
Ġmes sire
erm ain
Ġouvert s
Ġmoin dres
ort ait
ĠD emain
Ġnrsquo ayant
ĠB ientÃ´t
Ġad ministr
Ġfix ement
Ġson gÃ©
ac ier
Ġenv oie
Ġmis ter
ĠdÃ©t ach
Ġcharg er
Ġtim ide
u ll
Ã©p oque
Ġparv enir
ou g
Ġnrsquo aurais
ĠB ath
ĠdÃ©s h
ĠÃ©tr oi
ĠÃ©cl ats
Ġarm Ã©s
Ġcom Ã©die
Ġmemb re
Ġenlev er
Ġboute illes
Ġserr ure
ĠS oit
un t
Ġrem ise
Ġinc ert
Ġjug Ã©
Ġ ivre
Ġach etÃ©
ĠSt Ã©pan
ĠC oll
ĠF ils
ĠÃ©cl aire
ai mait
ent endait
Ġt iers
Ġg rec
Ġin tÃ©
Ġsrsquo ouvrit
ose z
if e
ĠprÃ©sent Ã©
le by
Ġr aill
Ġsembl ent
Ġord onnÃ©
ĠdÃ©li re
Ġpl ainte
uis seau
Ġappr ouv
Ġeffray Ã©
Ġ ira
Ġgr omm
quel que
ĠÃ©cout Ã©
ĠmÃ©lancol ique
Ġut il
ĠdÃ©sagrÃ© able
a Ã«l
Ġb lÃ©
ĠD an
Ġgen ou
Ġpersuad Ã©
ĠdÃ©lic ate
Ġmai gres
Ġdrsquo entrer
ĠdÃ© dain
Ġv ice
Ġr usse
ce mment
ĠpÃ©n Ã©tr
pect eur
Ġart iste
Ġbrill ante
ĠespÃ©r ait
D u
eu ssent
Ġch ances
ĠÃ©t al
Ġall Ã¨rent
Ġexcell ente
ĠmÃ©dec ine
us tes
Ġser rÃ©
Ġconf ess
Ġpolit iques
ĠCor nÃ©lius
Ġm ang
Ġse ptembre
ĠN elson
Ġcomp lice
gr oup
ĠÃ©prouv Ã©
ĠÃ©d ucation
Ġtroub ler
ĠmÃ©di oc
ĠÃ© prouver
id ente
Ġcoul oir
ĠgÃª ne
Ġs Ã©curitÃ©
Ġc age
Ġcomp assion
ĠrÃ©un ion
Ġcit oyens
Ġtendre ment
ĠspÃ©c i
i ou
Ġdem oiselles
aiss es
Ġmrsquo Ã©t
ific ations
A h
s ol
Ġc end
in Ã©s
ill ette
Ġinc ons
Ġris quer
ĠhÃ´ tes
A U
or al
Ġdes quels
Ġlrsquo objet
up t
b aye
Ġh aie
ad ier
Ġrest Ã¨rent
Ġsol enne
Ġhaut s
off in
Ġarr ange
ousse au
Ġrout es
d ent
Ġv iendr
in ions
ous age
ĠP art
ot er
Ã¢ teau
Ġjrsquoai e
ik ov
l otte
Ġn et
Ġatta qu
Ġprud ent
y re
Ġg agne
ĠS m
ĠS ol
anc Ã¨rent
arr Ãªtant
ĠÃ©m ue
Ġvict imes
Ch ar
m En
Ġl iens
Ġp iste
Ġlrsquo embr
Ġlrsquo arrivÃ©e
Ã©r ance
aut oritÃ©
Ġrepr end
ĠCh at
ĠdÃ©t ache
ĠÃ©g ale
Ġfa Ã§ons
pect ive
O M
Ġprom ets
ath an
Ġrefer ma
Ġcrav ate
h erbe
Ġconn us
ĠEn suite
* *
Ã© bre
Ġv endu
Ġapp laud
ĠreÃ§ us
Ġchange a
ĠÃ©clair Ã©e
Ġraf raÃ®ch
Ġm aux
rsqu oign
Ġlrsquo Ãªtre
Ġcour rier
Ġvit res
Ġrapport er
Ġremont er
ĠNick leby
Ġv este
as ion
si x
Ġjol ies
ĠpÃ¢le ur
f a
Ġin quiÃ¨te
em bre
ad a
ĠR og
Ġlev Ã©e
Ġdoul oureux
Ġ -
ĠÃ©t end
ĠS and
Ġex ag
imp ression
ĠRuss ie
r and
Ġav ouer
ĠM ich
ĠD um
Ġf Ã©e
Ã¨ dre
ĠA ug
Ġfer ons
Ġsuiv is
Ġ1 4
ĠÃ©trang Ã¨re
Ġembarr assÃ©
Ġphilosoph ie
ĠProv idence
ĠFi odor
iss on
all ai
Ġlut ter
Ġpla teau
t Ã©s
au f
Ġann onÃ§ait
Ġattend aient
ĠPav l
c or
Ġg ilet
Ġdou ces
Ġpu d
Ġdisc rÃ©tion
Ġdout ait
ign or
Ġbou gie
ĠmÃ©t al
Ġretrouv e
Ġcul te
en ance
is a
ĠS ou
Ġdrsquo entendre
Ġmon ot
Ġdis ons
Ġjrsquo aurai
Ġple ur
ĠÃ©l Ã¨ve
Ġsout err
Ġban que
el ant
Ġr use
Ġfr ac
Ġam Ã©ric
Ġcomm erci
Ġlongue ment
ĠnÃ¨g res
Ġrich esses
p ouv
ĠD Ã©m
Ġmil ord
ĠlittÃ©r aire
Ġt ables
ĠrÃ©p Ã©tait
Ġconsul ter
Ġtumul te
Ġrem Ã¨de
Ġhum aines
Ġfi ancÃ©e
Ġordinaire ment
Ġimp orte
Ġpos ant
Ġrev er
con f
Ġt onne
Ġmil itaires
Ġinc ess
Ġve ines
usc ule
Ġinfin iment
Ġport ent
Ġappuy a
Ġfranch ir
av erne
ĠN rsquoest
Ġfam ili
Ġco quet
Ã©nerg ie
l ing
âĢ¦ âĢ¦
Ġapp are
Ġfid Ã©litÃ©
Ġformid able
Ã©les te
b eau
c ol
il itÃ©s
Ã©r ations
Ġsais issant
Ġrent rant
Ġse ize
ig el
Ġcr Ã¢ne
ell ence
Qu oi
Ġferm etÃ©
IN E
Ġfar ouche
Ġscrup ule
Ġtamb our
Ġm Ã¢t
Ġlrsquo officier
Ġdrsquo ass
Ġcr us
Ġperd ait
AS S
Ġlrsquo Ã©
ĠCar m
ab ond
onn ent
Ġin tr
ĠV os
att ach
ĠPar lez
ib ault
ĠsÃ© ance
Ġt iennent
Ġch Åĵur
Ġcomp atri
ature llement
ĠrÃ©g ion
Ġfat al
Ġrej oign
Ġgrac ieux
Åĵ ud
Ġobst acle
Ġindivid us
ĠrÃ©gn ait
c Ã©an
t oujours
ĠM ur
Ġcom ique
Ġlrsquo aff
Ġlrsquo appartement
ĠS h
accompagn er
Ġmagas in
Ġj uif
ĠC H
ig ue
ĠV irg
Ġrev ol
Ġmis Ã©ric
Ġim ages
Ġbas e
ĠÃ©m otions
ĠdÃ©li cieux
Ġarra cher
Ġgout tes
rsquoir ai
Ġc ass
Ġn orm
ĠJ ames
Ġin n
ĠÃ¢ gÃ©
ĠmÃª ler
ĠVict or
A ussitÃ´t
eu f
Ġlrsquo espoir
am itiÃ©
ĠÃ© mer
ter re
Ãī glise
Ġcal mer
l ow
Ġpr es
ĠL Ã©v
ĠrÃ© ch
ĠdÃ©t our
Ġc uivre
as tre
Ġcr aintes
Ġam ic
ĠÃ©c rite
Ġmour ant
Ġcourt ois
ĠSim on
ap he
ĠN antes
Ãī c
Ġst yle
Ġcouv rait
Ġdirig er
V ers
re uses
Ġf ailli
Ġr uisseau
Ġh id
Ġar mÃ©
Ġcomb att
Ġcab ane
Ġ2 0
Ġsaint s
Ġb ourd
Ġav ou
emb arras
Ġrepent ir
Ġf ile
Ġpl aint
ĠP erc
Ġtal ons
Ġlugu bre
Ġb oss
Ġch Ã¨v
ore t
ĠprÃ©v u
Ġmaud it
b ar
m f
Ġc ort
Ġla me
ĠF red
Ġcomm ode
ret s
Ġchar rette
Ġag itation
ĠdiffÃ©r ent
Ġcoqu in
Ġmatel ots
ce mbre
op Ã©
Ġnour rice
f ield
i ol
m Ã©di
Ġt imb
Ġtrouv era
ĠÃ©c onom
Ġaur ont
Ġpe inture
Ġchirurg ien
Ġrest aur
Ġdissimul er
reg ard
T oute
Ã©c riv
Ġam ies
Ġjrsquo allais
eff ort
Ġobserv ations
Ġfant Ã´me
Ġpav Ã©
m it
ir aient
ath e
Ġdrsquoin d
ĠM ole
Ġson na
Ġcomm ettre
Ġbes oins
Ġlib Ã©r
Ġtap iss
m qui
Ġqu ator
Ġv ainement
Ġf Ã»mes
om on
Ġai g
Ġbl ond
Ġretomb er
ĠdÃ©cl arer
ĠÃ©lectr onique
mb r
Ġmrsquo as
Ġfat ale
Ġvas e
Ġp Ã¨ler
Ġlrsquo Ã¢ge
Ġcoup le
ett ent
ĠconsÃ©qu ences
g en
Ġv ib
it eur
Ġn Åĵud
Ġcr ist
Ġregard Ã¨rent
Ġcour u
Ġprom enait
ĠMarc of
Ġc am
ill erie
Ġam ener
Ġcons ult
Ġjourn Ã©es
Ġessay ait
Ġsouh aite
Ġrecul a
ĠtÃ©l Ã©gr
ĠNell y
Ġb erg
ĠÃ©c ar
Ġcol onnes
Ġquit tant
Ġcompar aison
ĠP erm
ĠT oi
iss es
Ġno ct
Ġdilig ence
ĠÃ©t ernelle
Ġdrsquo Or
Ġex cl
ĠR am
Ġ18 4
ĠindiffÃ©r ent
Ġp uits
Ġm ettez
ar ou
est ation
al lez
ĠM M
Ġtr aÃ®tre
ĠB ourg
riv Ã©
Ġrepr ocher
Ġnum Ã©ro
ĠthÃ©or ie
Ġsrsquo asseoir
ĠT oujours
uit Ã©
Ġoff rit
Ġtrouver ait
Ġlrsquoai me
ne aux
Ġv Ã©rif
Ã©d ucation
ĠdÃ©t resse
Ġprofond eur
c li
m Et
Ġj oindre
ri ent
ĠB rig
ul aire
Ã©n ie
Ġcont enir
Ġsuiv aient
Ġprofond es
Ġbais a
aband onner
Ġcerv elle
ĠhÃ¢t a
l oge
os pit
Ġsa ura
Ġdr ag
Ġbou g
Ġag itÃ©
ĠAr th
f rique
ĠM it
ig r
Ġsrsquo ag
Ġimp ert
Ġcharg Ã©e
ĠÃ©cout a
Ġcord es
Ġgrat uits
Ġfray eur
chauss Ã©e
ĠdÃ©tourn a
ĠfraÃ®ch eur
G U
Ġn Ã´tre
Ġg aillard
che min
ul ation
im er
Ġrev ue
ĠarrÃªt Ã©e
ĠJust in
ĠLanc elot
u mble
Ġa lar
Ġaff lig
Ġcapit al
Ġvi ande
Ġobserv ation
Ġphilos ophe
ĠnÃ¨g re
am ant
Ġcomp tes
Ġdonn Ã©s
Ġco eur
ĠÃ©ch ang
Ġcommenc Ã¨rent
Ġhabitu Ã©
ĠlrsquoÃ©p Ã©e
Ġcath olique
o ble
Ġn Ã´tres
Ġdrsquo arriver
ra te
Ġpersonne l
d ix
Ġp oiss
ĠE mma
Ġparl aient
Ġpap e
Ġsuffis amment
Ġar b
Ġabs or
dem and
ĠPuis que
ĠtrÃ©s ors
Ġdoul oureuse
i aient
at elier
ĠG ib
ign ant
off e
Ġentra Ã®n
ĠMart he
ĠÃ©tud es
Ġmett ent
Av ec
ĠvÅĵ ux
ĠG rimaud
Ġmrsquo Ã©tais
Ġmin istÃ¨re
ĠK e
ĠÃ©l Ã¨ves
Ġang es
ĠrÃ©flÃ©ch i
ĠLyd gate
L orsqu
P lus
j oux
in ot
Ġpl is
Ġcommun ication
Ġjust ifier
Ġinut iles
ic orne
ĠB arry
Ġper ron
ist ible
Ġmagn ifiques
Ġis ol
Ġnette ment
M aur
d ont
r ance
ent endit
est in
ĠD Ã©jÃł
Ġavant ages
Ġlect eurs
Ġtoit s
Ġit al
Ġd ommage
Ġn id
Ġfer iez
Ġrest es
Ġ1 3
ĠreÃ§ oit
Ġriv al
ĠDi ane
Ġvulg aire
Ġn ett
Ġest ime
ĠR alph
Ġvoy aient
igh t
us tr
Ġlrsquo eÃ»t
Ġsrsquo arrÃªter
ins t
Ġexp Ã©d
ĠÃ©g lise
Ġprov isions
Ġfix er
enn ui
Ġl ancer
ne uf
Ġv oÃ»te
ille ment
Ġsc Ã©lÃ©r
Ġassis tants
Ġconse ille
ĠbrÃ» le
Ġlrsquoexp ression
C E
V oilÃł
Ġm Ã¨res
ag euse
erv Ã©
Ã©v rier
Ġri chesse
V E
Ġl as
ĠS ar
ĠH um
fr Ã¨re
ĠdÃ©tr uire
Ġs ons
pr Ã©sent
Ã©c ole
ĠD ick
ĠB onne
Ġdis trait
Ġrepr Ã©s
Ġrecomm en
Ġsourc il
se aux
ĠC eci
Ġrev anche
Ġviv es
Ġfus ils
ĠmÃ©l ange
Ġendorm i
p eut
Ġv ides
au rez
Ġregard ai
ĠrÃ©s oudre
Ġfl ancs
Ġag ents
Ġreconn aiss
Ġsurpr endre
I ÃĪ
Ã© fin
ĠD ou
oul ait
ĠreÃ§ ue
Ġmen aces
ĠdÃ©li b
Ġconst at
Ġsonge ant
Ġadress er
ĠD onnez
Ġgrand rsquo
Ġdou zaine
Ġresp iration
ĠrÃ©uss it
Ġportef euille
Ġc y
ĠH arry
lÃ© ans
Ġcess er
Ġdrap eau
us age
Ġpar adis
Ġsrsquo occup
Ġenf lam
adress er
Ġp ans
ant ichambre
Ġple urant
ĠBon jour
Ġcoll ines
ograph ie
D ON
us ions
Ġlrsquo y
iss ons
Ġpart s
Ġab omin
Ġord onn
Ġang laise
âĢ ľ
ant h
Ġch ante
ve il
Ġcommun iquer
Ġabsol ue
Ġtau reau
R e
re usement
Ġh aleine
ĠL ouv
ĠdÃ©s erte
Ġren f
t ous
y pt
aut Ã©s
Ġsu cre
cc ident
Ġdi pl
ĠAn drÃ©e
Ġtrsquo a
ĠrÃ©vol te
ĠAm Ã©ric
Ġignor ait
Ġdistin ction
C ela
m v
Ġb Ã»
Ġre z
Ġpl ans
Ġpass Ã©es
Ġaband onnÃ©e
ugu en
ĠFont aine
fem me
ĠJrsquo y
Ġmod erne
Ġhonn Ãªtes
ĠÃ©t endit
Ġlrsquo annÃ©e
Ġent housiasme
ex iste
Ġmor ne
Ġcours es
Ġguer rier
Ġmons tru
k ov
Ġf Ã©c
Ġeu s
Ġfl anc
Ġsoi rs
env elopp
Ġbless ures
Ġfau tes
Hen ri
b ons
Ã©t ude
Ġch ers
av ions
Ġh onneurs
ĠC ab
Ġcr Ã©dit
Ġper les
Ġoff ici
Ġtourn ure
Ġard ent
Ġpr enaient
Ġgu et
Ġord inaires
ĠsÃ©ri e
c ond
Ġf act
ĠL eurs
ure z
Ġdire z
Ġimag iner
Ġsacrif ic
Ġw h
Ġmena Ã§ant
f e
Ġp orc
Ġre li
Ġret enu
Ġconnaiss ent
ĠdÃ©sire z
I ON
r ut
am ie
Ġmar ins
Ġmousquet aires
Ġsilenc ieusement
ĠM ord
rai lles
cl Ã©s
ĠdÃ©v ouÃ©
Ġgri ff
Ġoccas ions
v res
Ġser rer
ens Ã©e
Ġapp liqu
ys te
Ġrob es
Ġlorsqursquo elle
n aient
Ġl aid
Ġt asse
Ġv ente
omm Ã©
Ġessay ant
Ġbaiss ant
Ġcat astr
Ġtroup eau
Ġm Ã¢ch
it aine
Ġaur as
Ġind ust
ach el
hab it
Ġconc ierge
olog ue
abs ence
ĠprÃ©cipit amment
p Ã©ra
Ġlrsquo ont
ĠP rÃ©
Ġsou mis
Ġren voy
Ġcru ellement
Ġtend res
Ġconcl usion
conn u
Ġp urent
ect ure
Ġfac ultÃ©s
Ġaffir m
ĠMari anne
D ame
Ã© br
Ġf as
Ġg ants
ĠC o
age ant
Ġjet Ã©e
ĠprÃ©par ait
oubli er
Ġvague ment
E urope
que ers
ĠV I
ĠBr un
Ġsitu Ã©
Ġbais ers
00 0
Ġbataill on
ie mment
ĠdÃ©f iance
ĠrÃ©flÃ©ch it
ĠÃ©pouvant able
Ġcrimine l
out h
ĠC ond
Ġsur veiller
ci Ã¨re
iss able
ble ment
acc us
Ġchand elle
L A
Ġc asser
Ġent er
ay s
Ġpers pective
Ã©tr ange
i Ã©es
ri mÃ©
ang oisse
Ã©l anÃ§a
ĠAn ton
Ġbrill aient
Ġpi ano
ĠToute fois
ĠlÃ©git ime
j amais
Ã© ler
in Ã©es
am a
ig er
Ġquit tait
Ġcommen Ã§aient
Ġcontr aint
Ġstup Ã©f
Ġbienv enu
m I
Ġ ouvertes
Ġj anvier
est ion
Ġpar quet
Ġpar oisse
ĠN igel
agn ie
ĠRen Ã©e
Ġintellig ent
qu o
ot teau
ass urer
Ġconf idence
Ġbl as
Ġassis ter
ĠsupÃ©ri oritÃ©
ĠchrÃ©t iens
ĠdÃ©liv rer
Ġscul pt
Ġpl anches
ĠR ab
ĠF aut
Ġpass ants
Ġvoi ent
lev er
Ġrepr och
Ġint ellect
ense mble
Ġconst itution
ĠreprÃ©sent ant
oubl ie
Ġhonor able
obt enir
Ġrevol ver
Ġl ocat
Ġdev ine
Ġcel l
Ġrec ouv
Ġter rit
Ġanc iennes
er riÃ¨re
aut el
ĠrÃ©p arer
Ġcaract Ã©r
Ġvill a
Ġop inions
Ġemploy Ã©s
el in
ur y
au berge
at an
pr Ã©t
Ġvit esse
ĠAl ain
Ġlrsquoimp ression
Ġcrsquo Ã©taient
Ã©r Ã©n
Ġcont enu
asp ard
Ġredout able
Ġte xte
Ġsal uer
aph aÃ«l
Ġpersuad er
offre y
Ġr at
Ġr attr
ĠVal liÃ¨re
ĠLor in
clam a
inf luence
l os
l Ã©es
as sible
Ġtr ot
iss ais
Ġlaiss aient
Ġrest Ã©s
onde z
Ġsonge a
X V
n on
Ġm onnaie
Ġj eux
av anÃ§a
si le
Ġbr iller
anc ier
Ġfut ur
ĠÃ©p reuve
Ġaff reuse
Ġplais ait
Ġapport ait
Ġvainc re
Ġcult iv
ĠÃ©te int
ĠBast ille
Ġf osse
ĠS tr
Ġgr ad
ĠD em
ĠB offin
Ġar istocr
Ġchagr ins
G e
p ins
ĠS yl
Ġcon g
Ġman Åĵuvre
ress a
Ġlrsquoex c
Ġrelev ant
ĠDi able
onn ette
ĠG uise
Ġcar esses
Ġjrsquo eus
ĠÃ¢ ne
Ġsoup e
Ġrem et
Ġexp lications
ouss es
Ġoccup ait
P h
Ġm asses
Ġj oint
our t
ĠS queers
ĠT e
Ġbou cles
omm Ã©e
Ġlrsquoin v
Ġaband onner
ĠcÃ©rÃ©m on
ĠArth ur
Ġc aill
Ġb uff
Ġpar ap
Ġdev rais
Ġrev enus
Ġexp liqua
Ġexp lique
Ġprat iqu
Ġmoin es
Ġkil om
ĠÃ©lÃ© ments
ĠNav arre
Ġv id
Ġemp ois
Ġprincip aux
Ġhabitu elle
Ġlrsquohor izon
Ġsentine lle
N on
ĠR Ã©v
autre fois
Ġouv rait
ĠvÃªte ment
n ier
Ġh ache
Ġser rait
Ġaur ions
Ġsuiv irent
Ġgal ant
Ch rist
ĠmÃ©ch ante
Ġrecul er
Ġlim ites
Ġdet tes
i Ã©r
ĠgÃ©nÃ©r ositÃ©
Ġsc Ã¨nes
enf ance
Ġred ing
Ġrempl it
ĠdÃ©tourn er
ĠSalv ato
G ermain
w ell
Ġf ins
Ġmort el
Ġlrsquoint Ã©rÃªt
Ġgarn ison
Ġc i
av al
ĠG uer
Ġfor mait
erd in
Ġn iv
tre et
Ġg uise
Ġdrsquo O
ĠrÃ©pond irent
Ġinc onv
Ġrend s
Ġval ets
Ġno ces
Ġfont aine
Ġdout es
Ġmaint enir
Ã©tri us
C om
Ġen j
ĠL uisa
ĠR et
ĠG abri
Ġfer as
Ġgu Ã©ri
Ġferm Ã©s
Ġpopul aire
v ol
rsqu oici
Ġrev iens
ĠdÃ©p lais
exp rimer
Ġsub t
Ġpou ce
hor izon
Ġasse oir
Ġser re
oul a
aÃ® nÃ©
Ġemp ressement
ĠÃ©l oqu
ma jor
Ġappar ition
Ġretrouv a
Ġnation ale
Ġsusp endu
ĠexÃ©cut er
ĠprotÃ©g er
in tÃ©
Ġh ost
onn Ã©es
ĠE r
ĠB i
Ġconf iÃ©
ĠAr mand
ĠpÃ©nÃ©t rÃ©
ĠJud a
ĠPerm ettez
3 4
Ã©r on
ĠN Ã©anmoins
Ġte xtes
Ġper Ã§
Ġouv re
Ġrou es
Ġsoci al
inconn u
3 1
Ġp ir
Ġmar ine
Ġprod uisit
Jrsquo ai
gÃ©n Ã©ral
ĠBal samo
is oire
Ã©v Ã©
Ġforc er
ĠvÃªt ue
Ġcend res
f ille
ant i
Ġen s
Ġdev enus
Ġlrsquoex istence
ĠhÃ©r oÃ¯
Ġconvainc re
ĠpÃ©ri ode
ĠphÃ©nom Ã¨nes
ĠAuc un
ĠRh in
an it
Ġj ud
Ġpl aintes
Ġimp uiss
ĠMar ia
ĠrÃ©g ent
Ġtrib u
Ġhal te
Ġnov embre
Ġgouvern ante
Ġsurs aut
f ils
Ġd auph
Ġs tr
Ġv iendrait
Ã©t h
ĠG arde
Ġmin istres
Ġfam euse
Ġ18 5
Ġcompos Ã©
Ġbor nes
Ġgarant ie
Ġquoi qursquoil
ĠdÃ©cid Ã©ment
Ġtermin Ã©e
ask oln
v in
Ġ iss
Ġp ic
ri me
ic iens
ĠrÃ© elle
Ġrest era
Ġgu Ã©rir
Ġfus se
Ġprote cteur
askoln ikov
3 2
n ouv
Ġp ommes
ĠD ES
Ġeu ss
ĠÃ©l an
Ġcach et
Ġcoll Ã¨g
ĠHeure usement
Ġcort Ã¨ge
Ġquator ze
u ments
Ġl ancÃ©
Ġt endait
Ġcent aines
Ġfou dre
Ġvieillard s
af aud
Ġcontent a
Ã©te rs
Ġfoss Ã©
pr Ã©s
Ġpers Ã©cut
Ġinc omp
ĠnÃ©g lige
Ġcadav res
aw ber
Ġs ot
Ġc ouss
ĠC inq
Ġregard ais
Ġarriv aient
Ġprom it
Ġappar tements
Ġsup erf
Ġchant ait
Ġroug ir
Ġcouvert ure
Ġmerveille use
Ġc oc
Ġm enait
ĠP en
ac on
ob ation
Ġlab or
M art
Ġj oies
Ãª chait
ĠJ ules
Ġex ist
rÃ© g
Ġph ot
ĠrÃ©v Ã©ler
Ġrempl acer
Ġr uiss
ag ers
ĠO s
ĠF er
AR T
Ġdange reuse
ne y
Ġpar urent
ag Ã¨re
imp ortance
ĠmÃª lÃ©
Ġplac Ã©s
s erv
ing en
Ġmis Ã¨res
Ġrepr enait
ĠpÃ¢ lit
Ġtrans par
Ġobserv a
Ġbienv enue
b an
ur Ã©ment
ter a
Ġrend ue
Ġfrapp ait
Ġhabit ait
Ġcav erne
Ġpa use
ww w
itoy able
h ard
ĠH al
Ġtravers e
Ġindiff Ã©rence
oly te
c ert
Ġa tr
erre r
ĠdÃ©couv rit
Ġmar ais
Ġfac ilitÃ©
Ġjau nes
ch Ã©s
Ġun iforme
ĠF e
Ġrev enue
ĠdÃ©lic ieuse
O h
m les
Ã©c art
ass is
ign onne
quel ques
Ġband its
Ġapproch ait
D on
Ġd ol
ĠB aud
Ġpos Ã©e
Ġvoul iez
Ġfin esse
amb ert
ĠpiÃ¨ ge
Ġcan ot
ott y
Ġsoul agement
gg otty
Ġhauss a
Ġr endant
Ġcr aignez
Ġcap ables
Ġrend aient
andis es
ĠlrsquoÃ©p oque
Ġobsc ure
Ġv Ã©g
Ġv all
Ġtr an
Ġvais seaux
Ġaime z
Ġaccep tÃ©
uck ingham
m lrsquo
id ences
Ġeu e
Ġviv ent
Ġcl os
Ġris qu
Ġsinc Ã©ritÃ©
Ġinstr ument
Ġprim it
ĠLion el
M ar
l Ã©g
Ġp Ã©rir
Ġexp Ã©dition
ĠGr ande
Ġappel Ã©e
Ġcommand er
ĠNo Ã«l
ĠirrÃ©s istible
m ons
Ġcr ay
Ġser ions
Ġfr at
oul er
ĠprÃ©s ents
assad eur
Ġr anc
Ġnrsquo Ã©tais
ĠG ar
Ġtre mblement
ĠChar lotte
ĠhÃ©s iter
ĠMic awber
Ġf arde
ĠT andis
ĠR achel
Ġmal ice
Ġapp orte
Ġcou chÃ©e
Ġdest inÃ©
d quo
Ġcr amp
Ġcompt oir
Ġt Ã¢t
ad or
ust ice
ĠbrÃ» lait
ĠJon as
M aintenant
l o
Ġg Ã©ant
ot id
Ġsav iez
tu eux
ĠJrsquo espÃ¨re
Ġliv rÃ©e
Ġprom esses
Ġann oncÃ©
Ġinf ir
Ġconvers ion
Ġassur Ã©ment
Ġcler c
Ġsilh ouette
v ert
Ġl Ã¢cher
re urs
ch on
ĠA gnÃ¨s
ĠW h
Ġreconn us
avent ure
c ad
Ġj oin
Ġh uguen
Ġin ouÃ¯
ĠB uv
ul lier
Ãªte z
Ġconc erne
Ġmett ons
Ġplong Ã©
T andis
it aient
ĠrÃ©g ler
ĠIn des
uls ion
ĠÃ©le ct
Ġcig aret
Ġh erbes
uis ent
Ġdit e
puis s
Ġinf ern
Ġsrsquoen g
ĠsÃ©par Ã©s
Ġlois ir
escl ave
S al
c ent
Ġs Ã©p
ar Ã©e
ĠM ille
ign an
Ġsuff isait
Ġappuy Ã©e
Ġgrac ieuse
Ġexpos Ã©
Ġmousta che
H ar
Ġd ignes
qu and
Ã©n ient
ĠdÃ©t est
Ġrepr enant
Ġcur ieuse
Ġattend ez
Ġinnoc ente
Ã©loign er
Ġapercev ant
g Ã©e
Ġp endre
Ġbl Ã¢
ĠÃ©v ent
Ġcoul er
Ġnav ires
Ġabsur de
ĠM ons
Ġma jestÃ©
Ġpe indre
Ġenvelopp Ã©
at i
um ov
Ġbar re
ĠrÃ©c ol
Ġlrsquoatt ention
ĠCol omb
Ġreding ote
ent raÃ®
ch al
Ġpr iÃ©
ois ses
Ġent endue
ing s
az umov
Ġdipl om
k es
Ġex tÃ©rieur
Ġlrsqu oign
Ġpersonne lle
Ġparv enu
ĠÃīt ienne
Ġc er
il etÃ©
Ġav ancer
Ġfer ont
Ġfl atter
Ġign ore
Ġforc Ã©e
ĠÃ©t onnÃ©e
Ġretomb a
Ġvisible ment
r op
Ã©r it
Ġall Ã©es
agn ole
Ġrev ers
Ġpens es
pos er
Ġcontinu ant
Ġvert s
Ġmeille ures
Ġlog ique
Ġstup eur
ĠchrÃ©t ienne
ĠAs sez
ĠÃ©clai rÃ©
Ġenfer mÃ©
Ġsoud aine
i ation
l an
t Ã¨re
y eux
ou cher
ar bre
os ses
uis sier
Ġpuiss ent
ĠÃ©criv ait
iev na
Ġgr otte
ĠG aspard
ĠrÃ© cemment
Ġai ment
Ġgard ien
Ġrespect able
ĠIs raÃ«l
Ġr Ã´t
ig re
Ġfr oiss
tr Ãªme
anc Ã©s
Ġgagn a
Ġs el
pr Ã©c
ĠP ont
Ġdrsquo armes
un d
ĠdÃ© cembre
Ġfr ott
Ġins ouci
ĠdÃ©p ense
off rir
Ġdiv an
Ġrefus a
c ap
m Ãł
Ġm oquer
Ġcr och
Ġor ient
hab iller
lis abeth
it z
Ġr igueur
Ġpour pre
ĠD ire
Ġrem uer
aud ace
Ġhum ili
Ġinut ilement
Ġdress er
ĠJuli a
s ki
Ġr oc
Ġpr Ã©pare
ĠD Ã©s
im age
Ġperm it
Ġdur Ã©e
accomp l
Ġartic le
Ġbienveill ance
ĠTart arin
erdin and
Ġimp ressions
Ġatta che
Ġtent ative
let on
ĠÃīmil ie
ĠFern ande
en ger
Ġb aie
Ġfl or
ĠprÃ© jug
erne llement
Ġsucc omb
Ġang oisse
Ġintrod uit
ĠdÃ©put Ã©s
ir ais
Ġtromp ez
ĠEst her
Ġorg ueille
ĠsrsquoÃ©loign a
Ġm ention
li a
um Ã©
Ġimp assible
la te
Ġinc royable
Ġpropos a
Ġsinguli Ã¨rement
qu ette
or ph
Ġcap rice
ĠPe ggotty
Ã Ķ
ill ot
Ġni ais
Ġind ig
Ġinc ont
Ġcontr ad
ospit alitÃ©
ill aient
Ġmar ques
Ġchev et
ign Ã©e
Ġsoci ale
Ġrecommenc er
P aul
m ot
Ġp aÃ¯
onn as
Ġar c
Ġpart irent
erre ur
Ġan Ã©ant
Ġrest ent
rit z
ĠsrsquoÃ©t ant
ĠpossÃ©d er
ombr ables
an on
Ġpr Ã©m
Ġqui conque
ĠT a
Ġextr Ã©mitÃ©
Ġconc ern
Ġard ente
Av ant
ĠAlex and
ĠphÃ©nom Ã¨ne
m Lrsquo
qu ier
le ct
ĠJ ob
ĠS oph
ĠV ierge
ĠR oy
Ġdisc ut
Ġcoll Ã¨ge
ĠsupÃ©ri eurs
ĠhÃ©s itation
ĠEspagnol s
Ġlrsquo oncle
Ġchar mes
Ġcal ife
Ġaccomp lir
ĠbrÃ» lÃ©
ĠExc ellence
Ġp este
el ait
mp ire
ĠrÃ©un ir
hum anitÃ©
Ġconcl ut
Drsquo Artagnan
Ġs Ã©pare
Ġlrsquo as
ic iers
Ġtomb aient
Ġinv itÃ©
ĠdÃ©r anger
Ġempl oyer
m aÃ®tre
Ġmont Ã©e
Ġarriv ent
az an
Ġtransp orter
O ui
n ation
on ais
Ġb ancs
Ã©t ud
ĠR aphaÃ«l
ĠW inter
Ġapport a
Ã© z
ĠC onse
Ġri pos
Ġsp ec
ĠdÃ©m ont
Ġoblig Ã©s
noc ence
ĠchÃ¢t iment
Ġs qu
ĠV en
Ġcour aient
Ġexc uses
Ġtravaill ait
loc k
l ation
Ġm oque
Ġv ierge
Ġex t
Ġdi ables
Ġlaiss ent
Ġpay e
Ġsembl Ã©
Ġexc use
Ġsecr Ã¨tement
t our
Ġav ancÃ©
Ġgu eule
Ġfl otte
Ġrepr od
Ã¨v ent
iff Ã©rence
Ġoccup er
Ġferm ier
ĠintÃ©ress ant
rup tion
Ġinstru ments
ĠÃ©veill Ã©
m l
qu rsquoun
Ġc ire
Ã©t iques
at mosphÃ¨re
ĠM od
Ġtr Ã©p
Ġtr ac
ab oration
ĠQu rsquoil
ler ie
att ache
Ġconf r
Ġfl Ã¨che
Ġcou cha
Ġdiv ision
Ġpoing s
Ġmousquet aire
Ġapercev ait
M arc
d Ã©p
au jourd
ir Ã©e
app oin
ĠprÃ©c ieuse
Ġrav i
Ġloup s
Ġla mp
Ġg our
Ġau dit
Ã©c oute
Ġdrsquo accord
ĠB or
Ġaff ai
Ġver rai
ĠSe ine
ĠÃ©tabl ir
Ġcomprom ettre
Ġric an
Ġp up
Ġs h
anc iers
ĠH ur
Ġsouff rait
imag ination
ĠVÃ©n us
Ġr ug
Ġh iver
ĠT ri
Ġdr Ã´
Ġjuge a
Ġband it
ĠrÃ©pugn ance
Ġcell ule
Ã©ters bourg
Ġpour rions
Ġlrsquo aprÃ¨s
ĠdÃ© ment
Ġfor Ã§
og es
Ġappr enant
ett aient
Ġbal con
ĠreprÃ©sent er
Ġfur t
atte indre
Ġindispens able
t oute
Ġd ict
Ġav ouÃ©
ui fs
ĠL ib
aiss er
ĠrÃ© el
Ġan xiÃ©tÃ©
aff ir
ĠPr uss
Ġnour rir
Ġpriv Ã©
j ection
Ġa oÃ»t
Ġt iss
ĠV ol
ĠR app
Ġeff royable
Ġdonner ait
ĠsoupÃ§ onner
Ġpros p
ĠdÃ©c rire
Ġlrsquoab s
Ġamb ition
ĠCal yste
I ci
Ġqu otid
Ġn Ã©e
ĠC Ã¨dre
Ã©c r
ac quit
ic ations
Ġall ong
Ġtou chait
Ġreconn aissait
mC e
ĠDrsquo abord
Ġbi joux
ajout er
Ġsur mont
ec tÃ©
ĠN ouv
Ġliv rÃ©
ense igne
Ġense vel
Ġmarch aient
Ġjust if
Ġinterromp u
AN D
ĠlrsquoÃ©c out
Ġbond it
observ ation
Ġprai rie
n old
Ġl us
Ġlrsquo entre
Ġcr oient
Ġbou c
Ġann onc
Ġta ches
Ġtrah ir
Ġcli gn
ĠrÃ©sult ats
ur ance
ois on
ĠO ullier
Ġtou cha
ĠdÃ©p lor
Ġinf Ã¢me
Ġjardin ier
Ġabsor bÃ©
Ġn appe
ur ie
ĠB ons
Ġlrsqu oim
Ġsour is
rev el
ĠmÃ©th ode
c Åĵur
m est
Ġd aign
Ġl iste
Ã©p ouser
ĠA th
ame aux
Ġbat tant
Ġerre urs
Ġsen sibilitÃ©
Ġvainqu eur
ĠreprÃ©s ente
f ou
Ġs aign
Ġdis iez
ul ot
ĠdÃ©f unt
ĠCar oline
llem agne
ĠsoupÃ§ onne
Ġbrig ands
Ġlrsquoi mm
E mpereur
an Ã©
ar mer
au re
ĠL ord
ame au
Ġcou chant
Ġsign ature
Ġense igne
Ġcris p
Ġtal ents
Ġcle fs
ĠdrsquoAn jou
m atique
Ġb ain
ĠM ag
ol iques
ĠS uisse
ĠA pp
Ġdemand ais
Ġserv ent
Ġdisc uter
Ġsup ers
Ġracont ait
Ġeng age
ĠlittÃ©r ature
ĠÃ©puis Ã©
Ġinterloc uteur
Ġkilom Ã¨tres
Ã© bran
ur Ã©s
al is
Ġdrsquo habitude
art iste
appar ence
Ġcerc ueil
ĠC ra
ĠF el
aÃ¯ l
tÃ©r itÃ©
ĠDi ana
Ġmena Ã§ait
EN T
Ġrespons abilitÃ©
Ġre ins
pr och
ĠP ip
Ġgr ogn
ĠB ri
ĠB uckingham
Ġesp agnol
Ġlar me
Ã« s
ĠprÃ©v oir
obÃ© ir
ministr ation
ar riÃ¨re
ĠC la
Ġdonn Ã©es
Ġprop ose
Ġsc iences
ĠarrÃªt Ã©s
A ss
pr of
ĠV ois
ĠF air
Ġrend us
ĠcrÃ© ation
Ġs oyons
ar quer
in ois
Ġquart s
Ġart istes
Ġprincip ale
ĠdÃ©faut s
m or
ĠT ais
ace ment
Ġreconn aÃ®t
Ġparl ent
tout es
Ġabs ent
ĠÃ©cout ant
Ġregret s
ĠnÃ©cessaire ment
Ġdrag ons
Ġsa me
ĠS che
ul aritÃ©
Ġcol or
Ġtrans m
ĠtÃ©moign er
Ġremont a
Ġabatt u
Ġr aff
ol it
li z
ĠQu atre
Ġpol i
Ġinv itÃ©s
ili bre
quiÃ©t er
Ġrecommand Ã©
ĠmisÃ©ric orde
Ġla tin
Ġen l
ĠM is
ĠR O
Ġinc ident
Ġcouv rir
ĠtÃ©l Ã©ph
Ġgrim ace
3 3
pr Ã©h
Ġret int
ĠrÃ©c onc
ĠbÃ¢t iments
pe ine
ĠÃ©n ormes
Ġsouhait er
ĠTrÃ© ville
Ġeffect ivement
d ia
e b
r anch
Ġlrsquo an
Ġnrsquo os
ĠÃ© quip
Ġret ire
Ġins upp
Ġimp er
aur iez
Ġcond ucteur
Ġcontr aste
Un is
Ġchapeau x
Ġempl oi
atta cher
Ġlorsqursquo on
y ne
Ġr aille
Ġemp orte
Ġind Ã©fin
Ġrent rÃ©e
ĠTh ibault
Ġcach ot
Ġnour r
y th
Ġla t
Ġla mb
Ã©t onnement
est ie
Ġlrsquo adresse
Ġgr ain
iss antes
Ġouv rages
ĠX III
onge ait
Ġcach ette
Ġadress Ã©
Ġdir ais
Ġharm onie
Ġpr Ã©l
ort ant
Ġjrsquo eusse
Ġconv ul
Ġcl am
Ġrent rait
Ġquart iers
Ġabsol u
Ġinconn us
ĠarrÃªt a
Ġl uc
Ġb Åĵuf
ĠL am
Ġman ches
pos ition
ĠbÃ©n Ã©diction
Ġpublic ation
ĠhÃ©s ita
ĠlrsquoÃ©c ole
Ġfatigu Ã©e
liz abeth
Ġc iter
tre r
ol er
ĠV ill
iss eur
ĠF ort
Ġatt irÃ©
Ġvoi es
Ġap ais
ĠdÃ©li ces
Ġlrsquoent endre
Ġgre ff
on ore
Ġm iens
Ġlrsquo al
ign ac
Ġacc abl
Ġnom mait
Ġind Ã©c
Ġobserv Ã©
Ġaccr och
ĠvÃ©g Ã©t
d o
Ġgr oup
Ġrespect ueusement
Ġfroid eur
Ġant ique
Ġbron ze
il ov
Ġr acc
ord inaires
Ġins ista
Ġsort aient
Ġtravers ait
ĠdÃ©sir Ã©
Ġfavor is
ĠlrsquoA m
Ġrude ment
Ġverd ure
Ġinatt endue
ĠBir otteau
Ġpr esc
Ġgr as
Ġesp ace
uc ingen
Ġconnaiss aient
Ġcivil isation
Ġpoiss ons
s ous
al er
Ġcons entement
appr Ãªt
Ġrap ides
Ġcoul ait
ĠrÃ¨g les
Ġb aÃ¯
de dans
Ġex Ã©cution
Ã©m ie
Ġmort elle
Ġgu eux
Ġsouv enez
he im
ast iques
Ġprofond eurs
Ġrelig ieuses
ĠprÃ©f Ã¨re
ĠreprÃ©sent ait
A M
m oment
Ġd ig
ol et
Ġper ru
iqu itÃ©
amp h
Ġop Ã©ration
ĠtraÃ® ner
assi er
Ġfun Ã¨bre
Ġpois on
Ġadvers aires
Ġniv eau
m Ã©s
Ġp inc
ĠP i
Ġqursquo avait
Ġind iquer
Ġdom in
ĠSal omon
Ġappart enant
Ġadmir ablement
Ġmar teau
ins p
ĠdÃ©f aill
Ġpo Ãªle
Ġcommand ait
ĠvÃ©rit ables
Ġimmob iles
Ġinst it
Ġr au
Ġr ires
Ġcar t
Ġatt irer
Ġconf orm
Ġpauvre tÃ©
Ġrep ose
Ġdiv ert
ĠsÃ©par ait
Ġsrsquoin clina
Ġmach inalement
ĠIvan ovna
Ġoppos Ã©
Ġdiscip line
Ġp omme
ent housiasme
âĢ Ŀ
Ġv igne
al iste
ĠL aisse
onn iers
Ġapp Ã©tit
Ġtomb Ã¨rent
Ġdist rib
ĠdiffÃ©r ente
ĠRos a
ĠBeau fort
Ġpun ir
ĠrÃ©veill Ã©
Ġmass ac
T Ãī
r oge
Ã© rez
Ã® tre
aÃ® tra
ĠÃī tait
ĠÃ©g oÃ¯s
Ġac quit
Ġatta quer
ĠCol bert
Ġtrag ique
Ind ien
ĠDÃ©m Ã©trius
ĠGuer che
s ont
in cl
ĠC ON
ĠL ab
ĠdÃ©c is
Ġlrsquoh erbe
Ġref let
Ġmarqu Ã©
ĠBon acieux
ĠCr ois
ĠmÃ©l od
ĠÃ©par gn
Ġexclam ation
Ġc oule
et on
Ġliv rÃ©s
Ġag ent
ĠdÃ©b ord
ĠconsidÃ©r ait
Ġconst ater
Ġsaur ai
ĠÃ©pous Ã©
ĠÃ©toi le
Ġ and
Ġc Ã©leste
Ã¨ dent
Ġfort er
Ġviv res
Ġnombre use
ĠrÃªv erie
appar ition
Ġmill ion
ĠmÃ©ch ants
Ġattach Ã©e
berg iste
3 5
E l
Ġmal le
Ġfarde au
g o
re mp
Ã©t end
Ġre desc
ot a
enc our
Ġcondam nÃ©s
Ġadress Ã©e
hor reur
Ġtrott oir
f orm
Ġv Ã®nt
ĠR ou
Ġtourn Ã©e
Ġroug issant
' m
A IRE
Ġs cient
re y
Ġin ond
Ġcon cevoir
ill ages
Ġcomb in
Ġcouv re
ĠdÃ©cid Ã©e
Ġenne m
Ġregret ter
Ġband es
ĠdÃ©d aign
Ġtim idement
ĠpÃ©ch Ã©s
Ġcatastr ophe
s er
Ġt enais
Ġch ants
ĠP an
ĠrÃ©p ublique
int he
ĠdÃ©p Ã´t
Ġrais onnement
Ġtrait e
ĠpÃ©n it
accomp lir
ĠBen j
on ci
Ġn ar
ci a
att ente
ĠPar faitement
honn Ãªte
f orme
Ġu r
ant aine
ĠM agn
Ġpart ait
Ġob ject
ust ave
Ġcinqu iÃ¨me
ĠGe offrey
Ġjoy eusement
ulg ence
Ġnerv euse
ĠrÃ©clam er
Ġsrsquo Ã©te
Ġte inte
Ġmrsquo Ã©tait
aÃ® tr
Ġemp orter
Ġtranqu illes
Ġtrad ition
Ġattach Ã©s
ĠLis b
ĠDub ois
Ġfrac as
Ġl uis
or i
or k
ag an
ĠG ode
oint el
ĠdÃ©c oup
ĠI X
Ġhab illÃ©
Ġappr ocher
Ġid Ã©
Ġinstr uit
Ã©pend ance
e ille
f i
on omie
les se
ĠP R
Ġcomp liqu
Ġman usc
Ġlrsqu ousage
emp Ãªche
hui le
Ġpi Ã©t
iche le
ĠCoc onnas
U S
Ġs aill
Ġs aute
Ġa sile
Ġt itres
Ġf ab
ut ile
Ġcoup ables
Ġaut eur
Ġdest ru
Ġconj ug
r ov
is ons
ol o
ĠD Ã©c
Ġsrsquo empÃªcher
Ġcol lection
Ġdispos er
Ġconvers ations
Ġrelev Ã©
Ġal tern
dou ard
Ã® nÃ©
ĠH ier
itu er
Ġrapp orte
ĠAr r
Ġbris Ã©e
Ġsurveill ance
Ġboss u
v otre
Ġ irait
Ã©m ence
enc re
Ġtaille ur
Ġalli ance
ĠMax ime
or able
ĠN ik
Ġpart icip
Ġ3 0
ur iers
ĠC ou
ab ine
ic ul
Ġvoy ages
amb ition
Ġabs orb
Ġmanqu a
ĠAm Ã©rique
ĠdÃ©l ai
Ġredress a
Ġgib ier
Ġm o
av eu
Ġlrsquo ag
ab lÃ©
ĠN ucingen
ter min
ong es
ĠCh Ã¢teau
Ġvoul ons
Ġmin ut
Ġbout on
entend ais
Ġsacrif ices
Ġmena Ã§
Ġinterv alles
Ġg amin
al ais
ier ges
Ġsrsquo app
ĠT el
Ġca deau
Ġind ignation
Ġref uge
Ġfavor i
embl able
Ġrum eur
ĠrÃ©ch auff
b lÃ©
ĠR ub
ĠG rec
Ġappar ences
ĠBr own
ĠÃ©clat er
Ġdistr aire
j ourn
Ġp alier
Ġp ige
ĠC onv
ĠP at
Ġent ends
Ġcont ient
Ġcons iste
Ġinter dit
Ġcas que
Ġappar aissait
Ġpen chÃ©e
Ġaccompagn er
ĠprocÃ©d Ã©
s our
ĠC rÃ©
ĠL ud
ass eur
lic able
oci Ã©tÃ©
Ġcommand Ã©
Ġrepos ait
Ġrappel ant
Ġfi Ã©v
Ġcuis iniÃ¨re
dit h
Ġentour Ã©e
Ġcomplais ance
Ġs ain
Ġb ad
Ġvois ines
Ġsout enu
ĠdÃ©sesp Ã©rÃ©e
Ġmet tr
Ġillus tre
Ġfabri que
S t
Ġg aie
ĠJrsquo aurais
Ġver ras
Ġtromp Ã©e
ĠrÃ©sol us
Ġeffray Ã©e
ĠIvan ovitch
ĠdÃ©pos a
Ġaj oute
Ġs iennes
Ġt ienne
Ġpar ess
Ġin sign
ĠT emple
Ġenc omb
ĠÃ©c uyer
Ġes qu
Ġcl asses
Ġsign Ã©
Ġdom icile
ĠrÃ©g ions
Ġnrsquoai me
ĠÃ©lev er
Ġindiqu ait
ĠÃ©lÃ©g ante
ĠgoÃ» ter
n ette
ar b
as ie
Ġun ion
pr enez
Ġcor ne
ĠrÃ©s ignation
Ġsucc ession
Ġlrsquoex trÃ©mitÃ©
Ġrob uste
Ġachev er
Ġromp u
Ġcraign ant
Ġhard i
Ġvisit eurs
arra cher
oi vent
Ġpl i
Ġdis gr
Ġcomb ats
Ġmod es
ĠMal heureusement
Ġressembl ent
ĠBert ha
h Ã©m
Ġpour rons
Ġvers er
Ġlev Ã¨rent
Ġappr oche
ĠK n
entend ez
Ġpriv Ã©e
Ġsinc Ã¨rement
Ġrub an
Ġau berge
Ġsrsquo eff
ĠN orm
ĠH am
erv ille
Ġdo Ã±a
Ġrej oint
Ġdirige ait
Ġfr Ã©g
Ġall ure
all enger
Ġconf Ã©rence
Ġsal ons
env iron
Ġpress a
ĠÃ©clat ant
Ġhabitu Ã©s
Ġchass Ã©
Ġembr asser
Ġdrap s
ĠBath ilde
Ġcommerci ale
Ġl ande
el iers
mb les
Ġbr and
og ues
rit s
ĠI tal
ĠW e
enf lot
Ġor ph
Ġlit s
Ġconsid Ã¨re
Ġdress a
ĠrÃ©veill a
Ġmeurt rier
Ġvil ain
Ġc u
Ġcont rib
ing le
Ġport eur
ign ore
all a
ĠdÃ©f aite
ĠrÃªv er
Ġtravaill Ã©
Ġlrsquoab ri
Ġlrsquoam i
Ġparfum s
Ġhyp oth
ĠComp agnie
Ġvaud rait
ort Ã©
ass assin
ĠdÃ©f il
Ġcru autÃ©
Ġassis tÃ©
olog ique
M arie
y ch
Ġ err
re int
Ġr oche
que mment
ĠP omp
Ã©r aire
Ġrest ai
Ġcl oches
Ġappr Ã©h
Ġann once
Ġtard a
Ġappar aÃ®tre
ĠprÃ©t endu
Ġmyst Ã¨res
IL LE
g ri
Ġf al
ĠrÃ©p ons
Ġfin ie
Ġexp rim
ĠdÃ©f ens
Ġag itÃ©e
Ġroug eur
ĠÃ©lev Ã©s
aime z
Ġignor ance
accep te
ĠvÅĵ u
it i
Ġn oy
ĠC L
Ġmar is
ĠdÃ©p Ãªche
Ġlieu e
Ġref r
Ġinterroge a
Ġ âĢľ
Ġt iÃ¨
ar Ã©s
ĠF erdinand
ob us
ĠCh a
Ġemp ress
anne au
d ern
ĠÃ©t onnant
ĠV eux
Ã©l Ã©g
ĠprÃ©f et
Mal grÃ©
m ort
o ots
Ġm ouss
Ġn ier
ĠE mm
Ġdrsquo homme
Ġmal in
arr anger
Ġconf idences
Ġprof ess
Ġsucces sivement
Ġl ouer
as min
Ġpens ai
Ġpouss Ã©e
aul d
Ġfur ieuse
Ġrecommand ation
Ġressour ce
Ġmousta ches
Ġa Ã®nÃ©
ar res
Ġav ocat
Ġlrsquo aurait
ĠC ardinal
Ġall ions
Ãªt s
ust in
Ġsau rez
Ġlrsquoau berge
V al
p ers
Ġc Ã¢
re ction
Ġf Ã©vrier
tr Ã¨s
ĠI talie
Ġbl oc
Ġpropos er
Ġfun este
r aire
Ġr ange
Ġch Ã©ri
Ġpl ats
Ġsrsquo effor
ĠN aturellement
ter romp
Ġpart ant
Ġfeu illage
Ġaut eurs
ĠprÃ©sent ant
Ġcontr Ã©e
Ġpen chÃ©
Ġadm ettre
Ġcontent er
quis ition
ĠdÃ©sign ant
ĠCons tant
ĠentraÃ® nÃ©
Ġber ceau
Ġc is
ĠC Ã©cile
os ition
um er
Ġgrand i
Ġmont aient
embr asser
Ġpes ant
ĠMit ia
ĠB a
ve illes
Ġven ues
la ke
Ġsoup irs
ĠK it
Ġfront iÃ¨re
Ġment ir
Ġgromm ela
ĠPruss iens
M onsieur
en ier
Ġb ass
onne ments
ĠR askolnikov
ĠF ritz
ĠgÃ©nÃ©r ation
ĠDe vant
Ġvi z
Ġsub ite
Ġoccup Ã©s
Ġrempl ie
Ġaccompagn Ã©e
Ġconcl u
Ġsymp t
Ġassur ance
Ġsoum ettre
k in
on Ã§aient
el la
Ġo ctobre
Ġbou ger
Ġint imes
ach et
Ġlrsquoin c
Ġsy mb
mais on
Ġproph Ã¨te
p ot
t s
Ġpl ante
Ġlrsquo ancien
ĠC iel
ard i
Ġbr ume
Ġex asp
Ġcrois Ã©es
Ġco q
Ġinf ailli
Ġsacrif ier
ĠgoÃ»t s
ĠDix mer
c elle
Ġl ass
Ġm ousse
Ġsrsquo Ã©chapp
Ġdev iennent
ĠH ulot
ist an
ĠFr ances
Ġmarch andises
OU VE
Ġimpr ud
Ġpatri otes
Ġdistr action
ĠdÃ©mons tr
Ġge Ã´
ĠpÃªch eur
Ġpr i
ĠM at
ĠS y
ov ic
Ġconnaiss ons
ĠGe orge
Ġattent if
Ġsplend ide
ata cha
ĠGri ff
E L
Ġl ouÃ©
Ġj urer
ut te
ĠN ast
iss ances
ĠLa urent
Ġconv enait
Ġcrois Ã©e
ĠMon tre
gl out
Ġprov oqu
Ġtri c
Ġal tÃ©r
Ã©lev er
Ġrepar ut
Ġsame di
o ve
Ġb ab
ĠC lÃ©ment
oul et
Ġapp elez
Ã©tr ang
Ġcaus ant
Ġram asser
Ġcord i
oÃ® tre
Ġbag ue
Ġmob ilier
Ġt ol
ĠMais on
Ġan x
Ġtab lier
Ġcherch ez
ĠPlus ieurs
Ġmout on
ĠAllem ands
ĠcrÃ©p uscule
u elles
Ġp in
Ġv Ã©h
ĠN or
Ġcont rai
Ġcont enance
Ġmrsquo app
ĠbrÃ» lant
Ġtermin er
ĠBeau coup
ĠrÃ©vÃ©l ation
ĠImp ossible
Ġp Ãªche
Ġdrsquo Angleterre
emp orte
Ġexc Ã¨s
Ġtend ue
Ġlrsquoemp ereur
ĠÃ©tud ier
ĠÃ©lÃ©g ant
ĠchaÃ® nes
alt ation
ĠCra w
Ġtr ous
ĠH ein
ect or
acc ent
Ġred oubl
Ġexam en
ĠÃ©loign Ã©e
O S
Ġpar aissent
ĠrÃ©p ar
ĠCh Ã¢t
ĠmÃ© prise
Ġgagn ait
Ġmus cles
Ġachev a
ĠinquiÃ©t udes
ĠCour tin
ous teau
Ġdonn Ã¨rent
Ġmod estie
Ġtir oir
Ġfil et
Ġdescend irent
ĠrÃ©pons es
. -
m y
p ents
s ac
our Ã©
Ġh all
Ġlrsquo Angleterre
am ille
Ġar g
Ġcor nes
ade o
Ġbout ons
ĠlÃ©g ers
Ġvieilles se
Ġgren ier
Ġsouc is
T h
t Ã©e
Ġp ince
ent iel
au bon
ĠM osc
ap a
ĠF ais
Ġport ier
ĠdÃ©f i
Ġcontr ainte
Ġcouv rit
Ġtre mble
Ġpress er
Ġpure tÃ©
Ġf ui
rsquo en
Ġfin alement
Ġtrait ement
Ġpress ant
Ġpard onnez
Ġpil ote
ĠC opp
ins truction
Ã§a de
Ġfam ilier
Ġcan al
Ġroul ait
Ġrenvers Ã©
Ġblanch eur
Ġexpliqu Ã©
ipp olyte
t able
Ġsrsquo aperÃ§ut
ĠT adeo
gn es
Ġcas quette
oll y
ĠCl ot
Ġsoulev er
Ġplaisant eries
Ġprofession nelle
Ġsong ez
Ġent railles
ĠG od
ĠdÃ©p ouill
Ġad ieux
Ġfin issait
Ġple urÃ©
ule ux
Ġtort ure
ĠdÃ©ch arge
Ġjal ouse
Ġconcl ure
Ġlarg eur
Ġp omm
Ġc ueill
ĠM aman
aiss a
Ġca cha
Ġaff am
Ġcan apÃ©
ĠNic ole
ĠrÃ©pand re
Ġtroubl Ã©e
Ġprai ries
ĠdÃ©tache ment
Ġpud eur
B ien
i um
ment al
Ġpr enne
si fs
Ġmrsquo avoir
Ġid ent
Ġdisc r
Ġenvoy Ã©s
Ġpou ces
Ġappuy ant
Ġgentle men
Ġarra chÃ©
tra ordinaire
Char les
Ġr onf
Ġson ore
ĠB ou
ĠB ob
Ġdou Ã©
Ġprom ettre
Ġpo Ã¨tes
Ġjol is
Ġsy n
ĠprÃ©f Ã©rÃ©
ĠmÃ©d ic
Ġenvelopp e
ĠrÃ©guli Ã¨rement
Ġinatt endu
ĠRÃ©v olution
ĠL ady
ĠP il
ill Ã©es
ĠR ast
ĠG Ã©n
Ġon gles
Ġcoup a
Ġfl Ã¨ches
az ar
Ġrapport Ã©
ĠÃ©crit ure
Ġroul a
Pour quoi
Ġcli ents
espÃ©r ais
Ġpressent iment
v en
Ã© quemment
Ġm ans
Ã¨ nent
and ais
ig le
Ġsrsquo appelle
ĠR azumov
Ġam oureuse
Ã©v iter
Ġfa Ã§ade
Ġdrsqu oi
ĠCar ker
Ġlang ues
Ġlu eurs
Ġaccord er
ĠlÃ©gÃ¨re tÃ©
Ġvic aire
y g
ai x
Ġpl aie
Ġnrsquo es
Ġaur ai
Ġtravers ant
Ġdispar ition
Ġpress ait
Ġchange ments
Ġextra ordinaires
ĠEsp agne
Ġchiff re
f ut
is tant
au fr
ĠP ons
ens ions
heure use
Ġcontr at
Ġfou dr
Ġval oir
Ġvas tes
ĠprÃ©f Ã©rence
Ã©lev ait
oure uses
ĠpÃ©nible ment
ĠMin ne
ĠempÃª chÃ©
en ante
Ġav anÃ§ait
ouv ant
Ġsrsquo aff
ĠB ur
Ġex istait
app ui
ĠdÃ©c r
och ant
Ġretourn Ã©
Ġfi ancÃ©
Ġlorsqursquoil s
ĠPard onnez
Ġ Åĵufs
Ġnrsquo Ãªtre
ul ter
ĠdÃ©s appoin
Ġcri Ã©
Ġdonner ais
Ġgros siÃ¨re
off ice
Ġpuiss ants
ĠgÃ©nÃ© reuse
ĠrÃ©serv Ã©
Ġallem and
Ġterrit oire
p ersonne
in ie
Ġb uis
Ġdrsquo apprendre
che f
Ġlev ai
ĠÃ©n ig
ĠBons oir
ĠClot ilde
o Ã«l
Ġl ente
ai mÃ©
Ġlrsquo aspect
aut r
aut omne
Ġexp res
Ġcou ches
Ġvol ets
ĠPr ends
off en
ĠK azan
Ġred oub
ĠrÃªv Ã©
Ġsus pect
Ġmoul in
ÅĴ UR
ĠCas aubon
ĠMons oreau
B ientÃ´t
Ġg endre
al ogue
Ġlrsquo espace
Ġdrsquo al
Ġrev iendra
att itude
Ġfix a
Ġexcl us
m Un
n oir
p eur
Ã© re
Ġb en
ĠG an
Ãī v
Ġcompl ot
Ã©cl ai
ĠmÃ©ch anc
ĠÃ´ ter
ĠÃ©clai rs
Ġcig are
H Ã´tel
h Ã´te
i ches
Ġv ents
Ġav ancÃ©e
Ġne uve
Ġsa ch
Ġfr om
Ġdev inait
Ġhab ite
Ġver tes
exp lique
Ġcamp agnes
Ġdos sier
Ã©li a
Ġbag ages
Ġfonct ion
Ġfaill it
Ġirr itÃ©
clÃ©s i
Ġviz ir
3 6
s el
ĠCh Ã©ri
Ġcond ui
Ġinc om
Ġsalu ant
Ġloy al
c Ã´
Ġc ils
ĠM ik
Ġent iÃ¨res
ine c
Ġjus tes
ils on
ex emple
ex Ã©cution
Ġconf ession
Ġhabitu el
Ġdisp ut
Ġcompos ait
Ġinform Ã©
l as
al ys
ec clÃ©si
Ġbr ac
Ġpouv ions
Ġtou ff
Ġprom enant
Ġrend ent
Ġparl ais
Ġfac ultÃ©
Ġrencont rait
Ġtemp es
ĠBer tr
Ġtyr ann
d ic
Ġs or
Ġs ch
ĠA yant
Ġcol lier
Ġchar bon
ouff re
ĠmÃ©c onn
Ġcorrespond ance
D O
s ouv
Ġl or
ri de
Ġatt ribu
Ġbar reaux
ĠTr istan
cept eur
Ġval ent
Ġadm is
Ġmeu ble
Ġfatig ues
Ã©rid ion
r os
Ġrec ours
Ġdou bl
Ġpropos Ã©
Ġchant ant
Ġact ivitÃ©
ĠRen Ã©
Ġartic les
v enir
Ġqu Ãªte
Ġdu rer
ĠC amb
ic ules
ĠT oots
ul ations
Ġmurm urait
Ġdisting uÃ©
ĠprÃ©cÃ©d ente
ĠprÃ©occup Ã©
Ġassass inÃ©
Ġharm on
Ġutil iser
av age
Ġprod uits
onor Ã©
Am Ã©rique
Ġregagn er
ĠCraw ford
D E
Ġv ices
ant esque
Ġb ate
ap ais
ĠE ll
ĠH er
Ġsav ants
Ġconv ert
Ġeffray ant
ĠVers ailles
Ġl iÃ©
Ġt ac
as h
Ã¨ des
Ãª mes
Ãª ve
Ġfr Ã©n
Ġqursquo a
Ġchar ret
Ar amis
Ġlrsquoin connu
Ġvingt aine
ĠmÃ©r iter
Ġlog er
ĠCor entin
Ġut iles
Ġfamil iÃ¨re
Ġranc une
3 9
i pr
Ġv ale
ĠA ur
Ġren ommÃ©e
Ġcontr ar
Ġpat ernel
Ġsign er
Ġprend ra
Ġavert ir
ĠVer loc
Ġg ant
ri ra
Ġsol ides
Ġmer veilles
ĠdÃ©couv re
ĠdÃ©r ange
ĠmÃ©r itÃ©
Ġgui chet
hÃ©r it
ĠClar a
Ġcourtois ie
r oger
om mer
Ġdes quelles
ĠG ascon
Ġjou ant
Ġdo ct
Ġcommand a
Ġcach Ã©s
Ġindiqu Ã©
ĠdÃ©tr uit
ĠsrsquoÃ©loign er
ĠfÃ¢ch eux
Ġrecueill ir
el Ã©s
ĠL at
ill ent
Ġins inu
Ġcl in
Ġprom ettait
ĠpÃ©nÃ©t ra
Ġserr Ã©es
Ġaid Ã©
aun t
c ade
n y
an uel
te mp
ĠN atacha
ĠCh ambre
Ġbon jour
Ġcompr enant
Ġinj uste
Ġvig il
Ġtressaill ir
Ġgaz on
Ġsplend eur
ĠRom ains
Ġs otte
in quiÃ©tude
Ġdev riez
ĠdÃ©s astre
Ġaff ront
ĠI r
Ġsol ution
liqu ait
ĠlÃ¨v re
Tout es
Ġmaj oritÃ©
c is
ent rai
or age
Ġg ir
ic ol
ĠR este
ĠrÃ© veil
ĠdÃ©p oser
Ġmari Ã©s
ĠÃī l
Ġajout Ã©
Ġsac s
ri enne
Ġgr ains
ĠG ustave
ĠQu els
Ġinv itation
Ġajout ait
ĠsÃ©v Ã¨rement
ĠdÃ©sol Ã©
ĠÃīmil y
ĠChev reuse
ĠSil ence
r om
re uves
onc Ã©s
Ġjet Ã¨rent
Ġcharge a
ivid u
erf ield
Ġcath Ã©d
ĠBenj amin
autr ui
m t
Ġs rsquoins
Ġt ur
Ġpr est
Ġlrsquo Ã©tait
Ġlrsquo appel
Ġlrsquo Åĵuvre
am user
ĠD U
Ġsrsquo appuy
iss ants
Ġcor rig
ourd in
appr Ã©c
Ġarr ond
apercev ant
Ġsott ise
ĠintÃ© gr
Ġr approcher
Ġb uiss
ri ct
ĠS w
Ã©r Ã©es
Ġcomp tant
Ġrev inrent
Ġreste z
ĠdÃ©n ou
Ġdiffic iles
rec onn
Ġhauss ant
Maur ice
u ette
Ġp ieux
on y
ar p
ĠP ey
Ġdrsquo elles
Ġdrsquo exc
Ġpass era
Ã©l Ã¨ve
ĠCh allenger
Ġimp lac
ing es
de z
Ġlrsquo action
ĠE urope
Ġlrsquoab and
rid ge
Ġlrsquoatt endait
Ġmett aient
Ġmultip li
Ġt ar
Ġr Ã©tr
Ã¨ lement
ĠL ousteau
am m
Ġdrsquo annÃ©es
Ġman ie
Ġfond re
Ġnu que
Ġconc ours
Ġdrsquoh um
Ġdorm i
Ġdesse ins
Ġboud oir
ĠVen ise
a ques
Ġc ale
Ġa Ã¯
in clina
ĠÃ©t ernellement
att aque
pos itions
Ġgarn i
Ġaccour ut
Ġgend arme
Ġdistinc tement
ĠMod este
4 0
Ġr oches
or re
Ġmon ument
ex trÃ©mitÃ©
Ġchev au
ins tr
An glais
S ir
Ġ i
Ġv Ã´tres
Ã©t ail
ch en
ĠN athan
ĠprÃ©s erv
Ġcl assi
ĠprÃ©cÃ©d ent
Ġamb it
Ġobst acles
Ġdestin Ã©es
Ġb ret
ag el
Ġmont ure
Ġchar mÃ©
Ġhum ains
ĠchÃ¢ le
ĠLor raine
ĠexÃ©cut Ã©
Ġdor Ã©
Ġorig ine
agu Ã¨re
N otre
c it
Ġm eurs
ĠM ol
ĠR ig
Ġmar Ã©e
Ġfer aient
Ġvoul us
quel ine
appr is
Ġinf lu
ĠBr av
Ġir ons
Ġcontemp lait
Ġpure ment
Ġod ieux
Ã©tabl ir
ĠinfÃ©ri eure
Ġmonot one
Ġcompatri otes
Ġinsupp ortable
3 7
E lles
m Paris
Ġs ourn
is ent
is aient
Ġin Ã©v
ĠS uis
Ġad j
Ġlrsquoh iver
Ġbou cher
ĠMar k
Ġcoll et
Ġtransport Ã©
ĠCons t
ĠBert he
ĠFont enay
, âĢ¦
D en
Ġv Ã®mes
Ġf Ã©
ĠB lake
aiss eur
ante ment
Ġbl onds
Ġimm enses
Ġsignif iait
Ġspiritu el
Ġpendu le
it ez
mp Ã¨re
asse yant
Ġliv ide
Ġsauv Ã©e
Ġfrapp Ã©e
ionn et
Ġ18 6
Ġanim Ã©
Ġimag inÃ©
Ġallum Ã©
ĠgÃ©m issement
ĠPin ch
Ġlrsquoinf luence
ĠscÃ©lÃ©r at
ĠfrÃ©g ate
p orte
Ġser rÃ©e
ens itÃ©
ist ique
ĠCh ut
Ġab bÃ©
Ġcl ou
Ġ1 00
Ġjet Ã©s
Ġvol Ã©e
Ġsouff ler
Ġfant Ã´mes
Ġcord on
Ġinfin ie
Ġrenv oyer
ĠBuv at
r ot
est ime
Ġpl antÃ©
Ġregard ent
ĠÃ©p ars
Ġess enti
Ġanc Ãªtres
Ġfour r
ĠSch m
arch ie
Ġexemp les
m n
p res
u in
Ġs Ã©rÃ©n
an Ã§on
Ġn aufr
Ġch an
mp ieur
Ġdev ina
ĠG ra
Ġpos sibilitÃ©
off mann
erc ule
An toine
ĠrÃ©pand u
Ġparcour ir
ĠAg athe
sign ol
B l
ai mais
Ġf ich
Ġpar rain
av ert
Ġcap rices
Ġfigure r
ĠconsidÃ©r Ã©
ĠgÃª ner
Ġcul otte
ĠRÃ©g ina
ĠstupÃ©f action
Ġcray on
Har mental
G r
o lement
Ġl anÃ§ant
ĠrÃ©p Ã©tÃ©
ĠR ousseau
ass aient
ĠG erm
Ġconf ident
Ġsouff lait
ĠprÃ©cip itÃ©
Ġroul ant
ĠCl aude
b i
h es
m De
Ġsur prit
ĠP eter
Ġbout iques
Ġpat ernelle
Ġpoursuiv ait
Ġlrsquoent our
roi tement
Ã©loign a
Ġsui cide
Ġforter esse
a us
n aires
Ġn ou
Ġse mbler
av ouer
Ġapp ui
Ã©m itÃ©s
Ġsol idement
Ġextr av
Ġembr assa
Ġpist oles
Ã©prouv e
Ã©t er
Ġcar esse
if ie
Ġdemand es
Ġsous tr
Ġpos sibles
Ġouv rier
Ġtard er
ĠLrsquo homme
Ġcab ri
Ġforc Ã©s
Ġinnoc ence
Ġsoign er
l at
Ġd Ã»t
au jourdrsquohui
ĠM ichele
ĠS atan
Ġmat elot
An t
Ġsac rÃ©e
ĠrÃ©g ime
cept ions
Ġlrsquoemp l
Ġlumine ux
Ġnoct urne
Ġgreff ier
Ġbate aux
h t
h Ã´pital
m ag
Ġpar les
onn ais
ĠS her
Ġdrsquo attendre
Ã©n Ã©tr
Ġfer mes
Ġple uv
ĠpÃ¢ l
Ġsrsquoav anÃ§ait
ĠCond Ã©
l ame
Ġp itt
Ġf ic
me aux
Ġsrsquo appelait
Ġdev inrent
Ġfor ment
Ġcompte z
auc us
Ġdress Ã©
AN T
Ġreb elles
ĠIs abelle
ĠAuc une
Ġsentine lles
ĠGor enflot
ĠMosc ou
A utriche
n is
u els
Ġr anim
ĠP Ã¢
ic ieux
ĠdÃ©c ide
Ġesp ion
dem ain
onct ion
Ġbuiss ons
m Ãī
rsquo Ã©taient
Ġpl anche
ĠL amme
ĠN anc
Ġva che
ĠÃ©ch elle
Ġress usc
Ġ2 5
Ġendorm ie
Ġescal iers
Ã ĳ
ai gu
Ã©s il
Ġo f
Ġbr ouss
ign ons
Ġfl acon
Ġinsp irÃ©
jeu ne
ASS I
d or
en Ã§on
Ġr Ã¢
Ġtu Ã©s
ex Ã©cut
arr anti
Ġcl ub
ourd i
ĠlÃ©g is
Ġtent ation
Ġexam ina
ĠsrsquoÃ©t end
Ġinstall Ã©
J AC
i at
Ġp oup
rs ule
Ġr aide
ac Ã©s
si ves
ĠG uy
ĠPar fois
Ġrel ativement
ĠrÃªv eur
orde aux
ĠAtt ends
ĠJus qu
ĠrÃ©al iser
Ġfugit ifs
Ġboug ies
R oyal
qu Ã©e
Ġqu ad
et ier
Ġb eur
Ġpr une
am er
ul a
Ã©d Ã©
Ġcou des
Ġcrois Ã©s
Ġdesc ription
ĠK ar
onge a
ĠdÃ©ta cher
ĠAmÃ©ric ains
Ġfas cin
3 8
V I
Ġrev u
Ġrev iendr
Ġarriv era
ĠAu tre
aÃ¯ s
Ġrefus ait
Ġrass urer
arn ais
Ġmout ons
A ux
Ġp it
Ġp ussent
Ġou rs
ĠG i
Ġatt ends
Ġrend irent
Ġgros si
Ġterrible ment
ĠBl ond
Ġfranch i
Ġprouv Ã©
Ġillus ion
Ġtimb re
ĠbÃ» cher
Ġs itÃ´t
Ġf action
Ġpr ÃªtÃ©
Ġre mb
Ġ! )
Ġgr ade
ang ile
ĠdÃ©p our
Ġriv es
arriv ai
Ã©cl aire
Ġru elle
Ġhard ies
Ġsecr Ã¨tes
aimer ais
ĠGib assier
r ac
Ġv ir
al li
ĠM as
ĠD omin
ill ade
ert on
Ġexp ressions
Ġsc int
Ġresp irait
qursquoil s
ĠÃ©prouv a
ĠspÃ©c ial
ĠdÃ©velopp ement
ĠRose monde
ĠEntre z
ĠMousquet on
/ âĢĭ
d in
h ire
v oul
ĠP erse
si ne
Ġgr onde
ig ation
ĠT im
ĠÃ©p Ã©es
Ġlaiss Ã¨rent
appr ouv
ĠlÃ©g Ã¨res
Ġvict or
ĠsÃ©par Ã©
Ġprisonn iÃ¨re
ĠcoÃ» tÃ©
ribu Ã©s
oun der
ĠlÃ¢ cha
ĠÃīv idemment
l ises
ur rection
os Ã©
un ivers
Ġpouv iez
env oie
Ġmoyen ne
Ġact uel
ĠagrÃ© ables
Ġlis ant
Ġclai rs
R ien
in age
Ġvoy ager
Ġmont Ã¨rent
Ġsour ires
Ġconv enir
Ġprof ita
exp lication
Ġbal ay
Ġtemp Ã©ra
ĠhÃ©rit age
Ġexpri mait
emm ener
u Ã©e
Ġv ignes
Ġb Ã©g
Ġlrsquo animal
ĠL rsquoun
ĠN ointel
Ġex tÃ©rieure
Ġjrsquo entends
Ã©g alitÃ©
Ġcor p
Ġcroy ance
Ġprov isoire
Ġsuff i
Ġdemeur Ã©
ĠColomb an
g ypt
u ctions
is si
Ġpr iait
ĠÃ©t ages
ĠmaÃ® tr
Ġpersonne llement
Ġvol t
Ġbar ric
Ġretourn ait
ili ation
Ġaccord Ã©
ĠdÃ©pos Ã©
Ġramp e
ĠMagn us
c onc
n Ã©es
Ġt Ã¢ch
Ġdrsquo art
Ġdi ab
ici lement
Ġrest ant
Ġchois it
ĠtraÃ® nant
adress ait
Ġsrsquoin cl
Ġlrsquoass assin
Ġlourde ment
Ġsrsquoex clama
orig inal
Ġtra jet
Ġabomin able
ĠLud ovic
Ġinsign if
Ġl imp
or ient
Ġen quÃªte
tr ode
Ġcont er
Ġmrsquo Ã©criai
Ġtromp ait
Ġli aison
hum eur
ĠrÃ©pand it
ĠCam us
uls trode
ĠdÃ©pens es
Ġsoum ission
ĠJus tement
g ard
Ġp ac
Ġr ong
Ġam er
Ġessay ons
ĠÃ©troi tement
Ġrau que
Ãĳ A
ch estre
ors e
Ġsub i
Ġextr Ã©mitÃ©s
Ġrappel Ã©
Ġconsent it
ĠlrsquoE mpereur
ĠconÃ§ u
Ġrempart s
Ġcoquet terie
Com ment
Ġhuguen ots
ĠRast ignac
b a
Ġp endait
ou dr
ar che
ar bres
Ġg isait
al isme
ĠB ref
ord onn
iss Ã©
arr ange
Ġad ouc
Ġ1 1
Ġfum er
Ġinsp irait
Ġsusp endue
Ġvac ances
ĠfiÃ¨re ment
ĠFrank lin
ĠNik ol
ĠmÃ©chanc etÃ©
Ġextrav ag
j ol
w ton
y se
Ġt act
au be
Ġpar tez
ag eusement
ig ine
ĠÃ© quipage
rai lle
ins on
Ġrev iendrai
Ġacc ablÃ©
ib us
Ġpropre ment
Ġprend rai
Ġpoign et
Ġconsent i
Ġber ger
ounder by
E T
ĠM c
os ier
os itÃ©s
ĠS erv
li eue
Ġnrsquo ait
ĠH are
int on
emp ire
ĠAu jourd
Ġoubli Ã©e
ĠprÃ©t endait
Ġfant astique
Ġbons oir
Ġgrac ieusement
ĠprÃ©occup ation
ĠSm ith
ĠFiodor ovitch
ĠM idi
Ġpass ai
Ġ1 2
Ġrac ines
Ġaccept a
ĠdÃ©put Ã©
Ġgig antesque
averne y
ĠCarm Ã©lite
ĠfÃ©c ond
ĠtiÃ¨ de
c elui
d Ã©
i aire
el aine
in ations
in Ã©ment
av re
ĠS Ã»
Ġsais is
Ġsol enn
Ġemp Ãªche
Ġrou e
Ġgl obe
Ġpard onn
Ġprend rait
Ġhur la
Ġavert i
oubl iez
Ġbuv ait
Ġinconv Ã©nient
s u
Ġl ic
qu Ã©s
ant ique
Ġg age
Ġdu rs
ĠS arranti
ess ayer
ĠW ilson
Ġcess ait
Ġatte ignit
Ġmaud ite
ĠXV I
Ġros Ã©e
Ġvaill ant
ĠÃ´t a
Ġsolenne lle
Ġsouterr ain
Ġintr Ã©p
Ġd omp
Ġs rsquoimag
ĠC ur
Ġbien fais
ande z
Ġacc usÃ©
ingt on
ult ure
Ġprod igu
onge ant
Ġlarge ment
f red
u en
Ġlrsquo espÃ©rance
ad Ã©
ass Ã©es
ĠG all
ĠrÃ© ception
Ġcri aient
Ġsoir Ã©es
Ġadm irer
mm dash
Ġlrsquoav ent
Ġmanqu ent
Ġmange ait
IL L
Ġlrsquoabs ence
f eu
t te
Ġc ouvertes
Ġqu al
il p
ĠL ap
Ġsur p
Ġgr Ãªle
Ġeff roi
ĠPar bleu
ĠâĢĵ ,
Ġoccup ations
Ġpartic uliers
ĠbÃ¢t i
Ġlrsquoar bre
Ġferm Ã©es
Ġmalad ies
Ġmend iant
Ġsurn ature
A g
f ond
l ande
Ġf uss
ĠS ais
ĠD erriÃ¨re
id Ã©ment
ĠÃ©p is
fin i
Ġcent aine
Ġarch ers
Ġsubst ance
Ġrefr oid
Ġd at
re lle
Ġb asses
Ġav ril
Ġacc ueil
Ġmis es
Ġbout s
ĠDe v
ĠAn gel
ĠrÃ©c lame
Ġpress ion
OU R
Ġdress ait
Ġglor ieux
Ġincess amment
JAC QUES
er me
Ġf lÃ©ch
is Ã©es
Ġch ou
Ġbr an
Ġam Ã¨ne
Ġret enait
Ġren oncÃ©
ell o
Art h
Ġfix ant
Ġrempl is
attend aient
Ġrom ans
ĠChrist ophe
Ġpatri ot
mE books
Ġassembl Ã©e
Ġdet te
Ġchal oupe
ĠsÃ¨che ment
m Qu
ic itÃ©
Ġsais ie
ib ot
Ġver rait
Ġfol ies
Ġouvert ure
Ġvari Ã©tÃ©s
rsquoign ore
M oi
k ine
t el
Ġv oÃ»
ĠB ounderby
imp atience
Ġfer mait
ĠdÃ©p ar
Ġfin es
Ġgl acÃ©
rig ue
az ur
oise ment
Ġart if
Ġsaut ant
Ġcad re
ĠdÃ©termin Ã©
Ġlrsquoaut eur
Es prit
ĠHoll ande
Ġcrist al
ĠGabri el
Ġsor ciÃ¨re
DO ÃĳA
Ġl ot
Ãª chÃ©
Ġe Ã»mes
ĠÃ© lÃ©ment
Ġcons truction
Ġporte z
Ġserv aient
Ġtre ize
Ġbrig and
ĠsrsquoÃ©lev ait
en Ã©e
ur n
au mes
Ġpl aid
Ã©r ences
id d
op Ã©ration
ĠCh ine
Ġsort ent
mer ais
ĠÃ©g arÃ©
Ġinf id
Ġhum ides
Ġdom inait
ĠprÃ©t ention
ĠdÃ©finit ivement
Ġcigaret te
Ġs orc
Ġent rÃ©s
Ġnon chal
arg ne
Ġcontinu ellement
Ġprov inces
occup e
Ġpromen ades
Ġvoud riez
Ġhorrible ment
ĠPerc ival
c rsquoÃ©tait
Ġ ois
Ġb assin
al a
ĠL oire
Ġpro gr
ĠW ink
tÃ©ri eurs
ĠcrÃ© er
ĠdÃ® ne
ĠsÃ© lection
ĠpropriÃ©t Ã©s
Ġdir as
Ġposit ivement
ĠLong ue
Ġral ent
l ets
Ġm iel
Ġb ous
ap illon
ut h
Ġgr og
Ġsrsquo acc
ĠrÃ©p lique
anc re
Ġver r
Ġinf ortun
aÃ¯ de
Ġpen ch
Ġproc ur
Ġrespect ueux
ĠespÃ©r ant
Ġsatisfait e
Ġlun di
ĠExc usez
Ġvib r
ĠKe inec
ĠConse il
Ġn age
al ait
ri mait
ĠL Ã©g
ĠP op
Ġenc ad
Ġrem ettant
ĠW ick
ĠrÃ©c ipr
Ġsign ific
Ġram ena
Ġresse mbler
Ġrempl issait
Ġus Ã©
ĠmÃ©n ager
Ġallum a
Ġbiz arres
Ġenn uis
ĠAlex andre
Ġsanc tu
ĠColl in
ĠcathÃ©d rale
l rsquoin
ĠM au
ĠC onc
Ġin sec
ac cept
Ġam ertume
Ġmrsquo empÃªcher
Ġlaiss ons
Ġor nÃ©
Ġinv inci
Ġtromp ette
ĠrÃ©sol ue
Ġ2 00
Ġatta quÃ©
ĠY v
Ġdestru ction
on es
Ġb ah
ĠrÃ©pond ant
ĠLa ur
Ġman oir
Ġcol lÃ©
gr is
Ġcontr act
atri x
Ġvoudr as
ĠÃ©tabl issement
Ġbre bis
ĠM un
Ġlrsquo avant
Ġlrsquo ouvrage
Ġcon quÃªte
ĠT it
app es
Ġsens ations
Ġcaus aient
olog iques
Ġrepouss er
Ġjup e
ĠdrÃ´ les
A ignan
Ġf ers
Ġsa cc
ĠdÃ© te
ĠB ulstrode
auv es
Ġcri Ã¨rent
Ġnom mÃ©e
Ġcor romp
Ġdiff icilement
Ġno ce
Ġressembl aient
Ġassur Ã©e
entret enir
l omb
ai mÃ©e
rsquo s
est i
ĠM AÃİTRE
ĠS ociÃ©tÃ©
Ġsrsquo endorm
ass an
Ġserv ant
Ġsouv ient
Ġsp ont
ĠK ol
Ġcab ine
ĠPard ieu
Ġtim iditÃ©
ĠdÃ©liv rance
Ġdistingu ait
rÃ©p ond
Ġsollic itude
Ġcourtis ans
Mac aire
M iss
Ġr udes
ont ine
oy euse
Ġqursquo aucun
Ġfer v
ĠPar mi
Ġad v
aud s
Ġcroy aient
Ġram assa
ĠconsidÃ©r ables
oth er
Ġjournal iste
ĠrÃ©public ains
ĠStÃ©pan ovitch
Ġpres by
D I
m ou
o j
Ġdu e
ĠS ara
Ġou Ã¯
app eur
ct rice
Ġreconn ue
ĠGr os
Ġsign ification
Ġsac rist
Ġbal ance
ĠcrÃ© Ã©
Ġbrill antes
Ġais Ã©
Ġcat Ã©gor
ĠÃ©clai rait
ĠrÃ©volution naire
aug ment
vingt s
Ġsat in
ĠintÃ©gr itÃ©
ĠWink le
Ġv ifs
ĠM aude
ĠP ast
aiss ons
Ġ18 9
Ġbure aux
Ġmir ac
ĠGl aucus
Ġcroir ait
Ġconsp iration
ĠmÃ©dioc re
b ury
d iff
Ġl aide
ĠP ic
Ġnrsquo ex
Ġvers a
Ġvers Ã©
ĠEn t
Ġmat ernel
Ã©li bat
Ġhu mblement
ĠGode froid
m ain
ou in
Ġc lÃ©
Ġa Ã®n
mp ar
ol iv
ĠS Ã©r
ĠD in
aiss Ã©
iss a
onc tu
ĠG oul
Ġall Ã©g
Ġarriv Ã¢mes
act ivitÃ©
Ġfeu tre
ĠÃ©g lises
Ġproc ession
Ġeng agement
olog ne
accord er
Ġsab ots
orig ine
Ġlent eur
ĠRem y
n otre
ĠN eu
Ġai gre
ĠQu elles
Ġpers Ã©v
ade moiselle
ĠmÃ© pr
Ġpromen a
ĠÃ©loign Ã©s
Ġgarn ie
Ġexac te
Ġimpr ov
Ġperp lex
Ġremerci a
ĠRoy ale
H Ã©lÃ¨ne
au ve
Ġpas teur
Ġh aies
ut s
ers ion
ĠrÃ© gl
Ġvie ill
Ġrev ins
chev Ãªque
Ġcoqu ette
ĠSar ah
ĠLisb eth
Ġpl age
Ġdrsquo I
Ġdev in
Ġhaut eurs
Ġmanqu aient
Ġignor ant
Ġmob ile
o quet
Ġr ides
ĠM arg
Ġcomp tÃ©
Ġjusqursquo alors
Ġrent es
Ġpropos itions
Ġgent ille
exc user
Ġsrsquoass urer
oly mine
rÃ©d Ã©ric
Ġ ecclÃ©si
Ġj rsquoirai
ard o
ic le
ess uy
Ġcons erve
Ġimp Ã©t
ĠrÃ©s idence
Ġpo Ã¨me
Ġlrsquoex am
Ġinj ures
Ġhard iment
Ġbrig adier
Ġperc er
ĠFel ton
m Tout
Ġs omp
er on
ĠC amp
mp our
Ġtomb Ã©s
Ġcou d
Ġrend ra
ĠsÃ© cher
ĠfÃ¢ch Ã©e
ĠdÃ©rob Ã©e
ĠVirg inie
m que
Ġsou cieux
Ġlaiss ai
ĠÃī douard
ann once
ĠBr ouss
Ġcaus a
ĠChar lot
Ġproc ure
Ġlrsquoex emple
Ġtrah i
ĠcoÃ» ter
ĠJu an
Ġvant er
A s
l ys
m Mais
Ġp aill
on z
on Ã§
it ecte
Ġr approcha
de x
ĠE T
Ġma x
ci f
ĠG auv
Ġconf use
ĠX X
ĠreprÃ©sent ation
qu ant
ir ons
ĠC ir
Ġsrsquo Ã©p
ĠT averney
Ġfr Ã©quemment
Ġcomp arer
ĠSa x
Ġrel ation
ĠdÃ©g ager
Ġlrsquoex Ã©cution
Ġfaible ment
ĠSeigneur ie
ĠFou g
ĠSu pp
Ġstat ues
Ġrub ans
Ġlamp es
ĠCamus ot
S eulement
c ale
ĠM uire
Ġpl u
ois es
ĠP et
oc ch
Ġlrsquoh Ã´te
Ġparler ai
ĠAl ph
ĠrÃªv ait
dis ant
jrsquo ai
Ġlrsquohum anitÃ©
d ite
Ġc assÃ©
re in
Ġa ler
Ġn aguÃ¨re
Ġb omb
ri ques
erre ment
Ġtravers Ã©e
ĠsÃ©ri euses
Ġrappel ons
ĠÃ©trange ment
fort un
aperÃ§ ois
Ġcompos Ã©e
Ġguer res
Ġproport ion
s uis
w orth
Ġpour ront
ĠP o
ut t
Ġent housias
Ġam Ã¨rement
Ġat mosphÃ¨re
Ġmont raient
Ġlrsqu oimag
Ġcond uits
Ġbatt it
Ġlis iÃ¨re
Ġlim ite
Ġcler gÃ©
ĠConstant in
p ic
ent ine
Ġr upt
Ġlrsquo Ã©gard
Ã´ tesse
ĠF auv
rÃ© v
Ġdemand Ã¨rent
Ãªt etÃ©
oc itÃ©
Ġter rif
Ġac qu
arrÃªt ait
Ġpal pit
ĠgÃ©m issements
Ġloint aine
Ġcot on
m On
Ġm ouche
Ġb uste
Ġg ages
Ġch en
ĠC ibot
Ġdrsquo ad
ĠH ood
RE S
ĠAl an
Ġang oisses
Ġtort s
ĠÃ©nerg ique
ĠHug h
c ela
f l
g ue
Ġl asse
Ġf estin
Ġg ouffre
ĠF al
Ġdonn ai
ĠQu ilp
Ġarr anger
Ġpo Ã©tique
Ġrencont rÃ¨rent
Ġvolont Ã©s
B r
J amais
f or
r ogne
Ġf Ã¢cher
Ġre ch
Ġgr in
lle yne
Ġex il
ĠF av
att ait
Ġren once
Ġtomb ent
Ġjou eur
ĠW eller
ĠÃ©g ards
Ġtal us
Ġproph Ã©t
Tr ois
Ġtourb illon
Ġps ych
Ġincom prÃ©h
l endemain
Ġs of
Ġf onde
Ġla ver
Ġr h
Ġpar all
Ġson ne
pr om
Ġfut ure
Ã©v Ãªque
appr end
gr u
Ġgros sier
Ġarr angÃ©
ouill on
Ġexam inÃ©
ĠLor en
ĠrÃ©vÃ©l Ã©
Ġlourd s
Ġmou ches
Ġliqu ide
Ġglac Ã©e
Ġenter rÃ©
Ġperru que
b igh
qu ins
Ġm Ã¢le
el ets
ri el
Ġlrsquo esc
Ġin grat
Ġsent ence
Ġemp ire
Ã¯ n
gr ande
Ġresp ecter
Ġservi ette
Ġrenvers a
Ġcoqu ins
ĠlrsquoÃī glise
ĠfÃ©ro ces
ĠMousquet aires
Ġcaill oux
Sal v
Ġscient ifique
ĠCopp erfield
ĠdÃ©par tement
Ġf oin
Ġn oyer
ĠJ up
aut or
Ġmar quer
Ġnature lles
Ġplais ante
ĠPh ilipp
ript ions
ĠdÃ©liv rÃ©
Ġoppos Ã©e
ĠirrÃ© g
ĠlÃ¢ch etÃ©
Mart in
ĠÃ©goÃ¯s te
Ġnar ines
Ġdoct rine
ĠNikol aÃ¯
Ġsanctu aire
k en
m un
m II
Ġj ac
Ġn ain
Ãª cha
ĠL ambert
ang ue
Ġmal aise
Ġcons istait
ĠÃ©c artÃ©
ĠLa quelle
Ġsec ourir
Ġconf ort
Ġcontr ari
tÃ©ri eures
ĠrÃ©v Ã©rence
Ġaccomp l
Ġcommun es
Ġ2 8
ĠconsidÃ©r a
Ġart s
ĠmÃ©r itait
Ġcondam ner
Ġconsent ir
Ġassoci Ã©
Ġatr oce
Ġimper ceptible
C atherine
h ar
Ġd en
Ġp or
ou tre
in j
Ġpl ains
ill o
app orter
Ġtrouv Ã©s
Ġfl at
Ġtrou bles
Ġmus ic
Ġenvoy ait
Ġparticuli Ã¨res
Ġrang Ã©es
Ġachev ait
empl oyer
Ġassi ette
Ġaccoutum Ã©
Ġfauss es
Den is
j a
u ait
Ġr hum
ĠB oh
tr ouver
ĠR Ã©
ĠH or
ĠÃ©c ri
ĠLa mpieur
Ġdirige ant
obÃ© issance
Ġhont euse
j oie
Ġh ang
st one
ann oncer
ĠbÃ©n isse
Ġpassion nÃ©
Ġcraign ais
Ġprivil Ã¨ge
Ġfrot tant
ĠMord aunt
P eut
Ġv eau
in os
ur ies
ĠB an
Ġins ensÃ©
Ġrev enaient
ĠI er
occup ait
Ġremarqu ai
Ġact uellement
Ġesc orte
ache min
Ġpa quets
Ġpes ait
Ġsuppli ant
Ġinvolont airement
Ġmassi f
Ġoubl iez
Ġgriff es
agel onne
C eux
U X
s Åĵur
ou y
ĠÃ©t onnÃ©s
ĠV ingt
Ġfor est
Ġatt rib
Ġhab itÃ©
Ġjet ai
Ġjet aient
ĠJac queline
ĠrÃ©sol ument
Ġsout enait
Ġfau ve
Ġ19 0
IRE S
ĠÃ©qu iv
Ġlrsquoim age
Ġl ions
Ġf Ã®mes
Ġav oue
ĠM ans
ĠÃ©t ats
am ond
ess ions
Ġcar reaux
Ġab us
Ġhab iter
Ġoff ensÃ©
ĠdÃ©b at
Ġlrsquoar riÃ¨re
Ġard ents
Ġsangl ante
ĠGrand et
Ġconj ect
pent ier
Quel que
Ġador able
ĠcommenÃ§ ai
ĠgeÃ´ lier
n et
y mp
Ġc Ã©libat
Ġv ex
ut rice
Ġcon qu
Ġtu li
ĠÃ©c u
ĠÃ©c ol
if iÃ©e
ĠÃ©p reuves
Ġco gn
Ġbless Ã©e
Ġdispos Ã©e
Or lÃ©ans
eng ager
observ er
Ġcalcul s
Ġexpl os
Ġcop ie
add les
Ġinn ombrables
ĠcÃ©rÃ©mon ies
Ġeuss iez
P eu
h an
id Ã©es
Ġatt ente
Ġgl aces
Ġpat te
Ġatta cher
ĠcÃ©l Ã¨bres
ĠMarc el
Ġchauss Ã©e
ĠRuss es
ĠrevÃªt u
ĠBlond et
E gypte
M es
Ġs ors
an Ã©e
Ġv ar
Ã©t ouff
ĠA t
ĠD am
Ġdemand aient
Ġab ri
la Ã§a
erc er
Ġemb ras
Ġadress a
ĠdÃ©sign Ã©
Ġquitt Ã©e
ĠÃ©touff Ã©
ĠprotÃ©g Ã©
ĠVend Ã©e
Ġdistin ct
Ġplonge a
ĠvÃ©n Ã©rable
ĠRoch elle
ĠÃ©tourd i
ĠbÃªt ise
pouv ait
mÃ©di aire
Ġennem ie
z iÃ¨me
ou illes
Ġt entes
Ġf illette
Ġr anger
Ġb os
Ġh om
Ġtr Ã©b
ĠG olymine
Ġcor be
Ġcol port
Ġbl Ãªme
ĠFr Ã¨re
omm ode
Ġgl issant
uc ke
Ġvit re
Ġbe autÃ©s
ĠÃ©clat ante
Ch acun
Ġrang Ã©e
Ġferm ant
Ġromp it
iche gru
ĠtempÃ©ra ment
z ade
Ġs omn
Ġm Ã©ridion
onn Ã¨rent
Ġfr Ã´
Ġcont enant
aÃ® trait
Ġpos ait
Ġmat ins
Ġsuiv ent
Ġrel Ã¨ve
Ġ2 4
Ġlrsquoam itiÃ©
ĠfraÃ® ches
Ġvig oureusement
Ġsuppos ant
ĠBab yl
Ġbeur re
Ġc ouver
ri ole
av ancer
Ġlrsquo espÃ¨re
ĠP ouv
ot ait
Ġbr ute
Ġas c
ĠÃ©c ole
ĠLa ura
Ġprof il
Ġgu illot
Ġfeu illet
Ġgl issait
fait es
Ġcontr ac
Ġretr ouss
Ġlib ert
Ġdout ais
Ġact uelle
Ġchois is
Ġciv ile
Ġparcour u
Ġmens onges
Ġroule ment
ĠÃ©vanou ie
Ġinvolont aire
Ġrupt ure
b ois
Ġp ique
Ġen iv
Ġpl aines
ĠL IT
ĠD o
Ġcar av
Ġall Ã©s
oc rate
Ġacc orde
je an
Ġsoup le
ĠrÃ©g iments
Ġsy ll
Ġfour reau
Ġcherch aient
ĠentraÃ® ner
Ġprat iques
Ġloy autÃ©
Ġrefl ets
ĠSouv ent
c as
m iers
Ġdrsquo air
ĠR est
ĠF AIRE
Ġcar reau
Ġdemand ent
Ġsent iers
Ġmin ces
Ġrou x
ĠAn t
off rait
Ġlang uiss
Ġcli mat
ĠvÃªt us
ĠintÃ©ress Ã©
Ġaffir mer
Ġcouch Ã©s
Ġtroup eaux
Ġparap lui
Ġincont est
an ime
Ġre ct
Ġh uss
ol le
ĠD Ã©r
ĠD esc
Ġpart ons
ĠdÃ©s hab
Ġcol onie
Ġbl Ã¢me
ix iou
oles cent
Ġresp lend
ĠBr ad
Ġoccup e
Ġatte inte
In de
Ġamen a
Ġsurv iv
Ġinvent Ã©
ĠBÃ© atrix
E h
m ant
on fort
el d
Ġav anÃ§a
Ġch Ã©r
Ġcons omm
Ġret enue
Ġrem onte
la Ã©
Ġhab ilement
Ġrend is
Ġform ant
Ġment i
Ġtab ou
atta quer
Ġspiritu elle
cli ff
ĠBrav o
h l
o Ã®t
x c
Ġqu as
it oyens
Ġn ues
Ġr approche
Ġb Åĵufs
Ġpar ois
Ġpar alys
em men
ĠN OUS
ong ez
int endant
Ġviv aient
ett y
Ġpoursuiv i
ĠAd olphe
Ġfavor ite
ĠEx p
Ġfonct ionnaire
ĠgÃ©m it
Ġcath oliques
Ġbrav ement
euille z
ĠsrsquoarrÃªt Ã¨rent
' d
Ã©t endue
ot ter
Ġatt ir
aill er
Ġir onique
Ġop Ã©rations
Ġpal p
Ġhur lements
Ġdor Ã©e
add in
ĠCON N
Ġmanusc rit
c ription
d om
d ale
f ant
on orer
Ġlrsquo Ã©clat
am use
Ã©c iles
Ġtout s
Ġcar ref
ĠH ector
Ġper Ã§ant
ĠK at
erÃ§ ait
Ġmod ernes
Ġang le
Ġble ues
Ġentend us
Ġpi Ã©tÃ©
ĠsÃ©v Ã©ritÃ©
ĠBel la
ĠsÃ©rÃ©n itÃ©
Ã© ens
Ġv Ã©t
ĠC orm
ĠE lizabeth
ĠA ID
Ġsu c
Ġmrsquo acc
Ã©g al
Ġass aill
ĠdÃ©t este
ĠMar ande
ĠÃ©crit s
Ġimport antes
arm ac
Ġru inÃ©
Ġant Ã©ri
ĠpÃ©r ille
Ġrepouss a
imm ense
ĠWest on
Ġlocat aire
m outh
en fin
Ġr usÃ©
Ġch ron
Ġh y
Ġme rs
ĠA ch
Ġsrsquo Ã©vanou
Ġren ard
aur ore
Ġcontinu Ã©
Ġid iot
Ġmurm urant
erm ine
ĠprÃ©cip iter
Ġeng end
oubli erai
Ġveuille z
Ġrestaur ant
ĠprÃ©jug Ã©s
TÃī RA
a Ã«
ĠM aug
ĠC ES
ĠL up
ĠS ant
ĠS treet
ĠV II
Ã©g oÃ¯sme
Ġaut om
ath cliff
An ge
Ġbless er
ĠmÃ©d itation
Ġportrait s
ĠÃ©pouv antÃ©
Ġpros ter
appart ient
ĠFranc is
Ġrasse mbler
Ge orges
ĠLIT TÃīRA
Ġd us
eu ss
ĠL ec
ic is
Ġsrsquo emb
id on
Ġmal trait
ra ham
Ġpos tes
tu euse
ĠBr agelonne
Ġsatisf ais
Ġcontemp lation
Ġfranch it
Ġlourd es
ĠnaÃ¯ v
Ġscrup ules
ĠmÃ©f iance
Ġattache ment
ĠCL ASSI
O Ã¹
Ġs arc
Ġpour ras
uis aient
Ġnrsquo aur
auv el
ex te
Ġliv rait
Ġprov erbe
RE M
oud al
ĠAs se
Ġdestin Ã©s
ĠXV III
Ġjoign it
Ġfrom age
r Ã©c
Ġn uire
Ġdu pe
ĠB ixiou
ĠF ig
ĠF rÃ©dÃ©ric
Ġmes urer
Ġdi alogue
Ġpens ent
ust rie
Ġpleine ment
Ġsin ge
Ġconduis ant
Ġdisting ue
Ġmir acles
Ġw eb
Ġaffect ueux
Ġinform atique
ĠdÃ©mar ches
ĠRoch ester
ĠGriff ith
Ġhardies se
ĠCLASSI QUES
M ichel
M arguerite
Ġp oule
Ġv ocation
Ġen ce
ĠL an
ĠP OUVE
ĠA mbr
ĠB ourd
im ovitch
Ġrec r
Ġjou issait
ah oo
ĠdÃ©sir ais
Ġrecher cher
Ġarm oire
Ġfriss onna
ĠdÃ©rob er
Ġnat ur
Ġsympt Ã´mes
ĠCONN AÃİTRE
ĠAID ER
ĠLITTÃīRA IRES
ĠPOUVE Z
Ġm Ã¢
in ier
am ois
ĠB ac
ĠrÃ©p ondez
ul tes
app ort
Ã©d ier
Ã©d ictions
Ġlaiss Ã©s
Ġab Ã®me
Ġrac es
ĠprÃ©v iens
Ġmag ique
Ġos er
ĠcÃ©d Ã©
Ġbrut al
Ġassass ins
Ġspec tre
qu a
ou dain
Ġt urb
Ġt igre
Ġpr iant
ui le
ĠÃ©t endant
Ġsa chez
ĠD iv
Ġeff le
Ġple ura
Ġpays anne
Ġprofond s
ĠÃ©m ig
Ġdispos Ã©s
ĠnaÃ¯ f
Ġfri p
Ġdrsquoint Ã©rÃªt
ĠPavl ovitch
ĠEr n
Ã©vÃ© nement
s ort
Ã©r y
ul Ã©e
Ġdi zaine
ĠCh al
Ġacc lam
ĠTu il
Ġpubli ques
ĠchÃ¢ teaux
Ã¨g es
Ġaveu g
ĠDor a
Ġchans ons
Ġproport ions
ĠnaÃ¯ve ment
en Ã§
Ġc asse
Ġm Ã¨che
er ra
ĠA c
aill ons
ĠW ood
Ġprom ouvoir
Ġpuiss iez
Ġassis es
Ġjoign ant
ĠQuelque fois
Ġexces sivement
w ig
z ac
in trod
Ġj Ã©s
Ġr aid
Ġsi eur
ĠD ante
Ġcr oupe
ass ure
ass iez
Ġcont entement
aÃ® tres
Ġimp Ã©nÃ©tr
Ġrec ueilli
Ġman Åĵuv
Ġint im
Ġay ons
Ġtri ple
Ġmus icien
Ġarra cha
Ġorgan es
ĠlrsquoE urope
ĠintÃ©rieure ment
ĠrÃ©t ribuÃ©s
Ġdoc ument
Ġsacrific ateur
Ġsolenn itÃ©
ĠLaur ence
A yant
Ġl ier
il as
Ġch ic
Ġlrsquo opinion
ĠB as
onc es
ĠCh e
Ġrest erait
Ġhab iles
ĠdÃ©f aire
ĠBr Ã©sil
Ġnu ance
Ġaccomp agne
Ġmanif este
ĠmatÃ©ri el
Ġconstr uire
ĠapprÃ©c ier
orre ctions
Ġsoustr aire
d Ã©f
ri mÃ©e
onn iÃ¨re
ac ieuse
ter ies
Ġtu y
Ġapp ellent
ĠdÃ©s ord
Ġconv oi
Ġmen Ã©
ĠBr ass
ĠbÃ¢t ir
ĠÃ©crit es
Ġquin zaine
ĠcÃ©l Ã©br
Ġlrsquoenv elopp
escl avage
Ġrespons able
ĠmÃ©cont ent
Ġvolup tÃ©
Ġiss ue
Ġs Ã¨ches
ĠC revel
Ġsrsquo arrÃªtant
Ġcr oc
anc ent
Ġcour ageux
ov i
Ġmin es
mC rsquoest
Ġnour ri
ĠbÃ©n i
Ġeffray ante
Ġnaturel s
ĠintÃ©ress ante
Ã©cout ait
Ġautor itÃ©s
Ġpel ouse
ĠÃ©tend us
Ġtapiss erie
Ġblas ph
ĠConv ention
rsqu oint
ĠM oh
ie f
ĠC Åĵur
Ġmon ast
ĠB oul
Ġpro ches
Ġdev enaient
ĠF err
Ġcons igne
att irer
Ġlaiss erai
Ġsouff la
Ġgarde z
Ġconc ent
oph imovitch
emb ourg
ĠCor ne
ĠdÃ©termin er
ĠÃ©te inte
dou zaine
ĠÃ©claire r
ĠGauv ain
t us
ar is
end er
ĠB az
Ġpe inte
ĠTr addles
Ġhabit ation
Ġfou iller
Ġdrsquoh or
Lrsquo homme
ĠprÃ©cip itation
ĠcÃ©l Ã©b
Ġsympath ique
:// âĢĭ
Ġfrag ments
r est
s Ã©v
Ġp ath
ou rer
Ġch ale
ĠF land
Ġcomm od
ign aient
Ġacc ueilli
Ġoccup ation
Ġbaiss er
ĠpÃ©r ils
Ġpun ition
Ġaud ace
Ġpoil s
Ġjoin tes
Ġsof a
A D
en ch
ch ambre
and a
ĠS ouff
ĠD onne
Ġte intes
.. ..
ĠCh Ã¨re
Ġport ion
Ġoff r
ĠÃ©ch auff
ĠJrsquoai me
pect ion
Ġsecou er
Ġretrouv ait
ĠpÃ©nÃ©t rant
Ġfourn it
Ġredout er
ĠPÃ©tr ovna
ĠspÃ©ci alement
H E
b ri
h omie
r al
u Ã©s
Ġs phÃ¨re
Ġr ud
ĠP au
ĠT ob
ĠmÃª le
Ġpress Ã©s
Ġram enÃ©
arriv ait
mar ch
ĠÃ©tud iÃ©
Ġentret enir
ĠtÃ©n Ã©bre
fais ait
ym n
ĠFranc ine
Ġrecommen Ã§a
ĠlÃ©gis l
au reau
ĠJ uifs
Ã©p ouvante
Ġenf erm
ĠCh ante
Ġsec ousse
Ġord onne
Ġanim Ã©e
ĠdÃ©ch arg
ĠsrsquoÃ©t endait
Ġembr asse
Ġchaud es
ĠÃ©cras Ã©
Ġinexp licable
ĠhaÃ¯ ss
pied s
group s
Ġrejoign it
y ahoo
ĠE ss
ĠB ordeaux
Ġfr onÃ§a
Ġad roit
Ġag itant
Ġva ches
Ġmer c
Ġpol iment
Ġju ment
opp oser
Ġcommun s
Ġbut in
ĠÃ©trang Ã¨res
Ġfatigu Ã©s
Ġcontin ent
Ġplong er
Ġpost illon
Ġimplac able
ĠPast ourÃ©
Ġser rÃ©s
ist ent
Ġconv oit
ath ie
gr av
off iciers
Ġpropos ait
Ġir onie
Ġgliss Ã©
Ġretir Ã©e
ĠfÃ©lic itÃ©
ĠbÃ©nÃ©f ice
Ph ilippe
m III
ai mes
Ġp aie
Ġp eaux
Ġc ime
Ġcom Ã©d
Ġh utte
ir ations
Ġlrsquo allÃ©e
ert h
emp orter
ĠdÃ©v is
Ġjol iment
Ġ2 7
Ġenvoy Ã©e
IT E
Ġpun i
Ġprouv ait
Ġsuppos ition
Ġfan f
Ġchang Ã©e
ĠmrsquoÃ©t onne
Ġ Ã©r
Ġs Ã»t
Ġg Ã®
Ġh ommage
ĠP Ã©r
ĠV euillez
ĠG az
Ġcomm erÃ§
art ine
Ġconn ues
Ġrec ouvert
Ġpos tÃ©ritÃ©
ĠdÃ©p assÃ©
Ġbl ouse
Ġtir Ã©e
Ġcommenc ent
Ġfol les
ĠÃ©prouv e
ĠhÃ¢ ter
Ġcherch ais
ĠsrsquoarrÃªt ait
ĠDen bigh
ĠrÃ©tabl ir
ĠsÃ©n ateur
M aÃ®tre
Ġm rsquoins
ent endu
Ġpr ost
Ġg am
ort ense
ĠS ois
Ġdrsquo affaires
Ġqursquo y
asse y
Ġval u
ĠrÃ©cit s
Ġlrsquoexp Ã©rience
ald in
Ġentrepr ises
ĠchÃ¨v re
ĠPop inot
m ic
er ner
Ã¨ tr
at ient
eur ent
os sibilitÃ©
ab Ã©
Ġvol can
Ġjou aient
ĠW ardes
Ġor nÃ©e
ĠParis iens
Ġarr Ãªte
ĠTr op
org ue
Ġplac Ã©es
Ġferme ment
ĠhÃ©s itait
ĠlrsquoÃ©c art
Ġrenvers er
Ġsuffis ante
Ġdent elles
a ze
m se
en iez
Ġn Ã©ant
ol ence
ĠN ul
Ġimp rim
Ġport eurs
ĠÃ¢ gÃ©e
off es
Ġcan aille
Ġrel Ã¢che
Ġenlev Ã©e
ĠMart ine
mA d
Ġdrsquoimp atience
ĠbÃªt ises
Ġdauph ine
ĠDÃ©r oute
m ille
or esque
Ġch ats
Ġma uss
Ġnrsquo osait
mb er
ence inte
ĠF arou
Ġjou issances
Ġdesc ente
Ġinf lex
ĠdÃ©b ou
Ġappar ente
Ġappel ant
oss Ã©
Ġbaiss Ã©s
Ġsoupir ant
ogr aphe
ĠMor and
Ġpartis ans
aup ier
ĠLÃ© ontine
entret ien
Ã©cur ie
ĠexpÃ©ri ences
ĠDan iel
Ġlrsquoavent ure
m ore
m Que
Ġm ignonne
ol les
Ã©p uis
onn erie
Ġdrsquo ab
ĠB ible
Ġbr Ã¨ve
ĠG ouver
Ġenv is
Ġesp Ã©rÃ©
Ġfil ets
Ġmagistr ats
apercev ait
ĠnaÃ¯v etÃ©
d ames
Ġc auche
et Ã©s
Ġr ats
ant al
up tion
orm Ã©ment
ĠgÃ©nÃ©r ations
Ġag it
Ġtrouver ai
iqu ette
ys s
Ġfac es
Ġexc urs
oise aux
Ġattend ent
Ġcompos ition
Ġbourge oise
Ġprosp Ã©ritÃ©
Ġen rich
Ã©t onne
Ġcom itÃ©
Ġdrsquo Ã©crire
ad iers
ĠR ieux
ici ble
Ġsal les
Ġph armac
ĠTr ophimovitch
ĠmÃ©r ites
Ġterr estre
ivers itÃ©
Ġtor ches
Ġbor ne
Ġgrat itude
Ġabond ance
p lais
il li
Ġb Ã©tail
Ġg red
av ocat
ag o
Ġlrsquo emb
ĠC ass
ĠdÃ© esse
ĠB arth
Ġmain tes
Ġjrsquo entendis
ct ive
Ġab rit
ĠlÃ©g ende
ann a
Ã¨v re
Ġexc itÃ©
Ġjuge ait
Ġtir Ã©s
Ġmet tra
Ġmet trai
Ġpublic s
ĠÃ©tabl ie
Ġtrag Ã©die
Ġer rant
ĠnÃ©goci ant
ĠÃ©chang Ã¨rent
Ġbrouss ailles
i quet
s upp
in ch
Ġr us
ri ma
ĠD Ã©p
ĠT erre
um illa
ĠsÃ» rs
ĠRe v
Ġchau ve
Ġrass urÃ©
ĠprÃ©cÃ©d Ã©
Ġapproch Ã©
Ġeur opÃ©
Ġdiscip les
ĠmÃ©cont entement
cor ps
ĠvÃ©rif ier
ĠTuil eries
d onc
m onsieur
Ġse x
Ã©r end
ĠG ir
Ġins u
Ġbon homie
Ġheure uses
Ġcou chait
Ġbat ailles
Ġcru cif
Ġmagn ific
ĠQursquo y
ĠdÃ©ta cha
Ġexploit s
ĠPen sez
b Ã¢
Ġch atte
al s
ap es
ĠG aule
im Ã©e
ĠDe f
ĠmÃª lait
approch ant
Ġact ive
Ġfour ch
Ġroul Ã©
Ġdrsquoin f
ĠdÃ©sert s
Ġ17 8
Ġassi Ã©g
Ġsrsquoemp ressa
Ġpaisible ment
adj uteur
ĠSou dain
occh io
Ġd ic
Ġav ide
ag itation
Ġtr Ãªve
ĠP Ã©tersbourg
Ġdrsquo esp
ĠrÃ© veille
Ġint ol
Ġresp ire
off rit
ĠAr nold
ĠmaÃ®tres ses
Ġviol on
Ġpours uit
estÃ© rel
Ġfour rÃ©
Ġintellig ente
Ġbrut alement
Ġbapt Ãªme
b onne
p el
p ice
re intes
il Ã©e
Ġg aill
ĠC at
oin te
ĠB ette
Ġcour tes
ĠCh av
Ġjou issance
Ġparl oir
ust ache
ĠsÃ©par Ã©e
Ġaccr oup
Ġhid eux
ĠSchm ucke
Ġbous cul
J us
g erie
n ature
es qu
Ġp Ã¨se
de puis
Ġlrsquo enfer
ac ci
ĠR Ã©f
ĠG ob
Ġcomp Ã¨re
ĠH arr
Ġatt ira
ĠdÃ©c omp
ĠaperÃ§ oit
Ġpou les
ĠprocÃ©d Ã©s
Ġexpri mÃ©
ĠCH ÅĴUR
IÃĪ ME
Ġjud ici
u zz
at ig
Ġpar aissant
ĠL ind
ĠL und
onc k
Ġcl oison
ĠprÃ©c ieuses
amb assadeur
lrsquo autre
Ġve illait
Ġsuff ira
Ġobt int
Ġenlev a
Ġmach ines
Ġcompli ces
Ġexpos er
Ġillus ions
Ġliqu eur
Ġmagas ins
Ġtranch Ã©e
Ġdrsquoar bres
ĠHe athcliff
Ġs ure
Ġpar dessus
Ġch Ã©t
Ġjou eurs
Ġprom Ã¨ne
ĠMon te
Ġmarqu Ã©e
Ġdest ination
Ġdur Ã©
Ġvag abond
Ġserr urier
Ġtouch ante
Ġcors age
O I
ch Ã©es
Ġg ob
ĠÃ©t ude
Ġsrsquo exp
Ġven g
Ġcour us
Ġmour ait
Ġcru elles
Ġpen chait
der riÃ¨re
ĠGe org
Ġretent ir
Ġassi gn
Ġvap eurs
Ġbuis son
Ġc ic
Ġf riv
in nocence
Ġdrsquo agir
oy Ã©e
ux embourg
Ġex ercice
ore iller
ĠF Ã¨re
ĠÃ©c uries
ĠI ris
Ġprof itÃ©
Ġfig ur
ĠK ir
An drÃ©
Ġbat terie
Ġconst ante
ĠFou c
Ã¼ l
beau coup
ĠDomin ique
u euses
oy aient
Ġdev iendr
Ġtrouv Ã¢mes
ex ter
Ġtour ments
Ġcontinu Ã¨rent
Ġimm ort
Ġdest rier
ĠdÃ©ch irÃ©
ĠrÃ©un it
Ġlrsquoam iral
ĠguÃ©r ison
ĠlrsquoÃ© quipage
ĠSher lock
ĠFauv arque
on ation
Ġn arr
ĠM us
Ġcom tÃ©
ĠS eul
ĠS ongez
ĠÃ©g org
ule use
An g
Ġdess ert
igu el
Ġjug ez
Ġtourment er
ĠÃ©vanou i
ĠsÃ©p ul
L ui
Ã© quipage
Ġp air
Ġm ette
art on
ĠCh amb
ĠdiffÃ©r ences
Ġatta ques
Ġdout Ã©
Ġattent ive
Ġcherch ent
Ġimpr udence
ĠrÃ©jou ir
Ġalli Ã©s
Ġfoss Ã©s
Ġinexp rim
ĠSyl v
ĠlrsquoAm Ã©rique
ĠLund ie
n rsquoest
Ġb otte
ĠL estÃ©rel
Ġsrsquo occuper
Ġcon quÃ©rir
Ġex empl
ĠrÃ©p rimer
Ġcheval erie
fait s
ĠdÃ©v orÃ©
ER T
Ġtaill is
lem agne
ĠhÃ©roÃ¯ que
V otre
Ġc aisses
it ue
av anÃ§ait
ĠC ard
ĠS uiv
ĠT oul
ĠT aureau
mb es
ĠF Ã©lic
Ã©m er
Ġlrsquoh Ã´pital
Ġsouv int
Ġperd s
Ġinter prÃ©t
Ġmen acÃ©
oss ais
ĠaperÃ§ ue
Ġfid Ã¨lement
Ġbri ques
Fr anÃ§
Ġjaill ir
Ġstr at
Ġsqu atter
l iers
end us
ouv ris
Ġlrsquo aise
Ġdrsquo enfant
Ġnrsquo Ã©t
ĠV iv
id a
Ġpass ages
Ġpouv oirs
Ġmort els
ĠprÃ©c ise
Ġinf ort
Ġtrait Ã©s
Ġess ouff
Ġfourn i
Ġsonn ait
Ġchiff res
ĠrÃ©guli er
5 0
A ll
A llemagne
U N
c rit
i ane
ou z
Ġm eure
Ġm iennes
Ġen glout
me z
est rade
Ġg org
iss ions
ra Ã®n
Ġjusqu rsquoici
Ġgard ant
Ġgard Ã©e
ĠÃ©ch ec
Ġlrsquoav is
Ġprob abilitÃ©
Ġinfin i
Ġsuffis ant
ĠfrÃ©m issement
Ġflot tant
Ġsuit es
Ġcabri olet
b ord
Ġp onctu
in itÃ©
Ġcon quis
ĠH aldin
Ġvers ant
ress es
Ġver me
Ġcharg es
ĠprÃ©t entions
adress a
Ġconvainc ue
ĠgÃª nÃ©
Ġmart yre
ĠMÃ©d icis
Ġoubl ie
ĠDÃ©c idÃ©ment
j on
m dans
re lles
au les
ch in
ĠS oud
rsquoil lus
ĠH ervÃ©
Ġsour ces
ph on
Ġcompagn ies
ĠdÃ©m Ãª
Ġrencont rÃ©s
Ġchois ie
Ġdrsquoin ter
Ġinsp irer
Ġmaint ien
ĠlrsquoÃī c
Ġcrimine ls
ĠMort imer
Ġsott ises
Ġsrsquoapproch ant
ĠbaÃ¯ onnette
g i
r ence
u a
u ant
il iÃ©
our agan
ri le
ĠJ asmin
Ġgr anit
ĠV au
ĠT illet
Ġcontinu aient
ĠlÃ©g umes
Ġconnaiss ant
Ġfrapp Ã©s
Ġdisc ret
ĠtraÃ® tres
Ã©lev a
Ġrecommand er
Ġbag at
Ġcitoyen ne
Ġtourment e
ĠLy on
H ÃĪ
h eures
m ans
en ants
Ġb ol
Ġlrsquo angle
Ġmon d
ĠR ancÃ©
all ure
Ġgard iens
Ġinterr oger
ĠprÃ©t endre
ĠMal icorne
Ġnation al
N ote
Ġ ombr
Ġd ons
Ã© veiller
Ġav are
av ou
ĠdÃ© Ã§
ĠO uv
ter ling
Ġam Ã¨re
Ġcont ribu
ob ile
ĠdÃ©s intÃ©ress
Ġdemand erai
ex trÃªme
Ġad roitement
omm ages
ĠpÃ©n ibles
ĠconsidÃ©r ations
Ġprob itÃ©
ĠreprÃ©sent ants
ĠdÃ©n oncer
Ġparcour ut
Ġvari Ã©tÃ©
ĠdrsquoÃ©c ole
m IV
v al
Ġl iÃ¨vre
ar pe
il a
ĠM idd
Ġpl ier
ĠP resque
Ġcoup Ã©e
Ġrev iennent
Ġeff ic
Ġdr am
Ġpris ons
Ġemp oign
Ġfix Ã©e
Ġpubli quement
Ġcontemp or
ĠrÃ©vÃ©l ait
oblig er
Ġparis ienne
Ġmajest ueux
C ÃĪ
N oir
c ie
Ġs Ã©ch
in aient
Ġnrsquo aura
ĠÃ©ch o
Ġfus illade
ĠdÃ©m ocr
Ġfat alitÃ©
Ġprov oquer
Ġsix iÃ¨me
ĠÃ©lev Ã©es
Ġcombat tants
Ġdissi per
agrÃ© able
B on
P l
S ous
b ell
h om
h arm
ul itÃ©
ĠprÃ©s ume
Ġab at
Ġcl ose
ĠprÃ©c ision
anch on
An drÃ©e
Ġconc ur
Ġpard ieu
Ġtort ures
Ġdescend aient
Ġrom ain
Ġenvelopp Ã©e
Ġunivers elle
Ġaccoutum Ã©e
Ġappare mment
ĠLÃ©v y
Ġparess eux
O pÃ©ra
P H
ĠM ina
am ener
Ġbr ille
ass ins
rai rie
are il
Ġmort es
ĠdÃ©t ours
Ġcompagn es
Ġpouss aient
esc ence
Ġgal anterie
Ġsecou ait
Ġsin istres
Ġmeu bl
Ġrecev ant
ĠQursquo on
Ġapproch a
Ġpiqu Ã©
Ġenchant Ã©e
g h
Ġs ag
Ġs aintes
Ġc endre
el ette
ĠM erc
Ã©p reuve
onn ettes
ĠA lleyne
Ġbr Ã¨che
Ã©l oigne
ĠdÃ©f ilÃ©
Ġpasser ait
ĠÃ©ch angÃ©
Ġaccomp lie
ĠdÃ©sesp Ã©r
Ġchange ant
Ġtap age
Ġfil er
mil y
Ġressent ait
Ġbarb ares
Ġinstinct s
co ol
Ġcant on
Ġpomp e
Cl air
Ġprogr amme
g ens
m Nous
v eux
Ġa pos
Ġt uteur
Ġb rev
Ġlrsquo aurais
ĠL av
ec tant
Ã©c riture
ĠA mpÃ¨re
Ġdrsquo aff
ĠV erne
ĠT ourn
onc Ã©e
att it
Ġemp ris
ĠdÃ©f ait
Ã©ch afaud
ĠAu jourdrsquohui
Qu elle
ĠAr abes
ĠdÃ©m ol
Ġ18 0
Ġpron onÃ§ant
Ġtrembl aient
Ġtermin a
Ġbarb are
Ġorig in
Ġboulevers Ã©
Ġquas i
U I
U lenspiegel
Ġp elot
Ġm enu
Ġson nÃ©
Ġent raient
Ġfr onÃ§ant
Ġper vers
ĠCh auvel
ach ez
Ġretourn ai
Ġbord Ã©e
ĠdÃ©m ission
ĠÃ©m an
Ġram es
Ġcouvert ures
Ġpromp te
Ġphysi ques
Ġdor Ã©s
Ġbris a
Ġenn ui
Ġexerc ices
rov iste
ĠgÃ® te
L rsquoin
M ES
k o
v ois
Ġt abl
Ġf Ã©r
Ġh ais
Ġsa pins
Ãªte ment
Ġcour ent
Ġan neau
ĠPar le
Ġfond it
ĠrÃ©c onfort
ĠdÃ©v orer
Ġgal Ã¨res
Ġgui des
Ġsoulev ant
aret s
ĠlrsquoÃ©v Ãªque
Quoi que
ĠdÃ©plor able
ĠNorm and
ĠJup iter
ĠFouc auld
D ix
am ateurs
ĠJ ar
ĠP ers
Ã©r atrice
Ã©n a
Ġenf ou
ins tinct
Ġmont Ã©s
Ġserv ie
emp Ãªchait
ett ons
ĠPr Ã©s
Ġdist ribu
ern on
Ġdispar urent
ude x
Ġpress Ã©e
ĠMont b
ĠCor n
Jrsquo Ã©tais
Ġphilosoph es
Ġaigu Ã«
ĠdÃ©daigne ux
Ġpresby tÃ¨re
ĠAsse yez
D av
Ġc ure
Ġpar ie
Ġlrsquo Ã©motion
ĠL uxembourg
ĠP ichegru
Ġdev ions
Ġjeu di
ĠÃ©p erd
Ġass aut
Ġvol umes
Ġobs curitÃ©
Ġfix es
Ġvas es
Ġprincip alement
Ġhor iz
Ġus ages
fort une
ĠtÃ©moign ait
Ġvolont aire
Ġvac arme
ĠCont inu
Ġclai riÃ¨re
ĠfÃ©min ine
Ġapplaud issements
Ġmo elle
A igle
R ob
b ac
d al
Ġc yn
ĠM ieux
que fou
Ġgr aisse
Ġca h
Ġenf oncÃ©
int ellig
Ġfl Ã¢
appr obation
ĠprÃ©sent ent
ĠAn nie
Ġco adjuteur
Ġprov ision
Ġress ais
Ġlrsquoav oue
ĠrÃ©un ies
ĠMont alais
ĠBl ois
Ġlrsquoent ret
ĠHol Ãł
ĠspÃ©c iale
Ġpes er
Ġrejet a
Ġquere lles
ĠtÃ©lÃ©ph one
ĠNanc y
Ġs quel
Ġla ve
Ġpas t
ĠÃ©t reinte
Ġcar ton
Ġcont es
Ġmrsquo Ãªtre
ĠdÃ©c rit
Ġconn aisse
Ġrep li
Ġcas t
ĠdÃ©m Ã©n
Ġrespect ueuse
ĠdÃ©r oute
Ã©li x
erf orth
ĠpropriÃ©t aires
Ġtamb ours
ĠÃ©conom ies
ĠtÃ©lÃ©gr amme
ĠBrun erie
Ġcouss ins
Ġambit ieux
Ġm ac
Ġm ug
ĠB erg
Ã©ri ment
ĠCh ose
Ġbar ons
Ġmor ales
Ġram assÃ©
mV otre
Ġend ur
embr assa
Ġperf ide
ĠdÃ©sol ation
Ġis olÃ©
organ isation
Ġdescendant s
Ġlament able
Ã©veill a
ĠAlexand r
s ouff
x p
Ġn Ã©s
Ã©t endait
ĠL inton
ĠD rsquoun
ĠÃ© veiller
Ġcomp lex
Ġrev iendrait
Ġcol le
Ġbonne ment
ĠParis ien
ĠTr appeur
Ġhabitu ellement
Ġdescend ent
ro Ã®t
Ġaffect ions
Ġsiff lement
Ġrepouss Ã©
Ġfar ine
Ġpein tres
Ġrenseigne ment
Ġbruy ante
Ġlrsquoenv ie
jus qursquoÃł
m aintenant
s ace
Ġs ph
el Ã©es
am orph
Ġdrsquo Espagne
Ġex ister
iss eurs
ĠF itz
Ġcont ents
ĠU rsule
Ġcap oral
Ġhab illÃ©e
Ġsouv enait
uv er
Ġrac ine
Ġmurm ur
Ġtrsquo aime
Ġcommenc Ã©e
ĠprÃ©par Ã©e
Ġus er
Ġcondam nation
Ġtransport s
ĠhÃ©rit ier
ĠBarb ara
Ġence inte
b en
Ġs terling
Ġr aj
Ġlrsquo Ar
Ġlrsquo accompagn
ĠL and
ĠdÃ© mes
Ġsrsquo ouv
Ġcour bÃ©
aill Ã©
Ġoff rant
Ġsang lier
Ġrep rirent
Ġdess Ã©ch
Ġsouhait ait
ĠÃ©troi tes
fa x
ĠM iguel
Ġpl aque
Ġtr acÃ©
de hors
ec d
ĠT al
Ġqursquo aux
ĠdÃ©c riv
Ġvis ions
Ġcl ocher
ĠmÃª lÃ©s
Ġinst ances
Ġtor che
Ġbourgeois ie
Ġconstr uit
Ġexces sive
Ġdistrib ution
Ġpitt oresque
ĠtrÃ©b u
V III
c Ã©
h ouse
m ante
Ġd alles
qu ait
Ġpar Ã»t
ol Ã©e
Ġo cc
ĠA i
Ġar abe
Ġbr uns
Ġall iez
Ġca chant
aÃ® nÃ©e
Ġentre prendre
Ġvis itÃ©
Ġinv est
Ġdom iner
Ġhor ribles
Ġeng ager
Ġdescend is
mV ous
rou ille
Ġressent iment
ĠMil ord
ĠAllem agne
Ġprolong er
Ġexclam ations
Ou est
ĠNouv elle
d Ã©t
l Ã¨rent
ai g
Ġm ardi
oi le
Ġg ain
Ġh ag
ouv rier
ĠL ES
ĠP re
Ġdrsquo Ãītat
ĠV III
ĠCh asseur
Ġquestion ner
Ġpard onnÃ©
ĠprÃªt ait
Ġact eurs
Ġopp ress
Ġpatri ote
ĠLÃ© a
ĠpÃ©t rif
ĠchÃª nes
Ġsolenne llement
Ġorgueille ux
ĠLoren za
4 5
F ont
c omb
Ġd ors
Ġlrsquo ouverture
ĠT elle
Ġqursquo A
tr Ã©
Ġfor mÃ©e
ex ercice
Ġman Åĵuvres
ign ent
Ar rivÃ©
ĠÃ©g aux
Ġ2 9
Ġcontemp la
Ġemport ant
ĠfrÃ©m ir
ĠrÃ©serv Ã©e
ĠLÃ© bÃ©
ommod er
GU E
E mpire
h il
Ġl y
en l
eu ils
Ġh ocha
Ġlrsquo Ã©tÃ©
ĠC re
Ġson ges
ĠD ur
Ġoubli ant
ĠrÃ©pÃ©t ant
Ġcourt s
Ġpal iss
Ġchange ait
Ġcharm antes
ĠagrÃ© ablement
ĠcÃ©l Ã©bre
ĠRos amond
empl oi
nrsquo avait
apt iste
Ġcomprom is
Ġcla quer
Ġaudit eurs
h yp
Ġ irez
Ġs ill
Ġa f
Ġch aste
ĠM el
Ġlrsquo orgueil
Ġsi Ã©ge
ill us
Ġcar abine
ĠAr rivÃ©
Ġal t
Ġprot Ã©ge
mÃª le
uff is
ĠVers ilov
an ier
Ġre quÃªte
ĠS elon
li v
Ġco Ã¯n
ĠSon ia
Ġviol ents
ĠX I
Ġpont s
Ġrense igner
eng age
Ġlou anges
Ġcaress ant
Ġrattr aper
S oudain
l ard
en euse
er rai
Ġh ochant
ĠL im
pr Ã©f
Ġsrsquo accr
Ġbr och
ĠG amp
ra f
Ġrec ons
ign irent
ĠrÃ©s ulte
Ġsuiv ez
Ġst ric
ĠtraÃ® n
Ġconj ure
erb el
ĠLu ci
Ġprivil Ã©g
Ġfamili aritÃ©
iÃ©r anie
Ġfab ric
Ġcouver cle
Ġtabou ret
V II
z el
Ġc itÃ©s
Ġv aine
Ġj on
Ġu l
Ġse ction
Ġh ant
ĠL rsquoin
Ġsi mul
ĠR ouge
Ġtrouv ons
Ġlaiss era
Ġacc um
Ġbar onnet
anch ette
Ġfroid es
Ġimport ants
Ġtent atives
adm ir
Ġillus tres
Ġemm enÃ©
ĠAlex Ã©
Ġimb Ã©ciles
Ġdent elle
achev er
ĠGÃ©n Ã©ral
M ont
el ain
and al
Ġsur rÃ©
Ġsrsquo attendait
ang lais
iss er
Ġsec our
Ġfort unes
Ġan ony
act eur
Ġcl Ã´t
Ġjou g
Ġcontinu ez
ĠdÃ©v oil
oci f
arrÃªt Ã¨rent
Ġchau miÃ¨re
Ġamen Ã©e
ĠdÃ©vou Ã©e
Ġtremp Ã©
Ġdisgr Ã¢ce
r issement
Ġ om
in on
Ġlrsquo espÃ¨ce
ĠJ eu
ĠP od
ĠS ec
ĠdÃ©p e
Ġeff r
ĠdÃ©f Ã©rence
anÃ§ ai
Ġgl isse
Ġfa Ã§
Ġimpos er
Ġchant aient
Ġ2 6
iz z
Ġform ule
ĠrÃ©pand ait
ĠrÃ©d uite
Ġredout ait
jus qu
uisse aux
O W
r ad
Ġar gu
Ġtu Ã©e
op s
Ġconf ortable
st able
Ġind ique
Ġfl Ã©t
Ġdist rict
Ġmois s
Ġlrsquoai mait
Ġtemp Ã©r
Ġfum ait
trait s
Ġconven ablement
Ġlrsquointer romp
Ġdiscuss ions
Ġripos ta
ĠdÃ©nou ement
m od
y cl
an y
ag Ã©es
ĠL em
Ġpart agÃ©
itu Ã©
Ġsal es
ĠMar ne
Ġmus ul
Ġdemeur Ã¨rent
Ġrecomm ande
Ġcad et
ĠtÃ©moign ages
Ġvolont aires
Ġretir Ã¨rent
Ġtot alement
Ġital ien
Ġlamb eaux
t omb
ar ter
Ġr yth
ur nes
Ġg Ã¢t
Ġch arr
ĠC os
Ġgr ises
oy ante
Ġnrsquo ose
Ġcr osse
tr op
ay n
ĠdÃ©c ouvertes
ĠprÃ©s omp
Ġbl ott
Ġbou quets
Ġcal Ã¨che
Ġgen res
Ġcru els
Ġcir que
ĠdÃ©couv rait
ĠdÃ® nÃ©
ĠmÃ©t ayer
Ġsept iÃ¨me
Ġcondam nÃ©e
Ġopp oser
Esp ard
aband onne
olont iers
ĠMars eille
Ġplaign ait
mit ri
ĠmÃ©pr iser
N icol
Z E
s rsquoil
Ġd aim
Ġp oi
Ġp ots
est ine
ab Ã®me
ĠB ouillon
Ġfr Ãªle
Ġqursquo avant
ul ar
Ġcomp at
Ġrest erai
ĠdÃ©f ier
ĠÃ©v Ãªque
ah uel
erc le
ĠK obus
Ġred oute
Ġpron onÃ§ait
ĠdrsquoA utriche
Ġesc ad
ĠdÃ©lic ats
exc use
ini Ã¢tre
Ġvall Ã©es
Ġlass itude
Ġparaplui e
A mb
F el
m Au
Ġt ons
as bourg
ch n
ri rait
ĠM ex
Ã©p ous
Ġdrsquo ordinaire
aiss elle
Ġimp itoyable
Ġdr agon
Ġri aient
En tre
Ġappar aÃ®t
Ġlrsquoai mer
Ġdispos ait
tin ahuel
Ġconserv ait
Ġdure tÃ©
Ġgren adiers
ĠhÃ©rit iers
ĠbÃ© bÃ©
Ġtais ait
Ġprompt itude
ĠÃ©loqu ence
ĠforÃ§ at
ĠMik h
ont ran
Ġtr am
ĠL og
Ã©c ras
oin ette
Ġdrsquo enfants
ard en
ĠD exter
ĠdÃ©s ar
Ã©l us
Ġcoup Ã©s
all ons
Ġarriv erait
Ġviv ons
Ġsang lant
Ġref erm
anche ment
Ġsurpr enant
Ġtromp ettes
Ġappel Ã©s
Ġcoiff ure
ĠbrÃ»l ante
Ġconfond re
Ġexerc er
Ġcand id
Ġtot al
Ġbann iÃ¨re
b elle
en ions
Ġn atures
Ġlrsquo odeur
ĠC onn
ĠS all
ĠV ie
Ġcr Ãªte
ens Ã©s
ĠG our
Ġpass agers
ĠQu alitÃ©
Ã©g ation
Ġsc rut
Ġeng agÃ©e
Ġrav in
Ġaim ables
Ġdisp ose
Ġcerc les
ĠSte erforth
Ġsouc ie
Ġmunicip al
G ilbert
m du
r oul
Ã© prouver
Ġv ider
Ġpour point
Ġcr ap
ĠN u
ĠdÃ©c ret
gr ave
Ġajout ant
ĠpÃ¢ tÃ©
Ġang les
Ġobserv ait
Ġfroid s
Jrsquo avais
Ġreb elle
Ġrapproch ant
Ġdrsquoimp ortance
allum er
ĠEl ton
Ġimpert in
ĠnÃ©glige mment
ĠVerne uil
Ġm Ã©s
al og
Ġh aillons
Ġar pent
Ġai e
Ġmrsquo appelle
Ġpers pic
Ġfin ira
Ġmat ernelle
Ġhab iletÃ©
Ġcontr Ã©es
ĠÃ©ch os
Ġnu ances
Ġhabitu Ã©e
ĠprÃ©f Ã©rer
Ġlrsquoab baye
Ġrose aux
Ġinj ure
Ġvendre di
Ġbi jou
Ġbrav oure
ĠDis positions
ĠÃ©par gner
petit e
ĠÃ©mer veill
Ġenj amb
4 4
C I
s erait
Ġm ouillÃ©
is Ã©ment
ĠC OM
ĠdÃ© ception
Ġob jection
Ġmont ent
Ġacc idents
Ġgrande ment
Ã©ch auff
ĠÃī dith
Ġsauv a
abl o
Ġcuis se
ĠdÃ©lic ates
ĠdÃ©n onci
ĠÃ©tud iant
Is abelle
Ġrenfer me
Ġrenouv eler
Ġparticip Ã©
ĠHer bert
Ġhang ar
G u
H eure
p erm
s il
u ct
ou ettes
Ġde l
rsqu oidÃ©e
ous t
Ġlrsquo Ãītat
li ction
ig ues
tÃ© n
Ġam Ã©li
ra h
Ġcomp art
Ġtou x
uv iÃ¨me
ĠdÃ©v ore
Ġdispar aissait
oqu ence
ĠbÃ¢t ons
ĠdÃ©clar ait
Ġpou mons
ĠAm y
Ġexam inant
Ġaccord Ã©e
Ġoppos ition
Ġcoiff Ã©
ĠdÃ©gr ad
ĠSoph ie
ĠEmm anuel
Ġaler te
Ġconject ures
FranÃ§ ois
P orthos
m ith
p o
Ġv ocif
Ãª ches
Ġh enn
ĠC och
Ã©p endant
ĠP oit
Ġnrsquo avions
Ġsrsquo arrÃªte
Ġar demment
tr ans
Ġrem ue
la w
Ġind icible
ĠdÃ©f ie
ĠChar lemagne
ĠcrÃ© anciers
Ġval ise
ĠAl bert
Ġ2 2
Ġprot esta
mS i
ĠrÃ©pand ue
ĠQursquo en
Ġquitt Ã¨rent
Ġprodig ieux
ĠÃ©b ah
ĠTur cs
kh ine
ĠpÃªch eurs
ĠÃ©lect rique
A lice
s ais
Ġb ailli
ĠrÃ© action
ĠÃ©p anou
Ġass oup
Ġbou ches
Ġprom et
Ġcommen Ã§ant
Ġsouff rant
Ġmour ante
Ġcre user
Ġorig inal
Ġdirec te
Ġcand eur
Ġclient Ã¨le
Ġcorre cteur
ĠblÃ¢ mer
ĠPil ate
est im
ri x
ir ond
ir rit
Ġlrsquo Indien
pr Ã¨te
ĠP oul
li m
Ġdrsquo acc
all us
Ġlaiss erait
Ġfaut euils
Ġvrai es
ĠW erth
ĠlÃ©g ions
Ġgouver ner
ĠmÃ©t amorph
ĠprÃ©t ends
Ġroul aient
Ġmag ie
Ġbatt aient
Ġchamp agne
Ġhur lement
Ġcapt ivitÃ©
Ġexclus ivement
C ol
G en
re m
Ġf ert
Ġch aire
ĠP orte
ĠA cc
od ovitch
ĠdÃ©f endait
Ġtourn Ã¨rent
ĠBr ook
Ġfav eurs
atri ces
Ġtress aille
Ġattent ions
mal ade
Ġchauss ures
Ġadop tÃ©
Ġamus ant
Ġflott ait
Ġmans arde
P as
d Ã©v
Ã Ĭ
er aient
ar nÃ©
Ġf iers
Ġpr Ã®t
Ġpr enais
av enue
ĠS arras
ot Ã©
ot ant
ass Ã¨rent
im on
oc ante
ĠdÃ©p ouillÃ©
Ġmat hÃ©m
acc outum
ĠÃ¢ pre
Ġimm Ã©di
Ġmour ra
Ġpo Ã«
Ġremarqu ables
Ġhu mbles
ĠdÃ©vou Ã©s
ĠirrÃ© proch
Ġconsac rÃ©
Ġmol le
trav ers
ĠBarn abÃ©
Ġinsensible ment
Ġtac it
Ġpor che
A A
a ment
c ou
Ġb oh
at oires
ĠE L
Ã´ ter
ass ade
ĠG ond
Ġcour rou
Ġmont rÃ©e
Ġcl ous
Ġsauv Ã©s
Ġmour rai
ĠBar be
ro ches
Ġemm ener
ĠSim one
Ġconsac rer
Ġmatel as
ĠrÃ´ d
Ġhalet ante
gen euse
ĠidÃ© al
ĠmenaÃ§ ante
Ġdiab olique
Ġartif ici
Ġinvinci ble
oj ine
ĠPhilipp ovna
Ġexplos ion
Ġmonast Ã¨re
c ule
h ent
Ġr uisseaux
ĠM i
ĠM organ
pr Ã©
ĠD mitri
ic amp
ĠJe ann
um a
Ġcons ole
ouver tement
Ġlev Ã©s
Ġrend rait
Ġperd ues
Ġcapit aines
ĠdÃ©b arqu
Ġsup er
Ġvert ige
oqu ait
oqu Ã©e
ionn Ã©e
gÃ© lique
ĠpÃ©nÃ©t rait
Ġinconn ues
Ġsouhait Ã©
ĠÃ´ tÃ©
Ġconven ances
Ġrid icules
Ġloint ains
Ġrenfer mait
tern ation
ĠRoche fort
ĠbÃ©nÃ©f ices
Ġsupers tit
ĠPR OU
ĠBabyl one
ĠBaz in
mic ro
ĠcoÃ¯n c
Ġs o
it ure
it oire
ĠC a
li ques
ex ception
ĠCh ois
Ġins truction
Ġimp ar
ib ond
Ġprom ettant
Ġor age
Ġpoin tes
inter v
Ġachev ant
Ġremont ant
ĠcÃ©d a
ĠBret on
ĠdÃ©sol Ã©e
Ġinvis ibles
aum ur
Ġmauss ade
l ons
Ġm ordre
Ġpar aissez
ĠS Ã©n
aut on
Ġport Ã¨rent
Ġsuiv ants
uss es
Ġind ignÃ©
Ġjet tent
Ġsouff let
nel les
Ġdispar aÃ®t
Ġcommun autÃ©
Ġsoci ales
Ġlrsquoar m
Ġvolont airement
Ġtab at
pre miÃ¨re
Ġpant ouf
ĠdÃ©pens er
ĠdÃ©mon trer
Ġgrimp er
ĠamÃ©ric ain
ĠFair fax
ĠCou mbes
ĠKol ia
u demment
it o
Ãª ne
Ġce int
ab at
Ġsi m
ĠS oul
ĠF in
ĠLe quel
Ġcour r
Ġsal aire
Ġprin c
Ġtoi les
Ġst Ã©r
ĠconsidÃ©r ant
Ġign orer
Ġpierre ries
ĠGu Ã©r
exc us
inf orm
roy ables
Ġdure ment
Ġinform ations
Ġisol Ã©e
Ġsacrific ateurs
ĠCo ol
ĠKn ight
ĠinÃ©v itable
bac Ã¨s
m W
m ch
n os
r ois
v a
Ġd ures
Ġl ard
Ġl anÃ§ait
ĠT il
iss age
Ġat elier
la quelle
Ġemp Ãªch
aul ois
Ġmet trait
ĠrÃ©flÃ©ch issant
Ġris ques
of ond
Ġmerveille usement
ĠsoupÃ§ onnÃ©
Ġsoum ise
Ġretir ant
Ġnum Ã©r
Ġconsp ir
ĠPier rette
ĠSand rine
ĠAug uste
ĠStr asbourg
Ġtyrann ie
Ġargu ments
E mma
Ġb iv
ĠL oup
ol u
ĠP ablo
Ġreg istre
rÃ© f
ĠÃ Ī
Ġport Ã©s
Ġsent aient
Ġinc idents
fait e
Ġfond Ã©
ĠlÃ©g ion
ĠdÃ©b ar
Ġmiss is
ĠVal geneuse
Ġrang Ã©s
Ġtrah issait
Ġtrib us
Ġinstinct ivement
Ġrenv oyÃ©
ĠthÃ©or ies
Ġboul ets
ĠlrsquoÃ©ch elle
ĠNast asie
H ol
P ersonne
b ras
z ar
Ġp ieuse
Ġs autÃ©
on i
ar ice
Ġlrsquo Ã©n
ĠJ udex
ĠB at
ĠB enn
Ġbr in
Ġex istÃ©
ad in
Ġret enant
Ġimp un
ĠÃ©p aisses
exp l
Ġtrait ait
Ġli Ã©s
ĠCr om
ĠVal ois
Ġfum ant
Ġrom aine
Ġembr assÃ©
Ġsiff let
pens Ã©e
Ġglor ieuse
Ġpoul et
ĠAss urÃ©ment
ĠRab ourdin
ĠdÃ©sappoin tement
Ġcauche mar
HÃĪ ZE
ĠPROU HÃĪZE
ĠCool micro
M AR
Ġun is
Ġdans euse
Ġlrsquo oiseau
ine au
oul Ãªme
Ġentre pris
Ġlorsqu rsquoun
Ġbar aque
ĠPr Ã©c
ĠAr riv
Ġdess ins
Ġriv ale
Ġrencont rÃ©e
Ġoblig ations
ĠdÃ©ch ire
Ġfe inte
Ġjau n
hor rible
Ġapproch ant
Ġcoute aux
Ġdirig Ã©
voy ait
rich iens
ĠlÃ¢ ches
Ġcolport eur
M L
s uiv
Ġl ing
en sibles
Ġf lÃ©
Ġpar ier
ri rai
Ġlrsquo antichambre
ĠV ite
ĠÃ© dit
ist iques
all Ã©g
Ġsent ez
Ġcas erne
Ġac quÃ©rir
Ġsoci Ã©tÃ©s
Ġentend irent
Ġbatt us
Ġdim anches
ĠhÃ©s itÃ©
Ġut ilitÃ©
ĠnÃ©glig Ã©
ĠlrsquoÃ©ch afaud
Ġconfess er
ĠpÃ©nit ence
ĠtempÃ©r ature
4 6
c ombe
p ernon
Ġp anne
ĠJ oyeuse
onn ets
Ã¨s es
Ġsrsquo approcher
ad our
ĠÃ©c or
ĠCh ou
Ġeff arÃ©
Ġprod uisait
cont inu
Ġ2 1
arc ation
Ġdrsquoin quiÃ©tude
Ġachev Ã©e
ĠRos alie
ĠMari us
ĠdrsquoÃ©t onnement
ĠsrsquoÃ©lev a
Ġperc Ã©
Ġinsc ription
ĠrÃ©public ain
Ġaristocr atique
ĠItal iens
sÃ©v ol
O rient
d iv
h uissier
Ġm os
it iÃ©s
ĠM ettez
ac Ã©es
Ã©ri z
ex ige
Ġmont rent
Ġlrsqu oid
Ġprom ise
Ġinc end
Ġdoute z
Ġsauv eur
Ġoubli ait
ĠbÃ¢t ie
Ġrelev ait
Ġrav ie
enn is
ĠDrsquo oÃ¹
Ġviendr ont
Ġcombin aison
ĠGoul den
sÃ©vol odovitch
4 2
P E
a oÃ»t
r ances
Ġ 000
al istes
ĠL ise
ĠS Ã©ch
Ġdrsquo hab
ĠB ag
ĠrÃ©p rim
Ã©d Ã©e
ist aient
Ġren fort
Ġmat iÃ¨res
Ġlit iÃ¨re
ĠÃ©ch anger
Ġinv ention
Ġsuff irait
Ġviol entes
Ġtend ance
enn y
Ġdisp ute
Ġlrsquoemp Ãªcher
Ġsonn aient
Ġcostu mes
Ġrepouss ant
Ġdoul oureusement
iot r
Ã©prouv ais
ĠindiffÃ©r ente
ĠChamp agne
long temps
ĠChat off
Ġcouss in
Ġlrsquoign or
Ġfrott a
ĠGrec s
Ã©lÃ©g ance
Ġsrsquoins t
Ġlimp ide
ĠincomprÃ©h ensible
p at
z an
ai rs
Ġm am
Ġr ade
ĠM ouch
ol fe
ot esque
Ġnrsquo entend
um m
esp ion
Ġrem ettait
Ġvoul Ã»t
Ġcontr Ã´le
Ġprod uite
erm ite
Ġ2 3
Ġconserv ation
Ġlog Ã©
Ġlrsquoins pecteur
ĠrÃ©d uire
Ġproph Ã¨tes
Ġparent Ã©
Ġroyal istes
ĠMath ieu
Ġcrev er
ĠnÅĵud s
ĠÃ©car ter
ĠRam Ã©e
ĠcollÃ¨g ue
ĠcollÃ¨g ues
acquit ter
ĠÃĪ ve
Ġp ale
Ġp Ã©d
Ġp Ãªle
Ġf ag
el li
te in
ui es
Ġje Ã»
ir ont
Ġlrsquo assemblÃ©e
ol ie
am ante
Ã©c rit
Ġsrsquo amus
ĠN ab
oul Ã¨rent
ble au
Ġcomp oser
ex traordinaire
Ġtrav ailleurs
ĠdÃ©p ouiller
ĠrÃ©c ente
Ġ18 7
ĠPh allus
ĠBar anc
Ġlis ez
ĠFlor ine
ĠPetit e
Ġine ff
ĠdÃ©barr assÃ©
ĠprocÃ©d er
Ġheur ter
ĠGl en
Ġbuff et
Ġcarref our
d isait
t z
Ġl ances
Ġp aume
Ġc amb
Ġb esti
Ġau m
Ġtou chÃ©e
Ġterre urs
aise meaux
Ġrend rai
Ġprov inci
Ġdorm aient
ĠsÃ©par Ã¨rent
AR D
Ġmu ets
ocr ite
ĠfrÃ©qu entes
Ġtriomph ant
Ġjaill it
ĠNew man
Ġbienfait s
Ġberg Ã¨re
apprÃªt ait
ĠrÃ©cipr oque
m us
p Ã©
s ang
Ġp illage
ic isme
Ã¢ tr
Ġmar ie
Ã´t s
ing ley
ĠÃ©v idente
ĠPr Ã¨s
Ġattend ri
Ġroy autÃ©
qursquo au
ĠSam uel
ĠÃ©veill Ã©e
ĠrÃ©guli Ã¨re
Ġvrais embl
Ġlumine use
ĠBi anchon
ĠWe gg
Ġinsec tes
b ler
h era
Ġf auves
Ġr ation
ur ation
ĠL ac
am ayn
ĠJ uif
Ġent iers
Ġcar rÃ©e
art s
lÃ© tement
la Ã§ait
Ġcrois a
uy ers
ĠvÃ©r itÃ©s
ĠPas cale
Ġrenvers e
Ã©te indre
Ġmange a
Ġbruy amment
Ġpartage ait
ĠimpÃ©ri eux
Ġpend aient
Ġtau reaux
Ġscul p
Ġcoch on
rsquoign or
Ġpir ates
ordonn ance
ĠLongue ville
Ġmagnific ence
ĠMikh aÃ¯l
ĠCrom well
Ġt unique
Ġv Ã®t
Ġj ura
Ġpar as
Ġh Ã©b
ĠP amph
ĠD up
ĠT ox
ĠR iche
ĠCh ap
Ġrec ourir
Ġnouv e
ĠI gn
Ġcompr enais
ĠPour vu
Ġdom ine
arrÃªt ai
ĠAl fred
Ġsout enue
ĠprÃ©cip ice
Ġregret tait
Ġpriv er
Pour tant
Ġsoulev ait
ĠdÃ©guis Ã©
ĠsrsquoÃ©cri ait
ĠlrsquoO pÃ©ra
ĠCad ot
ĠKnight ley
hera zade
J Ã©sus
h onor
r oute
v ra
Ġla pin
Ãª nes
end ance
ĠÃ©t ang
ass ions
ĠG reg
ib ilitÃ©
ell et
ĠdÃ©b au
Ã©qu ilibre
ĠtraÃ® ne
ĠtraÃ® nait
ĠRob inson
Ġcommande ments
Ġsrsquoemp ara
co q
ĠPin occhio
Ġrad ieux
Ġhistor ique
ĠPey rade
o om
ce ment
Ġpar ente
ĠT am
Ġsec s
Ġcor v
Ġfront iÃ¨res
ĠdÃ©g agÃ©
Ġrempl acÃ©
Ġact if
Ġsecou Ã©
Esp agnol
Ġsiff ler
ĠlittÃ©r alement
Ġcrimine lle
Ġunivers el
Ġhalet ant
Ġcontrai res
ĠimpÃ©nÃ©tr able
A ut
d ist
d ing
i able
s al
y de
ab out
ĠT ap
op ri
ist or
Ġserv antes
Ġint imitÃ©
Ġpat iemment
Ġsucc esseur
Ġmod ifications
ĠprÃªt a
Ġparv enait
Ġapport Ã©e
Ġdisp uter
Ġgui der
ĠsrsquoÃ©t abl
Ġchaud s
Ġvari ations
ĠInd ien
Ġchanc elier
ĠperpÃ©t uel
Ġprononc Ã©es
ĠBourg ogne
ĠArr Ãªtez
sel me
ĠSax on
C inq
b ec
d am
j ud
ne llement
Ġv an
Ġv om
Ġn ap
ĠC onf
pr ends
Ġvoul urent
ĠdÃ©b auche
Ġac quise
ĠGr en
ĠGr Ã¨ce
Ġmarqu ait
erm it
Ġrencont rai
ĠbÃ©n it
Ġappart iennent
Ġentr rsquo
ĠTant Ã´t
Ġallem ande
Ġcroiss ant
ĠcommenÃ§ ais
ĠirrÃ©g uli
ĠSoud ay
i antes
Ġdes pot
ĠS aumur
ll er
Ã©n ormes
Ġcons ter
Ġfor ge
Ã©ri ade
Ġinter min
Ġtrsquo es
Ġbaiss Ã©e
Ġremercie ments
Ġaccus ation
Ġfantais ies
ĠEug Ã©nie
Ġdiminu er
ĠdÃ©finit ive
Ġcroiss ante
armer ie
E d
b n
b eaux
s eul
it eurs
Ġr ag
ol or
Ġin qu
ĠV Ã©r
Ġbr ouill
Ġdev ise
ang Ã©e
ĠH ippolyte
Ġdire ct
Ġcour be
Ġco h
ĠPr ok
ĠSa Ã¼l
Ġsuff ire
Ġlrsquoex ception
Ġinterromp ue
ĠobÃ© i
Ġdrsquoautre fois
Ġtourment Ã©
Ġprodig ieuse
Ġaccus Ã©s
Ãİ le
oblig ation
IÃĪ RE
Ġincomp ar
S OU
m Dans
Ġl Ã¢chÃ©
as tres
Ġn oyÃ©
ĠM onck
Ġtr appe
Ġser pents
Ġcont ag
oc a
Ġpay ait
Ġor nements
Ġmurm urer
ĠCar quefou
ĠX II
Ġdout eux
Ġprot Ã¨ge
Ġrecul ant
Ġmanquer ait
cr ois
ĠhaÃ¯ r
Ġraill erie
Ġclam eurs
Ġinexprim able
d uc
n rsquoÃ©tait
p i
Ġ ouvertement
Ã¨ ces
Ġpar bleu
Ġch Ã¨res
ĠV IE
ĠB umble
Ġcr Ã©d
ad ministration
ul ent
ĠF ab
ĠF em
Ġconv al
ĠÃ©l oges
ĠdÃ©v otion
Ġmarch ent
Ġmarch ande
ey ward
Ġtriomp her
Ġallum Ã©e
ĠÃ©touff Ã©e
Ġcre usÃ©
ĠAut ant
ĠRog ojine
ĠDum as
Ġferv eur
ou mi
Ġpr ime
Ġpar esse
ĠV sÃ©volodovitch
Ġex quis
Ġtrouv es
Ã©l Ã©
Ġperd ant
Ġresp ira
ĠÃ©l oigne
Ġretourn Ã¨rent
ĠLrsquo autre
Ġrapport ait
Ġbour reaux
ind iffÃ©rence
ĠmystÃ©ri euses
ĠrÃ©comp enser
imag iner
Ġabord er
Ġdrsquoins truction
Ġamp le
Ġvainqu eurs
Ġmand at
ĠFontaine bleau
Ġconfr Ã¨res
ĠindÃ©fin issable
Ġcu iller
ĠvÃ©t Ã©r
Ġ orth
Ġc ott
le in
Ġb ic
Ġre ines
Ġo ccident
Ġest omac
oc Ã©an
la rs
aill on
Ġfl an
ĠPr oc
ma Ã«l
Ġign oble
ĠMal one
ĠprÃ©par a
Ġrav issante
Ġmeur ent
ro oge
ĠsoupÃ§ onnait
ĠsÃ©d uis
Ġout r
ĠDel amayn
ĠperpÃ©t uelle
ĠChamp ionnet
Ġexig ences
ĠÃ©cart a
Ġpassionn Ã©e
Ã©claire r
ĠC ent
ĠS n
ine vra
ul ant
Ġmal Ã©diction
Ġpens aient
ĠdÃ©p endait
emp run
Ġemp ereur
Ġag itait
Ġpouss Ã¨rent
ĠpÃ©n Ã¨tre
Ġaucune ment
ĠX XX
Ġatta cha
ĠVal noir
Ġmalad roit
Ġremont ait
Ġvertu eux
ĠGen Ã¨ve
Am our
Ġaugment er
Ġlrsquoau be
Ġprononc Ã©s
Ġfamil iers
ĠchÃ¨v res
ĠLÃ©bÃ© dev
Ġ Åĵ
Ġt enus
Ġtr af
Ġlrsquo Un
ĠC av
ĠL inc
Ġsa pin
aire au
Ġent am
ĠÃ© pris
ve y
ĠÃ©p erons
Ġserv ira
Ġbar ques
ĠreÃ§ ois
Ġcouv raient
Ġdess inait
Ġve ine
Ġmod if
Ġobserv ateur
ari o
Ġesc arp
Ġmai rie
Ġaim ant
ĠSur tout
accomp agne
ugu et
Ġerre r
Ġrefer mÃ©e
ĠrÃ©gn a
Ad olphe
Ġtorrent s
ĠdÃ©sh onor
âĢ¦âĢ¦ âĢ¦âĢ¦
ĠSÃ©ch ard
m aÃ®tres
v it
en b
ai ment
Ġp ins
Ã¨ ques
ol at
onn able
Ġgr ange
ĠH offmann
Ġret ient
ĠdÃ©c oncer
ign a
Ã©v itch
Ġag enouill
Ġappr ent
ĠrÃ©c rÃ©
ĠK en
Ġdoi ve
Ġdonne rez
cons id
Ġimport un
ĠIn utile
Ġmag icien
ĠEd mond
ĠmÃ» r
Ġdistinc tes
ĠMad rid
essay ai
Ġpige ons
Ġverr ous
4 7
4 8
I mp
i os
y ph
as que
Ġr ach
Ġh alle
Ġdrsquo ouvrir
Ã® tres
aiss Ã©e
Ġdonn Ã¢t
ĠdÃ©p Ãªch
Ġconv iens
Ġint endant
Ã©ch elle
Ar mand
Ġann onÃ§ant
Ġst im
Ġpouss ent
ĠdÃ©ch irer
mS c
Ġant ip
Ġassi d
Ġinterv alle
Ġplai es
Ġmut uellement
ĠmÃ¢ch oires
Ġchale ure
m des
r at
v rai
Ġl ents
ous tin
ant z
Ġb ains
us h
Ġtr anche
ĠL ut
onn ants
Ġin Ã©g
ac ent
ĠT aupier
ĠÃ© chev
Ġentre z
Ġmoment anÃ©ment
arg eton
Ã¨v res
ĠGr ad
ĠlrsquoÃ©p reuve
Ġappart enir
Ġbatt ue
Ġcolon ies
Ġallum er
Ġavert issement
Ġimpr Ã©c
ĠimpÃ©ri ale
Ġcircul aire
ĠDem andez
ĠpaÃ¯ ens
ĠFland re
uzz le
Ġtabat iÃ¨re
ĠPamph ile
4 1
H assan
r ue
v us
ai des
Ġp usse
Ġc imes
Ġen jou
Ġpr ieur
Ġg osier
Ġlrsquo ayant
ĠC ler
ĠC rsquoÃ©taient
ĠJ uste
ĠP Ã¨tr
Ġdrsquo acier
ĠR as
Ġcar riole
Ġper le
Ġconf esseur
Ġgard aient
Ġver rou
Ġgal eries
ber ry
adm irer
Ġobst inÃ©ment
Ġdrsquoav is
Ġinterv int
ĠMin oret
ĠProv ence
Ġgarant ir
ĠMur d
Ġlrsquoimag ination
Ġbrev et
Ġpale fr
it ut
ch i
Ġpr ou
Ġpl Ã¢tre
pr od
ĠP ass
ĠS ab
Ġgr otesque
Ġnrsquo ayez
ĠV ar
ĠN oir
Ġdev enues
ist ote
ect ions
arr estation
Ġcav es
Ġcharg Ã©es
Ġ18 8
Ġtend us
Ġrass as
ĠQursquo avez
Ġsuppli a
Ġbuv ant
Ġvulg aires
fortun Ã©
ĠBrook e
in vent
Ġn a
Ã©t able
ĠM ouy
ag onie
Ġlrsquo ordinaire
ĠP or
ĠS ib
âĢ¦ .
pp e
Ġdem eures
Ġimp rimÃ©
Ġlrsqu oir
Ġcontre b
Ġdesc endue
Ã©tr oit
ĠrÃ©sol utions
uls ions
ĠBret ons
omn ibus
Ġlrsquoor age
Ġaud acieux
Ġpeint ures
Ġtyr an
ĠBarn stable
Ġraille ur
ĠBertr am
ĠBrouss el
Ġhuss ards
ĠMarne ffe
D Ã©jÃł
O T
U IT
b our
f ormer
i ots
as lin
Ġg o
ĠM oreau
Ġlrsquo ancienne
Ġin offen
ot tÃ©
iv eller
ĠB os
ci el
Ġcomp lÃ©tement
Ġcons tant
ĠprÃ©sent Ã©e
Ġperm ets
Ġcir cons
orme z
Ġbag uette
Ġtrad itions
Ġsignal er
ĠÃ©lÃ©g ance
ĠCont i
ĠrÃ©col te
ĠTri phon
Ġbouc lier
Ġvale urs
oumi khine
ĠLinc oln
Ġl ove
Ã© chÃ©
Ġr ouvrit
Ãª ques
Ġch ameaux
Ġo eu
Ġgr illes
ĠV aut
Ġbr oc
ex tÃ©rieur
oc ier
Ġsuiv antes
mer dia
Ġsal ue
ĠFr eneuse
Ġchar iot
Ġliv ra
Ġfond Ã©e
ĠpÃ¢ lir
Ġoubli a
enne mis
Ġlrsquoun ivers
ĠDes roches
ĠTh or
Ġdisp enser
Ġant iques
Ġdrap eaux
Ġsourd s
Ġpassionn Ã©ment
Ġcorre ction
Ġmonstru eux
ĠAnton io
Ġmouss eline
ĠContinu ez
J ohn
p resque
Ġf est
ur ch
ur iÃ¨re
ont Ã©s
ag Ã¨rent
Ġgr ince
Ġnrsquo arriv
app laud
ĠF le
Ġca hier
art illerie
aud ience
Ġtourn aient
Ġann onÃ§aient
Ġresp ecte
nel s
ĠrÃª nes
ĠAd am
mS CÃĪ
ĠdÃ©sign er
Ġcommiss ionnaire
Ġplant er
ĠfÃ¢ch euse
ĠinfÃ©ri eur
Ġeus se
ĠmÃ¢ch oire
ĠExp lique
m Ã©n
t aire
y t
Ġqu ais
Ġf able
est omac
Ġch aux
Ġlrsquo entend
si p
Ġdrsquo admiration
ĠV and
Ġcomp orte
ĠH us
ĠH ortense
aur as
iÃ© tez
Ġpersonne lles
gr ind
Ġbois son
Ġoccup aient
Ġvoudr aient
ĠBl anc
ĠrÃ©flÃ©ch issait
Ġcontemp lant
Ġnation aux
Ġpla Ã§ant
Ġsoulev Ã©
ĠÃ©criv ains
Ġmante aux
aband on
Ġbarb ier
Ġinqui ets
ĠAg laÃ©
Ġinterrog Ã©
ĠdÃ©ta chÃ©
endorm ir
ĠÃ©par p
ĠCan alis
Ġessuy a
Ġlocat aires
Ġdol lars
ĠBoul ogne
Nicol as
L ou
Ġp ains
Ġj ar
Ġr ust
Ġdrsquo aussi
Ġmon uments
eau l
Ġdev iendra
ĠG inevra
Ġmrsquo ass
Ġmrsquo attend
emp ort
par ler
ĠÃ¢ nes
Ġform ation
Ġcuis ses
Ġaug ure
Ġhau tement
Ġgend armerie
Ġrepar aÃ®tre
ĠnÃ©glig ence
Ġindig Ã¨nes
ĠRapp t
Ġarg ument
ĠcÃ©lÃ©bre r
M lle
ai le
Ġs rsquoimp
Ġv iendrai
Ġr attach
Ġb oir
ĠC itÃ©
Ã©p ouse
Ġin g
Ġnrsquo hÃ©s
ess ence
Ġmrsquo aime
Ġatt ribuer
Ġcond esc
Ġconf ie
Ġint ense
Ġcru che
Ġdess iner
Ġconc itoyens
Ġpubli Ã©
Ġlut tes
Ġfuy ait
Ġdivin itÃ©
Ġmodes tement
ĠdÃ©monstr ation
Ġcharret tes
Ġcorbe ille
B ern
c et
f aut
en heim
rsqu oi
is h
is mes
ch ent
est res
Ġpas sez
ag ez
ĠÃ©t offe
Ã©c ris
ĠA yez
Ġcr Ã¨me
ĠN em
Ġchem ises
Ã©par able
Ġremar ques
th azar
Ġcaus Ã©e
Ġfac iles
ind er
ĠaperÃ§ urent
ĠÃ©chapp e
Ġcharm ants
ĠmÃ©d itations
Ġgui d
Ġsalu Ã©
Ġvainc us
EN D
ĠrÃ©gn er
ĠrÃ©fug ier
ĠÃ©qu ilibre
enouill a
Ġcalomn ie
ĠMich u
ĠYv onne
Dav id
L I
M A
M ademoiselle
Ġb agne
Ġav idement
Ġsur lendemain
Ġgr Ã¨ve
ĠB eule
Ġcor ruption
ied s
Ġexp lor
ĠMa jor
Ġbas t
Ġpuiss ances
Ġfix ait
Ch aque
ĠhÃ©s itant
Ġconsol ations
Ġsuppos Ã©
Ã©tabl issement
ĠdÃ©velopp er
Ġlrsquoacc us
Ġplong Ã©e
Ġsouver aine
ĠMars ay
ĠMer lin
ĠThÃ© Ã¢tre
exam iner
ĠVirg ile
ĠHare dale
ĠCur umilla
Ġgaill ards
merdia kov
i bre
Ġc reuse
Ġf Ã©es
Ġav oua
Ġg ou
Ġgr asse
ĠV ienne
Ġfor Ã§a
ĠdÃ©s honneur
Ġrev enez
emp ressa
Ġconf iant
Ġvol ant
quet tes
ĠprÃ© al
ĠreÃ§ ues
Ġram Ã¨ne
Ġpoign ets
Al ain
ĠsÃ©v Ã¨res
Ġindiqu ant
ĠBal zac
Ġmanif ester
Ġcompt ais
ĠboÃ® tes
Ġincl ination
Ġredress ant
ĠexpÃ©riment ale
Ġrenf erm
Ġindust ri
ĠdÃ©fens eur
Ġessenti ellement
O IS
m ains
an cher
et z
ĠP iotr
Ġdrsquo ordre
ĠB argeton
Ġdev raient
iss iez
Ġatt est
Ġab attre
Ġmil ady
Ġmari ages
qui Ã©tait
Ġchemin Ã©es
Ġtrouver ons
ĠdÃ©li vre
Ġlrsquoav eu
ĠfranÃ§ais es
Ġsuppose z
land ais
Ġlrsquohab it
Ġtyp es
ĠRO D
Ġobject ions
Ġaltern ativement
ĠSw iveller
ĠaÃ®n Ã©e
ĠSylv estre
f en
Ġn as
al i
ĠT ours
ĠR oss
Ġmar Ã©c
Ã©g o
min ent
ĠÃ©l oge
Ġmurm ures
Ġcompl Ã©ter
Ġconse illÃ©
Ġsaur iez
Ġnot amment
uir land
Ġsus c
Ġriche ment
Ġaccompagn ait
Ġindiqu Ã©e
assent iment
Ġvil aine
Ġconfir mer
ĠsrsquoÃ©cri e
Ġtot ale
sembl Ã©e
Ġchuch ota
Ġintol Ã©rable
- -
H ommes
Ġp ures
Ġc ais
Ġm oll
Ġv iendrez
eu te
Ġf oncÃ©
Ġlrsquo Al
os ant
ĠJ ourd
Ġper tes
Ġentre coup
Ġconn ut
att ent
Ġcl oÃ®tre
Ġind Ã©pendant
Ġrais onnements
Ġcal mes
Ġpat r
Ġimpos ant
Ġinnoc ents
ograph iques
Ġout ils
Ġbouge a
Ġgour mand
ĠGrad grind
4 9
l aine
v oit
Ġh oll
si mp
Ġsrsquo all
Ġcr Ãª
ĠN az
ĠN anon
Ġdev iendrait
Ġdire ctions
Ġind ice
ĠdÃ©f ends
ĠprÃ©sent es
oqu ant
ĠhÃ©r iss
Ġtent a
Ġore iller
ĠsupÃ©ri eures
ev na
ĠrÃ©d uits
ĠÃ©criv ain
Ġod ieuse
ĠprÃ©occup ations
uch on
Ġcontrad iction
Ġaffai bl
Ġsh ill
Ġquotid ienne
Ġsymb ole
ĠBenn et
R oland
p Ã©t
u et
Ġd oci
Ġg est
Ġlrsquo Ã©clair
Ġsur plus
Ġdrsquo attention
un is
ĠG am
Ġcomp ens
ĠH erm
Ġcour onnes
Ġentre voir
ex poser
Ġroi de
Ġrep asser
Ġconnaiss iez
Ġrecomm ence
ray e
Ch icot
ric k
Ġentr Ã¢mes
ĠLor ris
Ġlrsquoacc ent
Ġbruy Ã¨re
Ġregagn a
Ġassembl Ã©es
Ġmass acre
ĠCamb ry
ĠSÃ©r aph
Ġprinc esses
N A
f ig
h all
y rs
ai ley
Ġv Ã©c
Ġdrsquo effroi
ĠD om
Ġex termin
Ġret irait
ĠrÃ©s iste
Ġind Ã©pend
ouss aint
Ġcapit aux
ĠrÃ©v erb
Ġpuiss ions
ĠVal Ã©rie
Ġimag in
Ġfur ie
ro quet
ĠtÃ©moign a
pre mier
Ġenfer mÃ©e
Ġchanc elant
Ġfrag ment
Ã¨ner a
Ġconcern ant
ĠCha mps
o e
r ob
ar ne
Ġn oix
Ġg rel
Ġlrsquo ap
ĠP este
ĠS ac
ĠD ar
ill ac
ill ante
Ġbr anc
Ġpart aient
Ġai le
Ġjou ent
bl anc
ĠCom itÃ©
Ġmois son
Ġess ai
Ġcav eau
ĠÃ©lev ant
Ġpersonn alitÃ©
Ġvertu euse
Ġk n
Ġreb ord
Ġflamb eaux
Ġprolong Ã©
Ġcompatri ote
ĠDin ah
E M
I G
a uss
c eux
r udence
ou k
ĠL ow
ab eau
ut ilitÃ©
Ġdrsquo envoyer
ĠÃ© chant
ĠrÃ©p liqu
Ġmrsquo aurait
Ġsort ira
Ġemp reinte
Ġmen us
Ġpen sive
env ers
enc er
ĠAl pes
Ġhasard a
ĠlrsquoÃ©t ude
yr am
Ġindiqu a
ĠMari ette
Ġjur y
Ġlant ernes
Ġcourtis ane
Ġenvah i
RI GUE
ĠPart out
ĠPrÃ©s ident
I R
Ġp Ã©tr
re mar
ĠP oint
ĠB es
ĠR av
imp any
Ġcompr ise
Ġim iter
Ġbar riÃ¨res
Ġesp ions
Ġsupp lier
Ġpare r
Ġlrsquoav enue
LE S
ĠprÃ©t endue
attend rai
Ġpriv ations
ro Ã®tre
Ġemport Ã©e
Ġmun itions
Ġth Ã¨se
Ġmord it
Ġsoud ainement
Ġtroubl ait
Ġroman esque
lieu tenant
Ġsen sibles
cad Ã©mie
Ġlrsquoinc endie
Ġsorc ier
ĠcollÃ© ge
Ġcarav ane
Hol mes
m ation
m ile
ai bl
Ġa qu
Ġv aisselle
om Ã¨tre
Ġpour voir
ĠN an
ul n
Ġmal s
Ġcl aires
Ġoff res
Ġtrouver ais
Ġinf lig
Ġinv ari
Ġdom ination
ĠSe pt
Ġpron once
ĠhÃ©r Ã©d
Ġdout a
Ġcuis inier
Ġappart enaient
Ġadress ait
oubli ais
Ġvig oureuse
ĠGal mot
ĠingÃ©n ieux
Ġbataill ons
Ġens ang
acci olo
C laud
b in
f aud
m ari
Ġs cept
ch ons
Ġpar ade
ĠM o
Ġtr ent
ĠÃ©t onnante
tÃ© resse
ĠLa wton
Ġimp rimer
Ġserv itude
Ġlrsquoh onn
ĠSi kes
Ġparl iez
ĠGr ise
Ġrent rÃ¨rent
Ġemb au
Ġemb ell
Ġgent iment
Ġinterr uption
Ġrencont res
ĠMaur es
Ġaband onnÃ©s
Ġlrsquoar ch
Ġfavor ables
ĠY ork
Ãīt ienne
ĠdÃ©sign a
Ġmun i
Ġprotest ations
ĠgÃ¢ tÃ©
Ġenr agÃ©
avis ham
ĠPol onais
Ġafflig Ã©
ĠWh arton
Ġsach iez
d ieu
o tement
r dquo
t aient
Ġd resse
re ine
Ġm ors
Ġf Ã©b
Ġr onds
Ġg ymn
ĠM ass
onn antes
Ġdrsquo Ã©motion
ore l
Ġcar rÃ©s
Ġfor ger
ler ai
Ġimp lor
oc ris
ib res
aill an
En suite
ett a
Ġperm ettaient
ĠpÃ¢ te
Ġhabit ent
Ġhabit ant
Ġmus eau
Ġpasse port
Ġcoul aient
mV OUS
red ge
ĠÃ©d if
ara on
Ġfriss onner
Ġpan iers
Ġcoiff Ã©e
ĠÃ©pouvant Ã©e
Ġexpri ma
Ġvaill ants
Ġposit if
rsquoimag ine
Ġparis ien
wood ie
ĠThÃ© od
ĠCast el
Ġinsouci ance
Ġext ase
Ġsupers t
Ġredoub la
Ġsrsquoincl inant
emmen a
mAd resse
Ġsure xc
ĠROD RIGUE
4 3
l orsqu
Ã ĩ
Ġd urent
Ġt ille
au bergiste
Ġlrsquo eut
ĠS Ã©v
Ġdrsquo aujourdrsquohui
ĠD O
Ġsrsquo ouvrait
ĠB ingley
id ait
ess ai
Ġaux ili
ĠF inot
Ġam as
Ã©d ifice
ĠEn v
Ġgu en
och on
ĠFr apillon
Ġsorte z
Ġpropre tÃ©
toi le
ĠdÃ©pos ition
Ġpersuad Ã©e
Ġbrut ale
ĠprÃ©cipit Ã¨rent
ĠCap itaine
ĠCla Ã«s
ĠfÃ©r ocitÃ©
a ac
Ġt iendra
Ġv aines
Ġla mes
Ġr acheter
ĠM ul
Ġnrsquo entendait
Ã´ nes
Ġall ures
ale b
ĠdÃ©p assait
Ġconv ention
Ã©v en
min istre
Ġinf atig
Ġpuiss antes
oss er
ĠdÃ©clar ant
inter roge
ĠÃ©n ormÃ©ment
ĠdÃ©l it
Ġamb assadeur
Ġjur Ã©s
fem mes
ĠmÃ©can ique
Ġtronc s
Ġhost ile
Ġcis eaux
B al
T ant
p a
Ġf oire
Ġr ousse
Ġb ott
Ġpar ure
Ġsur c
ĠS cha
ard on
Ġsrsquo expliquer
omb es
ĠH avisham
Ġfort ifications
Ġcap ric
ĠSi x
Ġrend e
Ġperm ettent
ach t
th on
Ġdom aines
Ġexc iter
ub in
ind ividu
ĠdÃ©r oul
ĠPas cal
ĠTh ou
obs cur
usc ade
Ġsuppos ait
Ġmons tres
Ġlac s
Ġprotest ant
Ġench antement
Se igneur
Ġgrad uellement
Ġinfern al
I r
p ell
r oite
in fini
ch aient
ol oca
ĠV impany
ĠN at
ll a
Ġmar Ã©ch
ĠÃ©c uyers
erre z
ler a
Ġvis ibles
Ġnom ination
Ġfl atte
ĠÃī lisabeth
ell ente
Ġcomment aires
Ġsp ort
Qu rsquo
ĠGr aslin
Ġchant a
tru ct
Ġcit ad
Ġimmob ilitÃ©
Ġsouffr ante
Ġembarr assÃ©e
Ġorgan isation
Ġsanglot ant
Ġinqu iÃ©tez
ĠRas oumikhine
ai rie
Ġc erf
ais ance
Ġb aisse
ut Ã©
ĠS um
ac ces
ux elles
ure uil
ens iles
ĠdÃ©c Ã¨s
Ġsent ent
Ġarriv Ã©es
Ġconf iÃ©e
Ġvol et
mC orrections
Ġsup erbes
mM on
ĠdÃ©tourn Ã©
Ġrefer mer
QU E
Ġsourde ment
Ã¨ner ai
ull in
Ġordonn ance
Ġporc elaine
alli ance
ĠdÃ©te ctive
b s
w it
Ġt iendr
Ġla zz
Ġav enue
ĠM ose
ĠL izz
am Ã¨ne
li min
Ġdrsquo espoir
ĠV is
ĠB Ã©n
ad ore
op le
Ġtrouv Ã¢t
Ġfem elle
Ġgrand ir
Ġpay a
Ġgu inÃ©es
Ġint it
anche ments
Ġfac il
Ġram enait
Ġmoyen nant
Ġracont ant
ĠrÃ©un i
Ġsonge ais
Ġpopul ace
Ġrapproch Ã©
Ġrapproch ait
Ġamic al
ĠSyl vie
ĠÃ©vent ail
Ġdrsquohor reur
ĠMurd stone
d onner
Ġm oue
Ġv irg
Ġf ure
in de
Ġr uses
Ġb erc
Ġb aissait
Ġb ontÃ©s
Ġch inois
ĠÃ©t offes
ab or
Ã©r aient
aut our
Ġemp reint
Ġjet ter
Ġreconn aissez
ah a
oci ation
Ġrefus ez
Ġdemeur ant
Ġspect acles
Ġentour aient
ĠPard aillan
conn ais
Ġhonor Ã©
Fr ance
Ġincl ina
ĠPhil ist
ĠdrsquoAl enÃ§on
Ġrecond uire
Ġennuy eux
ĠFair lie
ĠprÃ©serv er
D rsquoun
m ne
p ente
ou m
it Ã¨rent
Ġav isÃ©
ch oses
Ġpr udemment
ĠC Ã©n
ĠN rsquoimporte
Ġdev ra
Ġsu ave
Ġcomp ose
Ġper cepteur
ourn al
Ġfais iez
ĠÃ©p er
Ġjou it
Ġref aire
ĠPr inces
Ġconc ili
Ġgouver ne
Ã©h ension
ĠBal thazar
Ġbrig ade
ĠSc rooge
Ġcuir asse
Ġaud ience
Ġmart yr
ĠLorsqu rsquoil
Ġfrot ter
Ġali ment
f it
p ouss
p auvre
ai gre
ou reur
Ġt averne
as tes
el m
ol ent
ill s
ill is
ad i
Ġjrsquo allai
Ġpuis qursquoelle
Ġcons um
ĠÃ©c oles
Ġcor n
Ġfl anqu
Ġdrsqu oid
Ġinv iter
Ġdess erv
Ġcommun ion
Ġcous ins
Ġlrsquoatt itude
Ġrenvers Ã©e
Ġaveu gles
Ġaccep te
ĠdÃ©termin ation
ĠrÃ©jou it
Ġsrsquoemp arer
ĠJust ice
Ġsoign Ã©
Ġroule au
Ġdrsquoam itiÃ©
Ġrever rai
Ġreproch ait
Ġtransm ettre
Val entin
uzzle wit
m Elle
Ġs aine
in ue
ĠE ternel
ĠS erait
Ġdrsquo Ã©tÃ©
ĠB ell
ill usion
ĠrÃ©p art
Ġam enait
Ġenc or
Ġcons ens
Ãī lys
Ġsub j
Ġimpos Ã©
Ġrempl issaient
ind ignation
Ġsacrif iÃ©
mT exte
Ġhard ie
Ġbris Ã©s
ĠMari an
Ġaigu ille
Ġdoc uments
Ġfugit if
ĠmÃ©can isme
ĠfÃ©min in
ĠHug ues
Ġsanc t
Ġtran chant
mSc Ã¨ne
M il
g al
en lever
ant in
Ġb arr
Ġles tement
Ã©t ernitÃ©
Ã©t offe
ĠP apa
ĠT ou
app uyer
Ġpass ais
Ġper dr
Ġenf onÃ§a
are ment
ĠÃ©v idence
Ġenfant ine
Ġdix iÃ¨me
Ã©tr anges
ĠprÃ©v oy
Ġdrsquoh iver
ĠdÃ©ch iff
ĠVal entine
ĠsÃ©par Ã©es
Ġlrsquoar me
ĠsÃ© ant
ivers aire
imag ine
ĠprÃ©d it
Ġaugment ait
Ġdil at
ĠJul ien
ĠPier rot
anth rop
ĠrÃ©chauff er
ĠNormand ie
Ã©riade c
j ure
m r
m ir
m auv
s rsquoÃ©tait
v iv
v ues
Ġl Ã©
Ġl ouv
er y
Ġt enons
Ġla pins
in n
Ġj onc
Ġav ances
Ġne f
res sez
Ġdrsquo ajouter
oy Ã©s
tÃ© nu
Ġpers iste
aur ont
Ġass ort
Ġpay Ã©e
Ġind ulgence
cl os
Ġmen Ã©e
rais on
Ġpen cher
Ġriv iÃ¨res
Ġlrsquoex tÃ©rieur
Ġnot ion
Ġaccompagn a
Ġcommiss aires
Ġpend us
Ġrassembl Ã©s
Ġgross iers
Ġnaufr age
Ġacclam ations
A uc
a Ã§a
d itÃ©
l ette
t ourn
Ġp entes
Ġt ige
ĠM oyen
Ġdans ait
res pect
ĠB ay
ĠR iv
ĠR ay
ĠLa Ã¯
ins pecteur
Ġaff ectÃ©
Ġfin is
ĠI one
Ġag ita
Ġach arn
emb arr
noc ent
anim aux
Ġlrsquoatt aque
ĠdÃ©l Ã©g
eng agement
Ġbri Ã¨vement
ĠCol ette
ĠgÃ©m ir
Ġrejet Ã©
Ã± or
entr ion
Ġinstit utions
Ġhypoth Ã¨se
A lex
Ġd and
Ġd og
oi ve
Ġg onds
Ġsur intendant
ĠP ri
ĠB u
Ġpro se
Ã©n us
ay a
Ġat ter
Ġni che
Ã©cri e
Ġhaut ain
Ġref rain
Ã¨v era
ich on
Ġmouv oir
Ġsac rÃ©s
Ġremarqu ait
Ġsaur aient
Ġterr ains
Ġsrsquoav anÃ§ant
ĠimmÃ©dia te
ĠÃ©loign er
Ġban lieue
Ġflamb eau
ĠMan icamp
ĠinfÃ©ri eurs
Ġgrond er
ĠFrank land
Ġaccueill it
ĠRog ron
Ġcombatt u
ĠBaud raye
Ġprune lles
a tement
m ieux
v enait
Ã©t onner
Ġpar chemin
ĠM Ã©n
Ġpl uies
Ġh our
Ġh arnais
Ġlrsquo ancre
ĠC Ã©l
Ġin erte
ĠD urant
Ġsrsquo hab
Ġsrsquo ouvrir
Ġex quise
ĠR ac
ul Ã©s
ul aires
ĠG aut
ĠF at
Ġcont ours
Ġeff acer
emp ress
Ġass omb
Ġinc or
Ġtravers Ã¨rent
Ġver ger
amb ule
Ġsub ord
ĠaperÃ§ us
tru ctions
ĠprÃ©f Ã©rait
Ġtravaill ant
Ġlrsquoemp ire
ĠdÃ©pl oyer
Ġ5 0
Ġdir ont
Ġbouge ait
ĠJos Ã©
Ġappliqu Ã©
accompl issement
Ġpantouf les
d Ã©b
m au
s oup
Ã© lique
Ġc Ã¨de
Ġv Ã©cut
ar k
Ġu st
uis ez
ĠS id
Ġcr ue
ess entiel
Ġcons ultÃ©
itu Ã©e
Ġpens ionnaires
Ġan neaux
Ġrest Ã¢t
Ġchar itable
Ġmit raille
Ġinv rais
Ġmor ibond
Ġgent illes
ĠdÃ©g oÃ»
Ġimport ait
Ġressent ir
Ġloint aines
Ġcaress ait
Ġboul anger
Ġmoqu eur
Ġimpert urb
Ġallong Ã©
ĠmÃ¢ les
h ood
m K
qu ante
Ġn ois
ch arg
Ġcon cev
ĠB ouss
ĠB ourse
Ġmar it
Ġam ateur
gn ka
Ġmrsquo eÃ»t
all an
Ġfin issent
Ġsol itaires
ourd ie
cha que
Ġprod uisent
ĠrÃ©v Ã©rend
atis me
ĠsÃ© journ
Ġimag inaire
ĠCor alie
Ġdisp on
ouche gnka
yl ward
Ġsiff lant
ĠsÃ©d uit
ĠÃ©tincel ants
exam en
ĠVinc ennes
ignor ance
Ġpup itre
Ġbass esse
Ġvigil ance
Ġclassi que
Ġpatriot isme
h ib
p ant
Ġp iv
oi ement
Ġg olfe
ĠS ent
Ġmon arque
Ġsrsquo ad
ĠH avre
Ġport ail
all on
Ġeff ront
Ġcap e
Ġesp Ã¨re
Ġpress aient
ĠdÃ©ch aÃ®
Ġsrsquoin terromp
Ġha usse
Ġpun ch
ĠÃ©touff er
Ġdirig Ã¨rent
Ġbruy ant
Ġdistr actions
ider hood
ĠJÃ©r Ã´me
Ġbienfait eur
Ġcarn et
Ġindisc rÃ©tion
Ġinfir m
Ġconfr Ã¨re
Ġcueill ir
ĠvoÃ» tes
allÃ©g resse
O cÃ©an
u aire
re mont
il ia
ch t
Ġg og
Ġlrsquo eff
Ġdrsquo Ã©l
ĠG aulois
app orte
Ġfl Ã»
Je anne
Ġinc rÃ©d
ys tÃ©
Ġlib Ã©ral
cin Ã©e
ĠsiÃ¨ ges
ĠdÃ©ch ira
ha k
Ġout rage
Ġattr aper
Ġcapt if
Ġexerc Ã©
Ġroyal iste
ĠdÃ©guis ement
Ġcroir a
Ġboul et
Ġgrim aces
oug h
** *
Henri ette
Ġinfern ale
ĠdÃ©cis if
Ġflat tÃ©
ĠPouv ez
Ġcott age
C r
H onorÃ©
l ante
ent endant
Ġt i
il er
Ġla con
Ġb isc
Ġg arr
Ġlrsquo admiration
ĠC out
iv resse
Ġcr oÃ»te
ĠG ontran
ĠLa f
ĠCh uzzlewit
oc ats
Ġcrois ant
ĠÃ¢ ges
bl ay
ĠprÃ© cep
Ġimpos ante
Ġadm irait
Ġattend ais
Ġconst itue
ĠdÃ©r angÃ©
ĠprÃ©cip ite
mL A
eng agea
ĠdÃ©sign ait
Ġaffir ma
Ġdor Ã©es
ĠAtt ention
Ġfar ce
Ġcaress er
Ġlrsquoaut oritÃ©
Ġfuy ant
Ġphot ographie
ĠinouÃ¯ e
Arth ur
Ġgred in
illus tre
Gen eviÃ¨ve
g ents
m ins
m st
m Par
Ġ =
an xiÃ©tÃ©
in quiÃ©ter
Ġpr Ãªtes
Ġg elÃ©e
Ã©p ouvant
onn ade
ier gerie
Ġgr aines
ĠH art
Ġserv irait
ĠrÃ©s ignÃ©
ĠrÃ©v Ã¨le
Ġir as
Ġdrsquoh ier
ĠlrsquoÃ©c urie
mar tre
Ġexpos Ã©e
Ġfun Ã©r
andre y
ĠfÃ©lic iter
ĠrÃ©fug iÃ©s
ĠdÃ©cour agement
Ġapprouv a
hard y
Ġrican ant
ĠVol taire
ĠAth an
ĠChÃ¢t elet
Ġcorrig er
ocris ie
m estre
r obe
Ġp urs
Ġm ic
Ġlrsquo ardeur
res te
Ġnrsquo Ã©tant
Ġcr urent
Ġqursquo avez
esp Ã©rer
Ġmrsquo avaient
Ã©ri a
Ġrec on
ĠdÃ©p asse
nes se
ĠÃ©ch arpe
Ġop Ã©rÃ©
Ġhor reurs
mil ie
ĠÃ©tud iants
Ġrense ignÃ©
Ġhard is
Ġlrsquoaut el
ĠsrsquoÃ©c art
Ġpressent iments
Ġressort ir
Ġremu ait
Ġvoil Ã©e
Ġarrange ment
effort s
Ġrenvoy a
Ġvid a
Ġdauph in
Ġerr ants
Ġinfailli ble
Ġchan oine
ĠBaranc os
Ã¨ tent
ouv rant
Ġlrsquo oblige
am be
Ġsrsquo Ã©chapper
ĠB riÃ¨re
ĠR ec
ĠG aud
Ġfer ment
Ġsour iante
Ġoff ice
ira te
ĠrÃ©g ularitÃ©
Ġduc ats
Ġexc ent
Ġnour rit
Ġconsc ien
Ġbatt ent
Ġsoul ager
Ã®n mes
Ġfatig uer
Ã©chapp e
com ment
Ġavert is
Ġheur ta
Ġprobl Ã¨mes
ID AN
ĠSauv ages
ĠBette redge
L eur
c ival
w in
Ġl ancÃ©e
Ġp ires
Ġs agement
oi les
oi tes
ur in
ur opÃ©
ĠL une
ĠB y
tr ophe
att u
Ġprof itant
Ġfam ine
Ġbat tement
Ġir on
ĠAll en
Ġposs Ã¨dent
Ġsus cept
agrÃ© ment
Ġais ance
Ġrond es
Ġpoul s
ĠrÃ´ les
interromp it
ĠHoll andais
ĠPrÃ© f
ĠecclÃ©si astique
Ġtuli pe
ĠGouver nement
expl oit
f rey
m Ã©es
p asser
y dia
rs Ã¨ne
Ġh ommages
ab st
pr ob
ĠV arden
ĠB aisemeaux
Ġex altation
Ġtu a
Ġavant ageux
Ġtomb ai
Ar gent
Ġfig urait
Ġlrsquoin quiÃ©tude
Ġbal anÃ§ait
Ġchap elet
Ã« t
Ġchant Ã©
Ġhor izon
Ġcach Ã©es
Ġexam inait
Ġlrsquoimp ortance
Ġlrsquoint elligence
Ġassi ettes
Ġth Ã¨me
Ġfrag ile
Ġennuy Ã©
Ġsrsquooccup ait
Ġintellect uelle
Ġcroch et
issi me
eaul x
H Ã©las
Ġc up
le e
Ġj as
ont aine
Ġpl um
ouv ille
Ġbien heureux
ĠF ri
Ġai mes
Ġjus tesse
ĠH ow
up man
Ġsort ies
arr ou
Ġcri ai
emp arer
ĠprÃ©c ises
ĠprÃ©sent aient
Ġoff raient
Ġcent imes
ĠNe le
Ġconst ance
Ġfur ieusement
ĠrÃ©d ig
Ġpav Ã©s
vis age
Ġtrad uire
Ġtrad uction
UR IDAN
Ġrejet er
imm ob
Ġchal et
Ġench aÃ®
Ġmul et
Ġappare il
Ġbourd onnement
Ã©vÃ© nements
ĠdÃ©fens eurs
ĠSouff lard
ĠProk of
Ġcais sier
ĠMose ley
a ches
d ition
m Une
s oit
Ġl dquo
Ã©t endre
Ġun if
ĠS or
ĠS merdiakov
li ocha
ĠdÃ© pr
ĠT od
ĠR uff
ĠF inalement
Ġjrsquo aperÃ§us
Ġmal ic
Ġaff ranch
Ġpen che
Ġsout ient
ĠMont joie
Ġtravaill ent
Ġdress Ã©e
Ġsinc Ã¨res
ver bal
Ġcig ares
Ġnoct urnes
Ġreconnaiss ante
Ġordonn ances
Ġsubt il
Ġgrogn a
Ġanx ieux
d ette
d Ã©m
Ġs ob
as es
Ġb amb
Ġlrsquo esclave
ĠC ord
ĠL ieu
li f
Ġnrsquo auraient
ĠT ol
Ġbr unes
Ġrec our
Ġeff usion
Ġjou a
Ġcontinu ai
ĠAn g
Ġid ole
Ã©par gner
Ġbal ustr
Ġextr Ãªmes
Ġhasard s
Ġsept entrion
Ġaband onne
Ġsus ceptible
Ġcli quet
Ġretent irent
Ġpot ence
Ġcorrid ors
ĠLyd ia
OL MES
entour aient
ĠDun woodie
souv ent
Ġjudici aire
p ass
r Ã¢t
Ġc uire
Ġr iez
ol in
ĠO ber
Ġatt ire
Ġins ulte
Ġpens ions
Ġtomb es
omm euse
antes ques
Ġrep orter
ĠrÃ©g lÃ©
Ġhabit ations
Ġlrsquoai der
Ġmod ifier
Ġrencont rent
Ġmrsquoen n
Ġbais ant
ĠtraÃ® nÃ©
mV I
Ġsrsquoin tÃ©ress
Ġemport ait
ĠhonnÃªte ment
ĠfrÃ©m it
ĠdÃ©guis er
Ġprononc Ã©e
Ġiv resse
Ġassassin at
REM IER
Ġanony me
E r
o eu
es ol
Ġs Ã©c
Ġs ceau
Ġpar ages
ri pp
ab ilitÃ©s
Ġmon des
Ã¢ tes
ĠT upman
ass urance
ĠrÃ©pond rai
Ġpos itions
ĠU l
Ġpe ign
Ġconv ertir
Ġgu Ã©
Ġemp arÃ©
Ġtrouver as
Ġsurpr end
ĠMont g
inter rog
aperÃ§ oit
ĠmÃ©m oires
Ġcompos aient
ĠÃ©d ifice
Ġmess agers
Ġlrsquoexp lication
Ġsurveill ait
ĠsrsquoÃ©cri Ã¨rent
istocr atie
Ġintrig ues
ĠfiÃ©v reuse
Ġtuy au
ĠThor pe
n uit
o et
z aines
Ã© nement
Ġs truct
on cev
Ġf ie
as on
Ġh e
ĠC aÃ¯
ĠL Ã©n
ut Ã´t
Ġdit s
ĠA D
ge ois
ĠT w
Ġex al
Ġam usement
Ġentre faites
Ġsupp lÃ©
Ġhabit aient
ust ine
Ġpubli er
Ġ18 30
Ġprot ester
Ġvict oires
ĠÃ©chapp a
Ġaband on
ĠreprÃ©sent Ã©
Ġaccompagn Ã©s
Ġpoign Ã©es
Ã©chapp a
Ġbag age
Ġquitt ai
Ġsympath ies
ĠAg ar
ĠGal a
Ġcoff ret
Ġchauff er
ĠmÃ¢t s
Ġsuperf ici
Ġdrsquoi v
ĠpÃ¢l issant
wig s
ĠBarth Ã¨le
er blay
eu ve
Ġla tÃ©r
ag eur
out res
ac tes
Ã§ ai
Ġsrsquo apercevoir
ĠB ib
Ġcr aqu
Ġfais ions
ĠrÃ©s umÃ©
Ġter mine
ouss et
Ġinc endie
Ġquit tez
ĠÃ©v Ãªques
ĠÃ©ch ouÃ©
Ġsrsquoen v
Ġappel s
ĠCar los
ĠCar acciolo
ĠprÃ©t endant
Ġru iner
ĠmÃ©pris ant
Ġbond issant
Ġenvelopp Ã©s
ĠsÃ©d uire
Ġpais ibles
Ġber ge
ĠirrÃ© v
Ġcrit iques
ĠgÃ¢ teau
ĠgÃ¢ teaux
ĠsuccÃ©d a
ĠSouv igny
ĠMay enne
Plus ieurs
aÃ« r
ĠWood house
l ay
o ctobre
s atis
Ġ oss
on el
Ġf Ã©l
om Ã¨re
Ġr anÃ§on
ch im
pr ov
ĠE ustache
Ġent rent
id ge
ord onne
ĠG og
Ġcont enue
ĠÃ©l arg
Ġconst ate
De vant
Ġrav issement
Ġlrsquoent raÃ®
Ġbaiss Ã©
adm ets
Ġrecommand ations
ĠdÃ©tourn ant
Ġmarchand ise
Ġaffir me
Ġabatt ue
Ġflatt eur
ĠAut richiens
mXX X
Ġtourb ill
Ġindispens ables
ĠrafraÃ®ch ir
Ġlrsquoimm ense
ĠvÃ©gÃ©t ation
ĠReste z
ĠtÃ¢ch ez
ĠintrÃ©p ide
Ġinflex ible
Ġraj eu
E ug
m ouv
m Pour
t is
Ġl ie
Ġf arc
is ations
Ãª les
am ertume
ĠJ ah
ĠP Ã©l
ĠA U
ĠD oun
Ġser ments
Ġman ch
Ġcap uchon
An d
ĠreÃ§ urent
ĠthÃ© ologie
Ġchamp ion
Ġsoul Ã¨ve
cre di
Ġplai rait
Ġlrsquoart iste
Ġiv rogne
Ġdrsquoint elligence
ĠPavl ovna
envelopp e
Ġguillot ine
Ġdram atique
Ġtrent aine
B URIDAN
T O
h Ã´tesse
n om
eu ble
Ġf end
Ġf out
Ġf red
it ures
il ien
Ġj o
Ġr ot
Ġb iche
Ġun ie
ĠM Ã¨re
Ġlrsquo agent
Ã©s ies
Ġsur m
gn ait
Ġrev ienne
Ġemp reintes
Ġind ications
Ġchar pentier
Ġjou et
Ġprop ice
Ġbat tements
Ġtir oirs
Ġrelev Ã©e
Ġpoursuiv ant
ari at
emb ras
ĠDrsquo autres
Ã©ric ain
ĠPl ace
ĠÃ©pouv ante
Ġpip es
Ġlab our
ĠLis ez
ĠdÃ©daigne usement
ĠGor iot
ĠcoÃ»t ait
Ġfact eur
puiss ant
ĠGod frey
ĠMikhaÃ¯l ovna
ĠKen wigs
F lor
o cc
t rsquoen
Ġp itoyable
on er
Ġt ois
Ġt arde
Ġun anime
Ġpl aise
Ġh iÃ©r
os o
pr end
Ġdrsquo aimer
ĠD ie
ic an
ul gent
ĠF Ã©lix
Ġper roquet
ĠrÃ©pond aient
Ġdou ai
Ġconf ia
Ġind ire
quer ie
Ġcert ific
ĠW at
Ġag onie
acc ident
Ãī E
Ġinv ita
Ġhabit Ã©e
ĠthÃ© Ã¢tres
ow er
ĠtraÃ® neau
Ġconcl usions
Ġmange ant
Ġtoil ettes
Ġanglais es
Ã©ph ine
ograph es
Ġbrav er
Ġsrsquoenf uit
Ġexig er
Ġexige ait
Ġmul Ã¢tre
ĠÃ©bran lÃ©
Ġnorm al
Ġengage ments
ĠdÃ©pour vu
ĠDo cteur
ĠLup eaulx
ĠclÃ´t ure
ĠHus lin
M ignonne
i ana
m g
Ġf ain
Ġb illard
au bert
Ġh os
ĠC aleb
un ion
ĠT oussaint
ine ux
itÃ© es
ĠG anges
Ġven iez
imp ossible
Ġdemand Ã©e
Ġimp itoy
ect ivement
Ġcap ote
ia que
Ã©ch ange
Ġver m
Ġexc us
Ġviol ettes
ind ustrie
Ġroy ales
one y
Ġoblig er
ĠCr um
ĠBl ack
Ġplaisant er
Ġmanquer a
ĠfrÃ©m issant
ĠVer laine
Ġmend iants
ĠdÃ©vor ait
Ġlrsquoi v
ĠTar ascon
ĠdrsquoOr cival
Ġenflam mÃ©
ĠLouv e
ĠOs car
Ġd ose
an ique
Ġm ailles
Ġt iendrai
te xtes
Ġn ud
Ġse mÃ©
Ġma re
Ġnrsquo existe
Ġcr ises
ang Ã©l
Ġmar ionn
Ġam user
Ġcomp Ã©t
Ġdi ale
Ġjam bon
Ġpens ionnaire
ĠBr ay
Ġexc usez
ott a
Ġtir ai
Ġpartir ai
ĠÃ©clat ait
Ġtrembl antes
ĠAs ie
Ġrepart ir
Ġrapproch Ã©s
ĠprÃ©d ic
Ġtaill Ã©
ĠrÃ©t abli
ĠLu ce
ĠAndrÃ© ievna
ÅĴ il
Ġprimit ive
Ġfurt ivement
ĠLÃ©g ion
Fel ice
ĠirrÃ©proch able
M r
d Ã©jÃł
u jet
v ient
Ġqu ar
Ġv ierges
Ġb onnets
Ġlrsquo affection
os ais
ĠP ommeuse
ot he
ĠO l
ĠO ph
ĠG re
Ġdemand era
Ġimp ud
ĠrÃ©s istÃ©
Ġoff erte
Ġcroy ons
exp Ã©riment
ĠÃ©l u
ĠGr ouchegnka
Ġbat teries
Ġsign a
ĠBr iss
Ġnu Ã©e
Ġexc user
Ġproc urÃ©
Ġop iniÃ¢tre
ĠDrsquo aprÃ¨s
Ġinterromp re
ĠobÃ© issant
Ġlrsquoatt endre
Ġinj ustice
Ġmanif esta
ĠÃ©tabl is
Ġdor ment
ĠVer inder
ĠÃ©tincel ant
Ġloc al
Ġmajest ueuse
ĠimprÃ© vue
Ġconseille rs
Salv ator
Ġsquel ette
qu Ã©es
qu Ãªtes
Ġp ile
Ġc ierges
Ġn aiss
Ġb ox
Ġav anÃ§ant
Ġg amb
Ġlrsquo avantage
li ps
ĠD ul
un itÃ©
ĠV it
ĠT es
tr uire
ĠR ok
ex t
Ġpoint u
Ġaff ectant
emp je
Ġprof ite
Ġind ien
Ġor nement
aff ect
ĠrÃ©f orm
Ġcamp agn
Ġjuge ments
Ġbut te
Ġparv enus
Ġtrembl a
ĠAm adis
Ġrecommand a
ĠCour te
Ã©rÃ©m ie
Ġvainc ue
Ġvieil li
ĠSc aÃ«r
ĠprotÃ©g Ã©e
Ġflot ter
ĠÃ©puis Ã©e
Ġrug issement
Ġcordi alement
Ġfic elle
Ġexempl aire
ĠEL G
ĠPrÃ©c isÃ©ment
N oÃ«l
a ussitÃ´t
c rÃ©
c amp
s Ã©
s ens
Ã© demment
Ġn ie
Ġpl ates
ag ore
ap on
ĠB id
ĠN UIT
ang Ã©s
tr anqu
ĠR iderhood
ass istance
ĠLe v
Ġins istance
Ġnom ma
ĠMar che
Ġsc ell
Ġsouff lant
Ġmontre z
Ġlrsquoav ance
Ġdemeur aient
Ġdorm ant
ars it
Ġneuf s
ĠdÃ©sire ux
Ġintellig ents
Ġentour ait
Ġcout umes
Ġphilosoph ique
Ġsurn om
Ġaval er
obst acle
ĠÃ©coul Ã©
cÃ´ tÃ©
Ġenferm Ã©s
B elle
Ġp irate
ent raÃ®n
ar o
Ġf aÃ®
Ġr onces
ĠL oin
am en
am iral
Ġin hab
ĠB Ã©th
ĠN od
cher ie
iÃ¨ vres
Ã©m ouvoir
Ġab Ã®mes
ĠdÃ©p asser
Ġaut hent
Ġcur ieusement
Ġmalheure uses
erm id
Ġram en
Ġdur ait
ĠdÃ©ch irant
Ġsalut aire
Ġbond ir
ĠsrsquoÃ©loign ait
Ġprodig ue
part ie
Ġlrsquoest omac
Mal heureusement
ĠAllem and
Ma x
ĠMÃ©d Ã©ric
ĠSav in
Ġinsol ent
ĠGarde z
ĠÃ©nig me
Ġfourr ure
ĠVÃ©r onique
Ãīlys Ã©es
C elle
P etit
S ON
T om
m aient
s ub
en aire
Ġin iti
ĠP ou
ĠA z
Ġdrsquo obtenir
Ġmon archie
ĠÃ© cha
ass iers
ĠF our
riv ois
Ġrec ueille
Ġpos Ã©es
Ġbar res
enf uit
Ġdiv isions
Ġcamp ement
drsquo Åĵuvre
Ġmus iciens
Ġtemp Ãªtes
Ġfour b
ĠBl aireau
Ġcontent ait
inter roger
Ġinterromp ant
rou gh
Ġinj ur
Ġth at
ĠMac allan
Ġmanifest ation
Ġanal ogue
Ġsrsquoapproch ait
ĠtÃ¢t ons
Ġdiscr Ã¨tement
Ġgrog nement
A B
m avec
n Ã©cess
en contre
en sive
au con
ch ers
out er
Ġlrsquo atmosphÃ¨re
Ġdrsquo Ã©tat
aut s
id Ã¨le
ĠdÃ©c orÃ©
Ġfl ag
par ce
Ġaut el
uy ait
Ġmer credi
Ġcent im
Ġsurpr enante
ĠdÃ©sesp Ã©rer
ĠCr oix
Ã©cut er
Ġdescend us
mA l
Ġsrsquoin quiÃ©ter
ĠDi Ã©go
Ġlrsquoam ant
car act
Ġod or
ĠdÃ©pens Ã©
mN e
Ġprotest ants
ĠdÃ©gr ing
ĠprÃ©m at
Ġcontrib uÃ©
Ġfuss iez
P Ã©tersbourg
c te
d ie
w ater
ai gle
Ġv aur
el ins
me re
Ġpr Ãªcher
ĠM ange
Ġcom tes
av ouÃ©
Ġson der
ĠP ART
ĠS rsquo
si d
Ġser gents
ess ie
ang ez
ul ait
ass iner
ob jets
Ġins ensÃ©e
rai e
Ġcol oss
Ġind ices
Ġparler a
Ġgl ai
Ġperd ent
ĠCom anches
Ġbat tants
Ġfai bl
opp osition
ĠdÃ©couv rant
Ġprincip ales
Ġgrav ir
oph es
Ġaim ons
Ġfant astiques
Ġquitt Ã©s
Ġincap ables
ĠJust us
Ġsouci ait
Ġlament ations
Ġassoci ation
ĠmÃ©th od
ĠtÃ©lÃ©gr aph
ĠTais ez
ĠaltÃ©r Ã©e
Ġprocur ateur
ĠConc iergerie
Ġnouve autÃ©
I C
U r
f amille
n ot
Ġs te
Ġf uit
Ġne uves
oin d
Ġar moi
Ġdev inez
ĠH erbel
Ġcour ants
ĠCh ick
Ġacc ents
Ġviv antes
lev a
Ġrais onner
Ġag rand
Ġappr enait
Ġcontr aindre
Ġver g
Ġinf ormer
Ġobs erve
iz iÃ¨me
ĠPh araon
Ġaband onna
agit ait
Ġtrib ut
Ġinsp ire
Ġah ur
quin ze
ĠVend ale
ĠnÃ©glig er
ĠSp arsit
Ġjup es
ĠLouv ois
Ġtric ot
ĠrÃ©par ation
ĠGan ia
ĠAmbr oise
Ġlrsquoentret ien
J oseph
b ot
Ġf assent
el aient
Ġn upt
Ġlrsquo appelait
Ġo v
Ġdrsquo Ã©g
ĠD olly
ue ils
Ġam ateurs
Ġper dez
att endant
Ġnouv ellement
og le
Ġdou bles
Ġpay Ã©s
Ġbou cl
Ġperm an
Ġdist ances
Ġtrans ition
ĠprÃ©v enus
Ġcommand eur
Ġspect ateur
Ġmalad resse
Ġsoul agÃ©
Ġsrsquoav ancer
Ġjur ons
Ġconfond u
ĠDel grÃ¨s
Ġbouff Ã©es
Ġchauff eur
ĠÃ©blou i
Ġvaud ra
ian isme
ĠdÃ©cis ive
Ġexpres sif
instr ument
Ġgronde ment
ĠpersÃ©v Ã©rance
utt le
ular itÃ©s
Ġbesti aux
A ur
A ME
D C
U C
h em
r ines
s up
Ġs and
Ġs ord
in it
Ġr ouss
Ġr ameaux
Ã©t or
ch ka
Ġpr enons
Ġtr ap
Ġlrsquo H
am oureux
Ġo t
ĠA fin
ĠT ouches
Ġcomp ta
Ġcont ourn
Ã©v ent
Ġconf orme
Ġremarqu Ã©e
Ġcinqu antaine
Ġw agon
Ġsab ot
Ġaffect ueuse
Ġexpos Ã©s
Ġperf id
part ic
Ġros signol
Ġrempli es
Ġlrsquohor reur
ĠRÃ©g ine
Ġbrod Ã©
ĠAut our
CH E
ĠSil as
Ġirrit ation
Ġmassi fs
ĠdÃ©tach ait
Ġfamili ar
cli ffe
GU ER
Ġcontrad ict
ĠpaÃ¯ en
Ġpup ille
ĠsoupÃ§onne ux
ĠÃ©quip ages
Ġconjug ale
ĠfrÃ©n Ã©sie
Ġaf ric
Ġsurc roÃ®t
ĠThou ars
m ur
r aux
Ġc uit
Ġj ov
Ġen reg
al yse
ĠC ath
ĠC uttle
ap it
ĠP uy
ĠP ologne
ard ier
ic ale
ĠT ib
ore illes
ci o
ĠG arth
Ġai des
Ġtrouv ions
Ġdonn ais
ĠH eyward
Ġimp l
Ġrev enons
Ġmont agn
Ġacc user
Ġconf is
Ġappr opri
Ġoff ense
ĠdÃ©b ats
ĠNe d
Ġpouss Ã©s
Ġbal ai
Ġcouv rant
Ġviol et
ĠmÃ©r itent
Ġvag ab
Ġferm iers
ĠdÃ©d omm
orc er
Ġdouc eurs
Ã©loign ait
Ġgrond a
ĠlrsquoO cÃ©an
Ġaffirm atif
nouv eau
ĠPomp adour
ĠPhilist ins
d isc
m Qui
n t
n ap
v ieux
en eur
Ġc assÃ©e
il Ã©s
ce pendant
ui ra
ĠM aine
Ġtr uc
ap prit
ĠS icile
si us
Ġdrsquo exp
Ġdrsquo accepter
ĠR andal
Ġcomm et
ĠÃ©c um
la Ã§ant
mi ke
Ġcontr ast
ĠÃ©g arÃ©s
ann i
Ġst rid
ast h
gl aise
Ġess entiel
Ġrapport a
arriv a
Ġappart enu
ĠÃ©prouv Ã©e
Ġtrah it
Ġremont rances
mil ieu
Ġfriss onnant
mX L
Ġcrsquo eÃ»t
Ġgig antesques
ĠAug ustin
Ġaccroch Ã©
B ret
Ġl rsquoillus
it ecture
ans on
Ġch ameau
av ertir
Ġlrsquo ouvrit
ĠC lÃ©
ĠL adis
ĠP ac
uis irent
un te
Ġsrsquo entre
ĠB ol
Ġqursquo eux
anc iens
ĠF leur
Ġregard Ã©e
Ġenf ui
oule ment
Ġrem Ã¨des
Ġlaiss Ã¢t
Ġviv ra
ĠprÃ©c Ã©demment
Ġver ve
Ġappar u
ĠBr ocante
Ġprod uction
Ġprov oquÃ©
ĠrÃ©pÃ©t ition
ĠconsidÃ©r ablement
ĠmÃ©d iter
Ġdouble ment
ĠMil an
Ġtransf ormer
ĠindiffÃ©r ents
Ġglac ial
Ġcorrespond ant
ĠFl ore
Ġcarn age
Ġlrsquoembr assa
ĠamÃ©ric aine
Ġberg ers
ĠÃ©quiv oque
S enier
en al
eu les
Ã©t onnait
Ã©t iquement
Ġg aÃ®
Ġg asp
Ġch rist
Ġpl iÃ©
de aux
Ġlrsquo atelier
tr ons
onc ert
Ġcar af
ĠQu Ã©lus
ĠCh es
all aient
pos Ã©
emp ara
ĠI mag
Ġlrsquoh ospitalitÃ©
Ġemp h
oles c
An na
Ġsac ril
Ġprov enant
enc y
oqu a
Ġlrsquoex ercice
ĠbrÃ» lÃ©e
Ġform Ã©s
Ġcach aient
Ġtemp les
ĠrÃ©vÃ©l ations
Ġcoiff e
ograph ique
Ġliqu eurs
emm ick
Ġpleure z
ĠgÃ© ants
ĠpÃ¢t ur
ĠÃ©nerg iquement
Ġessuy ant
Ġpars em
ĠHal combe
ĠdÃ©mont rÃ©
Ġcombin aisons
Ġexasp Ã©rÃ©
ĠimmÃ©di at
Ġust ensiles
t an
Ġf ente
in ze
ch ine
Ġch oir
ag Ã¨res
Ġlrsquo attend
Ġlrsquo ouest
Ġlrsquo apparition
ĠS achez
ond es
anc Ã©es
art icle
Ġpers istance
Ġrev end
Ġsal ade
Ġesp agnole
Ġsupp rimer
gl as
Ġmen acer
Ġcan ards
mm on
Ġdrsquoh Ã´tel
Ã¨g re
Ġlrsquoab Ã®me
Ġlrsquoatt ente
Ġrass ur
Ġfonct ionnaires
Ġlrsquoacc usÃ©
Ġcapt ifs
ĠmatÃ©ri elle
Ġdoc tr
Ġchoc olat
ĠperÃ§ ants
Ġexist ent
Ġimprud ent
ĠAlph a
ĠcÃ©libat aire
ĠBos ton
mSCÃĪ NE
Lou ise
D erriÃ¨re
E x
h ospitalitÃ©
Ġl uisant
Ġb ach
Ġav eux
ec tes
Ġin acces
ĠA st
iss ure
Ġmal fait
la f
Ar nold
Ġtourn ent
inc endie
ĠCom prenez
ĠChar ny
approch ait
ĠrÃ©un ions
ĠMal v
ĠprÃ©f Ã©rable
Ġru elles
ĠMax im
ĠRom ain
Ġric ana
ĠCon tre
Ġclam eur
Ġfich u
ĠmaÃ®tr iser
ĠGall ardo
Ġstruct ure
b esse
j ouis
s oir
Ġm Ã®mes
Ġlrsquo arrÃªta
ĠP Ã©n
Ġo cÃ©an
Ġdrsquo esc
Ġnrsquo aurez
ĠN Ã©ron
Ġdev iez
ĠF or
ct oire
ĠdÃ©c lin
Ġvers e
Ġsav ante
Ġab as
Ġan ecd
ĠprÃ©c Ã¨de
Ġprendre z
Ġouv riÃ¨re
Ġhum ilitÃ©
Ġdrsqu oir
mC Ã©lie
Ġtromp es
ĠCar rier
Ġred ire
Ġress er
ĠMont martre
adm ire
ĠtÃ©moign Ã©
plus ieurs
Ġsab res
Ġmouch oirs
Ġcommiss ions
dis par
Ġsurveill ant
ĠTrÃ© m
Ġintrig ue
Ġtranch Ã©es
ĠpÃ¨ler inage
Ġconstat Ã©
ĠanÃ©ant i
Ã©bran l
ĠMis tress
hÃ©rit age
Ag athe
Font enay
Heure usement
Ġcompart iment
m dit
Ġd Ã´me
in ais
Ġun i
ĠM Ã©riadec
pr oc
ĠE lisabeth
Ġdrsquo orgueil
ĠR el
omb erg
oul d
Ġjrsquo attends
art ier
Ġchev eu
Ġad ore
Ġcap uc
Ġarr Ãªtez
Ġcur ieuses
hÃ© Ã¢tre
br un
hab ite
Ġsout int
ĠdÃ©r obÃ©
Ġcomprendre z
Ġfi che
ric itÃ©
ĠobÃ© issance
Ġmeu te
Ġeffray Ã©s
ĠrÃ©uss ite
ĠgÃª nait
hor loge
Ġtor peur
ĠrÃ©clam ait
ĠhÃ©rit iÃ¨re
mH OLMES
Ġbienveill ant
Ġmanifest ait
cir const
ĠFern and
ĠRoche f
Ġsurg ir
Ġdrsquoind ignation
ĠRapp elez
Ġdiscr Ã¨te
Ġtouff es
Ġlrsquoenvelopp e
ĠOber lÃ©
ĠOph Ã©lia
GUER ITE
6 0
M ENT
N euf
O livier
Y ork
i elle
m ettre
n il
Ġp oupe
Ġb ur
Ġav ocats
ut eurs
ĠA ylward
Ġdrsquo Ã©pÃ©e
ille urs
ĠD auph
ĠH iÃ©ranie
Ġcour urent
ĠCh au
att ard
ĠEn f
arr on
ĠPar adis
och ait
ĠdÃ©t roit
Ar riv
Ġsupp lÃ©ment
ĠPr om
Ġhum iliÃ©
Ġmor alitÃ©
Ġviol ences
Ġlang ueur
Ġlrsquoun ique
ĠÃ©chapp ait
Ġsaint etÃ©
ĠdÃ©lic atement
Par mi
mV II
pl ace
ĠBal tus
Ġhur lant
Ġsignal Ã©
Ġinterv ention
ĠÃĬ tre
Ġemprun tÃ©
Cl aude
Ġparap et
Ġconcern ait
Ġjac ob
assey ait
Ġincompar able
ĠPÃ¨tr ovitch
Ġbalustr ade
N os
o ces
r us
w ay
Ġs ots
Ġf Ã¢che
Ġf rein
Ġg er
av rog
Ã©p anou
ig g
ĠV olontiers
Ġsrsquo Ã©g
ĠB rid
Ã® tes
ĠN ou
tr Ã©s
ĠG il
ing Ã©n
Ġport era
Ġmont ai
emp ar
Ġfl ui
Ġhaut aine
Ġrep l
Ġsurpr ises
Ġjuge ant
ĠmÃ©t aph
ĠÃ©lev a
ĠreprÃ©sent ent
ĠtraÃ® nÃ©e
Ġentour Ã©s
Ġamen Ã©s
Ġsonn Ã¨rent
Ġtroub la
Ġbruy Ã¨res
Ġvrais emblable
ĠempÃª chait
Ġprivil Ã¨ges
ĠGabri elle
Ġtiss u
ĠÃ©pargn Ã©
Ġcontrar ier
Ġquad r
ĠfÃ©b rile
avrog uine
T T
r ys
Ġs Ã©m
Ġc aut
ar nement
Ġb is
Ġlrsquo In
Ġlrsquo oubli
am ore
ĠP a
ĠF lam
Ġpass ons
Ġmrsquo env
Ġman Ã¨ge
emp Ãªch
ĠÃ©g ales
Ġrent rai
Ġmus Ã©e
Ġbrill a
Ġterr estres
Ġrav ir
Ã©dia tement
ĠGrand lieu
Ġban al
Ġretent issait
Ġreb ond
Ġemm ena
ĠÃ©tendu es
ĠVend Ã©ens
ĠMir ande
sembl ait
aron i
Ġcoch Ã¨re
Ġsculpt eur
ĠAutre fois
Ġsignific atif
Ġcrucif ix
A ug
d ge
m vous
Ã ¦
Ġp outres
om ies
Ġpl ain
ĠS E
ic ienne
ĠT op
Ġdev enant
ass ister
omb rage
op Ã©ra
ex clama
Ġvoy agÃ©
Ġconf esse
ĠÃ©g oÃ¯sme
Ġta x
Ġoubli Ã©s
Ġaccomp lis
Ġparv enue
ĠlrsquoÃ©t onnement
Ġpriv Ã©s
Ġclair voy
hum aine
adm ettre
Ġcuri ositÃ©s
Ġarra chÃ©e
Ġfaibles ses
Ġretomb ait
Ġpopul aires
Ġfun Ã¨bres
Ġretard er
ĠlrsquoÃ©v Ã©nement
ĠBour bons
Ġrecouv rer
Ġempois onnÃ©
Ġlrsquoign ore
Ġpri ai
ĠÃīl aboration
Ġdrsquohum eur
euss iez
ĠJar vis
Ġryth me
ĠflÃ© au
ĠJourd ain
I EN
b or
i ais
j ette
m adame
m drsquo
v enu
w e
Ġl ue
Ã© reux
Ġc ens
Ġm rsquoimp
is tress
Ġr Ã©cri
me rs
at on
Ġpar terre
Ġcon ception
Ġas tr
ing les
ing ue
Ġinc oh
Ġtourn Ã©s
Ġresp irant
dem n
ĠtÃ©m Ã©raire
ĠhÃ©r itÃ©
llem and
mD or
Ġindiqu aient
rup t
ĠrÃ©veill Ã©e
Ġintrod uisit
Ġabond ante
Ġlrsquoapp ui
Ġconfus Ã©ment
Ġtonne au
Ġhid euse
Ġgog uen
ĠfunÃ©r ailles
f ac
v angile
z er
Ġd oyen
Ġm rsquoimporte
Ġv oc
it ais
ous es
Ġr usses
ui rait
end ons
Ġlrsquo arrÃªter
onn ai
ĠE mp
Ġdrsquo ent
Ġsrsquo adressait
ĠB ouch
iÃ¨re ment
ĠrÃ© bell
Ġsou li
Ġsou illÃ©
Ġsav our
Ġfin irait
Ġjrsquoai merais
Ġquoi qursquoelle
Ġprom enaient
Ġoff ensÃ©e
Ġsub alter
Ġpo teau
approch ai
entre prise
ĠrÃ©flÃ©ch is
Ġmai g
ĠAm Ã©lie
ĠMarc elle
ĠmystÃ©ri eusement
Ġenvelopp ait
Ġadmir ables
ha uss
Ġqursquoau paravant
Ġinstr uire
Ġbrut alitÃ©
appart enait
Ġhyp ocrite
Ġconfir ma
Ġredev int
Ġnat al
Ġmouill Ã©s
ĠimprÃ© vu
Ġincert ain
Ġcass ette
Toute fois
Ġprest ige
Ġsim ult
Ġcourr oux
Ġkn ow
A V
H Ã©r
R oger
f am
n ay
p ays
Ġen gr
al te
Ġlrsquo enc
li p
oy ants
ĠB art
ĠB eth
ens uite
ass aut
Ã©n Ã©e
Ġcar g
Ġman ier
Ġdou blÃ©
Ġter ne
Ġind Ã©pendance
ĠprÃ©sent Ã¨rent
Ġgard ent
Ġarr og
Ġpol icier
occup ation
Ġart is
Ġlrsquoav ocat
dev ait
ĠsrsquoÃ©l ancÃ¨rent
ĠprÃ©cÃ©d entes
erd a
Ġressent i
ĠrÃ©jou issait
Ġressort s
Ġsubli mes
ĠsuccÃ©d Ã©
aqu ette
Ġinsc rit
ĠtÃ¢cher ai
ĠVinc y
ĠgoÃ» tÃ©
Ġlaid eur
ĠSche herazade
ĠprÃ©l at
Ġincontest able
ĠTod gers
S u
s auv
es mith
Ġm ule
el age
al p
ab baye
Ġnrsquo eus
Ġser mon
ĠN ature
Ġmar raine
ĠF anchette
Ġmal les
Ġcomm ise
ĠdÃ©c oncert
od y
air ain
Ġpe ignait
Ġoff rent
Ġri z
ĠAn tinahuel
ann onÃ§ait
Ġdom inant
Ġtromp Ã©s
Ġmod estes
Ġcondam ne
Ġtrib une
Ġban ale
ĠgÃ©nÃ© reusement
ĠÃ©te indre
Ġintrod uire
Ġalli Ã©
escl aves
Ġassass iner
Ġexact itude
Ġfaill ite
ĠBois hardy
Ġarrange ments
Ġur gent
hom et
MAR GUERITE
ĠDul cinÃ©e
Ġv ass
Ġf assiez
as me
ĠM ig
ĠM AR
ĠM oret
av anÃ§ant
ag a
Ġin op
Ġin anim
Ġdrsquo entrÃ©e
Ġy acht
Ġcr at
Ġar abes
app ela
Ġmal icieux
Ġpass Ã¢mes
Ġins uffis
ĠdÃ©p ouille
Ġcap acitÃ©
ĠgÃ©n ies
Ġind ist
ĠW ard
Ġappr obation
ĠMon y
Ġfle g
Ġpeup liers
Ġtermin ait
Ġarm ure
Ġprojet Ã©
Ġmob iles
ĠhÃ´ tesse
ĠvÃ©n Ã©ration
Ġimpatient e
Ġcra quer
Ġboit eux
Ġconsult ation
Ġaffai bli
ĠPip chin
Ġcordi alitÃ©
ĠSuis ses
su cc
ĠdÃ®ne rs
Ġbos quet
Ġsag acitÃ©
S imon
p en
p ap
r oc
Ã© veille
Ġp endue
Ġt asses
Ġf eld
Ã¨ ter
au tes
ri ment
Ġlrsquo Ã©m
Ġlrsquo office
ĠS amar
Ġdrsquo aucune
Ġdrsquo autrui
ass ai
Ġpass ablement
Ġgrand issait
ĠH ullin
ĠÃ©p ines
ĠdÃ©t onation
Ġfl ux
ĠAn selme
Ġinstant anÃ©ment
Ġgard erai
ĠCom te
Ġtrait Ã©e
Ġtard ait
Ġlib raire
ĠTr appe
iz er
ĠÃ©clat Ã¨rent
ĠdrsquoA m
ĠlrsquoÃ©p ouser
Ġment eur
Ġpareille ment
XX X
Ġmyst ique
orc Ã©
Ġparfum eur
its ou
Ġaccour urent
Ġpermet tra
ĠJus qursquoÃł
ĠbrÃ»l aient
ĠJos Ã©phine
Ġdispers Ã©s
ĠÃ©coul Ã©s
ĠDire ctoire
Ġinfailli blement
ĠBan que
Ġexcurs ion
Ġpatr onne
ĠProkof ievna
T ION
c elles
e illes
j ustice
u Ã©es
re izer
er tr
ent ours
Ġt ig
ĠM Ã©lie
Ġh anches
ĠA mi
ĠT arrou
ĠÂ» âĢ¦
Ġsou lier
ĠprÃ©s age
Ġaff reusement
emp ressement
Ġcl oses
ĠW emmick
Ġrob ustes
ĠrÃ©sult a
Ġrecul Ã©
Ġbleu Ã¢tre
ĠÃ©le ctions
Ġpiqu ant
Ġpein tes
Ġaigu illes
Ġcrsquo en
oz on
Ġchand elles
Ġto ast
Ġmang ent
ĠmÃ©dioc rement
Ġindust rie
Ã©re mment
ben reizer
ĠcoÃ¯nc idence
ĠBouss uge
A P
M e
M az
l orsque
m lui
p Ã©n
Ġv ains
ĠM rsquo
im a
Ã©ri en
Ġpers iennes
Ġpers Ã©cution
Ġbl Ã©s
Ġgu ettait
Ġfl oc
Ġrepr ise
Ġcheval er
Ġcomb ler
Ġid oles
Ġcur Ã©s
Ġbal anÃ§ant
ĠprÃ©v enue
chev al
Ġhasard er
Ġattend ue
Ġrappel aient
ĠrÃªv eries
ĠlrsquoÃ©t abl
Ġsaut ait
ĠDrsquo Artagnan
Ġsalu Ã¨rent
srsquo en
Ġimpat iemment
ĠRos signol
Ġendorm is
Ġcomprend ra
Ġtord ant
ĠComm inges
ĠVinc a
ĠSer gent
Luc ien
ati ana
Ġdiplom ate
Ġsaill ie
Ġgrossi Ã¨rement
gypt ien
Ġcoud Ã©es
Ġacqu ies
ĠChante coq
Ġmeubl Ã©e
Mil ady
ĠCrum mles
m Quand
r am
r ap
Ġl isse
en kins
Ã© ole
Ġs ystÃ©
oi ements
Ġf ili
ĠC ant
ĠA ff
Ġdrsquo Ã¢me
Ġdrsquo affection
ay es
ĠrÃ© jouis
Ġmrsquo expliquer
Ġmrsquo aider
Ã©l is
ĠrÃ©s igner
ĠrÃ©s ulter
Ġdesc ends
Ġrep ousse
Ġabs ente
Ġappar aissaient
Ġemb uscade
ĠrÃ©g al
Ġappel aient
ĠmÃª laient
Ġtir aient
ĠdÃ©g agea
Ġos c
Ġfe ignant
ĠpossÃ©d Ã©
rou ge
Ġband er
oisse ment
Ġtim ides
Ġsuppos itions
Ġbris Ã©es
Ġpiqu a
Ġautor isÃ©
ĠMort s
ĠpÃ¢t ure
Ġconvul sivement
ĠbaÃ¯ onnettes
Ġempress Ã©
ĠinconvÃ©nient s
ĠCorne ille
ĠNab ab
Bern ard
ĠNem ours
f Ã¨vre
g ouver
Ġb ig
Ġlrsquo approche
pr in
ĠJ anvier
Ġin Ã©branl
Ġnrsquo aurai
Åĵ t
Ġas tres
oint et
Ġatt irait
Ġvoi re
Ġab eilles
arr ond
Ġfl ai
En core
ĠBr uxelles
ĠderniÃ¨re ment
Ġadm irÃ©
Ġred ou
Ġpal miers
Ġoblig ation
Ġaband onnant
ÃĪ RE
Ġsab bat
Ġaffect ueusement
ĠrÃ©vÃ©l a
Ġlab eur
Ġretir Ã©s
fais ant
Ġincl inÃ©
Ġexpliqu ait
Es gri
Ġmol lement
ĠDen is
ĠLÃ©v ites
ĠsÃ©p ulture
ĠCla es
Ġenl Ã¨ve
ĠjÃ©s uites
Bal samo
ĠLadis law
Esgri gnon
B ri
B eau
R aoul
u ens
y gne
Ġm Ã©g
oi riez
Ġh ait
ĠP ig
ĠS ovi
ic o
ĠV erd
ĠB li
ĠN og
ens on
Ã» ment
mb ourg
Ġbr osse
Ġdev iens
auv res
Ġapp oin
ĠCh ester
ign Ã©s
Ġab j
Ġacc Ã©l
Ġnom mÃ©s
Ġass istance
acc orde
Ġinc oncev
Ãī D
Ġcal ma
Ġess aie
Ġrel ief
ĠdÃ©sesp Ã©rÃ©s
Ġbe deau
Ġhor loge
Ġfour neau
Ġeng agÃ©s
Ġlrsquoins t
once ment
Ġrecommand ant
Ġrecev ra
Ġobst inÃ©
Ġcalcul Ã©
ĠÃ©tinc elle
Ġprodig es
Ġtouch aient
Ġsouver ains
aj oute
Ġboulev ards
ĠÃ©tincel aient
ouci ance
Ġcircul ation
Est her
mO Ã¹
ĠmÃ©tal lique
Lorsqu rsquoil
Ġflor ins
Ġprofess eurs
ĠhaÃ¯ss ait
ĠSoul anges
! âĢ¦
G aston
b ou
g an
g orge
m anche
n ombre
Ġs ables
Ġc ardin
Ġm ie
in Ã¨rent
Ġpar Ã©e
Ġpar aÃ®tra
Ġlrsquo Ã©trange
Ġlrsquo audace
ĠP ape
ĠP ays
ĠE books
Ġsrsquo achemin
ĠT as
ĠT or
Ġex erÃ§ait
Ġcar c
ĠÃ©c late
Ã©d er
Ġfer ions
Ġab Ã®
Ġcor rec
Ġconf idente
ail lier
Ġvit rÃ©e
ĠPr of
Ġappar urent
Ġtre mpe
Ġnu Ã©es
hab itation
Ġremarqu ant
Ġal entours
ĠrÃ©vol utions
Ġdress ant
Ġcoqu illes
Ġaffect Ã©e
Ġcompar able
Ã©ph ant
Ġsilenc ieuses
Ġsurv int
ĠBer ry
Ġsult ane
ĠMic aud
ĠdrsquoÃī pernon
Ã¨ner ait
Ġblond es
demand er
Ġmonstru euse
Ġlabor atoire
ĠforÃ§ ats
Ġluc arne
Ġtacit urne
ĠFem me
ĠfaÃ® te
M OI
c Ã©e
g ique
m ens
Ġc uv
ar at
it ablement
Ġj uifs
Ġn ymp
Ã¨ ze
Ġh erbe
ĠC it
Ġdrsquo envie
Ġnrsquo eussent
Ġcr amois
ĠR inal
rent e
Ġven ions
Ġmrsquo aviez
Ġcour ageuse
Ġcoup ait
Ġrev it
Ġmont rÃ¨rent
Ġrest ais
Ġlrsquoh Ã©rit
Ġbou gÃ©
Ġco de
mC C
ĠAr bacÃ¨s
Un iversitÃ©
ĠX XV
ĠdÃ©clar ations
ĠprÃ©cip itÃ©e
ĠlrsquoÃ©c riture
Ġretomb e
ÃĪ S
ĠlrsquoA s
ĠdÃ©tr uite
Ġplant Ã©e
Ġhonor ables
Ġbanqu ette
Ġtord ait
Ġtonne aux
ĠdÃ©plais ir
Ġeuss ions
ĠBertr and
Ġpoup Ã©e
A frique
P S
m ise
Ġp ence
ar chevÃªque
au paravant
end es
ĠL aissons
ĠS mike
ure au
Ġbr um
ĠO rient
Ġtu erai
Ã´t els
ĠH aw
Ġper Ã§ait
Ġapp rirent
ex h
Ġlrsquoai le
ĠdÃ©couv ris
Ġmarch Ã¨rent
Ġchass ait
ĠsÃ©par a
pour quoi
Ġressembl ant
Ġjoy euses
assi ne
Ġmeur tr
Ġouvert ures
Ġnoble ment
Ġmeu nier
ĠrÃ©d acteur
ĠSu Ã¨de
bon heur
Ġaffect ation
Ġlrsquoexp Ã©dition
Ġressent it
Ġcult iver
ĠconÃ§ ue
ĠmatÃ©ri aux
ĠSte in
Ġsollic iter
tit uteur
effray er
igr ation
Ġwh ist
ĠChal andrey
ĠToul on
ĠCÃ©n abre
Ġcentim Ã¨tres
m Ã©t
Ã© en
Ã© le
Ġqu Ã©rir
Ġt inrent
Ġf Ã¢
Ġb laf
Ġg rie
ir me
Ġtr acer
ĠÃ©t endre
li ette
ine ment
Ġmal veill
ĠH Ã¢
mer lee
aill ot
Ġbl ague
Ġinter mÃ©diaire
Ġvi bre
Ġprod ige
opp os
Ġop Ã©rer
ĠsrsquoÃ©l Ã¨ve
Ġapport ant
Ġpi quer
Ġsir Ã¨ne
ĠdÃ©pl aire
Ġinsp iration
Ġlou ange
ĠmÃ©di um
Ġachet Ã©e
Ġrum eurs
Ġirrit Ã©e
Ġrasse mblement
Ġoffici el
ĠPan za
onz on
Ġsyll abe
ĠrÃ©bell ion
5 2
T el
d oux
Ġd ard
Ġl oyer
Ġt ien
Ġf ard
it ante
as ile
Ġre pt
ĠM en
ĠJ ag
ĠE uropÃ©
ĠdÃ© du
Ġsrsquo ouvre
Ġsrsquo asseyant
Ġapp liquer
orm itÃ©
inc eul
Ġbal s
ĠBr and
Ġchant ent
Ġsout ien
Ġtend ent
Ġanim Ã©s
Ġrav ages
Ġorg ane
Ġlog es
Ġlrsquoins truction
Ġsinguli Ã¨res
onct if
Ġentr Ã©es
inf ormer
Ġaffir mÃ©
Ġtourment ait
Ġlrsquohab itation
Ġincl inÃ©e
Ġrub is
inconn ue
Ġmonot onie
intÃ© resse
Ġexist ences
Ġcart ouches
Ġnonchal amment
Ġgam ins
Ġboh Ã©m
Ġquar antaine
F IN
I tal
L ady
R aj
u ets
Ġm Ã®t
Ġt iges
ĠC HA
onn erait
ĠP eaux
ĠS tu
Ġo se
Ġdrsquo Ã©m
ĠD od
ĠB ates
Ġdev ins
ĠR Ã©m
Ġam Ã¨res
Ġport ais
emp orta
Ġcol ombe
ĠdÃ©t ente
Ġfeu illages
Ġfig urÃ©
Ġpol ie
lrsquo on
Ġduc s
Ġmiss ionnaire
Ġfol lement
ĠsÃ© ances
Ġaim Ã©s
AN C
red din
inf anterie
ĠDav idÃ©e
ĠAb raham
ĠÃ©lÃ©g antes
Ġlrsquoor igine
Ġdistingu Ã©e
Ã©prouv ait
ym ne
Ġcand ide
ĠpÃ©ch eur
Ġcalomn ies
abond ance
ĠdÃ©test able
Ġaffam Ã©
Ġfourch ette
ĠSuiv ez
ĠAD ML
5 5
L aur
m sur
er as
Ġn rsquoin
Ġpr Ã®mes
ĠC ointet
onn era
si gne
Ġdrsquo espÃ©rance
ĠV oyant
ĠT atiana
ĠÃ© grat
ay ons
Ġpart ici
Ġpart Ã®mes
Ġat eliers
Ġatt ard
Ġmont s
Ġacc ess
Ġrest Ã¢mes
Ġconf ection
Ġind ulgent
ĠprÃ©sent ation
Ġmatin ale
Ġtravers aient
uli er
ult Ã¨re
Ġbord ure
Ġposs esseur
Ġcess Ã¨rent
Ġpi quet
embr asse
ĠcÃ©d ant
Ġplant Ã©s
ĠBri gnon
Ġsourn ois
ĠDam as
ĠsÃ©pul cre
Ġbiv ou
ĠRuff o
ĠJah oua
t one
en ouille
Ġt ait
Ġb oy
ĠÃ©t onner
ĠC oqu
ap lomb
ĠB ass
tr ation
ĠF ar
ĠH ab
Ġcour onnÃ©
Ġag neau
Ġreconn urent
ĠÃī gypte
ĠAn dre
ĠprÃ©par ation
ĠdÃ©jeu nÃ©
Ã©lev aient
ĠcÃ©l estes
ĠÃ©clair cir
Ġrass it
ĠprÃ©occup ait
Ġ4 0
aim able
ĠbrÃ»l Ã©s
Ġprotest ation
Ġconsac rÃ©e
ĠbÃ© ante
ca use
ĠSauv age
ĠDun can
ĠPerc y
Ã©tud iant
antal ini
ĠMontb arry
Amb ert
Ġinfatig able
Ġdouai riÃ¨re
dge by
Raj ac
C or
Y ou
c ience
l oin
p an
Ġl ierre
Ġl asser
Ġl Ã©z
Ġp ert
Ġj urant
Ġn uis
or io
os te
ĠJ Ã©h
ĠE N
ĠA oustin
ĠV oir
Ġsrsquo am
ĠT rib
Ġqursquo Ã©tait
ĠF ag
ĠF arg
im um
Ġcons ternation
Ġsuis se
Ġcoup ant
int ellect
Ġimp Ã©r
Ã©m ont
Ġserv is
aill Ã©e
Ġcha rs
ĠMar at
ĠdÃ©b attait
aign Ã©e
ĠAl addin
Ġroug is
Ġforc Ã©ment
ĠbÃ©n ir
ĠSt an
Ã©b ast
Ġsrsquoav ance
Ġrass ura
ĠFranÃ§ oise
Ġdirig Ã©e
Ġador Ã©e
ĠVan nes
ĠsrsquoÃ©lev aient
Ġrig ide
Ġpost ure
Ġtransform ation
ĠDun das
assad eurs
ĠÃ©coul Ã©es
ĠTar zan
ĠdrsquoOr lÃ©ans
Ġreli ques
ĠVill iers
ĠindÃ©c is
ĠmÃ©lod ie
ĠConst ance
M ur
w arth
Ġt iendrait
it ables
is ez
Ã©t ions
Ġse ins
Ġtr ousseau
ouv riers
onn age
ĠT re
ĠN il
ĠN our
ĠH our
ĠdÃ©s igne
ĠCh inois
Ġaut els
enf oncer
Ġcal c
Ġarr estation
ĠBr ut
ĠprÃ©v Ã´t
ĠtÃ©m oigne
ouill et
Ġmrsquoen g
Ġnour ris
attend is
prop os
ĠentraÃ® ne
ĠgÃ¢ ter
Ġsouc ier
Ġsupport Ã©
Ġpeint s
Ġtransform Ã©
ĠdrsquoAr gent
Ġorient ale
prof ond
ĠLam mle
Ġorph eline
ĠaÃ¯ eux
exÃ©cut er
ĠMaug is
Ġhoriz ont
ĠAlexandr ovna
Ġinvest ig
Ġsob ri
' ve
J oie
h ttp
i Ã©tÃ©
m me
or chestre
Ġh eau
li o
Ġdrsquo arrÃªter
iv etÃ©
ĠB AL
ine mment
ert it
Ġca deaux
ong er
aill ant
Ġcha os
Ġess uyer
ĠCl ap
Ġimag inez
ĠPaul et
Ġsalu ait
mA h
IN T
Ġgarn is
ĠÃ©tabl it
Ġtrad uit
ĠrÃ¨g lement
Ġdissimul ation
Ġ16 8
Ġvest on
ĠÃ©cras er
ĠNo Ã©
ĠVend Ã´me
ĠJu das
ĠSav oie
ask erville
Ġond es
Ġlrsquoembr asser
Ġgrandrsquo chose
ĠFe empje
ĠprÃ©m Ã©d
ĠClÃ©ment ine
Ġsyn dic
ĠLap ierre
Ġinfort une
ĠExplique z
Ġholl andais
Ġglai ve
ĠWard le
Maz arin
L UI
P resque
m iÃ¨res
o Ã«
Ã© us
or ov
Ġpar oiss
Ġdans es
ĠC Ã©lia
ĠJ aff
ĠR ox
op old
Ġcont ribuer
Ġfor ma
Ġatt irÃ©e
Ã©m or
Ġcompr enaient
Ġcou dre
enf uir
ĠÃ©g arÃ©e
Ġcroy ances
Ġarr os
exp Ã©dition
ĠK er
Ġtard Ã©
Ġsac re
Ã¨g ue
ĠprÃ©cip itant
ĠCr ozon
Ġach Ã¨te
Ã¢ch ez
ĠreprÃ©sent aient
Ġdim ensions
Ġobst ination
Ġconven ance
Ġprier ai
ĠNrsquo avez
Ġlrsquoau m
Ġmart yrs
Ġpil iers
ĠRod olphe
Ġbre uv
Ġaig us
cÃ´ ve
Ġvolt ige
ĠRok esmith
. ).
5 6
g a
t ure
Ġl inceul
Ġs Ã©r
Ġs tu
eu blement
in quiÃ¨te
Ġr ame
ant iquitÃ©
ĠM itsou
ĠM antalini
Ġlrsquo Ã©ducation
ol ait
ĠJ oc
ĠP asse
Ġcr iniÃ¨re
Ġpro g
Ġex tÃ©rieurs
ĠR Ã©s
ĠR endez
Ã©n ore
ĠF eu
Ġam usÃ©
ĠCh urch
Ġeff acÃ©
Ġcri ent
ĠdÃ©f endue
Ġprom ettez
Ġsoup lesse
Ġfle uves
ĠpÃ¢ li
Ġoccup Ã©es
Ġadm ettant
ĠrÃªv ant
Ġconduis aient
mV III
Ġjournal istes
Ġemport a
ĠMor h
Ġnov ice
ĠRh Ã´ne
interromp ant
rom Ã©e
ĠRig ou
Ġsacrist ie
ĠBrad amante
END RE
T ES
g Ã©s
z in
Ġl onge
er ing
Ġpl Ã©n
ĠL oth
ĠS ing
Ġall ais
Ġcont est
ĠH ochon
Ġins istÃ©
og Ã¨ne
ret ourn
act itude
Ġtomb eaux
Ġliv rant
ph ine
Ġfond er
ĠprÃ© limin
Ġrendre z
aÃ¯ que
ĠmÃª lÃ©es
Ġroug i
Ġdemeur ai
Ġsaur as
Ġtap e
enn uie
ĠprÃ©cÃ©d ait
Ġsouhait s
Ġbor ner
ĠAb ou
ĠSrsquoil s
Ġhar pe
Ġital ienne
Ġexplique z
Ġvall on
Ġsacrist ain
ĠTil ney
Ġpanne aux
rough cliffe
I van
i ales
Ġs vel
Ġc ing
an iÃ¨re
Ġla by
is tÃ©ri
in ct
Ġj un
Ġ; âĢ¦
Ġlrsquo erreur
Ã©s itation
ap leton
ac a
ĠV ieux
ĠB arras
ĠN euf
ĠrÃ©p it
ĠR oug
Ġgrand it
if le
ĠdÃ©s ertes
Ġrec ule
ĠÃ©p oques
Ġarriv Ã¢t
acc ueill
Ġcroy ants
ĠGr oupe
Ġsign Ã©e
ĠrÃ©g isseur
Ġli Ã©e
Ġgal Ã¨re
Ġrel ative
Lrsquo autre
Ġform alitÃ©s
Ġfum ier
Ġsecou e
ensible ment
ĠprÃ©cÃ©d ents
Ġcoqu ille
ĠCour t
Ġinfin ies
Ġparcour ait
ĠÃ©tinc elles
Ġsrsquoemp ar
ĠrÃ©volution naires
Ġcler cs
Ġras Ã©
Ġabond amment
Ã©clair cir
Ġgrond ait
ĠrÃ©fug iÃ©
Ġboulevers Ã©e
ĠJos uÃ©
Ġmouill Ã©e
incl inant
aveu gle
ĠflÃ» te
ĠdÃ©pr av
Ġnud itÃ©
Ġlaby r
O s
s in
Ġp yram
et ter
Ġv aux
in ette
Ġpl ia
Ġlrsquo appr
ĠC amar
ons ard
ĠS auve
Ġdrsquo amis
ĠT ison
Ġser ve
ĠN ydia
ĠG ent
Ġjrsquo avoue
Ġven gÃ©
ĠprÃ©s idente
Ġacc ommod
Ġarriv ons
Ġfin ances
rit er
Ġcompr ennent
ict or
Ġmen acÃ©e
ĠdÃ©m as
ĠLrsquo Ambert
Ġlrsquoex trÃªme
ĠsÃ©par aient
Ġfour rer
olog ues
ĠSt avroguine
ĠZ onzon
ĠLor ry
Ġfau f
Ġcord ial
Ġinsp ir
Ġdistingu Ã©s
Ġinvent er
Ġtribun aux
Ġremu ant
ĠÃīv a
Ġgre lot
Ġrever rons
Ġamic ale
Ġpelot on
ermit age
ĠThÃ©od ore
Ãĩ a
ĠGala ad
ĠÃ©cha faud
N rsquo
S treet
f onds
u alitÃ©
Ġs abl
ent er
Ġv ot
Ġse rs
Ġdu v
out ine
de rs
ĠP ell
app liquer
ĠF ourn
Ġaus tÃ¨re
ist ol
Ġrest Ã©es
Ġbou illon
Ġcl och
Ã©ch o
Ãī S
Ġsoup ire
Ġresp ectÃ©
ett i
Ġconc ilier
ĠdÃ©r ais
Ġdemeur Ã©e
Ġparv inrent
Ġnot ions
ĠAd rienne
Ġsrsquoin form
Ġcord ons
Ġprud ente
mT u
Ġaug uste
Ġgout t
Ġsatisfait s
Ġplant ation
Ġfar ouches
Ġcroir ais
Ġmunicip aux
Ġguet ter
ĠRet our
Ġcroch ets
Ġabsorb Ã©e
Ġpince au
Ġpomm ettes
ĠMol iÃ¨re
ĠPÃ¢ ques
Ġbagat elle
ĠLog erie
Ġcliquet is
5 9
a es
l on
Ġn rsquoir
Ġg ais
Ġch airs
Ġre br
Ġse au
ĠL iv
ĠS inon
ac tement
Ġdrsquo avant
Ġdrsquo assez
ĠO rs
iss ol
anc as
ĠF are
ra Ã¯
Ã©d est
Ã©ri ques
Ã©l aÃ¯de
Ġins ister
Ġport Ã©es
Ġcontre dire
Ġad orÃ©
ĠI ss
ov a
Ġind ienne
ĠW ind
Ġord onner
ĠAn aÃ¯s
exp liqu
tÃ©ri le
Ġparl Ã¢t
Ġsauv ez
Ġsitu ations
ionn ait
Ġrappel ai
exc Ã¨s
ĠLou arn
Ġattach ait
Ġmut uelle
ĠRom an
ĠprÃ©tend ent
Ġinterrog atoire
Ġjoign ait
mLE S
Ġgonf lÃ©
ĠCad oudal
ĠdÃ©cour agÃ©
ĠpÃ¨ler in
ĠentraÃ®n ant
accus ation
ART HE
Ġsurmont er
Ġracc ommod
dern ier
Ant oinette
ĠTit ien
Ġforest ier
ĠErn auton
Bon aparte
ĠPre mier
ĠMul berry
Ġappoin tements
ĠJag gers
7 0
F F
J ust
M rs
u ositÃ©
z ig
Ġl ilas
Ġt irent
ĠJ rsquoirai
li ot
ĠA frique
Ġdrsquo environ
ĠV aux
ĠB askerville
ess eurs
ad ieu
app Ã©tit
Ġrev ivre
pos sible
omm el
Ġlev aient
Ġint act
Ġoff enser
Ġcent rale
Ġver nis
Ġsign ifier
Ġretourn Ã©e
Ġmor nes
aisse ment
br ac
Ġroy aumes
ĠbÃ©n is
ĠmÃ©n ages
hum ain
Ġeffray er
ĠintÃ©ress er
Ġcaf Ã©s
Ġaffect ait
nrsquo y
ater ina
Ġvend us
Ġplonge ait
Ġdam nÃ©
appuy a
Ġassoci Ã©s
ĠHeure ux
ĠMir abel
ĠBe aus
ĠÃ©nerg iques
Ġsui c
ĠNor ris
Ġing rate
ĠBrid au
5 1
c rire
i ai
r ass
s omme
Ġl anÃ§aient
Ġt rsquoin
Ġv ies
Ġla uriers
in ante
Ã©t iez
Ġav ersion
Ġch oux
Ġh Ã´tels
ag euses
ĠL ip
ab us
ĠS artine
Ã©r aux
oul ot
Ġpart ent
Ġjrsquo aille
ist ocrate
urs t
Ġcl ouÃ©
Ġoff ices
Ġor ages
ĠÃ©l us
Ġsign aux
Ġappar ent
Ġpap illon
Ġnrsquoai e
Ġimpos sibles
Ġmod Ã¨les
ub ert
ĠprÃ©t endez
Ġretrouv Ã©e
Ġappuy er
Ġgri ma
Ġmanif estÃ©
ĠSc ott
Drsquo ailleurs
ĠTur c
Ġsurg it
lem y
ĠprÃ©jug Ã©
Ġclign ant
Ġconjug al
Ġgrandi ose
Ġsurnature l
Ġsrsquoendorm it
Ġbranc ard
Bret agne
Ġincoh Ã©r
C our
N Ã©anmoins
i Ã¨rent
n ons
r aut
z o
Ġl and
Ġp oindre
Ġs illon
at ienne
ch Ã¢t
ion ovna
ĠJ enkins
Ġin accoutum
Ġdrsquo Ã©couter
Ġnrsquo entendit
ĠV allon
Ġsrsquo essuy
Ã» tes
ĠG erv
Ġam itiÃ©s
are z
Ġsou che
Ġacc oud
Ġconv ulsions
Ġsol de
Ġfl Ã©tr
ĠdÃ©f ig
ĠMa j
ĠK etty
Ġpap illons
ĠTr ot
Ġcours ier
oqu Ã©s
Ġrencont raient
ĠdÃ©g Ã©n
Ġcharge ait
Ġfe ignit
Ġentour ent
Ġban quet
Ġaffir mait
ĠÃ©lÃ©g ants
observ ait
Ġdrsquoex istence
Ġloy ale
ĠsrsquoÃ©c oula
Ġchanc ela
emm Ã¨ne
Ġobsc urs
Ġramp ant
Ġdistinc te
Ġmunicip alitÃ©
Ġoffici elle
Ġfurt if
ĠfamiliÃ¨re ment
Gr Ã¢ce
Ġremb ours
ĠJeu ne
Ġgest icul
ĠlrsquoÃ©tabl issement
A p
e are
i ature
qu aient
re lig
il d
Ã©t age
ĠM ignon
ĠA aron
Ġnrsquo oubli
Ġnrsquo allait
Ġnrsquo osa
ĠB inos
ĠB uguet
ĠR i
Ġlaiss ais
ug es
Ġappr ofond
anÃ§ ailles
Ġarr Ãªtant
Ġparl ions
Ġsrsquoen n
ĠprÃ©cip itÃ©s
ĠÃ©chapp Ã©e
ouch Ã©e
Ġappuy Ã©s
ĠÃ©clair Ã©s
ĠÃ©clair Ã©es
Ġentr ouverte
ĠdÃ©pl aÃ®t
Ġemport Ã©s
Ġlrsquoest ime
ĠCert ains
ĠdrsquoÃ©p ouvante
Ġvaill ance
ĠPin ard
Ġraconte z
appuy ant
Ġemprun ter
Ġexh ib
Ġcra quement
Ġcoch ons
AU L
ĠdÃ©tour ne
Ġlrsquoexc Ã¨s
Ġcigaret tes
affir me
ĠChurch ill
B ussy
G rimaud
a fin
d an
v Ã©r
qu rsquoune
en esse
Ġp oney
Ġm Ã¨tre
el ons
ĠM etz
ort Ã©e
oy eux
Ġdev ienne
Ġte chn
Ġcar ab
Ġaff liction
Ġdou bler
ĠrÃ©s ignÃ©e
Ġexp ert
Ġquit tes
Ġcal am
ĠrÃ©f orme
ĠAl ban
Ġsout enaient
ĠIn s
ouch ka
Ġembr assant
Ġloge ait
nrsquo en
Ġpan ique
ĠprÃ©occup er
ĠchÃ¢t ier
ĠdÃ©chir Ã©e
Ġincert aine
ĠfÃ©c onde
Ġlus tre
Ġconvul sif
ĠdÃ©mÃª ler
Ġconcur rence
Ġstric tement
Ġoeu vres
ĠFle dgeby
c ien
e p
h at
z are
on ations
Ġt is
it ains
ĠT rev
Ġex tÃ©rieures
ad Ã©e
Ġtu ez
Ġjrsquo arrivai
Ġcont a
Ġmrsquo entendre
Ġmrsquo arrÃªter
Ġsav ions
emp rÃ©
Ġcl Ã©mence
Ġchar b
ip e
ĠreÃ§ oivent
Ġmen uis
Ġtrans mis
igu eurs
Ġeng ourd
oll on
isc o
Ġinsp irÃ©e
ĠdÃ©l ab
Ġprote ctrice
ĠdÃ©termin Ã©e
eller ie
ĠbrÃ»l antes
Ġremu a
Ġencour age
Ġformid ables
Ġ179 3
ĠDen ise
Ġcommuniqu ait
Ġensevel i
ĠdÃ©monstr ations
ĠvÃ©h Ã©mence
Ġcontrac tÃ©
Ġdoci le
Ġdoctr ines
F anny
s ant
t ique
us quement
at om
Ġpr oue
ion e
al iser
Ġtr on
ĠÃ©t re
Ġlrsquo embarras
ĠC ode
ĠE ff
Ġsrsquo entret
Ġcr oie
ill Ã¨rent
ĠT i
ĠG erda
ĠF res
Ġapp Ã©t
Ġconn Ã©table
Ġcor beau
Ġpu Ã©r
tu eusement
ĠprÃ©c iser
Ãī L
Ãī P
Ġdist ribuer
Ġtrait ements
Ġinv entions
ĠdÃ® nait
Ġrempl ace
Ġgrav Ã©
Ġcach ent
Ġtal on
ĠLuc ie
Ġant ichambre
ru ct
Ġbri quet
Ġdure ra
Ġredout ables
ĠSam son
ĠBern age
Ġcoff res
Ġobsc ures
Ġmarm ite
Ġbron z
AT ION
ĠpÃ¨ler ins
Ġafflig Ã©e
Ġcong Ã©d
mor ency
Ġnourr issait
d din
r Ã¨s
t rsquo
Ġd yn
Ġs tÃ©rile
Ġc ern
Ġt op
Ġv idÃ©
Ġf ume
Ġb aise
Ã©t endit
Ġg erme
av ier
Ġlrsquo appeler
Ġsrsquo entend
Ġcon grÃ¨s
ĠrÃ© it
Ġreg istres
Ġjeu n
Ġcont Ã©
Ġcons tructions
Ġfor Ã§ait
Ã©l ancer
Ġman ne
Ġcol Ã¨res
iÃ© b
Ġfond ait
Ġperd ons
ĠAn n
iqu ait
ĠrÃ©g uliers
Ġfou gu
illard s
Ġmarche pied
Ġparv ient
Ġrav it
ĠbÃ©n Ã©dictions
Ġlrsquoent housiasme
Ġcoul ant
ĠtraÃ® na
Ġdress aient
ĠmÃ©n agÃ¨re
ĠsrsquoÃ©t endre
ĠinquiÃ©t er
her bes
Ġrenvers ant
ĠAb sol
Ġprol onge
ĠGal ilÃ©e
ĠdÃ©fin ir
Ġtaill er
ĠfÃ©lic itations
Ġaccept Ã©e
ĠsuccÃ©d er
Ġdissip Ã©
Ġignore z
ĠRO I
Ġencomb rÃ©e
ĠMontre vel
Ġfonde ment
ĠConn aissez
ĠLizz ie
ĠMig gs
s oleil
s eule
w ich
en k
en ouiller
Ġm ules
Ġf onte
Ġpar te
ab ot
Ġin intellig
oy ers
Ġsrsquo obst
ĠN es
ad op
ĠG rÃ©
Ġall Ã¢t
ĠH alle
Ġins ult
Ġrec ouvrait
Ġvis iÃ¨re
Ġab st
Ġcor beaux
Ġviv ais
ĠW oland
Ġadm ire
bÃ© rer
Ġang oiss
Ġanim ation
Ġretrouv ant
ĠSt apleton
of t
ĠRen nes
Ġfe int
Ġbag ues
Ġconj urÃ©s
hÃ©r Ã¨se
Ġis olement
jrsquo avais
ĠconÃ§ ois
Ġcircul er
Ġbavard age
ren contre
ĠFer jol
enseigne ment
ĠChÃ¢t illon
approuv e
ĠRÃ©f lÃ©ch
Ang oulÃªme
ycl ette
ĠSÃ©v ille
ĠSavin ien
S ouv
T elle
l en
p abilitÃ©
Ġp aque
Ġv endait
Ġf Ã©t
il off
ri et
ri cieux
out ch
Ġlrsquo Ã¢ne
Ġsrsquo embr
ĠB le
Ġcr ain
ĠR uth
iss aire
Ã©n orme
Ġconf uses
Ġsol id
ĠW illet
ath eline
Ġinter dite
Ġvoit urier
Ġver rais
ela w
Ġtromp ais
Ġlrsquoai m
Ġobserv ant
Ġattend ons
ĠrÃªv euse
Ġnav igation
Ã©b ec
Ġsomm ets
Ġfun estes
Ġbande au
ĠNrsquo y
Ġpermettre z
Ġmord u
Ġmord ant
Ġtaill Ã©e
Ġlrsquohor loge
Ġrad ieuse
ĠÃ©ternel les
Ġflott aient
Ġimpun Ã©ment
r r
r Ã¢mes
Ġf entes
el oux
Ġb ac
Ġb aume
al arme
ag erie
ĠÃ©t endait
ac itÃ©s
Ã©r ons
Ġmais onnette
Ġmon tez
oy ai
Ġpro x
Ġpro gres
gn ant
ĠrÃ©pond ent
imp ort
Ġcour ageusement
Ã©ri ale
Ġins ur
ĠdÃ©c amp
ing er
Ġarriv ez
ĠrÃ©s onner
Ġesp aces
Ġag issant
ĠÃī tr
Ġsouff lÃ©
ĠdÃ©v ast
Ġdiv ertir
ĠEst elle
Ġcommun ications
fr app
Ġrouge Ã¢tre
Ġtent ures
Ġentend Ã®mes
ĠSt ar
rimer ie
ĠÃ©criv ant
ĠRos anna
Ġdange reuses
ĠÃ©touff Ã©s
Ġinstr uite
ĠMan ette
ĠsrsquoÃ©lev er
effor Ã§ait
ĠCan ada
Ġintime ment
gypt iens
ĠSupp osez
ĠCorm ier
Ġshill ings
ĠindÃ©pend ante
ĠMange manche
Ġcardin aux
6 8
d ad
f av
r ains
Ġp Ã©c
Ġde x
Ġm ant
Ġm Ã©tr
Ġv og
Ġv ip
it hÃ©Ã¢tre
Ġn arqu
ch ap
Ġne iges
ĠM aud
Ġh aines
ĠP ome
ic al
Ã» re
id ation
ad vers
ante ments
ĠH Ã©r
Ġrec ette
ĠrÃ©s urrection
ombre ment
Ġbras ier
Ġag ile
Ġmin istÃ©ri
Ġref oul
Ġbas es
aff reux
Ġdrsqu ousage
mC om
Ġfus iller
hÃ© lemy
Ġprot este
Ġsau c
Ġjoy aux
Ġdescend Ã®mes
Ġpi Ã©dest
Ġfleur i
uiss ance
Ġconj onct
Ġpes ante
Ġmagnifique ment
Ã©cout ais
ĠSch omberg
Ġcalcul er
ĠprÃ©d iction
ĠNo ellet
Ġrenfer mÃ©
sent iment
ĠÃ©blou issante
ren cont
los ion
Ġpige on
Ġcontrar iÃ©
Ġaffront er
Ġdrsquoid Ã©es
Ġsubj onctif
Ġinvrais emblable
Ġperfid ie
5 4
C eci
F ou
m re
m IX
v id
y st
Ġs cep
Ġf endre
el yn
me d
ĠM Ã¼
Ġh oule
Ġlrsquo accompagner
ĠL omb
ĠJ un
Ġdrsquo aucun
ĠD erville
ge ance
ĠB re
ĠB ill
Ġex erce
ĠR usse
ĠG rÃ©g
cher cher
Ġdonn es
art Ã©s
Ã©l oquence
Ġpens ionn
Ġren aÃ®tre
Ġsais ons
Ġprof usion
Ġpays ages
Ġfond u
Ġver ront
Ġvi andes
Ġfou g
br other
Ġextr ait
Ġram enant
Ġrefus ant
Ġracont ai
Ġdrsquoh onn
Ġpoursuiv aient
Ġroul Ã¨rent
Ġlrsquoimp roviste
Ġsiff la
ĠMor ris
ĠfrÃ©m issante
ĠBelle garde
Ġcat Ã©ch
Ġvel out
Ġbrou iller
Ġcaress a
Ġsrsquoemp ress
ĠentraÃ® na
ĠhÃ´ pital
Ġfabri quer
endorm it
Ġachet a
Ġiv res
Ġtran cher
ĠmÃ©ridion ale
ĠÃ©mig rÃ©s
Ġsex es
Ġperspic acitÃ©
Ġgrince ment
Ġfacil iter
p ance
[...]
